#version: 0.2 - Trained by `huggingface/tokenizers`
Ġ ì
Ġ ë
ì Ŀ
Ġ ê
ë ĭ
í ķ
ì Ĺ
ìĿ ´
ëĭ ¤
ë Ĭ
ëĬ Ķ
ê ³
ê °
Ġ í
ì §
ìĹ Ĳ
ìĿ Ħ
ê³ ł
ì ķ
ì Ħ
íķ ĺ
Ġì ŀ
¸ ë
´ ë
ê° Ģ
Ġì ķ
ì§ Ģ
ê ²
ì ŀ
¼ ë
Ġì Ŀ
ì ĸ
¬ ë
ì ļ
Ġê ·
ì ĭ
ìĿ ĺ
ì ł
ìĿ Ģ
ı Ħ
ê ¸
Ī ëĭ¤
¡ ľ
Ġë §
Ĥ ĺ
Ġ #
ìĦ ľ
íķ ľ
° ë
Ġê °
Ħ ë
Ī ë
ì ľ
ã ħ
ì Ĭ
ìĸ ´
Ġì ł
ĵ ¤
Ģ ë
¦ ¬
¥ ¼
Į ë
Ġì Ĺ
ë §
ê² Į
Ġê ²
Ġë °
Ġê· ¸ë
ìļ Ķ
Ġì Ĥ
ì ĺ
Ġë ĭ
Ŀ ¼
ë ıĦ
ê¸ °
Ġì ĭ
ê µ
ìķ Ħ
Ġë ª
Ġìŀ Ī
¤ ë
Ġì §
ľ ë
ãħ ĭ
ìľ ¼ë
Ġì ĸ
Ī ĺ
Ġì ĺ
Ġë Ĥ
Ĳ ë
. .
íķ ´
© ´
Ķ ë
ì Ĥ
Ġ íķĺ
Ġë ³
Ġê ³
ìĿ´ ë
Ġ "
ëĭ Ī
ì ĥ
ãħĭ ãħĭ
ĠìĿ ´
ìĹ Īëĭ¤
Ġê· ¸
¨ ë
Ġê² ĥ
ì ¹
ìĬ ¤
Ġì Ħ
ĺ ë
Ġë Ĥĺ
Į Ģ
ìĭ ľ
í ĸ
ìľ¼ë ¡ľ
ìĿ ¸
Ġìķ Ħ
Ġë ¬
ì Ľ
Ġì ĥ
į °
ł ë
ê ·
Ġë ¶
ì £
ê ±
ìŀ Ĳ
ê ¹
Ġì Ĩ
í ĥ
Ġê ±
ì Ļ
ì ²
ë§ Į
Ġì Īĺ
Ġê ¸
ëĭ Īëĭ¤
ìĹĲ ìĦľ
ì Ĩ
Ġ íķľ
Ġ íķ
â Ģ
ìķ ¼
Ġì ļ
ê¹ Į
ĠìĿ ´ë
ìŀ ¥
Ġê° Ģ
. "
í Ļ
Ġë§ Ĳ
í ĺ
ĠìĹ Ĩ
Ġì °
ı Ļ
Ġì £
ì °
Ġì ľ
ł ¤
Ġë ¹
ê³ ¼
ì£ ¼
Ġë Ħ
ĠìĤ ¬ë
Ġë Ĳ
Ġì ¢
í ŀ
Ġë³ ´
ìĥ ģ
Ġëĭ ¤
ĠìĤ ¬
Ġìķ Ĭ
³ ´
¨ ¹
ë į°
ê· ¸ë
¦ ¬ë
í Ĭ
ìł ķ
ìĸ ´ë
į ĺ
Ġìŀ Ĳ
ìĭ ł
ìĤ ¬
ìĿ ¼
âĢ ¦
Ġê µ
ìĿ Į
ì ¡
ìķ ĺ
ìĬ µ
Ġì Ļ
ì Īĺ
ìĻ Ģ
Ġìĭ ľ
Ł ¬
ìĹ Ī
Ġìł ķ
ë °
¯ ¸
Ġ .
Ġë ²
Ġë ĵ¤
ŀ ĺ
ê¸ °ë
í Į
íŀ Ī
ð Ł
Ġí ĸ
ê° Ħ
Ġë ĮĢ
Ġë ĵ
© °
í Ķ
ĠìĿ ¼
ì§Ģ ë§Į
Ġë§ Ī
íķĺ ê³ł
Ġì§ Ģ
Ġí ĺ
ë ©´
ëĬĶ ëį°
¶ Ģ
Ġë ķ
Ġì ²
êµ ¬
Ġë į
Ġìĥ Ŀ
Ġìĸ ´ë
ìĹ ¬
Ġë Ī
ĠëĤ ´
Ġì ¤
Ġì ¹
ìł ľ
ì ¤
íĥ Ģ
ìł ģ
¬ ¸
Ġí Ļ
ì¹ ĺ
Ġìķ Ħë
ìĺ ¤
ì§ Ħ
ĠìĤ¬ë ŀ
ë Ĥĺ
íķĺ ëĬĶ
Ŀ ¼ë
Ġì ¡
í ģ
ĳ Ĳ
¬ ´
íĸ Īëĭ¤
ê° ģ
Ġê° Ļ
ìĦ ±
í Ħ
ìĭ Ŀ
Ġê·¸ë Ł
¥ ´
ĠìŀĪ ëĬĶ
ãħĭãħĭ ãħĭãħĭ
Ġìł Ħ
ĠìĹ ¬
Ġìķ Ī
Ġì Ľ
Ġì¢ ĭ
ìĿ´ ëĭ¤
Ġë ı
! !
Ġë¬ ´
Ġê¸ °
Į Ģë
ìł Ħ
Ħ ¤
Ġë ¨¹
ìķ Ħë
Ġê³ ł
ìĬµ ëĭĪëĭ¤
ãħ ł
íĬ ¸
ìĽ Ĳ
Ġê± °
Ġì Ĭ
íķ ł
ìķĺ ëĭ¤
Ġê ¹
ë ¥¼
ìļ ´
Ġìĺ ¤
ĵ¤ ìĿ´
ê² ł
ìĺ Ģ
ìĬ¤ íĥĢ
íķĺ ê²Į
ê·¸ë ŀ
ìļ ©
í Ĩ
ë Ĥ
ì ¶
ł ĩ
Ġìĸ ´
ĠëĲ ĺ
Ġëª ¨ë
ê± °
ìĨ Į
ê¸ Ī
Ġí ĥ
ìĹĲ ê²Į
ê·¸ëŀ ¨
Ġìł ľ
ìĸ´ ìļĶ
ìļ °
§ Į
ĵ ľ
.. .
Ġì£ ¼
? "
íĦ °
Ġí Į
Ġë Ķ
Ġì Ī
¦¬ ê³ł
Ġìĥ ģ
íĻ Ķ
ĠìĥĿ ê°ģ
Ġë Ĭ
ħ Ģ
ìĦ ¸
ìĭ ¤
ã Ģ
Ġ 1
¶ Ħ
Ġì ¶
Ġëį Ķ
ì Ī
Ġí Ŀ
êµ Ń
Ġë° Ķë
Ġì¡ °
Ġë Ĩ
ìĿ´ë Ŀ¼
ê± °ë
ëĭ ¨
Ġ íķ´
ìķ Ī
ĠìŀĪ ìĹĪëĭ¤
¬ ¼
Ķ ëĭ¤
ì§ ĳ
Ġëª »
Ġí Ķ
í İ
¥ ¸
ìĦ ł
ì ¦
ĠìĿ ¸
ìĬ¤íĥĢ ê·¸ëŀ¨
ìĥ Ŀ
ª ħ
Ġìľ Ħ
Ġê° Ģë
ê¹Į ì§Ģ
ê »
Ġë ģ
¹ Ħ
í Ĥ
ìĬ ¤ë
ë ³
ìŀ ĳ
Ġëĭ ¤ë
Ġê ´
Ġí ı
Ġì¤ ĳ
Ġëª ¨
ì ħ
¦ °
Ġë ıĻ
ìĿ´ ìĹĪëĭ¤
Ġë ıĦ
Ġë§ Ľ
Ġìķ Į
ìĭ ¬
í ı
ŀ ĳ
ëĭ ĺ
ê ´
ê² ĥ
Ġë§ İ
Ġìļ °ë
Ġë§ Įë
ëĭ¤ ëĬĶ
ìŀ Ī
Ġì§ Ħ
ìĤ ¬ë
ĠëĤ ¨
ìŀ ħ
* *
Ġë ĸ
íķĺ ë
íĸ Ī
ĵ ł
Ġê³ µ
Īë įĺ
§ Ī
Ĳ ĺ
Ġìĺ ģ
Ľ Ħ
Ġë ħ
ĠìĨ Į
ë ²
Ġìł Ģ
ëĭ ¹
Ġëĵ¤ ìĸ´
ì Ķ
ìŀ Ĳë
Ĥ ´
í ħ
ìł Ģ
í ĭ
Ġë ©
ë ¡ľ
ãħ İ
Ġìŀ ħ
ìĺĢ ëĭ¤
Ġìŀ ¥
êµ ¬ë
Ġìŀ Īëĭ¤
ĠìĤ¬ëŀ Į
Ġë¹ Ħ
ĠìĨ Įë
ĠìĦ ¸
łĩ ê²Į
ĠìķĦ ëĭ
í Ĵ
ë§ Ī
Ġí ģ
Ķ Ķ
Ġë¶ Ģ
ĠëĦ Īë
Ġëķ Įë
ìĹ °
ãħł ãħł
ëĭ¤ ë
ł Ī
íĸ ī
ì ½
ìľ ¼
ĠëĪ Ī
ëĭĪ ê¹Į
ìĽ Į
âĢ¦ âĢ¦
êµ °
ł ¸
Ł ¼
ëĭ¤ ê³ł
ì ¼
ĠëĤ ´ë
í ļ
Ġìĺ ¤ë
ìĺ ģ
ì§ ģ
Ġì ±
ĠìĤ ´
Ġë ĺ
ŀ Ģ
ê± ´
ë ħ
ĵ¤ ìĿĢ
Ŀ¼ ê³ł
¯ ¼
Ġë° ©
íķ´ ìĦľ
Ġë ¯¸
Ġë ĳĲ
ĠìĬ ¤
Ġëĭ ¹
í Ŀ
ëĬ ĺ
ł ¥
ìĹĲ ëĬĶ
ìĸ ĳ
Ġí Ĺ
Ġë ¨
ì² ĺë
Ġ 2
Ġë¶ Ģë
¦ Ħ
ê² ½
Ġìŀ ĺ
ìĿ ¸ë
Ġíķ ł
Ġì§ Ģë
Ġì§ ĳ
ì¤ ĳ
Ġìĭ ł
ĠìĨ Ĳ
£ ¨
¦¬ ëĬĶ
ê³ µ
¦ ¼
Ġë³ ´ë
ìľ ł
ìĸ´ ìĦľ
Ġê¸ °ë
ë ĮĢ
¬ ´ë
Ġëķ Į
ìĭ ľë
ìł ¸
í Ĺ
ĵ ľë
Ł °
ìĤ °
ª ½
Ġìŀ Ĳë
Ġí Ĩ
Ġê·¸ë ¦¬ê³ł
Ġìĭ ¶
Ġë Ĵ
ìĨ Įë
ĠìŀĲ ìĭł
ì ¢
ê» ĺ
íĨ µ
ì² ľ
Ġë¬ ¸
Ġë Ń
Ġì ´
ì²ĺë Ł¼
ì¡ °
Ġê² ½
ê° Ĳ
ìľ Ħ
ê° ľ
ìĨ į
Ġí İ
ìľ¼ë ©´
Ġê²ĥ ìĿ´
Ġë¶ Ī
Ġì£ ¼ë
Ġë¬ ¼
ë ĵ¤
ë§ Ĳ
¦¬ë ¥¼
íķ Ļ
ĠìĨ į
Ġê° Ĳ
ì ´
ł Ģ
ì§Ģ ëĬĶ
ĠìĦ ľ
į Ķ
ĠìķĦ ëĭĪ
Ġëĺ Ĳ
ì° ¨
ĠëĤĺ ë
Ł ¬ë
ĠìĹ °
¦¬ ê°Ģ
Ġê° ķ
ĠëĤĺ ëĬĶ
Ġë° Ľ
Ġë ĳ
¡ Ŀ
¶Ģ íĦ°
Ġìĸ´ë ĸ
íģ ¬
Ġíķĺ ëĬĶ
Ġêµ ¬
ĮĢë ¡ľ
ì£ ¼ë
Ġí Ĭ
Ġíķĺ ëĤĺ
ĠìĦ ±
ìĹ Ĩ
Ġìĸ ¼
¯ ¸ë
¶ Ģë
Ġê·¸ëŁ °
ìŀ Ħ
Ġì ĵ
íĬ ¸ë
Ġê²ĥ ìĿ´ëĭ¤
Ġìŀ ĳ
Ġíķĺ ë
ë ³´
į Ķë
Ġëª ©
Ġê² Į
ì ³
.. ..
Ġë° Ķ
ĠëĦĪë ¬´
Ġíķĺ ê³ł
íĶ ¼
Ġìľ ł
Ġìł ģ
° ©
ĠëĤ ł
íĺ ¸
ìĺ ¨
Ġìķ ŀ
Ġëı Į
ĥ Ĳ
Ġê·¸ë ŀĺ
Ġì£ ½
ê² ©
íķ ´ë
ì² ´
Ġ `
ĠëķĮë ¬¸
ìĦ Ŀ
ì§ Ī
ª ¨
ê¸°ë ¥¼
Ġê³ Ħ
ł¸ ëĭ¤
Ġë§ Īë
ĠìĦ ł
Ģ ìĿ´
Ġê·¸ë ħĢ
ìł Ĳ
íķĺ ì§Ģ
ĠëĤ´ ê°Ģ
Ġí ĳ
Ġ '
ìļ ¸
ìŀħ ëĭĪëĭ¤
íķĺ ë©´
Ġëĭ¤ ìĭľ
ĠìĿ ĺ
Ġëĵ ¯
íĴ Ī
íĮ Į
0 0
ê³ Ħ
ì¡ Į
Ĳ ľ
Ġ ãĢ
Ġê± ¸
© ëĭĪëĭ¤
ĠëĶ °ë
Ġíĸ Ī
Ġìł Ģë
ë§ Ľ
Ġë§ Į
Ġê°Ļ ìĿĢ
Ġìĺ Ī
íļ Į
Ġë ´
í ĳ
ðŁ ĺ
Ġê² °
² Ħ
Ġí ĽĦ
Ħë ¡ľ
¨ ¸
Ġ -
Ŀ¼ ëĬĶ
ìĺ ¤ë
ê° ķ
Ġìĺ ¬ë
ì¡ ±
Ġìĸ¼ êµ
ìĿ´ë Ĥĺ
~ ~
ë ıĻ
Ġë° ľ
ê°Ģ ë
ì¹ ´
Ġ 3
! "
Ġíķ ¨
ë ¶Ħ
ĠìĤ¬ëŀ Įë
Ġê± ´
Ġë° °
ëĭ µ
Ġê·¸ëŁ ¬ë
ì§ ľ
Ġì° ¾
Ġëĭ ¨
ê´ Ģ
ì¶ Ķ
Ġìļ Ķ
ìĿ´ ëĬĶ
ĠëĬ Ĳë
ì ±
Ŀ ½
Ġìĸ ĳ
Ġíĸ Īëĭ¤
ëĭ¤ ê°Ģ
íķ ¨
ì² Ń
Ġëĭ ¬ë
êµ Ĳ
ĠìĿ ¼ë
Ġëĵ ±
©´ ìĦľ
ì »
ĠëĪ Ħ
Ġëª ¸
Ġëª ħ
ľë ¥¼
¶ ģ
ĠìĹĨ ëĬĶ
Ġì° ¸
ìķĦ ìļĶ
ëħ Ħ
Ġê° Ħ
Ġìĭľ ìŀĳ
ķ Į
Ġê²ĥ ìĿĢ
â łĢ
Ġíķ ´ë
ì£ ł
ĠíĶ ¼
Ġí Ĵ
íĤ ¤
ì§Ģ ë
Ġë° ĺ
ìĺ Ī
² Ī
ãħİ ãħİ
ł ¤ë
ìļ °ë
ĠìĹ Ń
íĭ °
ìłģ ìĿ¸
Ŀ¼ë ıĦ
ĵ¤ ìĿĦ
ì ª½
Ġë§Ī ìĿĮ
Ġê ¼
¥ ´ë
Ġí ļ
Ġê± °ë
ĵ¤ ìĿĺ
Ġë§ ¤
Ġì »
íģ ¬ë
ê¸ ¸
ĠìķĦëĭ Īë
íħ Į
Ġì§Ģ ê¸Ī
ë ¹
Ġë§ ŀ
ê¸° ê°Ģ
Ġíķĺ ì§Ģë§Į
Ĥ ľ
, ,
ĠëĲ ľ
Ġê³ ³
Ġìļ°ë ¦¬
ê¸° ìĹĲ
íİ ¸
ĠìĪ ľ
ê¸°ë ıĦ
Ġë¨ ¸ë
ãħĭãħĭãħĭãħĭ ãħĭãħĭãħĭãħĭ
Ġê° ľ
ìĤ ´
ĠìŀĪ ìĹĪ
ë ¨¹
Ġë¬ ´ë
ĥ ¥
Ġìŀ ł
ĠìĹ ´
Ġëģ Ŀ
Ġì µ
ìĥ ī
ìĿ ¼ë
ì¦ Ī
ê² ¨
Ġëĭ¤ë ¥¸
ê¸ ´
ĠìĽ Ĳ
Ġ âĢ
ìŀ ¬
íĻ Ķë
ìĽ Ķ
ĵ ¯
Ġìĸ¼êµ ´
Ġê·¸ ê²ĥ
Ġì ½
Ġë² Ī
Ġì¢ Ģ
¡ ł
ë Ħ¤
Ġëĵ ľë
ĠíĨ µ
³ ¸
Ġê·¸ ëĬĶ
Ġì° ¨
Ġìŀ ¡
ëĬ ¥
Ġê²ĥ ìĿĦ
ìĹ ħ
í ĽĦ
Ġìļ °
Ġìłķ ë§Ĳ
ãĢ į
§ Īë
Ġì¶ Ķ
ì ¸
ë ¦¬
Ġì ¦
ĠëĦ ĺ
Ġìłķ ëıĦ
ĠìĹĨ ìĹĪëĭ¤
ìĦ¸ ìļĶ
ì¹ ľ
ìķĦ ìĦľ
Ġê·¸ ìĿĺ
ìłģ ìľ¼ë¡ľ
Ġìĭ ¤
ì§Ģ ê³ł
ĠìĽ ĥ
² Ħë
Ġë ĮĢë
Ġë¶ Ħ
ĠìĻ ľ
ŀ ĺë
ĠìĦ ľë
ì ģ
Ġì¹ ľ
Ł ½
ĠëĴ ¤
ë Ĳĺ
âłĢ âłĢ
ĠãĢ Į
Ġíķ¨ ê»ĺ
Ġíĸ ī
Ġìķ Īë
ê· ¸
Ġê³ łë
Ġì² ĺ
íķľ ëĭ¤
ê° Ļ
Ġì² ľ
ìĹĲ ëıĦ
ìł Ī
ê¸° ëĬĶ
Ġë ¿
ĠìĿ´ë łĩê²Į
ìĪ ł
Ġìĭ Ŀ
ëĤ ´
Ġ (
ìĹ Ń
Ġìĭľ ê°Ħ
ĠíĮ Į
Ġí Ľ
Ġìĸ ¸
ë ¡Ŀ
Ġíı ¬
Ġìł Ĳ
ê· ¼
Ġê·¸ëŁ¬ë Ĥĺ
Ġëª¨ë ¥´
ĠíĻ Ķ
Ġí ħ
íĥ ľ
i n
íĶ Ħ
Ġìĺ¤ ëĬĺ
Ħë ¥¼
ĠëıĮ ìķĦ
Ġëħ ¸ë
Ġíĺ Ħ
Ġíİ ¸
Ġê´ Ģ
ĠìĿ´ ìłľ
ë ¶Ģ
ìĬ ¨
ĠìŀĪ ìĿĦ
Ġë¬ ¼ë
Ġë ľ
ìĹ Īëįĺ
Ġê·¸ë Ł¬
Ġê·¸ë łĩê²Į
Ġì¢ĭ ìķĦ
ĠëĤ ľ
Ġë§Ľ ìŀĪ
Ġë§Įë ĵ¤
Ġë§İ ìĿ´
Ĥ ł
Ġì¤ Ħ
Ġíĸ ¥
Ġë§Ĳ ìĿĦ
** **
s t
ì¹ ĺë
êµ¬ ìļĶ
ìĿ´ ê°Ģ
ì ©
í Ī
ìĶ ¨
Ġë°Ķë ¡ľ
Ġìµ ľ
ìĦ ¤
Ġíĳ ľ
ĠìķĬ ìķĺëĭ¤
ĠìĹ ¬ë
Ġê¹ Ģ
ĠìĿ´ë Ł°
íĺ Ħ
Ġëª¨ ìĬµ
íİ ĺ
íĺ ķ
íķĺ ìĹ¬
ë ¬¸
ê² Įë
Ġìĸ ¼ë
³ ´ë
Ġì¹ ĺ
Ġë¶ Ħë
ìľ ¡
Ġì§Ħ ì§ľ
ìĿ¸ë į°
Ġìĭ ¬
ì¹ ¨
ì½ Ķ
ĵ Ŀ
Ġë§ ī
ì¤ Ģ
ŀ Į
Ġìķ ½
Ġíĺ ķ
Ġê¸ ¸
ìĿ´ ê³ł
Ġì± Ħ
íĻ ©
Ġë¹ Ħë
Ġê· Ģ
Ġêµ Ń
ê ¾
Ġìľ łë
° ľ
ì¡Į ëĭ¤
ë° ©
ê°Ģ ëĬĶ
ìĿ´ ì§Ģ
ìł ľë
Ġë³´ ê³ł
ì¢ ħ
ëĭ ¬
o o
íĸ ¥
ê³ ³
ĠìĤ¬ ìļ©
Ġ ðŁ
ĠëĬĲë Ĥ
ĠìĤ¬ëŀ ĳ
íı ¬
ìĻ Ķëĭ¤
Ġì Ķ
ìĹ Ķ
ĠìĤ¬ ìĭ¤
ë² Ī
ì ¿
ìķ ½
ìľ¼ ëĭĪ
Ġê³ ¼
ì§Ģ ëıĦ
íĺ Ģ
Ġë³ ¸
ìĿ´ëĿ¼ ê³ł
Ġíĥ ľ
ìķ ł
Ġì ī
ĵ ±
ì į
ĠìĿ´ ìĥģ
Ġí Ħ
ë³ µ
ìĿ´ ìĸ´
ãħ ľ
ĠíĬ ¹
ë ¬´
ª ©
Ġìĭ ľë
ł ¹
íĮ Ĳ
íĥ Ģë
Ġì¢ĭ ìĿĢ
ìļ ´ë
ë ªħ
Ġë° ķ
Ġíĥ Ģ
ĠíĻ ķ
ê¸ ī
ê± ¸
¦ ´
ìľ¼ë ©°
ë ł¥
Ġì§ ģ
Ġë§Ĳ ìĿ´
ìĸ´ë Ĥĺ
Ġê ½
ëĬ Ĳ
Ġê·¸ë łĩ
Ġë° ±
Ġíķ Ħ
ĠëķĮë¬¸ ìĹĲ
Ġìĥ Īë
Ġ :
Ġìł Ħë
Ĩ ĵ
Ħ¤ ìļĶ
Ģ ìĿĦ
į ķ
ĠìĿ Į
ìĿ´ëĿ¼ ëĬĶ
ĠìķĬ ëĬĶ
ì³ Ĳ
Ġìĭ łë
íĿ ¬
Ġ â
ê° Ķëĭ¤
ìĿ´ ìĹĪ
? ?
ëĭ¤ ë©´
ĠëĮĢ íķľ
Ħ Ī
Ġì¢ ħ
ĠìĹ¬ ìŀĲ
Ġìĺ ¨
Ġëĭ ¬
Ġëª¨ë ĳĲ
íķĺ ê¸°
¨¸ ëĭĪ
ı ħ
Ġíı ī
ìħ ¨
ĠëĪ Īë
ĠìĿ´ ìķ¼
Ġìķ ī
ë ¬¼
Ġë ¯¸ë
ìĹĨ ìĿ´
ê° ľë¥¼
ìĺ¤ ëĬĶ
Ġë³ ĳ
Ġë¶ Īë
įĶ ëĭĪ
Ġí ŀĺ
íģ ¼
° Ķ
Ġìĸ´ëĸ »
Ġìķ ł
Ġìł ľë
įĶë Ŀ¼
Ġ 5
Ġíģ °
ĠëŃ Ĳ
Ġí ľ
ìĿ´ ìĹĲ
ë§ ī
ëĭ Īë
ìĸ ¸
Ġìŀ ¬ë
ãħĭãħĭ ãħĭ
Ġì± ħ
ì§ Ŀ
Ġë² Ħë
ŀ Ĳ
Ġì² Ń
ĠìķĦë ¬´ë
ĠíĶ ¼ë
Ġëª ĩ
ĠìŀĲìĭł ìĿĺ
ë ¯¸
ĠëĨ ĵ
âĢ Ŀ
ĠìķĬ ê³ł
ì ī
Ħë §Ī
ĠâĢ ľ
Ġëħ ¸
Ġì° ¨ë
ĠìĻ ¸
íĮ Ķ
°ë į°
ìĿ¸ ê°Ģ
Ġê·¸ë ĥ¥
ĠëĦ ¤
ĠìĤ °
Ġíĺ ¸
Ġê·¸ëŀĺ ìĦľ
ģ ¼
ëĤ ľ
Ġìŀ ¬
ìĥ Ī
íķ ©ëĭĪëĭ¤
âĢ¦âĢ¦ ."
Ġêµ Ĳ
ĠìĻ Ģ
¸ Įë
ĠëĨ Ģë
¶ Į
ëĬ Ĳë
Ġ 4
ł¤ ê³ł
ìķ ħ
Ġëĸ ¨
¹ ł
ì§Ģ ë¥¼
Ġë¬´ ìĬ¨
íķĺ ëĭ¤
¶ Ī
Īë ıĦ
íĨ ł
Ġìĵ °
ê ¼
ĠëĶ°ë Ŀ¼
° ķ
Ġë ĥ
Ġí ĭ
ĠëĦ Ī
ìĸ µ
íĹ ĺ
ĠìĻ Ħ
· ¨
^ ^
ìħ ĺ
ì¤ Ħ
ĠìĹĨ ìĿ´
ĠíĻ ©
ĠìľĦ íķ´
ĠëĲ ł
Ġë² Į
ìĻ ķ
Ĥ ´ë
¸ë ¡ľ
ìĬ ´
¸ Ķë
į ¼
r a
ì¹ ´ë
Ġìĸ´ëĸ» ê²Į
ï ¸
Ġíļ Į
Ġë§Ĳ íĸĪëĭ¤
Ġì¡° ê¸Ī
Ġëª¨ë ĵł
ë ĵ¤ìĿ´
Ġê ¿
² ķ
ìĿ´ë ¥¼
° ĺ
ëĬĶ ì§Ģ
Ġë°Ķë Ŀ¼ë
Ġìķ Įë
¬ ¼ë
!! !!
Ŀ¼ë ©´
§ Ľ
ĠìĿ Ģ
Ġëª °ë
ìĭ Ń
ï¸ ı
Ġë§İ ìĿĢ
¦¬ ìĹĲ
ì¢ ĭ
ê° Ī
ìĽ ł
Ġìĥ Ī
Ġìļ ©
ĠìķĦ ì§ģ
ë§ Īë
Ġë į°
Ġìĺģ íĻĶ
Ġë¨ ¼
Ġìĸ´ëĸ ¤
ĠìŀĪ ìĸ´
Ġêµ ¬ë
ĠìĹ¬ ê¸°
ìĹ ĩ
ĠìĿ¼ ìĿ´
Ġëĳ Ĳë
ê² °
st a
ìĪ ľ
ìĿĮ ìĿĦ
Ġë§ Ĳë
ĠëĬĲëĤ Į
Ġëĵ¤ ë
ì° ½
Ġíķ Ļ
ĠìĿ´ë ¯¸
êµ¬ë Ĥĺ
Ġì²ĺ ìĿĮ
Ġëı Įë
ĠëĬ Ĳ
ìł Ģë
Ġê³ł ê°ľë¥¼
ĠìķĦëĭĪë Ŀ¼
ìĻ Ķ
Ġì¶ ©
Ġëĸ łë
ì° ¬
íĺ ¼
³´ ëĭ¤
Ġì» ¤
Ġê² Ģ
íĦ °ë
Ĥ ¬
ì£¼ ëĬĶ
ì² ĺ
Ġê± ´ë
ł ¨
Ġë ¯¼
ł Īë
ëĭ¤ ìĿ´ìĸ´
ìŀ ĸ
Ġëĭ ´
ì¶ ľ
ëĭ ´
ĠìĹ Ħ
ëĭ ¥
ìľ łë
ìĤ¬ë ¥¼
ĠìĤ ¼
ĠìĤ¬ëŀĮ ìĿ´
Ġë¨¹ ê³ł
Ġíķľ ëĭ¤
Ġë³ Ģ
` `
ìŀĲ ê°Ģ
ë Ĳľ
Ġê¸° ëĭ¤ë
ĠìĹŃ ìĭľ
¦ ½
ìĺ ¬ë
ë§ Ŀ
ìĸ´ë ıĦ
Ġì§Ģë Ĥĺ
Ġì´ Ī
ĠìĿ´ë ²Ī
ê¸°ë ¡ľ
Ġë¹ ł
ë Ŀ¼
ì§ ¸
Ġê° ĳ
oo d
Ġìĸ´ ëĬĲ
ìĿ¼ ìĥģ
ĠìķĦëĭ Į
ĠìķĦë ²Ħ
ë ¶ĢíĦ°
Ġê°Ģ ìŀ¥
Ġë³ ¼
ìĶ ©
Ġì¶ ľ
Ġë ¯
Ġìŀ Īëįĺ
Ġê°Ļ ìĿ´
Ġì¹ ´
ë ¹Ħ
ìħ Ķ
´ Ĳ
íķ ©
Ġì° ½
ª ¨ë
ī ´
íĸ Īëįĺ
ìĹ ¬ë
Ġìŀ ĺë
ĠëĤ´ë ł¤
ìĿ¸ ì§Ģ
ê°Ģ ì§Ģ
ĠìĹ Ĳ
Ġíģ ¬
ĠìķĬ ìĿĢ
¥ ĺ
ĠìĦ łë
ĠìĻ ķ
ìĿ Įë
Ġìĺ Ĩ
ê³ ¤
Ġë° ĺë
íĪ ¬
Ġê° Ī
e r
Ġì° į
ĸ ìĹĲ
Ġìĭ ¸
ĠëĲĺ ëĬĶ
ĠìķĮ ê³ł
ĠíķĦ ìļĶ
Ġíķĺ ë©´
³´ ê³ł
Ġë¿ Ĳ
Ġíķĺ ì§Ģ
ìĭ łë
£ Į
Ġ <
ãħłãħł ãħłãħł
ì´ Ī
ħ ¸
ĠìĪ ł
ĠìĦ¸ ìĥģ
ë ¯¼
ì° ©
ìĨ ¡
ĠëĦ £
ê² ¬
Ġëĭ¤ ìĿĮ
Ķë ¡ľ
ìļ ±
ë³´ ëĭ¤
Ġê¼ Ń
í Ľ
ì° ®
ìĹĲìĦľ ëĬĶ
ĠìĪľ ê°Ħ
Ġê²ĥ ëıĦ
ìĭľ ëĬĶ
ì± ħ
Ġë ¡ľ
Ł ī
Ġ` `
Ġìłľ ê°Ģ
íķĺë ©°
ì¦ Ŀ
ê±°ë Ĥĺ
íķ´ ìķ¼
ìĿ´ ìķ¼
Ġíĳľ ìłķ
ìĸ ¼
Ġìĸ´ë ĶĶ
¤ ëĭ¤
Ġê·¸ëŁ °ëį°
ê´ ĳ
įĶëĿ¼ êµ¬ìļĶ
Ġê³Ħ ìĨį
ì¼ ľ
Ġíĺ ¼
Ġê±° ìķ¼
ì§Ģ ìļĶ
¨ ìĿĦ
Ġí Ĥ
íĶ Ħë
ì¦ ĺ
ìŀ ¡
Ġê° ģ
ĳ Ĳë
ĠìķĦ ìĿ´
Ġê·¸ ê°Ģ
Ġë¶ Ļ
Ġê º
ì§Ģ ê°Ģ
Ġêµ °
Ġìĺ¬ë Ŀ¼
ì¼ Ģ
ĠìķĦ ìĿ´ë
ĳ ¥
ì Ł
³ µ
ĠëĲĺ ìĸ´
ĠìķĬ ìķĺ
ìĬ ¹
Ġì ³
Ġìĸ´ ì©
ìĭ ¶
Ġë° ¤
Ġë³ µ
ĠìĤ¬ ì§Ħ
³´ ìķĺëĭ¤
Ġìļ ¸
ìį ¨
íķ´ ìļĶ
âĢ¦âĢ¦ .
íĤ ¨
Ġëı ħ
Ħë ıĦ
Ġì º
ìł ĳ
° ¥
Ġí Ī
ĠëĶ ±
ìĪ Ļ
¤ë ¡ľ
° ±
ĠìĽ Ģ
ħ ģ
ĠìķĦ ì£¼
¸ Į
Ġë§Įë Ĥĺ
ê¸ Ģ
ĠëĲ ĺë
a n
ìĬ¤ë Ł¬
ĠìĹ Ħë§Ī
Ġëı Ī
Ġëª© ìĨĮë
íķľ íħĮ
Ģë ¦¬
ĠìĿ ¸ë
ðŁ Ĵ
ì ĵ
ĠíĹ Ī
ê· Ģ
Ġì°¾ ìķĦ
Ġê· ¼ë
Ġë ¦¬
Ġë¬´ ìĹĩ
íĨ łë
ı Į
f ood
ìĿ¸ ìĿ´
ì¹ ł
ĠìĦ ¤
Ġë© Ķë
Ġë° ¥
´ ī
Ġê·¸ëħĢ ìĿĺ
Ġëĵ £
ĠìķĦë ¬´
¥´ ëĬĶ
ë ¶Ģë
Ġìĸ ĺ
Ġëĳ ĺ
ĠëĪĪ ìĿĦ
íķĺë©´ ìĦľ
Ġ ãħİãħİ
ìĿ´ë ŀĳ
ìķ ĺë
ë² ķ
Ġëª¸ ìĿĦ
íĳ ľ
ìĹĪ ëĬĶëį°
ĠìĿ ĺë
Ġì¡ ´
Ġë² Ħ
ìŀĲ ëĬĶ
Ġë´ Ĳ
ë³ ´ë
Ġë¯ ¿
ìĦľ ëĬĶ
ã Ħ
Ġê·¸ëħĢ ëĬĶ
Ġíħ Į
Ġê°Ģ ìĬ´
ìŀĲ ê¸°
Ġì¦ Ĳ
ĠíĻ ĺ
ģ Ķ
Ġëĸ¨ ìĸ´
Ġëĸ ł
° ëĭ¤
ĠìĪĺ ê°Ģ
ìķ ¼ë
ì° Į
Ġìķ ¼
íĥ Ŀ
ĠíĿ ĺë
Ľ °
ìĽ Ģ
ìŀĲë ¥¼
Ġí ŀĺë
ëĤ ł
ĠìĿ´ë ¦Ħ
ë§ ¤
© Ķë
íĥ ķ
ìŀĪ ëĬĶ
§ Ŀ
ê¹ Ģ
ìĿ´ íĬ¸
ðŁ ĳ
íĮ ħ
ĠìŀĪ ìĸ´ìĦľ
´ë ¡ľ
° °
ê· ¹
ĠìĹĨ ëĭ¤
íĻ ĺ
ï ¼
Ġíķľ ë²Ī
ìĭľ ê°Ħ
¨ë ¦¬
Ġê ¶ģ
Ķ ìĿĦ
ë Ħ
Ġê°Ģ ëĬ¥
© Ķ
Īë Ĥĺ
ĠìĨĲ ìĿĦ
ìĽ Ĳë
ê²ł ëĭ¤
¦¬ë ©°
ĠìĨĮë ¦¬
Ġê´ ĳ
Ġê´ ľ
!! !
Ġì ¼
ëĤ ¨
íĶ ¼ë
ĠìĿ ½
ìĦ ¸ë
Ġ1 0
³ ĳ
§ Ĳ
Ġì į
Ġëĵ¤ìĸ´ ê°Ģ
Ġê¸°ë ¶Ħ
ìĸ´ ìķ¼
Ġìł Īë
ĠìķĬ ìĿĦ
íĻĶë ¥¼
Ġíģ ¬ë
ë į
ìĬ¤ë Ł½
Ġíķ Ń
ĠìŀĪ ìĬµëĭĪëĭ¤
ĵ¤ ìĹĲê²Į
Ġê³ §
Ī Ħ
Ģë ¥¼
Ġë¨¼ ìłĢ
ĠëıĻ ìķĪ
ëĭ ¬ë
ĠìĿ¸ ê°Ħ
Ġëĭ¹ ìĭł
íģ¬ë ¦¼
ìŁ ģ
ìĹ¬ íĸī
ì¡ °ë
ëĭµ ëĭĪëĭ¤
ìŀ¥ ìĿĦ
¨ë ¥¼
§ ¤
ĠìĻĦ ìłĦ
íĳ ¸ë
ĠìĦ ¤ë
ĠìĹĦ ì²Ń
¦¬ë ¡ľ
ðŁ ı
ìŀ¥ ìĿ´
Ġê·¸ë ķĮ
ì» ¤
o n
ìĿ´ë ŀĢ
o r
ł Į
Ġê¹ ¨
ì§Ģ ë§ī
ĠìłĢ ëĬĶ
ê·¸ë ŀĺ
Ġìĭľìŀĳ íĸĪëĭ¤
ìł ¸ë
ìĤ ¼
ĠëĬ ĺ
ë ĮĢë
Ġë Ľ°
ê¾ ¸
Ġì ·¨
ĠìŀĪ ê³ł
ĠìŀĪ ìĸ´ìļĶ
ê ¶Į
0 1
ĠìŀĪëĭ¤ ëĬĶ
Ģë ¡ľ
Ġê¸° ìĸµ
ª »
Ĩ į
¸ Ķ
ĠíĹ Īë
Ġì ª½
ì° ¸
Ġìĸ¼ë §Īë
Ġë¬¼ë ¡ł
Ġë¬¸ ìłľ
± ìłķ
ìĻ ¸
ë° ľ
Ġì¤ Ģë
í ľ
Ĥ ¨
ĠìłĦ ìĹĲ
ìĺĪ ìļĶ
â Ļ
ì ¯
Ī ìĿ´
ĠìĪĺ ëıĦ
ĠëĤĺ ë¥¼
ë Ķ
° Ģ
ĠëŃ Ķ
ê² ¼
Ġ 6
íı ī
Ġì² ´
ë§Ľ ì§ĳ
Ġì£¼ë ¬¸
ì º
ë° ĺ
ĠíĴ į
ĠíĻ Ķë
Ġê· ¼
ìĿ ĳ
· °
ħ Ħ
°ë ıĦ
ìģ ĺ
Ĭ ìĿĢ
ë¨¹ ìĬ¤íĥĢê·¸ëŀ¨
íĥ ģ
ĵ¤ ëıĦ
ìĤ¬ ê°Ģ
ĠìĪ ¨
ĠëĨ Ĵ
ĠìŀĪ ëĬĶëį°
Ġê¸ Ī
Ġê·¸ëŀĺ ëıĦ
ĠëĮĢ ëĭµ
ĵľ ëĬĶ
ëĭ¤ìĿ´ìĸ´ íĬ¸
Ġëĭ¤ ê°Ģ
Ġë© Ķ
ìī ¬
Ġì¤ Ģ
Ġì ı
¹ Ħë
ķ Įë
ëĭĺ ìĿ´
ìķ Į
ìĨĮ íĨµ
íĺ ¸ë
íĥ Ħ
Ġ ãħĭãħĭãħĭãħĭ
łĪ ìĿ´
ê» ´
ŀĲ ëĭ¤
ìļ ¸ë
ìģ ľ
Ġë Ŀ¼
ë° ķ
ë§ ŀ
Ġíķ´ ìĦľ
Ġë¨¹ ìĿĦ
Ġìŀł ìĭľ
ë ª¨
ĠíĻ į
ĠíĮ Ĳ
i l
Ġìĥģ íĻ©
Ġê° ĸ
ì¸ µ
ìĹĪ ìĬµëĭĪëĭ¤
ìĭľ ê³ł
Ġê·¸ë ¦¬
ìĨ Ĳ
Ġíķ´ë ıĦ
Ġë² ł
ì£¼ ìĿĺ
Ġì´ Ŀ
ŀ ľ
² ½
Ġë° ľë
Ġë³´ë ©´
ìĦ± ìĿĦ
ĠëĤĺ ìĻĢ
íĬ ¼
Ġë³´ ìĹ¬
Ġìĺ ·
ìĺ ¥
Ġ @
ĵ¤ ê³¼
¡ľ ìļ´
Ġê± ±ìłķ
ê° ĳ
íı ¬ë
ĠìĥĿê°ģ ìĿ´
ìĸ´ ì§Ħ
ì± Ħ
ìĿ´ë Ŀ¼ëıĦ
a t
Ġê° ľë
ëıĦ ë¡Ŀ
ĸ ¡
ĠìĽĢ ì§ģ
ê ½
Ġë°Ķë ŀĮ
Ġì§ Īë
ìĺ ¬
Ġê°ĳ ìŀĲê¸°
ĠëįĶ ìļ±
Ġì¹ ´ë
ì² ł
ĠìļĶ ì¦ĺ
ì¹ĺ ëĬĶ
âłĢâłĢ âłĢâłĢ
Ġëį °ë
ìľ¼ë Ĥĺ
íŀ Īë
¦ Ń
íĶ Įë
¹ Ľ
ĠíĦ °
- -
ìĽ ĥ
ë° Ķ
ĠìĤ ¶
ãħľ ãħľ
Ġíķĺë £¨
íķ Ń
Ġì Į
ĠìķĦ ì¹¨
ë ł¹
Ġê± ¸ë
ìĭľ ìĺ¤
Ġëľ »
ì¹´ íİĺ
ãĢ ı
ĠìĹ °ë
Ġìĸ´ë ¨¸ëĭĪ
¥´ ê³ł
ìĭĿ ìĿĦ
ìĬ¤ë ¡ľ
ìĿ´ìĹĲ ìļĶ
ĠíĨ ł
Ġë¬ »
ìŀ ¬ë
¡ Ń
ì§ ķ
ĠìĬ ¹
e l
ìŀ Īëĭ¤
ì¯ ¤
Ġë§Ī ì§Ģë§ī
ĠìĦ ¸ë
ħĢ ìĦĿ
ĠìŀĲ ê¸°
Ġìĭ «
Ġìłķ ìĭł
Ġìļ Ķë
ìĿ¸ ìĿĺ
Ġê ¾
e t
Ġì´ Īë
Ġìĸ¼ë§Īë Ĥĺ
Ġíĺ ¹
Ġê²ĥ ìĿ´ìĹĪëĭ¤
ìĬ¤ íĬ¸
íĻ ľ
ê²ł ìĬµëĭĪëĭ¤
Ġíĺ¼ ìŀĲ
ì° į
g ra
Ġëı ¼
íķĺ ëĭĪ
ĠëĶ Ķ
Ġì «
ìŀĲ ìĿĺ
ìĦ± ìĿ´
¶ Ħë
Ġíĸ¥ íķ´
. âĢĿ
ë° ±
in sta
ĠìĤ´ ìķĦ
ĠìłĢë ħģ
ìłķ ìĿĦ
ĠíĹ ¤
ê ¶ģ
¡ ±
ì£ ½
Ġê°Ģ ëĬĶ
ðŁı »
d a
Ġíķľ êµŃ
ĠìŀĲìĭł ìĿ´
Ġë§ Ŀ
êµ° ìļĶ
§ Īëĭ¤
ê ¿
Ġë³´ ëĭĪ
ìĿ´ë ©°
ĠíĤ ¤
ĠìĽ Ĳë
Ġëĵ ľ
ĠìĪ Ļ
íĹ Ī
íĴ į
Ġê°Ģ ì§Ģ
ê±°ë ĵł
ĠíĶ¼ë ¶Ģ
ëĵ¤ ìĿĦ
ĠìĹ ´ë
ĠìĶ ¨
Ĳĺ ìĸ´
Ġëķ ħ
ë° ¥
ĠíĮ Įë
ĠëĬĲ ê»´
Ġíķ ©ëĭĪëĭ¤
ìĹĪ ìĸ´ìļĶ
ĠìĤ¬ ìĿ´
Ġìł ĳ
Ġì¹ľ êµ¬
¿ Ĳ
ìĹĲìĦľ ëıĦ
Ġìŀĳ ìĿĢ
Ġìļ ´ë
Ġë° ĸ
ìľ¡ ìķĦ
ê° Īë
ĠìĿ¼ ìĿĦ
Ġë ļ
ĠìĬ ¬
Ġë² Ĺ
ĠìĿ´ ê²ĥ
Ġíı Ń
íĶ Į
Ġê²° êµŃ
ë Ń
ìĿ¸ ìĿĢ
Ġë§Ĳ ìĹĲ
Ġê°Ģ ì§Ģê³ł
Ġìĵ °ë
³ ¼
ì§ ĵ
¦ ¿
ìĽł ëĭ¤
ìĭľ ìĹĲ
ĠìĤ ´ë
ĠìĹĨ ìĸ´
ê³ł ëĬĶ
Ġìĭ¶ ìĿĢ
Ġëª¨ ìĸĳ
ĠìĤ¬ëŀĮë ĵ¤ìĿ´
Ġê° Īë
ĠìĿ´ ìľł
í į¼
ã ĥ
ìĪĺ ê°Ģ
Ġì² «
ĠëĤĺ ìĺ¤
Ġìķ ħ
Ġê±° ìĿĺ
Ġìľ ¡
Ġì¹ ĺë
Ġìķŀ ìľ¼ë¡ľ
ĠìĿ µ
Įë ¥¼
ë¹ µ
Ī ìĿĦ
Ġìī ½
Ġë§Ī ì¹ĺ
Ġ 7
Ġê´ľ ì°®
Ġì½ Ķ
ĠëĦĪë ¬´ë
Ġë ¸Ķë
ì¤ ĺ
ìķĦ ëĭĪ
Ġì§ ĵ
íĭ °ë
ìļ° ëĬĶ
Ġ ãħ
ìĥģ ìĿĦ
Ġíĸī ë³µ
ĠëĤĺ íĥĢë
Ġê°Ģë ĵĿ
ì² ´ë
Ġìĺ Īë
Ġíķ´ ìķ¼
ìķĦë ĵ¤
Ġë ħĢìĦĿ
Ġê¸ ī
ĠìĦľë ¡ľ
Ġìĸ¼êµ´ ìĿĦ
ê³ ¡
íķ´ ì£¼
ì² Ļ
ì§ Ĳ
ĠìĤ¬ëŀĮ ìĿĢ
Ġíķĺ ëĬĺ
ë įĺ
Ġë¨¸ë ¦¬
ĠìĿ´ ê³³
ĠìĻ Ķ
Ġê° Ĳë
ĠëĤĺ ìĺ¨
Ġê² ¨
£ ¨ë
ĠìĤ¬ë Ŀ¼
Ġìĭ ¤ë
íķ Ħ
Ġì² ł
ê º
Ġê·¸ë ĮĢë¡ľ
Ġìķŀ ìĹĲ
íĮ ¨
Ġìļ ķ
Ġìŀħ ìĿĦ
ìľ¼ ëĭĪê¹Į
Ġì³ Ĳ
ê°Ļ ìĿĢ
ì¿ ł
Ġë¹ Ľ
gra m
Ġì ħ
ĠëĤĺ ê°Ģ
Ġ 8
Ġêº ¼ë
ĠëĤĺ ëıĦ
ìĤ °ë
Ġëĵ¤ ê³ł
ĠìĦł ìĥĿ
ì¤ĳ ìĹĲ
ì¡ ´
ì¶Ķ ì²ľ
ìŀ Ķ
ê² ¨ë
Ġë »
ĠëĪ Ħë
íħ Įë
ì ĩ
ĠìľĦ ìĹĲ
Ġê·¸ë ¥¼
Ġê°Ļ ìķĺëĭ¤
ĠíĿ Ĳë
ĠëĲĺ ìĹĪëĭ¤
Ġë¶ ģ
ĠíĶ Ħë
ë ĵ±
ìł Ħë
ìķĺë įĺ
Ġë§Ľ ì§ĳ
Ġë¶Ħë ªħ
Ġê°Ģ ê¹Į
ìĭĿ ëĭ¨
ìłĦ ìĹĲ
ìĺ¤ ëĬĺ
íı °
Ġë³ Ħ
ł¤ ëĬĶ
ì³ ¤ëĭ¤
ĠëŃĶ ê°Ģ
Ġëį Ķë
ĠëĶ °
ê² łë
Ġ ãħĭãħĭ
Ġê·¸ëŁ ¼
Ġê·¼ë į°
ìĬ¤ë ¥¼
ĠãĢ İ
ìĹ ´
ë° °
Ġì ¿
ĠíĴ Ģ
Ġì§ģ ìłĳ
Ġê¸ ´
ì¶ ©
ì½ Ķë
¦¬ ìĬ¤
ê¸°ë §Į
ĠìĿ¼ë ³¸
Ĥ´ ëĬĶ
Ġë¨¹ ëĬĶ
Ġìļ ´
ìĹĨ ëĬĶ
Ġë¬¼ ìĹĪëĭ¤
Ġê°Ļ ìķĦìļĶ
ê³ ¨
ĠëĤĺ ìĦľ
ĠëĺĲ íķľ
ĠíĽ Ħë
ìĹĪ ê³ł
Ġì¡ °ë
íĸĪ ëĬĶëį°
ê³ ¼ë
ìĿ µ
ìĦ łë
Ġëį ķ
ĠìĹ¬ë Ł¬
ìķ Īë
Ġë§Ĳ ìĶ
ìŀĸ ìķĦ
ĠíĮ Ķ
Ġê½ ĥ
Ĥ ¸
ìĺ µ
ê° Ħë
ìĭ ¸
Ġë° Ģ
Ġë° °ë
ìĦ ¯
² ł
Ġìŀ Ħ
Ġìķī ìķĦ
ì¸ ł
a l
ĠìĿ¼ ìĸ´ëĤĺ
ģ ¼ë
íĤ ¤ë
Ġë ¸Įë
Ġìłľ íĴĪ
ìĤ¬ ëĬĶ
ìĹĲ ìļĶ
ë° ĸìĹĲ
Ġìī ¬
Ġ1 9
ë Ī
ë ĳĲ
ìĪĺ ë¥¼
Ġìĸ »
Ġìļ ¸ë
ìĸ´ë ²Ħë
Ġíķ ©
¦ ĩ
ìĬµ ëĭĪê¹Į
ìķ Ļ
Ġê² ģ
00 0
ì° °
Ġë§ ¤ë
Ġíŀĺë ĵ¤
ëĭ¤ ëĭĪ
Ġìĺ ¬
o m
ĠëĪĪë ¬¼
Ġë² ķ
ľë ¡ľ
łĢ ëĭ¤
Ġê·¸ë §Į
ìĥ Īë
³´ ëĭĪ
³´ ëĬĶ
Ĳë ¡ľ
ìĿ¼ë ¦¬
´ ¤
ê½ ĥ
ìľ¼ë©´ ìĦľ
ìĸ´ ê°Ģ
Ġë¶Ħ ìľĦ
ê²Įë ıĦ
ëĭ Ń
Ķë ĵ¤
ĠìłķëıĦ ë¡ľ
ë ĵ¤ìĿĢ
ł µ
Ġìĸ´ë ¦°
íķ ĳ
Ġê·¸ê²ĥ ìĿĢ
Ġê¸ Ģ
ĠëĲľ ëĭ¤
ê°Ļ ìĿ´
ë³ Ħ
Ġìĥ ī
Ġì§ĳ ìĹĲ
ë Ĳ
Ġìŀ Ķ
Ġë° Ŀ
ì´ Īë
ìĬ¤ ê°Ģ
ĠíĪ ¬
ł ģ
¨ ¼
Ġê°Ģ ê²©
ì ħĢ
ĠìĿ´ìķ¼ ê¸°
Ġëĵ¤ ìĹĪëĭ¤
íķĺ ìŀĲ
Ġë łĪ
ìĭľë ©´
ì¶ ķ
ì Į
Ģë ıĦ
ìļ´ë ıĻ
ĠìĿ¼ ëĭ¨
ã Ĩį
íķĺ ì§Ģë§Į
Ġì° ©
ìĿ´ë ©´
i c
ŀ į
ê²ł ì§Ģ
Ġëª¨ìĬµ ìĿĦ
Ġê°Ģ ìĦľ
ì£¼ ê³ł
Ġìĭľê°Ħ ìĿ´
Ġê³µ ê²©
Ĥ¬ ëĭ¤
ìł ł
° Ķë
r e
Ġë§Įëĵ¤ ìĸ´
ìļ ķ
ìĿĦ ê¹Į
Ġì¤ĳ ìļĶ
ëĬĶ ëĭ¤
Ġë³´ ìĿ´ëĬĶ
ìĤ¬ ìĿĺ
ìļĶ ìĿ¼
³ Ģ
Ġì ¥
Ġìŀ ĥ
Ġë¶Ģë ĵľë
ì ¥
Ġë³´ ìĺĢëĭ¤
Ġìĭľ ìĦł
íģ ´ë
ê²ł ì§Ģë§Į
; ;
ĠìŀĲë ¦¬
ë ©
Ġê·¸ë ĵ¤ìĿĢ
ë ı
Ġëĸłë Ĥĺ
Ġë°© ë²ķ
ì° ¨ë
Ġëģ Į
ĠìĹ¬ íĸī
ľ »
ê»ĺ ìĦľ
**** ****
ë³ ĳ
Ġ ãħĭãħĭãħĭ
ĠëĤĺ ìĿĺ
Ġë ½
Ġë³´ ëĬĶ
ìĽ Įë
Ġìŀ Īë
Ġê´ Ģë
ĠìĨį ìĹĲ
ìłķ ìĿ´
ĠìķĦëĭĪ ìĹĪëĭ¤
ì´ ī
íĳ¸ë ĵľ
ĠìĨ ¡
l o
ë ¶Ī
íķĺë įĺ
Ġì¡´ ìŀ¬
ë ĶĶ
íŀ Į
ìĭĿ ìĿ´
Ġë³´ë Ĥ´
Ġëĥ ī
Ġê³ ¨ë
Ġëª» íķľ
Ġë´ ī
¦¬ë ıĦ
Ġì¦ Ŀ
¨ ¸ë
Ġìłľë ĮĢë¡ľ
ĠìłĦ íĺĢ
Ġêµ ³
Ġë¹ łë
ë° Ľ
Ġê· ¹
Ġí ŀ
íĶ Ī
Ġì¹ľ êµ¬ë
ìĬ ¬
¥´ ê²Į
ĠëĤ¨ ìŀĲ
Ġëĭ¬ë ł¤
ìŀ¥ ìĿĢ
íħ ľ
ê¹ Ĳ
ìĨĮë ¥¼
íĻ į
Ġëľ ¨
íĮ Įë
ĠëĮĢ íķ´
Ħë ĮĢ
ìķĦ ìĿ´
ĠëĪĪ ìĹĲ
ìĽĮ ìĦľ
ĠìĬ ¤ë
Ġëª» íķĺê³ł
ĠìĿ´ ê±°
¦¬ ì§Ģ
Ġìĸ´ë Ķ
Ġíķ łë
Ġê°Ģ ì¡±
ĩ ´
ĠìĥĿê°ģ ìĿĦ
Ġ 9
Ġë©Ķë ī´
ë ĵ¯
ìĿ´ íģ¬
Ġìľ ¤
ìĹĪ ì§Ģë§Į
Ġ ðŁĺ
ĠìĦ¤ë ªħ
Ġëĭ¤ ìĸĳ
ĠìķĦë²Ħ ì§Ģ
Ġìļ°ë ¦¬ëĬĶ
Â ł
ĠìĿ´ íķ´
ħ Ĳ
Ġê·¸ë ŀ
ëĬĲë ĥĲ
íķ´ë ıĦ
Ġì¤Ģë ¹Ħ
ĠíĶ Įë
ë©´ ìĦľ
² ¤
ê²ĥ ëıĦ
Ġìŀ Ĭ
ĠìĿ ĳ
íĸĪ ìĸ´ìļĶ
Ġê°Ģ ìł¸
ģ Ħë
ìĭ¬ íŀĪ
Ġì² ĺë
ĠëĴ ¤ë
ĠíĿ ĳ
ì¦ Īë
ìĪĺ ëĬĶ
Ġì§ Ĳ
Ġê·¸ë ¦¼
ìĬ¤ëŁ½ ê²Į
ì½ ¤
ĠëĶ ¸
Ġëģ ¼
ĠíĨµ íķ´
Ġê·¸ë ħ
Ġë§Īë ²ķ
Ġë© Ī
ìĦ ¼
ĠìĦł íĥĿ
ë§Ľ ìĬ¤íĥĢê·¸ëŀ¨
ĠëĤ ®
ìĭ¬ ìĿĦ
Ġìķ Ķ
Ĩĵ ê³ł
Ġë¶Ģë ¶Ħ
¡ Ģ
ĠëĨ į
Ġì¢ĭìķĦ íķĺëĬĶ
ĠëķĮë¬¸ ìĿ´ëĭ¤
Ġìµľ ê³ł
Ĳĺ ëĬĶ
Ġë¹ ¨ë¦¬
ĠìķĪ ìĹĲ
Ġê ¶Į
ĠìĹĨ ìĿĦ
a r
Ġê°Ļ ëĭ¤
ëĤĺ ëĬĶ
Ġìĺ¤ë ŀľ
Ġê¹ Ķë
ìĬ¤ ëĬĶ
Ġì¹ ¨ë
ë ª
° Ľ
ĠëĬĲë ģ¼
Ġìŀĳ íĴĪ
Ġìķ½ ê°Ħ
Ġìłľ ìĿ¼
ĠìĨĮ ìĦ¤
ê² ģ
ðŁ ¤
Ġìĸ´ë ł¤
Ġê·¸ ê²Į
ìĦ Ń
ê°Ģë Ŀ½
Ġ ãħłãħł
Ġëĵľë Ł¬ë
ì¹ĺ ê³ł
ĠìĨĮë ¦¬ê°Ģ
Ġíģ ´ë
ĠíĻķ ìĿ¸
Ġë¿ Įë
ìķ ī
ãħĭãħĭãħĭãħĭãħĭãħĭãħĭãħĭ ãħĭãħĭãħĭãħĭãħĭãħĭãħĭãħĭ
ë Ŀ¼ëĬĶ
Ġë° ĳ
Ġìļ°ë ¦¬ê°Ģ
ĠìŀĲìĭł ìĿĦ
Ġ !
Ġë§ ¡
e n
Ġì£¼ ìĿ¸
Ġì½ Ķë
Ġìĺ¤ë ŀĺ
íķĺ ëĬĶëį°
Ġíĺ ¸ë
ĠíĮ ¨
Ġë§Įë ĵł
ĠìĨ Ĳë
ìķĦ ê°Ģ
ĠëĮĢ ìĭł
ĠìŀĪëĭ¤ ê³ł
Ġë§Į íģ¼
il y
ëį° ìĿ¼ë¦¬
ìķĦë ıĦ
ê± ´ë
ĠìľĦ íķ´ìĦľ
ìĿ´ë ¡ľ
ìłķ ëıĦ
i t
ĠëĤ¨ íİ¸
Ġíļ ¨
Ġëĭ µ
Ġê¿ Ī
ĠìĦľ ìļ¸
ĠíĿ Ķëĵ¤
ĠëĬ ¦
Ġê¸°ë ĮĢ
ĠìĨĮë ¦¬ë¥¼
ìķĦ ìķĦ
íĿ ¬ë
Ġë¨¸ë ¦¬ë¥¼
íĸĪ ìĬµëĭĪëĭ¤
Ġ /
Ġê²ĥ ì²ĺëŁ¼
Ķ ©
ĠìĿ´ ìļ©
ìĹ Īë
ê°Ĳ ìĿ´
ìĽ ĢìĿĦ
Ġìĸ´ ê¹
Ġëħ Ħ
ĠìŀĲ ìĹ°
ĠëĤ łë
Ġì¶ ķ
o u
ĠëĴ ·
ìĤ Ń
ĠíĥĢ ê³ł
Ġë§ ¥
íķĺ ëĤĺ
Ġëĭ ´ë
ĠìĿ´ë Ł¬
Ġê·¸ëħĢ ê°Ģ
Ġë ©´
ë§ŀ íĮĶ
da ily
Ġëģ Ĭ
ìĵ °
ĠìĨį ìĹĲìĦľ
¬ ëĭ¤
ì¼ ľë
ĠìķĦë ŀĺ
ìĿ´ë ĵľ
. ãĢį
ì§Ģ ì§Ģ
ĠíĨ łë
ĠëıĦ ì°©
Ġíģ¬ ê²Į
ĠìķĦë ¦Ħ
ìĬ¤ëŁ¬ ìļ´
Ġëĺ ĳ
ĠìŀĪ ìĹĪëįĺ
Ġê¹ Ĭ
ê· ľ
ìĿ´ë Ŀ¼ë©´
Ġë§ĪìĿĮ ìĿĦ
ì¹ĺë ¥¼
ìĽĲ ìĿ´
ê±°ë ł¸ëĭ¤
Ŀ¼ ìĦľ
Ġê²½ ìļ°
â Ŀ
ë ĵľë
ĠëĬ ¥
ĠëŃ Ĳë
ìĹ ¼
Ġìķ łë
Ġ2 0
Ġëĵ¯ íķľ
ĠëĪĦ ê°Ģ
Ġìŀĺë ª»
ĠíĿ ¥
Ġê²° íĺ¼
Ġëħ ¹
Ġê¶ģ ê¸Ī
Ġë§Ĳ ê³ł
Ġìĸ¸ ìłľ
ì© į
§Ľ ì§ĳ
ê° Ŀ
ìķ¼ ì§Ģ
¨ ìĿ´
ĠìĿ´ ìĸ´
ĥ Īëĭ¤
Ġë§ĪìĿĮ ìĿ´
ĠíĬ ¸ë
¬ µ
ĠëĤ ¨ë
Ġê²Į ìŀĦ
ĠëĤĺ ìĺ¤ëĬĶ
įĶë Ŀ¼ê³ł
Ġê° Ķëĭ¤
ĠìĿĮ ìĭĿ
Ġìł Ī
ìľ Ħë¥¼
ìļ´ë į°
ê° Ķ
ĠìķĮ ìķĦë
Ġì± Ļ
Ġì¹ ¼
ĠìĦ¸ ê³Ħ
Ġëĭ¤ë ħĢ
ìłĦ íŀĪ
ĠìĤ´ ì§Ŀ
ê¸° ê³ł
ê° ľë
Ġë§Ī ìĿĦ
. '
íķ łë
Ġì§ Ī
íŀĪë ł¤
Ġë ¦¬ë
ĠíĺĦ ìĭ¤
Ġê²ĥ ìŀħëĭĪëĭ¤
ë§Ī ìŀĲ
Ħ Īë
ëĦ¤ ìļĶ
ĵ ¬
ê²ł ìĸ´ìļĶ
ĠíĸĪ ëĬĶëį°
ë ķĮ
íĬ¸ë ¥¼
.. ...
Ġíĥ Ħ
íĻ ķ
ì§ Īë
Ġì¶Ķ ì²ľ
ìĦ °ëĭ¤
Ġëģ Ħë
ê¹Į ìļĶ
ĠìľĦ íķľ
ĠìŀĪ ì§Ģ
Ġìĸ¼êµ´ ìĿ´
in g
ìķĺ ìĸ´ìļĶ
ĠìĹ Ĳë
ë ¥ĺ
íķĺ íķĺ
ë ¯¸ë
ĠìĦ Ŀ
ìĤ¬ë ŀĳ
ìŀ¥ ëĭĺ
íĺ ģ
Ġëª¨ë ¥¸
ìĬ Ī
Ġìĸ¸ ìłľë
ĠìĥĪë ¡ľìļ´
Ġë°© ë¬¸
ĠëĤ´ ìļ©
ê³ Ħë¥¼
Ġìĺ¤ íŀĪëł¤
ìĭľ íĤ¤
ì ·¨
l e
ê±°ë ¦¬
íĭ Ģ
Ġìĸ¼ë §Ī
Ġìļ°ë ¦¬ë
ìĿ´ë ¸Ķ
ì¡° ì°¨
ìĺµ ëĭĪëĭ¤
ĠìĬ¤ ìĬ¤ë¡ľ
ĠìķĦë¬´ë ¦¬
ìĿ¸ ìĿĦ
ìĽ ħ
ħ ķ
ìĥģ ìĿ´
ìļ° ê³ł
ìŀ¥ ìĹĲ
ìķ ŀ
ìŀ ĩ
ìĿĮ ìĿ´
Ġê²ĥ ìľ¼ë¡ľ
ĠìĿ´ìķ¼ ê¸°ë¥¼
Ġëĸł ìĺ¬ë
c h
Ġ S
Ġê³łë ¯¼
ðŁ Ļ
ê¾ ¸ë
l i
ëĤ´ ê°Ģ
ë§ Įë
Ġìĵ ¸
£ ©
ðŁ į
Ġíĸī ëıĻ
ìĶ ¬
ìķ Ĺ
Ġë įĺ
ĠëĦ ĵ
Ĩ Ī
ìķĦë ²Ħ
íķĺ ìĺĢëĭ¤
ìĹĪ ìĿĦ
Ġìĺ¤ëĬĺ ìĿĢ
Ġëĳ ĺë
ĠìĹ´ ìĭ¬íŀĪ
Ġëĵ¤ë ł¤
ëĬĶëį° ìļĶ
ê²ł ëĭ¤ëĬĶ
ĠíĬ¹ íŀĪ
ìĿ´ ì§Ģë§Į
ë ¬¼ë
ĠëĪĪ ìĿ´
Ġë§ĽìŀĪ ëĬĶ
ìł¸ ìĦľ
Ġëª» íĸĪëĭ¤
íĸĪ ê³ł
ĠìĹ ī
ëĭ ĺë
ĠíĻ ľ
ìķ Ĭ
Ġìĭł ê²½
Ġìº Ĳë
ìĹ° íŀĪ
ë Ŀ¼ê³ł
ê°Ħ ìĹĲ
ĠíĻķ ìĭ¤
ĠíĿ ¬
ê¸ Īë
ĠëĲĺ ê³ł
Ġë¬ µ
Ġì§ ľ
ĠíĸĪ ì§Ģë§Į
Ġê¹ Į
¬¸ ìĿĦ
£ Įë
ĠìĤ¬ëŀĮ ìĿĦ
Ł Ń
ĠìĻ Ķëĭ¤
¼ë ¡ľ
ľ ¨ë
âĢ Ļ
Ġìĸ´ ì°Į
Ġë¹ ¼
ìĭ¬ ìĿ´
ë ·°
ë Łī
íĪ ¬ë
ë ª¨ë
ĠìĤ¬ëŀĮë ĵ¤
Ġë© ĭ
ĠìĿ´ë £¨
ĠìĿ´ ê±´
ìĹ ½
Ġë¬ ¸ë
ë ıħ
ìĿ´ ìĿĺ
íĺ ľ
? ãĢį
Ġë§Ľ ìĿ´
ĠëĴ ¤ë¡ľ
ë§Į ìĹĲ
Ġì£ Ħ
ĠìĹ ħ
ê²ł ëĭ¤ê³ł
Ġìłģ ìĿ´
ìĻ ľ
Ġê±° ê¸°
ìħĶ ìĦľ
ł¤ ìĦľ
ê² Ģ
Ġë¨¹ ìĸ´ë
sta gram
ëĬĶ ê°Ģ
Ġê·¸ëŁ ´
Ġëª °
Ġê¸ Īë
Ġ ãħĭ
ıĻ ìķĪ
ìĺ Ģë
ł¥ ìĿĦ
.... ....
Ġìľ Ħë¡ľ
Ġì ĩ
£ ¡
ĠìķĬ ìķĦ
ë ĮĢë¡ľ
ŀ Ħ
Ġìĥģ íĥľ
Ġëĵ£ ê³ł
ê±°ëĵł ìļĶ
ĠëĨ Ī
íĺ ¹
ĠëĪĦ êµ°
Ġë²Į ìį¨
Ġë² ½
ľë ıĻ
Ġìĺ ¥
Ġê¹ ¨ë
íĸĪ ì§Ģë§Į
Ġì¦ ī
Ġê·¸ê²ĥ ìĿĦ
ĠìķĦëĭ Ĳ
t h
ìķĦ ì§Ģ
Ġí į¼
ëĵ¤ ìĿĺ
Ġ *
Ġ3 0
Ġê±´ ê°ķ
ì¹ ¨ë
Ġìī½ ê²Į
Ġë Ŀ
Ĳë į°
Ġì¡° ìļ©
ê²¼ ëĭ¤
ëĭ¹ íŀĪ
ìĸ´ë Ĥľ
Ġìĥģ ëĮĢ
Ġìŀ¬ë ¯¸
Ġê·¸ë ĵ¤ìĿĺ
ĠëģĦë įķ
ĠìĤ¬ëŀĮë ĵ¤ìĿĢ
ìª½ ìľ¼ë¡ľ
ì²´ ê°Ģ
~~ ~
įĶëĿ¼ê³ł ìļĶ
Ġë° Ķëĭ¤
ðŁĳ į
Ġìĸĺ ê¸°
ĠìĽĲë ŀĺ
ìĬ¤ íĦ°
ĠìĹĨ ê³ł
Ġë§ĪìĿĮ ìĹĲ
Ġê¼ ¬ë
Ġì¢ Į
Ġìĺ ®
ĠìĨ Ķ
Ġì§ Ħë
ĠìĪĺ ëĬĶ
ĠìĿ´ ê²Į
ĠíĴ Ī
íĻĶ ê°Ģ
íĹ ¤
Ġìļ´ë ıĻ
Ġê·¸ ê³³
ë³ ¶
ê» ı
Ġê¹ Ģë
ì´ Į
ĠìŀĲ ì£¼
ìĬ¤ ìĿĺ
Ġìĺ¤ë ¹ł
ĠëĲ ©ëĭĪëĭ¤
ê·¸ë łĩ
Ġë¶ ī
ëĲĺ ëĬĶ
êµ ´
Ġê·¸ ìłĢ
ê³ł ê¸°
Ġ ãħł
ëĭ Ŀ
ê³¼ ëĬĶ
Ġëĥ Ħ
Ġìĸ µ
Ġëĭ Ń
ê¸ ¸ë
¶ Ļ
ê·¸ë Ł¼
íĻ Ī
Ġ [
ĠíĬ Ģ
Ġê± ·
êµŃ ìĿĺ
ĠìłĢ íĿ¬
ìŀ¥ ìĿĺ
ëĲĺ ìĸ´
įĶë Ŀ¼ëıĦ
Ł¬ ìļ´
íĿ ĳ
ĥĲ ê³ł
ìĤ¬ ì§Ħ
ëŃ Ĳ
Ĳë Ł¬ë
ĠëĪĦ êµ¬
íķ¨ ìĿĦ
ãħ ĩ
ĠìĤ¬ íļĮ
ĠëĳĲ ê³ł
ĠìĪĺ ë°ĸìĹĲ
ĺë Ĥĺ
ĠìĪĺ ë
ìĪĺ ë¡Ŀ
Ġìĸ´ë ĳ
į ¼ë
Ġìĭľ ìĽĲ
Ġìį ¨
Ġê°Ĳ ìĤ¬
ĠëķĮ ëĬĶ
ĠìķĮ ìķĺ
ìłľë ¡ľ
ë ¬´ë
ìĤ ´ë
Ġíŀĺ ìĿĦ
íĮ ©
Ġíķĺë©´ ìĦľ
ĠâĢ ĺ
ê±° ìļ´
ĶĶ ìĸ´
ê°Ģ ê³ł
ĠëĤĺ ìĻĶëĭ¤
ê±°ë ¦¬ëĬĶ
ĠìķĦ ëĬĶ
ĵ¤ ìĸ´
ìĭľ ëĭ¤
ĠìķĦ ëĭĪëĭ¤
Ķë įĺ
e s
ĠíķŃ ìĥģ
,, ,
² ħ
o l
ĠìĤ¬ ëĬĶ
ë ĦĪ
ìĬ ·
Ġì¶© ë¶Ħ
Ġì´ ī
Ġê¸°ë ³¸
ìĺ ·
Ġëª¨ë¥´ ëĬĶ
Ġë°Ķ ëĭ¥
Ġì¹ ¨
ìĸĳ ìĿ´
§ ŀ
ìķĦ ìķ¼
Ġ1 2
Ġê·¸ ê±´
Ġë´ ¤
ì¢ĭ ìķĦìļĶ
ìĻĢ ìĦľ
ĠìĺĨ ìĹĲ
Ġìĺ¤ë ¥¸
¦° ëĭ¤
ĠëģĿ ëĤĺ
Ġë Ŀ¼ë
Ġì¢ĭ ìĿĦ
ê¸° ìĿĺ
¦¬ ìķĦ
ĠëĦĪë¬´ë Ĥĺ
ì§Ģ ìĹĲ
Ġìĸ´ ìłľ
ĠìĿĺë ¯¸
§ ī
ê°Ģ ë¥¼
Ŀ¼ ìĿ´
) ,
Ġ +
Ġì¡° ìĦł
Ġê±¸ ìĸ´
ìĽĲ ìĿĦ
ĠëĦ¤ ê°Ģ
ìĿ¼ ê¹Į
ĠìĻ ¸ë
ĮĢë ¥¼
Ġìľłë ªħ
Ĥĺ ëĬĶ
ìĦł íĮĶ
ê· ¼ë
ĠìķĦëĭĪ ê³ł
Ġë¹ µ
íļ į
ĠìķĮë ł¤
Ġì§Ħ íĸī
ĠëĤĺë Ŀ¼
ë° Ķë
ĠìłĦ ìŁģ
Ġê·¸ëħ Ģë¥¼
ìĽ ĢìĿ´
ìĭ ¤ë
ĠìĿ¼ ìĿĢ
ðŁĴ ķ
ìŀĲ ë§ĪìŀĲ
ĮĢ íķľ
Ġë© Ģ
ĠìĤ¬ëŀĮ ìĿĺ
íķĺ ìĦ¸ìļĶ
ĠíķĻ êµĲ
ì¼ ĢìĿ´
ìłľ ê°Ģ
ìŀ ł
Ġíĺ ľ
ê¹ Įë
ĠëĨ Ģ
ĠëĲ Ĳ
ë ª©
ĠìĻĢ ìĦľ
¡ ¯
ìĿ´ ëĭĪ
ê² ¹
ë§ ģ
Ġìŀħ ìĪł
¯ ¼ë
ê°Ģ ìĿĺ
ĠìĿ¸ ìĥĿ
ĠìķĦëĭĮ ê°Ģ
ŀ ľë
íķĻ êµĲ
ê°Ĳ ìĿĦ
íĥ Ī
Ġê·¸ê²ĥ ìĿ´
Ġë³ Ħë¡ľ
Ġë² Įë
ëĬ ĺë
íĳ ¸
ĠëıĦ ë
ĠìķĦë ¹ł
Ġì£¼ ëĬĶ
ëĭĺ ìĿĺ
Ġê¹Ķë ģĶ
íķ´ ì§Ħ
ë¨¹ ë°©
ì²ľ íŀĪ
ìł ľë¥¼
ĠìĹ¬ ìłĦíŀĪ
¦¬ ìĿĺ
- ****
ŀĺ ëıĦ
ìĿ¼ ìĿ´
ĠíĿ ¬ë
ĠëĶ°ë ¡ľ
d i
êº ¼
íĸĪ ìĿĦ
ìĹĲê²Į ëĬĶ
ìŀĦ ìĿĦ
ìĭŃ ìĭľìĺ¤
Ġíķĺ ëĬĶëį°
ĠëıĻ ìĥĿ
§ ģ
ĠëĤĺ ìĻĶ
d o
íĭ ±
Ġíĸ Īëįĺ
» Ĳ
¯ Ģë¡ľ
Ġë³´ ìĿ´ì§Ģ
Ġëĵ ł
ìŀĸ ìķĦìļĶ
íķĺ ëĭ¤ëĬĶ
Ġê³ł íĨµ
ìŀ ĺ
Ġì²ľ ì²ľíŀĪ
ë ©°
¾ Į
¶Ģë ¶Ħ
ê²ł ìĸ´
ã ģ
ĠíĻĶ ìŀ¥
ë ĺ
ì¶ ĺ
Ġê·Ģ ìĹ¬
ĠëĦĺ ìĸ´
ìłķ íķľ
ĠìĤ °ë
Ġìĭ¶ ìĸ´
ĠìĨĲ ìĹĲ
ê¸ ĭ
ìĪ ¨ìĿĦ
ĠìłĢë ıĦ
¬¸ ìĹĲ
ĠëĲĺ ì§Ģ
Ġë°ľ ê²¬
łë ¦¬
ì³ Ĳë
ìłĦ ìĿĦ
Ġê³ ģ
ìĹ Ħ
Ġë ĮĢë¡ľ
ìĶ¨ ê°Ģ
Ġëĭ¤ íĸī
Ġê²ĥ ë§Į
h t
ìĪĺ ìĿĺ
¬ ¸ë
ë§ ĺ
íħ Ķ
Ġêµ °ë
¦ ¼ë
¹ Ħë¥¼
Ġì§Ģë Ĥľ
Ġë°ĸ ìľ¼ë¡ľ
ĠìŀĪ ìľ¼ë©´
ĠìķĦëĭĪë ©´
ĠëıĻ ìĭľìĹĲ
Ġ ~
ì¶ °
Ġì³Ĳ ëĭ¤ë
Ġì¡ ´ë
ĠìĻ Ħë
¶ Īë
ĠìĿ¼ ìľ¼
ê°Ģ ê°Ģ
ê¸ Ģë
ĠìľĦ ì¹ĺ
ê·¸ë Ł¬
ê· ł
Ġë¬¸ íķĻ
ì£¼ë ¥¼
Ġëĭ¤ìĸĳ íķľ
ìĬ ¬ë
ĠìķĬëĬĶ ëĭ¤
Ġ2 01
Ġìķŀ ìĹĲìĦľ
Ġìł ĬìĿĢ
Ġì£¼ ê³ł
ìĭľë Ĥĺ
³ Ħ
Ġê°ľ ìĿ¸
ģ Ŀ
Ġê°Ļ ìķĦ
ĠìĤ¬ë Ĥ´
Ġë¨ ¸
ĠìŀĪ ìľ¼ëĭĪ
Ġìł ĸ
Ġê° Ķ
ĠìķĦë¦Ħ ëĭ¤
Ġë§ ĺ
ì²´ë ¥¼
ìĹ °ë
ħ ¸ë
Ġë¹Ħ ìĬ·
ŀ µ
âĢ¦ .
ĠíĶ Ħë¡ľ
Ġê¸¸ ìĿĦ
¦¬ë Ŀ¼
Ġë§ĲìĿ´ ìķ¼
k e
¦¬ ìĸ´
Ġë Į
o f
Ķ °
ìĸ´ ìł¸
ìĸ´ë ³´
Ġë¹ Ī
Ġëª¸ ìĿ´
ŀ «
ì£¼ë ıĦ
Ġìĸ´ ìļ¸ë
Ġëĸ ¡
Ġ C
Ġíľ ´
¦ Ħë
ł ´
ì§Ģ ê²Į
? âĢĿ
Ġë łĪë
Ġë ±
ĠìĨį ìľ¼ë¡ľ
Ġê½ ¤
ìł Īë
ĠëĨĢë Ŀ¼
Ġë° Ģë
ì´ Ŀ
Ġë¹ ¨
ìľ ¤
ĠìĹĨ ëĭ¤ëĬĶ
§ Įë
êµ Ĳë
ĠëĤ´ ìĿ¼
ĠíĽ ¨
¹ Ī
Ġëĭ ¨ë
ëıĻ ìķĪ
ë§ İ
Ġíķ´ ì£¼
ģ Ĺ
ĠìķĦì§ģ ëıĦ
Ġë§Į ì¡±
Ġ1 1
ĠëĬĲëĤĮ ìĿ´
° °ë
ì½ ĺ
Ġíķ´ ìļĶ
íĬ¸ë ¡ľ
ĠìĹ¬ê¸° ìĦľ
Ġê°Ħ ëĭ¨
ë² ł
ì µ
Ġë°ĶëĿ¼ë ³´ìķĺëĭ¤
Ġìĺ¬ë ł¤
Ġë³´ ìĿ´
ĠìŀĪ ì§Ģë§Į
Ġê·¸ëŁ¬ ìŀĲ
íĬ ¹
Ġëĭ¬ë ¦¬
ìķ łë
Ġì° ¬
ê²Į ìļĶ
Ġì°¾ ìķĦë
Ġë ©°
íĤ ¬
Ġë°Ľ ìķĦ
ê±°ë ¦¬ë©°
Ġíķĺ ìĹ¬
2 01
ĠìĹ Ħë
Ġê¹ Įë
ĠëĲĺë ©´
ê³ł ë
Ġë¶Ģ íĥģ
ĠìłĲ ìłĲ
²¤ íĬ¸
ìķĦ ê¸°
ĠìĿ´ë ¥¼
ìķĺ ìĬµëĭĪëĭ¤
ĠëĪĦ êµ¬ë
/ /
Ġíľ ĺ
íľ ´
ì§ Ħë
Ġíİ ¼
Ĳë Ŀ¼
ĠìĹ¬ë ¦Ħ
ëĭĺ ìĿĢ
ê°Ģ ìĹĲ
Ġíķĺë ©°
Ġì² Ļ
ë įĶ
ìŀĲë ¡ľ
ľ ©
íķľ ëį°
ê³ Ħë
íķ´ë ³´
Ġëª¨ìĬµ ìĿ´
Ġë§Ĳ ìĿĢ
ë ¦½
ł¥ ìĿ´
ì§Ģ ë¡ľ
ìĺ Īë
Ġë¬¸ ìĿĦ
ĠëĴ¤ ìĹĲ
íļ ¨
Ġê³µ ê°Ħ
Ġíķľ ì°¸
Ġê°Ģ ì§Ħ
ìł¸ë Ĥĺ
ì¼ °ëĭ¤
íĺ ĳ
Ġë°Ľ ìĿĢ
Ġê²Ģ ìĿĢ
ĠìĽ Ķ
ìĤ¬ë ŀĮ
ê´ Ģë
ĠëĶ°ë ľ»
Ġ T
Ġëĵ¯ ìĿ´
ĠìłĪë ĮĢ
ãĦ ±
ĠëĤ¨ ìķĦ
ĠìķĪ ìľ¼ë¡ľ
ã Ĥ
Ġëĵ± ìŀ¥
-- --
ĠìķĦë §Ī
Ġë³´ ìķĺëĭ¤
Ġëĭ¤ë ĵ¤
Ġë¯¸ ìķĪ
ì» ¤ë
ê±´ ê°ķ
ĠëķĮë §Īëĭ¤
ĠìĤ¬ ê±´
i e
¬¼ ìĿĦ
ìĦ± ìĿĺ
ŀį ëĭĪëĭ¤
Ġì¡° ìĭ¬
ê³ł ìĭ¶
ĠìŀĪìĹĪ ê³ł
ëĭ¹ íķľ
² Į
ĠëŃ ĺ
Ĥ ¼
Ġìı Ł
ĠëĪĪë ¹Ľ
ħ ëĭĪëĭ¤
íķ¨ ìĿ´
íľ ĺ
ï¼ Į
íķĺ ëĭ¤ê³ł
Ġ: )
ìĭľ ì¼ľ
ľ ¨
Ġì§ §
Ġê°Ĳë ıħ
Ġíķĺ ìĸ
Ġë½ ĳ
ëıĦ ë¥¼
ì¹ĺ ê°Ģ
ĠìŀĲ ê¾¸
Ġë² Ķ
Ġê±° ìĺĪìļĶ
ì ¨
Ġìĺ Ľ
ĠëĤĺë ¬´
ê°Ģ ìĦľ
ĠìĤ¬ìĭ¤ ìĿĦ
ìłģ ìĿ´
Ġìĵ ´
Ġê³ Ħë
Ġëį ľ
ĠíĿ Ķ
Ġë§ĽìŀĪ ê²Į
ìĿ´ë Ħ¤
ģ Ī
Ġë§Ĳ ìĿ´ëĭ¤
Ġìĸ¼êµ ´ë¡ľ
Ġíĸ ĩ
ì£¼ ê°Ģ
ìļ°ë ¦¬
ì§ ±
Ł ´
² Ķ
´ë ıĦ
Ġê·¸ë ĵ¤ìĿ´
ðŁ Į
Ġíĳ ¸
ĠíĽ¨ ìĶ¬
ìľ¼ë¡ľ ëĬĶ
Ġê² ©
ë ł
ĠëıĦ ë§Ŀ
Ġë§Ī ì°¬
íĿ Ĳ
ĠìĥĿ íĻľ
í Ģ
Ġëĸ ¨ë
Ġë³´ë ©°
ìŀĲ ê³ł
ë·° íĭ°
ĠìķĮ ìķĦ
ä ¸
ĠìŀĪ ê²Į
Ġ ãħĭãħĭãħĭãħĭãħĭãħĭãħĭãħĭ
Ġêº¼ë Ĥ´
Ġë°Ľ ê³ł
Ġì¿ ł
ĠìĮ ĵ
Ġë© į
Ġì¥ Ĳ
âĿ ¤
ìľ¼ë¡ľ ëıĦ
ĮĢ ìĿĺ
Ġë¯¸ êµŃ
Ġê³ł ê¸°
³´ë ©°
Ġìŀ¡ ìķĦ
ĵ¤ ìĹĪëĭ¤
Ġì»¤ íĶ¼
Ġ1 5
ë¶Ħ ìĹĲ
e a
ìĿ´ë ĥĲ
ì³ ¤
ľë ¦¬
ĠìĿ Įë
íģ ´
ĠìĺĪ ìģĺ
ìĿ¸ ëĭ¤
ìĹ ĺ
íķľ ëĭ¤ëĬĶ
Ġìµ ľë
ìĭ ¬ë
Ġì§Ģê¸Ī ìĿĢ
ĠëĤ´ ê²Į
Ġëª» íķĺëĬĶ
,, ,,
Ġìĺ¤ ëĬĶ
Ġìķ½ ìĨį
ĠìĿ´ íĽĦ
Ġíĥ Ī
Ġê°Ģë ³
_ _
ë² Ħ
ëĮĢ ì²´
Ġì¤ĳìļĶ íķľ
ĳ ĺë
ëħ ¸
ĠëĬĲ ê¼
Ġì¹´ íİĺ
Ġì ¸
ìĭ ±
ìĭł ìĿ´
ĠðŁ ĳ
Ġìĭ Ń
ĠìĤ¬ ìĿ´ìĹĲ
ĠìķĦë Ĥ´
ë§ Īëĭ¤
Ġìĸ´ëĳ ł
ëĭĪ ëĭ¹
ì½ ©
ĠìĹĨ ìĸ´ìĦľ
ìĹĪ ìĸ´
Ġìĭľê°Ħ ìĿĦ
Ġê²Į ëĭ¤ê°Ģ
ìĺģ ìĿĢ
Ġë¶Ģ ì¡±
ĠëĮĢ íķ´ìĦľ
ê°Īë ¹Ħ
ĠëĤł ìķĦ
ĠìłĦ íĻĶ
â ĺ
ĠìŀĲë ¦¬ë¥¼
Ġë§Ī ì£¼
ìĿĺ ë¥¼
¬¼ ìĿ´
Ġìŀ ĩ
ĠëĤ Ļ
ë ¦¬ë
Ġì¢ĭ ëĭ¤
ĠëĳĲë ł¤
êµŃ ìĪĺ
Ġë§¤ ìĿ¼
ĺë į°
Ġë¶Ī ìķĪ
Ġëĭ Ī
ëħ Ĳ
Ġê¸°ë¶Ħ ìĿ´
ê¹ ĥ
Ġ1 00
ĵ¯ ìĿ´
Ġë £¨
ł¤ë ©´
ìŀ¥ ìĹĲìĦľ
ì§Ģ ìĿĺ
ìľ¼ë Ł¬
ìłķ ìĿĢ
ìĹ Ħë§Ī
Ġë¬´ ìĦľ
Ħ ¤ë
Ġì£¼ë ³Ģ
Ġêµ¬ ê²½
Ġìĸ´ì© Ķ
Ġìĸ´ì© Įë
ĠìĹ¬ìŀĲ ê°Ģ
ãħĭãħĭãħĭãħĭ ãħĭ
ĠìŀĲë ¦¬ìĹĲ
ĠìĿ¼ë °ĺ
Ġíķĺ ê¸°
ë§ ¥
ìĦłë ¬¼
¡Ń ê²Į
ë ıĮ
ĠíĿ ¡
Ġë§Ĳ ëıĦ
Ġê°ĻìĿĢ ëį°
ĠíĬ¹ ë³Ħ
ĠìĦľ ìĦľ
ê² Ĳ
ëĭ¤ìĿ´ìĸ´ íĦ°
ìĺ¤ ê³ł
Ġì« ĵ
Ġìĸ¸ìłľë Ĥĺ
ëĭ Į
ĠìŀĲë Ħ¤
Ġë§Ĳ ìķĺëĭ¤
Ġìĺ¤ëŀľ ë§ĮìĹĲ
ìĽĲ ìĿĺ
ĲëŁ¬ë ĵľ
Ġí ĩ´
Ġíİ ĺ
Ġê²½ íĹĺ
Ġíĳ ¸ë
Ġë§Īì°¬ ê°Ģì§Ģ
Ġê¹ ĬìĿĢ
íĤ ¹
Ġíı ¬ë
ê¼ ¬
ĠìķĦ ìī¬
ë Į
Ġë¬ ĺ
¯¸ë ¥¼
ĠíĺĦ ìŀ¬
ìĺĢë įĺ
Ġ B
ë¹ Ľ
u n
Ġíŀĺ ìĿ´
Ġê°Ģë³ į
ŀ Ļ
Ĥ Ļ
ĠíĴ Ģë
Ķ Ķë
ĠíĬ ¸
ì§Ħ ì§ľ
¹ µ
ë ļ
ì¶ Ķë
ë¹ Ħë
ëĬĲë Ŀ¼
f e
Ġì¤ĳ êµŃ
Ġì Ń
ĠëĮĢë ¶Ģë¶Ħ
ĠìĻ ¼
1 9
Ġë¨¹ ìľ¼ë©´
ë ¥
ì¼ ĵ
Ġíĥ Ģë
Ġ P
Ġìĺ ¨ë
ĠíĦ °ë
ìĹ¬ ìĦľ
Ġâ ĸ
ë ¿Ĳ
íİ ĺë
Ġíĳľ íĺĦ
Ġì¤ĳ ìĹĲ
ë įķ
ĠìĻĦìłĦ íŀĪ
ĠëıĮìķĦ ê°Ģ
ĠìĨĲ ìľ¼ë¡ľ
ĠíĦ ¸
ĠëıĮ ìķĦë
Ġìŀ¡ ê³ł
Ġ ..
Ġê »
ĠìĥĪë ²½
ìĨĮë ¦¬
ìĸ´ ì£¼
ê¸¸ ìĿĦ
Ġë³´ íĨµ
Ġíľ ĺë
ĠìĦ± ê³µ
Ġë°Ķë Ģ
Ġì§ĳ ìĹĲìĦľ
Ġíĺ ¼ë
ìĸ´ë ¨¹
ĠìķĬ ê²Į
Ġëĭ¤ ëĭĪ
ìĺģ ìĿ´
ìĥģ ìĿĺ
c a
Ġê°Ģë §Į
ķ ħ
ĠìĦ ¬
Ġ A
ì§Ģ ìĸ´
ìĩ ¼
¶ Įë
Ġíĳľìłķ ìľ¼ë¡ľ
Ġê·¸ë Ĥł
¦¬ë ©´
ĠìŀĲ ìĦ¸
Ĥ´ ê³ł
¥ ¸ë
ëł¥ ìĿĦ
Ġíĳľìłķ ìĿĦ
ĠìĬ¤ íĥĢ
Ġëª ½
Ġë¶Īë Ł¬
ĠëĨĵ ê³ł
Ġìļ° ìĦł
íĻĶ ìŀ¥
ìĻ Ħ
ì»¤ íĶ¼
íĴ Īë
Ġíĥ Ŀ
Ġëį ®
1 0
lo w
ĠìĿ´ë ģ
ë² Ķ
ëĤ ´ë
ĠëĮĢ íķĻ
ĠìķĦ íĮĮ
ìĭĿ ìľ¼ë¡ľ
ĠìĹ¬ ìŀĲë
Ġì¼ ĢìĿ´
âĻ ¡
§ ĺ
íĽ Ħë
ê°ľ ìĽĶ
ĠìłĲ ìĭ¬
Ġíĥ ģ
ĠìĭľìĦł ìĿĦ
ë įĶëĿ¼êµ¬ìļĶ
ĠìĿ¼ ìĸ´ë
do g
? )
Ġìĸ´ë łµ
Ġëĵľë ĶĶìĸ´
Ġê¾ ¸
Ġë¯¸ë ¦¬
Ġê¸ ¸ë
ĠìŀĪëĭ¤ ë©´
Ġ ^^
Ġìª½ ìľ¼ë¡ľ
§Īë ıĦ
ĠìķĦ ìłĢ
Ġë© Ģë¦¬
ë ¶ģ
ĠìĿ´ë ıĻ
Ġê¾ ¸ë
ï¼ į
ĠëĦ ĺëĤĺ
Ġìŀ Ķë
Ġëħ¸ë ŀĺ
ìª½ ìĹĲ
Ġìĸ¸ ëĭĪ
Ġêµ¬ë §¤
Ġíı Ĳ
ì Ń
Ġìĭ¶ ëĭ¤
?? ??
Ġíĭ °
ĠìĦ ŀ
ë° ¤
Ġì¹ Ń
ĠëĤ¨ ìĿĢ
ìľĦ ìĹĲ
Ġë§¤ ìļ°
ĠìŀĪìĹĪ ëĬĶëį°
¬¸ ìĿ´
ī ìŀ¥
ëį °ëıĦ
Ġì´ī ì´ī
íĽ Ī
ë Ŀ¼ë
Ġë¯¸ ìĨĮë¥¼
Ġìĵ°ë Ł¬
ĠëĤ ¯
ãħ ħ
ìŀ ī
íļ Įë
Ġìĭł ê¸°
ëĭ¤ ë³´ë
Ġë¬´ ìĸ¸
³´ ëĭ¤ëĬĶ
íĶ Ħë¡ľ
¶Ģë ¥¼
ĠìºĲë ¦Ń
Ġê·¸ëŀ ¬
Ġì£¼ìĿ¸ ê³µ
ìĭł ìĿĦ
~ !
ĠìĹ´ ìĹĪëĭ¤
ìĺĢ ìĬµëĭĪëĭ¤
ìĿ´ ìĬ¤
ê°Ħ ìĭĿ
Ĩĵ ìĿĢ
Ġëªħ ìĿĺ
Ġê°Ģ ê²Į
Ġê°Ģë ģĶ
ì§Ī ìĿĦ
ì² ľë
Ġìĸ ¸ë
Ġë§ĲìĶ Ģ
Ġê·¼ ì²ĺ
ĵł ì§Ģ
Ġíĭ Ģë
©´ìĦľ ëıĦ
Ġê²¨ ìļ°
ĠíĿĺë Ł¬ë
Ġê²¨ ìļ¸
²Ī ìĹĲ
Ġê°Ģë ©´
Ġìĸ¼êµ´ ìĹĲ
Ġì¢ĭ ê³ł
ĵľë ¥¼
ì§Ģ ê¸°
Ġ M
Ġëĵ± ìĿĦ
ì¡ ´ë
ëĭ¤ ìĭľ
ĠìĥĿê°ģ íĸĪëĭ¤
ĮĢ ëĬĶ
ëĭ¤ë ©°
ª ¸
íĺ¸ ëĬĶ
ìķ Ķ
ĠìĽĥ ìĹĪëĭ¤
Ġëª» íķł
ìĭ ¤ë¡ľ
Ġë¶Ģë ª¨
ªħ ìĿĦ
Ġì£¼ë ¨¹
Ġíħ Įë
êµ¬ë ¥¼
ĠëĥĦ ìĥĪ
Ġë©° ì¹ł
ĠìķĦë ĵ¤
Ġìĵ° ê³ł
Ġëª ¸ë
¬ ĺ
ìĽĲ ìĹĲ
Ġìŀ¥ ëĤľ
ĠìĹĨ ìĬµëĭĪëĭ¤
ì¹ĺ ì¦Ī
ðŁĺ į
ì ·
Ġëĸ ¼
ìĦ± ìĿĢ
Ġíķłë ¨¸ëĭĪ
ëıĦ ë¡ľ
ìĽĲ ìĿĢ
íĴ Ģ
Ĳ ł
ëıĦ ê°Ģ
ãħ ¡
Ġëģ ĵ
Ġíķľ ëĭ¤ëĬĶ
ĠëĤĺë Ī
Ġ ãħİ
ĠðŁ Ĵ
Ġê³³ ìĿ´
ì¹ ¼
íļ Įë¥¼
ê°Ģ ìļĶ
Ġê°Ģ ê³ł
âĢ į
âĢ¦ ."
ĠìĿ´ìłľ ëĬĶ
íı Ń
ìĥģ ìĹĲ
ĠëĮĢ ëĭ¨
ĠíĪ ¬ë
ìĬ¤ íĮħ
Ġì§Ģ ì¼ľë
ê°Ģ ë¡ľ
ĠìĹ°ë Ŀ½
¹ łë
ê°Ģ ëĬ¥
ëł ¬
Ġê°Ģë ¥´
ŀĺë ¥¼
êµ¬ ê°Ģ
ìħ¨ ëĭ¤
ĠìĺĪ ìģľ
Ġì¢ĭ ìķĦìļĶ
ìĸ´ë ¥¼
ëĪ Ī
ë³ ¸
Ġìĭ¶ ìĹĪëĭ¤
ìķ ¡
ìĬ¤ íĥĢë
ĠìķĦë¬´ë ıĦ
Ġê±° ì§Ģ
Ġìŀł ê¹Ĳ
Ġìĸ¼ë ¥¸
Ġë§Ĳ íķĺëĬĶ
Ġìŀ¬ë °
ìĨ Ķ
ì¥ ¬
Ġëĭ ¦
ìŀ Īë
ëĭ¤ë ŀĢ
ì¹ Ń
Ġê·¸ ìĹĲê²Į
ë° ĺë
ĠëĤĺ ì¤ĳìĹĲ
ĠìĿĮ ìķħ
Ġì§ ±
ĠìĨĲ ê°ĢëĿ½
ĠìĽ Įë
ĠìķĦë¬´ ê²ĥëıĦ
Ġê·¸ ê±¸
ĠìŀĲë¦¬ ìĹĲìĦľ
Ġìłķ íĻķ
¥´ë ¥´
ë§Į ìĿ´
Ġíĺ¹ ìĭľ
ĠìĹĦë§Ī ê°Ģ
Ġìĵ° ëĬĶ
Ġë¹ Įë
íķľ ëĭ¤ê³ł
ĠìĿ¼ ìĿ´ìĹĪëĭ¤
Ġë° ĸìĹĲ
ê²½ ìĿĦ
ìŀĲ ìĿ¸
ĠëĲĺ ìĹĪ
¦¬ ê¸°
Ġì¶ ľë
ìĹ ī
ĠìķĦ ê¹Į
ĠìķĦë¬´ë ŀĺëıĦ
Ġì°¸ ê³ł
Ġì§ĳ ìľ¼ë¡ľ
ì§Ħ ëĭ¤
ìķ ķ
ĠëķĮë¬¸ ìĿ´ìĹĪëĭ¤
Ġìļ°ë¦¬ ìĿĺ
ĠìĿ¸ ìłķ
ìłĢë ħģ
Ġëª°ë Ŀ¼
o t
ê´ ĢìĿ´
3 0
íŀĪ ëĬĶ
Ġê°Ģ ìļ´ëį°
ĠëķĮ ê¹Įì§Ģ
ìĨĮ íķľ
Ġê²° ìłķ
© į
Ĳĺ ê³ł
ë ´ī
ĠìľĦ íĹĺ
Ġìķ ķ
Ġìľ ¼
ìĭľë ¥¼
ĳ ĺ
Ġëª©ìĨĮë ¦¬ê°Ģ
Ġëĭ¬ë Ŀ¼
ĠëĪĪ ìľ¼ë¡ľ
§ Ĳë¡ľ
ĠëıĮë ł¤
êµ° ìĿĺ
Ġì£½ ìĿĢ
íĦ ´
Ġê¹¨ë ģĹ
ĠìĨĮ ê°ľ
ĠëĤĺë ĪĦ
ìĪ ¨
Ġì¡ ¸
ìĦ¸ë ¥¼
ìĺģ íĻĶ
å ¤
ìµ ľ
ê°Ħ ëĭ¤
Ġë¶Ģëĵľë Ł½
Ġë¬´ë ¦
ĮĢ ìĹĲ
t p
Ġê¸° ìļ´
Ġê¼ ¬
ĠìĪ ²
ĠìĹ¬ìŀĲ ëĬĶ
ĠìĹ¬ë Ł¬ë
íĿ ¥
Ġëĭ¹ ìŀ¥
Ġìķ ¡
ðŁ Ĳ
ë ĥ
Ġíŀ Ī
ìĶ ¨ë
² ¼
Ġìı ĺ
ë ¶Ħë
Ġê¸Īë °©
Ġëį°ë ¦¬ê³ł
ĠëĤĺ ìĺ¤ë
Ġê³³ ìĹĲ
ì§Ģ ìķĬ
ŀ Įë
Ġìĭ ±
ĠìĹ¬ ìĦ±
ĠìĥĪë ¡ľ
ĠëıĪ ìĿĦ
ĠìĨĶ ì§ģ
Ġ ...
Ġë§ ¹
ìĦľ ë¥¼
ĸ ¼
ëĭĺ ìĿĦ
ĳ Ķ
ìŀĲ ìĹĲ
Ġìĥģ ëĭ¹íŀĪ
ĠìĻ ł
ĠìĬ¤ íħĮ
Ġíķĺ ëĭĪ
Ġìĭ ¬ë
Ġê²ģ ëĭĪëĭ¤
ìľłë ¥¼
ì§Ģ ê¸Ī
Ġíĺ ĳ
ìłĢ íĬ¸
Ġìĭ« ìĸ´
ĠíķĻ ìĥĿ
íĺ Ķëĭ¤
Ġë§Į íķľ
íĥ ±
Ġì£¼ë §Ĳ
ì¢ĭ ìķĦ
íķĺ ìĭł
ëĭ¨ ìĿĦ
ĠìĹ ¼
ê³ ±
ìłķ ìĿĺ
ì£¼ë ©´
ê°ķ ìķĦì§Ģ
Ġ" âĢ¦âĢ¦."
ht tp
ãĦ ·
ŀľë ĵľ
: //
Ġê·¸ê²ĥ ëıĦ
ìĨį ìĹĲ
Ġë´ Ħ
íķĺ ëĭ¤ê°Ģ
ìĿ´ ê¸°
ìĿ¼ ìĿĦ
Ġê°ĸ ê³ł
ĠìĿ¼ ì°į
³´ë ©´
Ġëª¨ë¥´ ê²Į
ìĿ¸ ìĬ¤íĥĢ
ë ĪĦ
ì½ ľë
Ħ £
íĸ Īë
ìĬ¤ íģ¬
Ġë¨¹ ìĿĢ
ìł ¤
ĠìĿ´ë¦Ħ ìĿĦ
Ġêµ īìŀ¥
Ġ D
ë° Ķë¡ľ
Ĥĺ ëĿ¼
ê¸¸ë ŀĺ
ìĿĮ ìĭĿ
¨¸ ëĭĪë
Ġ á
Ġíıī ìĨĮ
ĠìĿ¼ íĸī
Ġê·¸ëłĩ ì§Ģ
êµ° ìĿ´
Ġíħ Ĳëį°
ĠëĤĺ ìĿ´
ë§ ¨
ìķĺ ëĬĶëį°
¦ ī
Ķ °ë
ĠíħĮ ìĿ´ë¸Ķ
ì ¾Į
Ġëĭ¤ ë§Į
Ġì§Ģê¸Ī ê¹Įì§Ģ
Ġê·¸ëŁ° ì§Ģ
Ġì£½ ìĿĮ
!!!! !!!!
íĮ Ķë¡ľ
âłĢâłĢâłĢâłĢ âłĢâłĢâłĢâłĢ
ìĬ¤ë Ł°
Ġë º
Ġëĵ¤ìĸ´ ìĦľ
** *
ë ŀĳ
Ġíĥ ĵ
Ġìŀħ ê³ł
ĠìĹ ĺë
di et
ĠëĴ¤ë ¥¼
Ġëĭ¹ íĻ©
Ġë©Ī ì¶Ķ
ì «
Ġë³´ ëĭ¤
ìĤ¬ ìĹĲ
ìĬ¤ íĬ¸ë
Ġíķł ìķĦë²Ħ
íĹ Į
ìľ Ħë
ìĿ¼ ê¸°
ìĿ´ë ¹Ħ
ĮĢ ê°Ģ
ê²ł ìĨĮ
Ġê¹ ľ
ìĦł ìĿĦ
ĠëĤł ìĿ´
ĠëĨĴ ìĿĢ
íŀ Ĳ
ĠìķĦëĭ Ļ
Ġíı¬ ê¸°
Ġì°¨ ê°Ģ
ê³¼ ìĿĺ
ĠìĥĿ ëªħ
s h
Ġëįķ ë¶ĦìĹĲ
ìĺĢ ê³ł
ì¶ ľë
ª ¬
ê¸ ĪëıĦ
Ġê³Ħ íļį
¥´ë ©°
¨¹ ê³ł
Ġíģ¬ë ¦¼
Ġê³µ ë¶Ģ
§Į íģ¼
ĠìĤ´ ê³ł
Ġì£¼ ìĹĪëĭ¤
Ġëª©ìĨĮë ¦¬ë¡ľ
ê³µ ìĿĦ
Ġë³ ¸ë
Ġê·¸ë ıĻìķĪ
f ol
ĠìĥĿ ê¸´
Ġë¶ī ìĿĢ
ı ¼
Ń ĩ
ê² Ł
Ġëĵ¤ìĸ´ ê°Ķëĭ¤
Ġë¹ ¨ë
Ġíķĺ ëĭ¤
ëĭ¤ë ¥¸
ê²½ ìĿ´
ĠìŀĲ ìĭĿ
Ġìĥģ ìĥģ
ĠìĦłë ¬¼
ì° ľ
Ġë³´ ê¸°
ìĦľ ìĿĺ
ëĲĺ ìĹĪëĭ¤
ê¾ ¼
íĨ ¡
Ġì±ħ ìĿĦ
ìĹ¬ ìŀĲ
Ġë§Įë ĵľëĬĶ
íĿ¬ ëĬĶ
Ļ ìĿĢ
ìŀ İ
Ġê´Ģ ê³Ħ
Ġë§Ĳ ìĿ¸ê°Ģ
Ġê² ī
Ġê°Ļ ìĬµëĭĪëĭ¤
Ġìŀ¥ ë©´
Ġê³ ¨
Ġëĭ ¿
Ġë¹ Ļ
íĸ¥ ìĿĦ
ĠìĿ´ëŁ¬ íķľ
ĠëıĦ ìĻĢ
ìħ ¨ë
Ġìķ ¼ë
? !
ìĤ´ ìĿ´
ì¸ ¡
ĠìķĦë¬´ë Ł°
ìī ½
Ġê°Ģë ¡ľ
m e
ĠëģĮ ìĸ´
Ġê´ ´ë
Ġë¨¹ ê¸°
ìĭľ ìķĦ
ĠëĪĪ ìķŀ
Ġìĸ´ ìĦľ
Ġì¼ Ģ
ìĤ´ ìĿĦ
ĠìĹĦì²Ń ëĤľ
ìĸ ¼ë
ł ¸ë
Ġëļ «
fol low
ĠìłĦë ¶Ģ
ĠìĪ ¨ìĿĦ
Ġì§Ģ ìĹŃ
íķĺ ìĭľ
Ġê°ĢìĬ´ ìĿ´
ãħłãħłãħłãħł ãħłãħłãħłãħł
íĨ ¤
ìĤ¬ë ¡ľ
íķĺ ê¸°ëıĦ
Ġë§Į ìķ½
Ġêµ¬ ìĦ±
Ġíķĺ ê²Į
ìĬ¤ ìĹĲ
Ĳ ĺë
ĠëģĿ ëĤ´
ìĥģ ìĿĢ
ĠìķĬ ìľ¼ë©´
ĠìĤ¬ ê³ł
ìĹ° íķľ
ìŀ¥ ìľ¼ë¡ľ
Ġíķľ ë§Īë
Ġêµ ´ë
ê²ł ìĬµëĭĪê¹Į
Ġë§Ľ ìŀĪëĭ¤
Ġê°Ģë³į ê²Į
ìľ ½
ë§Į íģ¼
ê²© ìĿĦ
ĠìĤ´ íİ
ëĭ ·
ĠìĿ´ìĥģ íķľ
Ġë¬´ë¦ İ
ëĦ Īë
ĠëĨ Īë
ĳ ĳ
Ġíķ ¨ë
ĠìĪ ľë
ìļ° ê°Ģ
íĤ¤ ëĬĶ
? '
Ġíĺ¹ ìĿĢ
ĠíĻķìĭ¤ íŀĪ
Ġëħ ¼
êµ¬ íķĺê³ł
ëį ©
ìŀĲë ©´
Ġê² ¬ë
íĦ°ë ¥¼
Ġëį°ë ł¤
¦Ħ ìĿ´
Ġ L
ì§Ħ ìĿĢ
ë§ Ļ
Ġì° Į
ŀ Ń
ê±° ìķ¼
íķĺ ìĿĺ
ëħ ¸ë
ìĪ Ń
ĠìĹĨ ìĹĪ
Ġê² °ë
ĠìķĮ ê²Į
ê²ł ì£ł
Ġë» Ķ
Ġìĸ´ê¹ ¨
ìłľ ëĬĶ
Ġë° ı
Ġìĺ· ìĿĦ
ĠìĥĿê°ģ ë³´ëĭ¤
.... ..
Ġìĸ´ì© Į
Ġê³ł ë§Ī
s el
ìķ Įë
İ Ħ
Ġì§ĳ ìĿĦ
ì¿ łë
âĻ ¥
ë Ĩ
ìĻĢ ëĬĶ
ìľĦ ê°Ģ
Ġì¹ĺ ì¦Ī
Ġìĸ´ë ĳĲ
ì§Ħ ìĿ´
Ġë¹ł ìł¸ëĤĺ
Ġì§ĳ ì¤ĳ
Ġì¡ ±
Ŀ¼ ëĭĪ
Ġë³ ¶
íĻĶ ëĬĶ
Ġë§Įë Ĥľ
Ġì½ ©
Ġìĸ´ì©Įë ©´
ĠëĦ ¤ë
ê° Ĳë
Ġì£½ ìĿĦ
ĠìĽĥ ìĿĮìĿĦ
Ġê²° ì½Ķ
ê¼ ¬ë
ĠíĽĦ ìĹĲ
ë Ŀ¼ëıĦ
ìķ¼ë §Į
íĺ Ħë
Ġì¤ĳ ìĸ¼
ë ¸Ķë
ĠìłĦ ì²´
íķĺ ìĭľëĬĶ
ìĨĮ ê°Ģ
ĠìłĦ íĻĶë¥¼
ìłĲ ìĿĦ
łĪ ìĬ¤
ëł¥ ìĿ´
ĠìĿ´ë ¦¬
ĠìķĪ ìĹĲìĦľ
ìĿ´ ìĺ¤
ë¬´ ìĬ¨
ĠìĪł ìĿĦ
ĠìĤ¬ëŀĮë ĵ¤ìĿĺ
Ġëªħ ëł¹
ì¿ ¡
ì¹ĺ íĤ¨
ĠìĻĦë ²½
Ġì§ĳ ìķĪ
Ġìĺ¤ íĽĦ
íķ´ ì¡Įëĭ¤
Ġê°Ģë§Į íŀĪ
Ġê³ ¡
¥´ ì§Ģ
íķĻ ìĥĿ
Ġë§Ī ìĿĮë
ìĥ ·
ĠíķĺëĤĺ ê°Ģ
Ġìĥ ¤
Ŀ ł
§Į ìĹĲ
ĵ¤ ìĹĲ
ì¹ĺ ì§Ģ
ìĭ¤ ìĿĦ
íĶ¼ë ¶Ģ
íĻĶìŀ¥ íĴĪ
ĵ ¨
Ġê°ľ ìĿĺ
ë ¨¸ë
ìĿ´ ëıĦ
Ġìŀ¬ë° Į
© ´ë
§Į íķľ
¶Ģë ¡ľ
ê´ Ģë¦¬
Ġëª¨ë¥´ ê³ł
ĠìĹĨ ëĭ¤ê³ł
ìļĶ ë¦¬
ë ŀĢ
Ġëĵ¤ ìĿĢ
ì¢ĭ ìĿĢ
į ĺëį°
Ġëª¨ë¥¸ ëĭ¤
ĠíĿ °
ĠëĦ Į
ĠìĶ »
Ġì² ľë
Ġëĭ «
©Ķë ī´
ĠìĦ ¼
íĭ ´
Ġì¶©ë¶Ħ íŀĪ
Ġêµīìŀ¥ íŀĪ
Ġëĸł ìĺ¤ë
ìĿ´ëĿ¼ ìĦľ
Į ģ
ë§İ ìĿĢ
ê±°ë Ŀ¼
Ĥĺ ë¬´
ìĭĿ ìĿĢ
¦ ´ë
Ħ Ĳ
ê³ ¨ë
Ġê±° ì§ĵ
Ġì»¤ ëĭ¤ëŀĢ
ĠëķĮ ê°Ģ
ĠìĿĺ íķ´
ë ĸ¡
âĢį âĻ
ìĹħ ìĿĦ
ĠëıĦ ëĮĢì²´
ĠíķĦìļĶ íķľ
Ġê³ ±
Ġë§Īë ¬´ë
Ġê±´ë ĦĪ
ĠìķĦë¦Ħëĭ¤ ìļ´
í ĩ´
Ġë²Ħë ł¸ëĭ¤
Ġê·¸ëŁ¬ ëĭĪ
Ġê·¸ë ĵ¤ìĿĦ
ìĸ´ ì§ĢëĬĶ
Ġ http
ìķ¼ë §Ĳë¡ľ
ì¹ Ļ
Ġëĭ¹ ìĭľ
ĠìŀĪìĹĪ ì§Ģë§Į
Ġëħ¸ë ł¥
Ġìĸ´ ì¨
ī ´ë
Ġëĭ¨ ìĪľ
Ġê°Ģ ìķ¼
ì£ Ħ
ìĸ´ ì¡Įëĭ¤
Ġê·¸ëłĩ ëĭ¤ê³ł
Ġê°Ļ ìķĦìĦľ
Ġë² łë
Ġãħİãħİ ãħİ
ĠìĿ´ ìłł
Ġëĳĺ ìĿ´
( ?)
ìłĲ ìĿ´
Ġë°° ê°Ģ
Ġìĸ´ëĶĶ ìĦľ
ĠëĪ Įë
íķ Ħë
Ġë¬¼ ìĸ´ë
Ġê²ĥ ìĿ¸ê°Ģ
ĠìŀĲ ìĭłë
ĠëıĻ ëĦ¤
ĠìĬ ¬ë
Ġë¬¼ ìĿĦ
Ġìħ ĭ
íķľëĭ¤ ë©´
ìľ ¨
į ľ
ì° Įë
íĸĪëĭ¤ ëĬĶ
Ġì§Ģë ıĦ
ĠìĦ¸ìĥģ ìĹĲ
Ġëĭ¤ ìĦ¯
ìĺĢ ëĬĶëį°
li ke
¦½ ëĭĪëĭ¤
Ġë¬¸ë ĵĿ
Ġëĳĺë Ł¬ë
Ġë§Ĳ íķ´
ìľĦ ëĬĶ
Ġê°Ģê¹Į ìĿ´
ãħĭãħĭãħĭãħĭ ãħĭãħĭ
Ġì¡°ìļ© íŀĪ
ì£¼ ìĦ¸ìļĶ
ĠìŀĪìĹĪ ìĬµëĭĪëĭ¤
Ġê· ľ
Ġê²½ ì°°
Ġìĭľ ìłĪ
ìķĺ ê³ł
ĠìıŁ ìķĦ
Ġì ª
ìłľ ìĿĺ
ìĭł ìĿĺ
ĠìĿ´ë²Ī ìĹĲ
Ġ5 0
Ġë§Ĳ íķł
ĠìĥĿê°ģ íķ´
Ġãħĭãħĭãħĭãħĭ ãħĭ
ä º
íĺ¸ë ¥¼
ê³¼ë ¥¼
ĠìĶ ¹
Ġìłķ ë¦¬
ì§Ģ ë©´
íĺ¸ ê°Ģ
Ġìłľ ê³µ
ĠìĬ µ
ìĭ¬ ìľ¼ë¡ľ
¹Ħ ê°Ģ
° ¤
ë ´
íĸĪ ìĸ´
ĠìĺĪ ìĥģ
Ġë°Ľ ìķĦë
ĠëĮĢëĭµ íĸĪëĭ¤
1 2
Ġíľ ´ë
ĠëĤĺë ¨¸
Ġë¨¸ë ¦¿
Ġê³¼ ìĹ°
ìĥģ ìľ¼ë¡ľ
ĠëĮĢ ì²´
Ġâ ľ
® ¤
ĠëĤĺ ê°Ķëĭ¤
Ġìĺ¤ëĬĺ ëıĦ
ìľ¼ë ł¤ê³ł
ĠëĤ¨ ìŀĲê°Ģ
ìĻĢ ìĿĺ
a m
í į¼ë
Ġë¹Ħ êµĲ
Ġê² ĢìĿĦ
ê¹ Ķ
ìķĦ ëĬĶ
Ġìŀ¥ ë
ëĭ ī
Ŀ¼ë ¥¼
íĬ¸ ëĬĶ
Ġìľłëªħ íķľ
¦¬ë ©´ìĦľ
Ħ ĺ
ìĸ´ë ĵ¤
° ĸìĹĲ
ĠëĤĺ ìĹĲê²Į
Ġê·¸ëłĩ ëĭ¤ë©´
Ġë¶Ī íİ¸
Ġê³¼ ê±°
Ġë» Ĺ
Ġëª¨ë ¥¼
¥´ë ©´
Ġê°Ģë °©
ĠíĮ ¨ë
Ġìŀ ĪëĤĺ
Ġíģ¬ë ¦¬ìĬ¤
w w
ĠìĨĮë ħĦ
į ¸
Ġê²ĥ ìĹĲ
ìĶ¨ ëĬĶ
Ġëĵľë ŀĺ
ì¤ Įë
ĠìĻł ì§Ģ
Ġë¹Ħë ¡Ŀ
ĠíķĺëĤĺ ìĿĺ
ĠìĭĿ ëĭ¹
Ġíķ ¸ë
ĠëĤ Ń
ì¼ °
¥ Ń
Ġìį ¨ë
ìĤ¬ë ĵ¤ìĿ´
ìĭľ ê°Ģ
Ġì§Ģ íķĺ
ĠëĬĲëĤ Ħ
Ġê¸´ ìŀ¥
ĠìĤ´íİ ´ë
Ġíķľ ëĭ¤ê³ł
Ġê² ¬
ìĨĮë ¦¬ê°Ģ
Ġëĵ¤ ìĹ¬
ë§Į ìĿĺ
Ġë²Ī ì§¸
Ġê¸°ëĭ¤ë ¦¬ê³ł
ĠëĤ ³
ë ĳ¥
Ŀ¼ë ©°
Ġë¿Ĳ ìĿ´ìĹĪëĭ¤
ĠìĽĥ ìľ¼ë©°
Ġë¬¸ìłľ ê°Ģ
¡ ¤
ì¹ ¸
Ġìĥģ ê´Ģ
ì°¨ íĶ¼
ĠìķĦ ìĿ´ê°Ģ
íĻĶ ìĿĺ
Ġì¡´ë Ĥĺ
ìĿ´ ìłľ
Ġíķ´ ê²°
Ġìŀħ ìĹĲ
ë ĵł
Ġë¶Ģ ìĤ°
Ġìŀ łë
´Ĳ ìķ¼
íĬ¸ ê°Ģ
r i
Ġë°Ķ ê¿
ê·¼ë į°
Ġê·¸ë Ĥĺ
Ġê³ł êµ¬ë
Ġë°ĺ ìĿĳ
íĨµ ëł¹
ĵľ ìĭľ
Ġìĸ´ê¹ ¨ë¥¼
ĠëĤĺíĥĢë Ĥĺ
ĠëĪĪë¬¼ ìĿ´
Ġë¬¼ ê±´
ãħ ı
ĠìłĦ íĪ¬
ì¸ łë
ìľ¼ë¡ľ ìį¨
ĠìĿ´ìľł ê°Ģ
Ġìłķ ì¹ĺ
Ġê°Ģ ìĿĦ
ĠìĽĮë ĤĻ
ĠëĪĪë¬¼ ìĿĦ
Ġ ,
ìĵ ¸
ë³¶ ìĿ´
Ġê¹¨ ëĭ¬
Ġë¶ĦìľĦ ê¸°
ĠìĤ´ ìķĦë
ìĹ ĪëĤĺ
ĠìĬ Ī
ìĥī ìĿ´
~~ ~~
ìĿ¸ëį° ìļĶ
Ġâ Ļ
ĠìķĬ ìķĦëıĦ
Ġê ¶Įë
Ġì±Ļ ê²¨
íŀĪ ê³ł
ĠìŀĪìĿĦ ê¹Į
ĠìķĦ íĶĦ
ìĸ´ë ¡ľ
Ġê·¸ëŁ¬ ëĭĪê¹Į
Ġë§ŀ ëĬĶ
Ġìĸĳ ëħĲ
© ĺ
Ġíĺ Ħë
Ġíı¬ ìĬ¤íĮħ
ĠëĤ´ë ¶Ģ
Ġíĭ Ģ
Ġë¹ ¼ë
ł ¨ë
Ġê°ķ íķľ
ë ¸Įë
Ġì§Ģ ìĹĪëĭ¤
Ġì² ´ë
ëĭ¤ë ³´ëĭĪ
Ġìĺ¨ë ª¸
ê´ ´
ĠìĥĿê°ģ ìĹĲ
ëĭ ¨ë
Ġíķ ĳ
Ġë°ĶëŀĮ ìĹĲ
Ġêµ ½
ìĭ¤ ìĹĲ
Ġê°Ģê¹Į ìļ´
Ġíĺ Ī
Ġíķľ ìĪ¨ìĿĦ
ê°ľ ê°Ģ
c at
Ġë¨¹ ìĸ´
Ġíķĺìĸ Ģ
ëı ¼
ĠìķĦëĭĲ ê¹Į
ìħ¨ ìĸ´ìļĶ
ĠìŀĶë ľ©
ĠëĦ£ ê³ł
ĠìĹĨ ìĸ´ìļĶ
c om
ì¶ ¤
Ġë¶Ģ ëĭ´
² ¨
íĸ¥ ìĿ´
ìłĢ ê¸°
Ġëĵ¤ìĸ´ ê°Ħ
Ġíķĺ ìŀĲ
íķĺë©´ìĦľ ëıĦ
insta food
Ġë¶Ī êµ¬íķĺê³ł
íķĺë Ł¬
Ŀ¼ë ¦¬
ĠëĶ°ëĿ¼ ìĦľ
ìĻ Ģë
ĠíĿ Ĳ
íĳ¸ëĵľ ìĬ¤íĥĢê·¸ëŀ¨
ìĿ´ ìŀĲ
Ġë¹ł ìł¸
ê¸° ì§Ģ
s e
Ġê³ł ìĥĿ
Ĺ ê²Į
êµ° ìĿĦ
Ġë§ ĳ
į °ëıĦ
¬ ìĺģ
Ġë§İ ìķĦìĦľ
Ġê¸° ëĬ¥
ê°Ģë ©°
ĠìĿ¸ë ¬¼
Ġê¼ ¼
ë ĳĲë
ìķĺ ìĿĦ
Ġê² ª
ìŀĪ ìĸ´ìĦľ
Ġêµ Ĳë
ĠìĨĲ ìĿ´
ĠìĹ¬ìŀĲ ìĿĺ
Ġì ħĢ
ĠìŀĪ ê¸°
ĠìĽĲ íķĺëĬĶ
ë ĵľ
ê²ł ëĬĶê°Ģ
¦¬ ê²Į
ìĹĲê²Į ìĦľ
¨¹ ëĬĶ
Ġêµ ¿
ìĿ´ë ĵł
ī ģ
ë ħĢ
ìĺģ ìĿĺ
Ġë³´ ì§Ģ
Ġì¡°ê¸Ī ìĶ©
Ĳĺ ìĹĪëĭ¤
ĩ Į
Ġíİ¸ ìķĪ
Ġ I
Â ·
ê³ł ìĸĳìĿ´
ê² °ë
ł ī
íĶ Ķ
ìĦľ ìķ¼
²Ħë ¦°
ëħ Ħë
ĠëģĦëįķ ìĺĢëĭ¤
Ġë¹łë ¥´ê²Į
ĠìķĦ ê¸°
ìłķ ë§Ĳ
ãħłãħł ãħł
Ġì¶Ķ ê°Ģ
êµ° ìĿĢ
Ġê·¸ë ĵ¤
ĠêµŃ ë¬¼
ĠìĥĿê°ģ íķĺê³ł
Ġëª¸ ìĹĲ
Ģ ï¸ı
ìłĦ ìĿĺ
Ġë¬´ìĹĩ ë³´ëĭ¤
ëĲĺ ê³ł
Ġëĭ¬ë ł¤ë
Ġêµ¬ ìŀħ
ĠíĦ ±
Ġì£¼ ì°¨
Ġíļ Įë
Ġê·¸ëŁ¬ë ©´
Ġì» ¤ë
ĠìŀĲë ŀĳ
Ġí Ģ
Ġë²Ĺ ìĸ´ëĤĺ
Ġíķĺ ìĺĢëĭ¤
Ġíĥ Ĳ
Ġë§Īë ł¨
ê¹ Ŀ
ĠìĹĦë §Īë
Ġëĭ¹ ìĹ°íŀĪ
į °ë
íķĺë ł¤ê³ł
íķ´ ì§ĢëĬĶ
Ġíķľ íİ¸
ĠìŀĲ ê·¹
ìĥĿ íĻľ
ìŀĲë ĵ¤ìĿ´
ĠìķĦ ê°Ģ
ĠíĮ Ķë
ĠíĸĪ ìĬµëĭĪëĭ¤
1 8
Ġê±°ë ĮĢíķľ
ĠìłĢë łĩê²Į
Ġë¹ Ĺ
ëĭ Ĳ
ĠìĬ¤ íĬ¸ë
ê·¸ë Ł°
Ġê°Ģë ¦¬
íļĮ ê°Ģ
ĠëĿ Ħ
ìĥ ¤
ìķĦ ì¹¨
Įë į°
Ġê³ł ê¸ī
¶Ħ ìĿ´
ĠìĨ Ł
ìķĺ ì§Ģë§Į
íĬ Ģ
ĠëĪĪ ì¹ĺ
ı Įë
Ġìĸ´ëł¤ ìļ´
Ġíı¬ ìŀ¥
ê±° ê°Ļ
Ġë¨¹ ìĸ´ëıĦ
ĠìĻĦ ìĦ±
ðŁĺ Ń
ĠìĿ´ëģ Į
Ġìľ Ħë
ĠìĿ´ë²Ī ìĹĲëĬĶ
ĠíĮ ĶìĿĦ
Ġìĸ´ëĬĲ ìĥĪ
c o
ê± ¸ë
ĠìĺĪ ìķ½
ìŀ¥ ìĿ¸
ĠìĪĺ ë§İìĿĢ
ìĸ´ë Ŀ¼
ì¹ľ êµ¬
ĠìķĦë²Ħ ì§Ģê°Ģ
ĠìłĢë ł´
Ĥĺ ìļĶ
ë £¡
ìĪĺ ëıĦ
Ĩ ŀ
Ġíķ Ħë
¦¬ë įĺ
Ġë³´ë ©´ìĦľ
ĠìĿ Ģë
Ġë³ Ħë
¦ °ë
ì¢ Į
ĠìķĦìĿ´ë ĵ¤
ĠëŃĲ ê°Ģ
ĠìĤ¬ë ¬´
Ġë§ º
ìŀħ ëĭĪê¹Į
Ġë§ ¨
ë³ ¼
ìłķ ìĹĲ
ĠìĿ¸ íķ´
ĠëĤĺ ìĺ¬
ĠìĤ¬ëŀĳ íķĺëĬĶ
Ġì¹ ł
ĠíĶ¼ íķ´
ìĦ ¤ë
Ġë§Ĳ íķĺê³ł
Ġë°ĶëĢ Į
ĠìĿ´ìľł ëĬĶ
ì¤ ¬
Ġê±´ë ¬¼
Ġìĸĺ ê¸°ë¥¼
°Ķ ëĭ¥
ĳĺë Ł¬
ĠìķĦëĭĪ ìķ¼
ìłĢ íŀĪ
ĠìĥĿê°ģ íķĺëĬĶ
m y
ìĿĮ ìĹĲ
Ġì° ¢
² łë
ĠìłķëıĦ ìĿĺ
ĠëĦĪ ëĬĶ
ĠëĬĲê¼ Īëĭ¤
ĠëĤ´ë °Ģ
ê¹Įì§Ģ ëĬĶ
ĠëĮĢë °ķ
âĿ¤ ï¸ı
ĠìĦ± ê²©
ë© į
Ġêµ³ ìĿ´
ìĤ° ìĿĦ
ŀĺë ¡ľ
íĿ ¡
Ġë ¼
ðŁ İ
ĠìłĦë ¬¸
ĠìĹŃ ìĤ¬
ĠìĽ ħ
íĸ ĩ
ìĺĢ ìĸ´ìļĶ
°°ë ¥¼
ķĮë ¬¸ìĹĲ
ìĦ± ìĹĲ
íķ´ë ¥¼
Ġê³µ ìŀĳ
ĠëıĮë ł¸ëĭ¤
íĮĶë¡ľ ìļ°
ĠìķĦ ìĺĪ
Ġëģ Įë
ìĭľë Ŀ½
ìľł ìĿĺ
Ġ >
ì£¼ ìĹĪëĭ¤
£ ¸
ë įĶëĭĪ
Ġìľł ì§Ģ
£ Įë¥¼
íħ Ĳ
ì» ·
Ġìłľë °ľ
ĠíĻ ľëıĻ
Ġìłķìĭł ìĿĦ
ĠëķĮë ıĦ
Ĥ ľë
ìĺĢ ì§Ģë§Į
ìĹ° ìĿ´
Ġíŀĺë ĵł
ªħ ìĿ´
Ġë°Ľ ëĬĶ
ĠìŀĲë ıĻ
Ġëĭ¤ë ¥´
ë ĥ¥
Ġëĳ ¥
ëĶ ¸
~ ^^
¬¼ë ¡ľ
ë¹ Ī
¹ Ļ
ìĿ´ íĦ°
Ġëĵ¤ìĸ´ ìĻĶëĭ¤
ìľ¼ë¡ľ ë¶ĢíĦ°
íķĺë ł¤
Ķ ª
ĥ Ī
ì İĦ
íģ Ĳ
ģĦë Ł¬
Ġê·Ģ ìĹ½
ëıĦ ëĬĶ
ë² Ħë
Ġ1 8
Ġê¹ľ ì§Ŀ
¥ Ļ
Ġìĺ¬ëĿ¼ ê°Ģ
ĠìĦ¸ ìĽĶ
Ġë°Ľ ìĿĦ
Ġë¹Ħë ¡¯
Ġì°¨ë ¥¼
ĠíķĺëĤĺ ëıĦ
Ġë¬´ë ĦĪ
ìĬ¤ íħĮ
ĪëıĦ ë¡Ŀ
p h
ĵľ ê°Ģ
Ġì§Ħ ìłķ
Ġìŀħ ìĿĢ
ĠìĿ¸ê°Ħ ìĿĺ
ĠíĿ ī
ìľ¼ë ¯Ģë¡ľ
ì¤Ģ ëĭ¤
Ġì¤ ĺ
ëĭĪ ê°Ģ
Ġë¯¸ ì¹ľ
Ġì¢ Ģë
a d
ê²½ ìĿĢ
ĠìĤ¬ëŀĳ ìĿĦ
íĥ Īë
Ġë°ĺë ĵľìĭľ
ĠìĦłìĥĿ ëĭĺ
Įë ĵł
ì§Ģë Ŀ¼
Ġê·¸ ê±°
ìĿ´ ìĻĢ
Ġë§ĺ ìĹĲ
ëĶ ±
Ġë¹ĦìĬ· íķľ
ìĿ´ ê¸°ëıĦ
Ġëľ ¯
ĠìĺģíĻĶ ëĬĶ
Ġê° Ħë
Ġì°¸ ìĹ¬
Ġìĩ ¼
ĠìķĬ ìķĦìĦľ
ĠìĽĥ ìĿĮ
âĢįâĻ Ģï¸ı
ĠìĿµ ìĪĻ
Ġëĭ¤ ìĿĮë
Ġëĵľ ëĬĶ
Ġì į¼
ĠëĤ ľë
Ġìĭ¤ ìłľë¡ľ
ĳĲ ê³ł
ĠëĨĢë ŀĢ
ìĿ´ë Ħ¤ìļĶ
ìļ° ìĿĺ
ĠìĿ´ë Ĥ´
Ġìľłë ¦¬
-**** -****
ìĿ´ëĿ¼ ëĭĪ
Ġ b
ĠëģĿ ëĤ
*** -****-****
ĠëĪĦ ìĽĮ
Ġ 0
ĠìĹĨ ìĹĪëįĺ
ìĿ¸ë ĵ¤ìĿ´
ì¡° ê±´
ĠíĶ¼ ê³¤
ĠêµĲ ìľ¡
Ġë³ Ģë
ê°Ģ ìĬ´
ìķĪë ħķ
Ġê·¸ ìĻĢ
íķĺë Ŀ¼
Ġë¯¿ ê³ł
íĮ ¨ë
Ġì¶ľë °ľ
¤ë Ĥĺ
ìĪł ìĿĦ
ĠíĻĶ ê°Ģ
ŀ Ģë
Ġíļ¨ ê³¼
Ġë°Ľ ìķĺëĭ¤
ê¸° ìĻĢ
ĠíĹ Ľ
ĠìĺĽ ëĤł
¹Ħ ëĬĶ
Ġê°ĢìĬ´ ìĿĦ
ãħ Į
ì§ĳ ë°¥
Ġê²° ê³¼
Ġê³¨ë ª©
ìļ° ìĬ¤
ĠëĤĺë ¬´ë
ĠëĤ¨ ìŀĲëĬĶ
ĵľë ¡ľ
ìŀĪ ìĸ´
ë° ĸ
ãħ Ĥ
Ġá Ĩŀ
íĺĦ ìĿĢ
ë¬¸ ìĿĦ
Ġë¬´ ì²Ļ
ĠëĽ° ìĸ´
ë° °ë
ĠìŀĪìĸ´ ìķ¼
a b
ìĽĮ ìļĶ
ì§ĳ ìĹĲ
Ġì¸ ¡
ìĸ´ë ĸ
í ĵ¨
ì¹ «
Ĳľ ëĭ¤
ìłľ ì£¼
Ġìĸ´ ì°¨íĶ¼
Ġë¶Ħë ĵ¤
ĠìķĦìĿ´ë ĵ¤ìĿ´
Ġë² Īë
Ġëħ ¼ë
v er
Ġë¶Ģëĵľë Ł¬ìļ´
łë ĥ
Ġíķĺë įĺ
ĠìĨĮë ħĢ
ìĦ ¬
Ġ K
ìľ¼ë ł¤
Ġê°ľë ´ī
2 0
Ġëª© ìĿĦ
Ġì»¤ íĶ¼ë
Ġìĭ¶ ì§Ģ
Ġëĵľëŀĺ ê³¤
ĠëĮĢ íĳľ
ìĽ łë
ĠëĦ£ ìĸ´
Ġíķľ ìª½
Ġìĺģ íĻĶë
Ġê¸°ë ¡Ŀ
Ġì¢ ģ
ĠìķĦë²Ħ ì§ĢëĬĶ
ìĦĿ ìĿ´
ĠìĤ¬ìļ© íķł
íĥ ľë¡ľ
Ġë§Ī ìĭľê³ł
ìĸ´ë Ĩĵ
Ġëªħ ìĿ´
ëĲ ł
¥´ ê¸°
íĮĲ ìĿĦ
ëĭĪê¹Į ìļĶ
ë§ Ĳë¡ľ
Ġë¬ ¶
Ġë°Ķëĭ¥ ìĹĲ
i s
Ġë³´ ìŀĲ
į ëĭĪëĭ¤
ĠëĴ¤ ì§ĳ
n e
ĠëĤ´ë Ĥ´
ì¼ĢìĿ´ íģ¬
a s
Ġí į¼ë
ìĿĮë °¥
ì½¤ íķľ
ĠìĤ¶ ìĿĦ
u t
íħĮë ¦¬ìĸ´
Ġì¢ħ ë¥ĺ
Ġê±° ê¸°ìĹĲ
Ġëĭ¤ìĿĮ ìĹĲ
r o
Ġë¶Ļ ìĸ´
ĠìķĪ ìłĦ
ìľłë ¡ľ
Ġê¸¸ ìĿ´
ê·¸ë ¦¬ê³ł
íĦ ¸
ĠìŀĪëĬĶ ì§Ģ
ìĿ´ìĹĪ ê³ł
Ġëĭ¬ ëĭ¬
ĺ Ĳ
¦° ìĿ´
ĠëĤĺìĻĢ ìĦľ
å ħ
ë² Į
¯¸ ê°Ģ
íļĮ ìĿĺ
Ġê±°ë Ŀ¼ê³ł
Ġë´Ĳ ëıĦ
Ġë§Ĳë ¡ľ
ìĿ´ ì£ł
ĠìĤ¬ì§Ħ ìĿĦ
ìĬ¤ íģ¬ë¦¼
ĠíĹ ¤ë
ĠíĸĪ ìĸ´ìļĶ
ìłģ ìĿĦ
Ġê³³ ìĹĲìĦľ
ì¡´ë §Ľ
Ġë¶Ī ê³¼
Ġë Ŀ¼ê³ł
ìħ Ķë
ìŀĪ ìĸ´ìļĶ
íķĺë £¨
Ġì¹ľêµ¬ ê°Ģ
Ġê°Ģë Ŀ¼
Ġë§ ¨ë
íĸĪëĭ¤ ê³ł
oo k
u m
ĠëĽ° ìĸ´ë
Ġê²ĥ ìĿ´ëĿ¼ê³ł
ĠìŀĪìĹĪ ìĸ´ìļĶ
ìĬ¤ë łĪ
ĠíĮ ¬
íı Ĳ
ĠìĿ´ë ²¤íĬ¸
êµ¬ ëĬĶ
Ġê·¸ ìłľ
êµ °ë
ìŀ¬ë ¥¼
ĠìĿ¼ë ıĦ
Ġëª» íķ´
Ġê²ĥ ê³¼
° ľë
Ġëį ©
ìĭĿ ëĭ¹
ì° ¨ë¥¼
ĠìĿ¼ ìĹĲ
ĠìłĢë Ł°
ĠëģĿ ìĹĲ
Ġìĥģ ì²ĺ
Ġíĸ Īë
ĠìĹĨ ì§Ģ
ëĮĢë ¥¼
¥ ĺë
½ ķ
Ġëĭ¹ìĭł ìĿ´
Ĥĺ ê°Ģ
Ġê¹Ģ ì¹ĺ
Ġê´ Ģë¦¬
ìĬ¤ íĭ±
ìĺ¤ ì§Ģ
Ġë¶Ģë Ķª
Ġíĳ ¹
Ġìĺģ íĻĶë¥¼
ĠìĤ¬ëŀĮë ĵ¤ìĿĦ
íķĺ ê±°ëĤĺ
ìķł ìķł
ìĹĲìĦľ ìĿĺ
ìŀĪ ê³ł
Ġê·¸ëłĩ ì§Ģë§Į
ìłĦ ìĿ´
ì¤Įë §Ī
ĠëĮĢ íĨµëł¹
ë§Ľ ìŀĪëĭ¤
Ġëĸ¨ìĸ´ ìł¸
ĠëĤ´ë ¦¬
¹ ìĭľ
Ġê¸° ìĤ¬
Ġê³³ ìĿĢ
ì¥ Ĳ
Ġìĭł ìĦł
ê± ¸ë¡ľ
íĤ¤ ê³ł
Ġê°Ĳë ıĻ
ì§Ħ ìĿĺ
ìĿ¼ ìĿĢ
ĠìĹ ¼ë
íģ¬ë ¥¼
ìĦ± ìľ¼ë¡ľ
Ġì¹ľ ìłĪ
Ġëª°ë ŀĲ
° į
íĺ ¼ë
ìĭł ìĿĢ
Ġê·¸ë§Į íģ¼
Ġê·Ģ ì°®
Ġê°ľìĿ¸ ìłģìľ¼ë¡ľ
ĠìķĦ ìĿ´ë¥¼
Ġ p
Ġìĭľ ì¼ľ
Ġëĭµ ëĭµ
om e
Ġê½ ī
ĠìĽ Į
Ġì§Ĳ ìŀĳ
Ġë°Ľ ìķĦëĵ¤
ê´Ģ ìĿĦ
Ġìĸ´ë ¥¸
ĠìķĬìĿĦ ê¹Į
Ġì¶ ¤
ĠìĿ´ ëĬĶ
Ġ2 00
ê² ¸
ĠìķĦë §ĪëıĦ
ĦĪë ¬´
1 1
ìĿ´ìĹĪ ëĬĶëį°
ĠëģĿ ê¹Įì§Ģ
ìĥĿ ê°ģ
Ġì¹¨ë ¬µ
Ġëĭ ®
Ġíĺ¸ íħĶ
Ġê°Ģë ²¼
ìĦł ìĥĿ
?? ?
ì§ĳ ìĿĦ
ê¸°ë ¡Ŀ
´¤ ëĬĶëį°
ì¢ Ģ
íĶ ½
Ġì²Ń ëħĦ
ë Ŀ¼ë©´
Ġëĳ Ķ
ëĭ «
ĠìķĦë ĥĲ
Ġë³´ ìĿ¸ëĭ¤
ê²łë Ħ¤
ìĭ ¹
ĠìŀĪ ìĿĮ
ìĭĿ ìĿĺ
âĢ¦ ,
Ġë¬´ ìĦŃ
Ġëª ¬
Ĩ Īë
ìĿ´ìĹĪ ì§Ģë§Į
ħ ¼
Ġë§Ī ì¹¨ë
Ġì¶ ĺ
! '
Ġëª» íķĺ
ê¹ ¨
ê¸¸ ìĿ´
ëĤĺ ëıĦ
Ġë§¤ë ł¥
ĠìĭĿ ìĤ¬
¬ë Ł¬
Ġì ĮĢ
Ġë¨¹ ìĸ´ìķ¼
§ ¥
ĠìķĦì¹¨ ìĹĲ
Ġíķľ ëıĻìķĪ
ìĭŃ ëĭĪê¹Į
ìĿ´ ê±°
ë³ Ģ
íĺĦ ìĿ´
ĠëĶ°ëľ» íķľ
ĠíļĮ ìĤ¬
ìķĦ ì£¼
ĠðŁ į
ĠìĹŃ íķł
Ġìłķ ë³´
ĠëŃ ī
êº ¼ë
ĠìĥĿê°ģ ìĿĢ
Ġìłģ ìĿĢ
Ġ" âĢ¦âĢ¦
ê³ Ħë¡ľ
Ġìŀĳ ê°Ģ
ĠêµŃ ëĤ´
Ġíĭ °ë
ì² ´ë¡ľ
Ġì Ł
h e
Ġë§İ ìķĦ
Ġíıī ìĥĿ
ìĪĺ íķľ
ìķ ¤
Ġíķľ ëį°
ì¡ Įë
ĠìĦ¸ìĥģ ìĿĦ
ìĽĲ ìľ¼ë¡ľ
= =
ĠìĤ ¼ë
Ġì£¼ ìłĢ
ê¹ Ģë
ĠìĦ Ń
ì¼Ģ ìĸ´
ĠìĤ¶ ìĿĺ
ĠíĿ¬ë §Ŀ
ìĺ ¹
ĠìĿ¸ ìĤ¬ë¥¼
Ġê³³ ìľ¼ë¡ľ
Ġê³ł ë§Ļ
¦° ìĿĢ
ĠíĭĢë ¦¼
ëĬĶ ëį°ëıĦ
ì¤ĳ íķľ
Ġë°ĶëŀĮ ìĿ´
ìĿ´ ìĥģ
Ġëķ ¡
Ġìŀĳ ìĹħ
Ġê°ķ ëł¥
ì£¼ë ¡ľ
ìĮ į
ı Ī
´Ĳ ìļĶ
Ġìħ Ī
ĠìĿ Ħ
Ġ ãħľãħľ
ìĿ´ ìħĺ
Ġê´ ´
Ġê·¸ë ł¤
Ġë¨¸ë ¦¬ê°Ģ
ĠìĨĶì§ģ íŀĪ
ĠìŀĲ ëĬĶ
Ġê¿ Ģ
´ íĳ¸
ëı Ī
ĠìĿ´ë¦Ħ ìĿ´
ĠëĤł ìĶ¨
ìĿ´ë ĵ¤
ìĦľ ìļ¸
ì¤ĺ ìķ¼
ĠìĺĪ ìĪł
Ġì§§ ìĿĢ
ê³ł ë¥¼
ĠìķĦ ìī½
Ġë¬¼ë Ł¬
th e
Ġë§ŀ ì¶°
Ń Ĳ
ëĤĺ ê²Į
Ġë¬´ ìĭľ
ĠìĦľë ¹Ħ
ª °
êµŃ ìĿ´
ĠíķĺëĤĺ ìĶ©
ĠìķĬ ëĭ¤
ĠëĤ´ë ł¤ë
Ġë²Ħë ¦°
Ġ N
ĥ Ĳë
ìĥī ìĿĦ
ĠìŀĲìĭł ëıĦ
ĠìķĮ ìķĺëĭ¤
ìį ¹
Ġë°ĶëĿ¼ë ³´ë©°
ìĿ¼ ìĹĲ
Ġëı ĭ
Ġë¬´ìĹĩ ìĿĦ
Ġëĵ¤ìĸ´ ìĺ¨
Ġìĸ´ë¨¸ëĭĪ ëĬĶ
Ġì°¨ë Ŀ¼ë¦¬
Ġë¶Ī ìĿĦ
ĠìĹĦë§Ī ëĬĶ
Ġìĭľ íĹĺ
ë ©Ķ
¬ë įĺ
ĠíķĺëĬĺ ìĿĦ
Ġ G
Ġê¸° ìļ¸
ì²ĺë ¥¼
Ġëª¨ëĳĲ ê°Ģ
Ġìĸ¸ ìłł
Ġíķ «
Ġìµľ ê·¼
Ġë¬´ë łµ
ë¶Ģë ¥¼
ĠëĦĵ ìĿĢ
ļ Ŀ
Ġìŀ Ħë
ìķĪ ìĿĦ
ìŀĲ ìĻĢ
ĠìĹĨ ì§Ģë§Į
ëĵ¤ ëıĦ
Ġë§Īì¹¨ë Ĥ´
ê¸Ī ìĿĦ
ĠìķĦëĭĻ ëĭĪëĭ¤
¥ µ
Ġë¶Ħ ìĿ´
ëĤĺ ëĿ¼
ĠìĹ´ ê³ł
łë ¡ľ
Ġë§Ī ëĭ¹
²Ħë ł¸ëĭ¤
Ġì¤ĳ ìķĻ
ĠíķĺëĤĺ ë¥¼
¶Ģë Ł¬
ĠíĸĪ ê³ł
ìĹĲ ê²Įë
ĠëĤ ¬
íķ´ ìł¸
ìĤ¬ ìĿ´
Ġìľł ìĿ¼
ì§Ģ ìĻĢ
Ġìĥ ĲëŁ¬ëĵľ
ĠìķĦë²Ħì§Ģ ìĿĺ
ĠëĨ ĪìĿ´
Ġì§ Ŀ
Ġì¹ĺ íĤ¨
ê²¹ ìĤ´
© ¸
ìĿ´ ê²Į
Ġ ********
íĨłë ¡Ŀ
Ġëħ¸ë ł¤ë
Ġëĵ¯ íĸĪëĭ¤
ëĵ¤ ê³¼
Ġë°ĺë ĮĢ
ë Ĵ
Ġë¹łë ¥¸
Ġì½ ľë
ĶĶ ìĺ¤
ìĺ ¨ë
ðŁĺ Ĩ
Ġë¶Ļ ìŀ¡
łëĥ ł
ĵľ ìĿĺ
Ġë ī´
íĥ ľë
íĨłë ¦¬
Ġë§Ľ ìĿĦ
Ġìķ Ļ
ìļ°ë ¥¼
íĿ¬ ê°Ģ
Ġë° Ł
Ġë§Īë Ŀ¼
ì¤ Ģë
Ġë°¥ ìĿĦ
Ġìĺ¤ ëĬĺë
Ġì¹ ¼ë
Ġê²ĥ ìĿ¼ê¹Į
Ġë°ĶëĿ¼ë ³´ê³ł
ĠìŀħìĪł ìĿĦ
Ġë¬¸ìłľ ëĬĶ
v e
Ġìŀħ ë§Ľ
ĠìĹ ĺ
Ġê·¸ë ¦ĩ
ëĦĪë ¬´
ì» ¨
ĠìºĲë¦Ń íĦ°
ĠëĤł ì¹´ë
íĥ ĳ
ë§Į ìĿĦ
ìĤ¬ íķľ
ðŁ ¥
ìĹĲ ê²ĮëıĦ
íģ¬ë ¡ľ
íķĺë Ħ¤
ĠëĪĦêµ° ê°Ģ
ĠìĿĢ ê·¼
ìĿ´ë Ł°
ìķĺ ìĸ´
ëĭĺë ĵ¤
Ġê½ Ĥ
ìĺ¤ ìĺ¤
ìĸ´ë²Ħë ¦°
Ġíİ¼ ì³Ĳ
ìħĶ ìķ¼
ìĭľ íĤ¨
ìłľ íĴĪ
å ®
ìħĢ ì¹´
ĠëĤĺ ìģľ
ëĶĶ ìłĢíĬ¸
ìľ¼ ìĭł
ìĦľ ëıĦ
Ġê·¸ëŁ¬ ê³ł
Ġìĺģ ìĥģ
ĠëĤĺë¨¸ ì§Ģ
i on
Ġ R
5 0
¶Ģ ê°Ģ
ĠìĪľ ìĭĿ
Ġìŀħ ìĹĲìĦľ
ê¹Ģ ì¹ĺ
įĶ êµ°ìļĶ
ìŀĦ ìĿ´
Ġê°ĢëĬ¥ íķľ
Ġê³³ ìĿĦ
sel f
ë§Į ìĽĲ
ĠìĤ¬ ìŀ¥ëĭĺ
ĠìĦľë ĳĺëŁ¬
§ ¹
ì§Ī ìĿ´
ĠìŀĪëĭ¤ ê°Ģ
ĵ¤ ê³ł
íĺ Ī
ãħĭãħĭãħĭãħĭ ãħĭãħĭãħĭ
ë ķ
ìĿ¸ ì¹ľ
Ġë¬´ ì¡°ê±´
ĠìĹ¬ ê¸°ìĹĲ
Ġì²ĺ ìĿĮë
Ġì¶© ê²©
íķ «
ħ Ģë
ìĹ¬ë ¦Ħ
ĠëıĻ ë
êµŃ ìĿĦ
ìĽ Ķë
Ġì¢ĭ ìķĦìĦľ
ĠìĤ¬ëŀĮë ıĦ
ĠìľĦ ìĹĲìĦľ
Ġì³ Ĳë
Ġëĵ¤ ìĿ´
ìŀĲë ¦¬
ìĿ¸ìĬ¤íĥĢ íĳ¸ëĵľ
ê°Ģ ì¡±
Ġëĭ¨ ì§Ģ
Ŀ¼ ìĿ´ë
ì ĳ¥
Ġì¶Ķ ìĸµ
íĥ ľë¥¼
° Ģë
ë ł¤
ìĪľ ìĿ´
Ġëª¨ë ĳĲë
ë§Į íķľ
ìķĪ ìĹĲ
ì ı
Ġëĳĺë Ł¬
ĠìŀĲ ê³ł
Ġìłľ ì£¼
ìĭ ¼
Ĥĺ ê²Į
ìĿ¸ë ıĦ
Ġì» ¨
ìĽĲ ìĹĲìĦľ
ĠìĥĿ ê²¼
íģ °
Ŀ½ ìĿĦ
Ġë°ľ ìĿĦ
ŀĳ ìĿ´
Ġíķ µ
íķ ı
Ġê°ĲìĤ¬ íķ©ëĭĪëĭ¤
ĠìĹ¬ ìŀĲë¥¼
Ġê¸°ìĸµ ìĿ´
Ī Ħë
ìľ¡ìķĦ ìĬ¤íĥĢê·¸ëŀ¨
Ġâ ĺ
Ġê¸ ĢìĿĦ
³´ ê¸°
Ġìķī ìķĺëĭ¤
ĠìĻ ľë
Ġì¢ĭ ìķĺëĭ¤
ª© ìĿĦ
Ġìŀ ĪëıĦë¡Ŀ
Ġê³ł íĸ¥
ìĿ´ìĹĪ ìĬµëĭĪëĭ¤
ê¸Īë §Į
Ġì¶ Ķë
íĭ Ģë
ë¨¹ ìĬ¤íĥĢ
ĠëĤ «
Ŀ¼ë §Ī
a c
ì§Ģë ©°
ìĵ °ë
Ġë¹Ħ íķ´
ìĹĲ ìĦł
Ġëĵ¤ ìĹĪ
ìĺ ´
ĠëĤ¨ ìŀĲìĿĺ
Ġìĭ¶ ìĸ´ìĦľ
ĠëĤ¨ ìŀĲë
¦Ħ ìĿĦ
Ġê±¸ ìĿĮìĿĦ
ìĿ¸ ê³¼
ĠíĻ Ī
ĠìĪĺ ë¶Ħ
ì£¼ë §Ĳ
ķĮë §Īëĭ¤
ê¶Į ìĿĦ
ì¤ ĢìĿ´
Ġê¸¸ ê²Į
Ġì°¾ ëĬĶ
Ġìĭ¸ ìĽĢ
ì² ¨
ìĿ´ë ²¤íĬ¸
Ġì» ´
íĮ ¡
ìī ¬ë
´ ¤ëĭ¤
Ġì¤ĳ ê°Ħ
ìĦ¸ ê°Ģ
¹ ¨ë¦¬
į ¤
ĠìķĦë¬´ íĬ¼
Ġì§ ķ
Ġëļ Ŀ
Ġê¼ ´
Ġìļķ ë§Ŀ
ìĦ± ê³¼
ģ¼ë ¦¬
ĠìĿ¸ íĦ°ë
ĠìķĬ ìĬµëĭĪëĭ¤
Ġìĭľìŀĳ íķľ
Ġëª©ìĨĮë ¦¬
ìĪĺ ë¡ľ
ĠëŃĲ ìķ¼
Įë ĵľ
Ġìŀħ êµ¬
Ġíķĺ ëĭ¤ê°Ģ
ëĭ¬ë Ŀ¼ê³ł
êµĲë ¥¼
Ġë°ĺë ³µ
Ġì¡° ì§ģ
Ġëª°ë ŀĲëĭ¤
á ´
Ġê±´ ì¡°
Ŀ¼ ê°Ģ
ĠìķĪ ìĭ¬
ĠìķĦëĭĪ ì§Ģë§Į
ìĸ´ ì§Ģê³ł
a p
Ġë¹¼ ìķĹ
ìĭľ ì§Ģ
ŀĺ ìļĶ
ìķĦ ìĿĺ
Ġíĳ¸ ì§Ĳ
ìĦľ ê°Ģ
ĠìŀĲ ì²´ê°Ģ
Ġìŀħ ëĭĪëĭ¤
ê° ĸ
ëĵ¤ ìĹĲê²Į
Ġíķľ ìŀĶ
ê±°ë ¦¬ê³ł
Ġâľ Ķ
Ġë¨¹ê³ł ìĭ¶
ĠíĿĺë Ł¬
Ġë³ ¼ë
ë§ ¤ë
§Į ìĿ´
ë°Ķ ëĭ¥
ìĿ´ìĹĪ ìĸ´ìļĶ
Ġìłľë ²ķ
¨ë ıĻ
Ġì£¼ ì§Ģ
Ġë°Ķ ê¾¸
íķĺ ëĭĪê¹Į
Ġëª¨ìĬµ ìĿĢ
ìĭľíĤ¤ ëĬĶ
¡± ìĿ´
íĺ¸ ìĿĺ
Ġ !!
Ġìĺ¬ë ł¤ë
ìŀ¥ ê³¼
Ġì¹´ë ©Ķë
Ħ ê¹ĥ
ĠìĮ į
Ġ ãħľ
Ġì¤ĳ ìĹĲìĦľ
Ġì²´ íĹĺ
ëĤĺ ìļĶ
Ġê³Ħë ŀĢ
Ġëĭ¨ ëĭ¨
ìĦĿ ìĿĢ
ĵ¤ ë¡ľ
ĠíħĮ ëĭĪ
ëħ ĦëĮĢ
ĠìĿ´ë ķĮ
íķĺë ĵ¯
¯¸ ëĬĶ
ĠëĤ ¬ëĭ¤
ê¹Įì§Ģ ëıĦ
Ġê²ĥ ìĿ¸ì§Ģ
êµ¬ ìĿ´
ìĿ¼ìĥģ ìĬ¤íĥĢê·¸ëŀ¨
Ġìĺģ ìĽĲ
ì° ¾
Ġëĭ¤ë ¦¬
ìĨĮë ¡ľ
ĠëıĦ ìĽĢìĿĦ
ĠìĹ İ
Ġì½ ĺ
ìĤ° ìĿ´
ìĺ¤ë ¹ł
Ġë§Įë Ĥł
Ġëĭ¹ìĭł ìĿĢ
į ©
Ġë°© ìĨ¡
ĠíĮĲ ëĭ¨
ê²¨ ìĦľ
Ġëķ Ĳ
Ġë¹Ħ ê°Ģ
©Ķë ¦¬
ë łĪ
ìķĦë Ĥĺ
ĠëĮĢ ì¶©
ìłģ ìĿ´ê³ł
Ġê´ľ íŀĪ
Ġì§Ģ ì¼ľ
ìĺ¤ë ©´
ë§Ī íĬ¸
ł¤ ìķ¼
Ġë°°ë ¥¼
ĠíķĦìļĶ ê°Ģ
Ġê° Ŀ
ĠìĪľìĭĿ ê°ĦìĹĲ
Ġ s
ì§ģ íķľ
Ġë³´ íĺ¸
ê°ľ ìĿĺ
´ ëĭ¤
íİ ľ
Ġ H
ł¤ ìļĶ
ê»ĺ ìĦľëĬĶ
ĠëĤ´ë ł¸ëĭ¤
Ĳ Ĳ
ì±ħ ìĿĦ
Ġì¦Ĳ ê±°
ì² ©
ìĨĮ ìĦ¤
Ġë°© íĸ¥
ì§Ģ ìŀĲ
Ġê² ¸
ĠëĦ Ĳ
Ġë² ĪëıĦ
ĠíĿĶëĵ¤ ë
ê°Ħ ìĿĺ
ĠëĺĲ ëĬĶ
ł ·
Ġìĸ¼êµ´ ìĿĢ
Ġëĺ Ĳë
ĠíĿ ©
ê°Ģë £¨
ë¶Ģ ìĤ°
Ġë¸Ķë ŀĻ
ëıĦ ë
ĠëĤ ©
ŀ ©
Ġë¿Ĳ ìĿ´ëĭ¤
Ġìĺ ³
ìº Ĳ
ë§Ī ìĬ¤
Ġìŀł ìĿĦ
ıĦ ë¡Ŀ
Ġìĸ ĩ
ìĹŃ ìĭľ
Ġê°ĢìĬ´ ìĹĲ
Ġìĺ¤ íĶĪ
Ġìĸ´ë¨¸ëĭĪ ê°Ģ
ĠìĹ° êµ¬
¿ į
ĠìĪ «
ª¨ ê°Ģ
ìĿ´ì§Ģ ìļĶ
ĠìĻ¼ ìª½
Ġì§ľ ì¦Ŀ
Ġíĥ ĢìĿ´
Ġë§Ĳ íķĺ
ìŀĪ ê²Į
Ġìłľ ìŀĳ
ìĽłë įĺ
ŀĢ íŀĪ
ĠìķĪë ħķ
Ġíİ ĺë
¦¬ë Ĥĺ
Ġ4 0
ĠíĤ ¤ë
Ġìŀł ìĿ´
į ½
£ ¨ë¥¼
íĶ¼ ìŀĲ
ĠíĽ Įë
Ġêµ¬ ìĦĿ
ì¹ĺ ê²Į
ĠìŀĲ ê¸°ê°Ģ
Ġìĸ´ì¨ Įëĵł
n i
an d
ĠìĿ´ê²ĥ ìĿĢ
Ġìĭ ¹
Ġìĸĳ ìĿ´
Ġì² ¨
§ŀ íĮĶ
ìĻ Ķëįĺ
Ġì§Ģë °©
Ġê²ĥìĿ´ ìĺ¤
ë²Ī ì§¸
Ġë¶Ī ê°ĢëĬ¥
ìĬ¤íĥĢ ìĿ¼
ëĺ Ĳ
Ġê³µ íı¬
ì°Į ê°ľ
ĠìķĮ ì§Ģ
ĵľë ¦´
Ġê³ ¤ë
ê·¸ëŀĺ ëıĦ
ŀĢ ëĭ¤
Ġëĸ¨ìĸ´ ì§Ħ
íĨµ ìĿĦ
ìĪ ľë
ĠëĲľ ëĭ¤ëĬĶ
Ġì£½ ìĸ´
Ġê±´ ê°Ģ
êµ¬ë §Į
ĠíĮĲ ë§¤
Ł °ëį°
Ġëª© ìĪ¨ìĿĦ
¶ ķ
ãĦ ¹
ł Ľ
íķĺë ł¤ëĬĶ
Ġ1 6
¦¬ë ¸Į
Ġìĺ¤ë ŀ«
ĠíĻĶë ł¤
ĠëĲĺ ê²Į
Ġêº ¼
Ġì¡° ê°ģ
ĠìķĪ íĥĢ
ĠìĿ¼ ì£¼
Ġê·ĢìĹ¬ ìļ´
Ġë§ŀ ìĿĢ
Ġìĵ ¸ë
Ġë§¤ ìļ´
ĠëıĮìķĦ ìĺ¨
ìĤ¬ë ıĦ
ê² ¬ë
íı ¼
Ġë¯¼ ì¡±
Ġ ãĨį
ì¹ ľë
Ġìłķìĭł ìĿ´
ĠìķĬ ìķĺëįĺ
ìĿĦ ëķĮ
Ġìĸ ¹
ë ĸ
ıĻ ìĥĿ
ìľ Ħë¡ľ
æ ľ
ë ¡ł
Ġëĵ¤ìĸ´ ê°ĢëĬĶ
k or
ł¤ë Ĥĺ
ĠëĤĺë ¦Ħ
Ġë§Įëĵ¤ ìĹĪëĭ¤
Ġê±°ì§ĵ ë§Ĳ
Ħ ·
ê²ł ì§ĢìļĶ
íĬ ľë
Ġì± Ħë
ìĬ¤ ëıĦ
ĠìĿ¸ ê°Ħë
Ġãħ ¡
íķĺ ìħ¨
ĠìŀĲ ì²´
íĨ ±
ì°¨ ê²Į
Ġìĭ¤ íĮ¨
íķłë ķĮ
Ġë¶Ħëªħ íŀĪ
Ġê·¸ ìĹĲ
ĠìĤ¬ë °©
ìĤ¬ ìĻĢ
Ġìĭ¬ ì§Ģìĸ´
Ġì¡° íķ©
ì» ¬
¬¸ ìĿĺ
ì² «
Ġê¸°ë ıĦ
Ġëĭ ¥
ìĭľë ¡ľ
êµ ¿
íĿ ĺ
ì¢ħ ìĿĺ
f f
Ġë°ĺ ì§Ŀ
ĠêµŃ ë¯¼
ĠëŃĲë Ŀ¼ê³ł
Ġê·Ģ ì¡±
íĢ ´
Ġê¹Ĭ ìĿ´
ìĭ¤ ìĹĲìĦľ
ëħĦ ìĹĲ
Ġíĩ´ ê·¼
ìłĢ ëĬĶ
ĠëıĦ ë¡ľ
ĠìĿ´ë §Ī
ĠëıĦ ìĭľ
ìĨį ìľ¼ë¡ľ
Ġë°± ìĦ±
ĠìŀĲ ê°Ģ
¸ Ĳ
---- ----
Ġìº Ĳ
ãĦ ´
Ġëľ¨ ê±°ìļ´
Ġë§Įëĵ¤ ìĸ´ë
ê³Ħ ê°Ģ
íĮ ¬
t o
ĠìĿĺ ìĭ¬
ìĹ° ìĿĢ
íħ Ĳëį°
ĠëĤĺ ë©´
Ġë¶Ħë ħ¸
Ġë§İ ê³ł
ìłĢë ıĦ
ê¸°ìĹĲ ëıĦ
íĴĪ ìĿĦ
³ ¶
ë§ ¹
Ġ w
ĠëĥĦìĥĪ ê°Ģ
Ġë¶Ģë ¥´
ê³Ħ ìĿĺ
Ġë¨¹ ìĹĪ
Ġíİ¸ íķĺê²Į
Ġì°¸ ìľ¼ë¡ľ
Ġë µ
ìłĪ íķľ
ĠìĺĨ ìľ¼ë¡ľ
ĠìĹĲ ìĦľ
ĠìĥĪë ģ¼
ì» µ
ìĻĶ ìĸ´ìļĶ
Ġ _
ĠìĿĮ ìĭĿìĿĦ
ìłĲ ìĭ¬
Ġê¹ Ķ
ĠíĽĦ ê¸°
Ķ ±
ë² ½
Ġë´Ĳ ìķ¼
Ġìķī ìķĦìĦľ
Ġë¹Ħ íĸī
Ġìĺģ íĺ¼
Ġìĺģ ìĸĳ
ê²ģ ê²Į
ìĸ´ ì§Ī
íķ ¨ë
Ġì° Ķë
Ġë§Į ìĹĲ
ìĤ¬ë ŀĮë
¥¸ ëĭ¤
ĠíķĺëĤĺ íķĺëĤĺ
Ĥ´ë ¥¼
Ġìķī ìĿĢ
ĠëĨĵ ìĿĢ
Ġìŀ¡ ìķĦë
ìĿ´ íķľ
Ġì±ħ ìŀĦ
y ou
ê°Ĳ ìĿĢ
ãħİãħİ ãħİ
Ġêµ¬ ìĽĮ
ĠìĥĪ ìļ°
Ġë¨¹ ìľ¼ëŁ¬
ìłĲ ìĹĲìĦľ
Ġëª¨ìĸĳ ìĿ´ìĹĪëĭ¤
Ġë¬¼ë Ł¬ë
Ġì·¨ íĸ¥
ìĨį ìĹĲìĦľ
Ĥĺ ë
ë¬¸ íķĻ
ê±°ë ¥¼
Ġíķľë§Īë ĶĶ
ëĭ¨ ìĿĺ
Ġë³ĳ ìĤ¬ë
Ġê¸° ì¡´
íķĺ ëıĦë¡Ŀ
ë§ Ĳë
Ġë²Ħë ¦¬ê³ł
Ġë¶Ħë ĵ¤ìĿĢ
ìĹ° ìĿĦ
ĠìķĦëĭ Įëį°
ĠíĿ Ļ
Ġë¬¸ íĻĶ
ĠëĤ ¼
Ġ F
ìĥ µ
Ġì¢ĭ ì§Ģ
Ġê°Ĳ íŀĪ
ĠìŃ ī
ðŁĺ Ĥ
ì° ¬ë
ĠíĮ ½
Ġíĳľìłķ ìĿ´
Ġì°¨ ì§Ģ
Ġìŀĳ ìĦ±
Ġê´ľì°® ìĿĢ
Ġìĺ¤ë¥¸ ìª½
ĠìķĬ ìķĦìļĶ
ĠëĬĲëĤĮ ìĿĦ
Ġë§Ľ ëıĦ
ëĲ ĺë
ĠìĥģíĻ© ìĿĦ
Ġ1 3
íĺĦ ìĿĺ
ìľĦ ìĿĺ
Ġì¶ľ ê·¼
Ġìĭ¬ ê°ģ
Ġíķ ı
Ġì¡ ¸ë
â Ĺ
ĠìĿ´ë ŀĺ
ëĮ ķ
ĠìĦłë °°
ìĿ´ë ²Ħ
íķĺ ë¥¼
Ġìµľê³ł ìĿĺ
1 7
ì¦ Ļ
ìĹ° ìĿĺ
ìį ©
ì± Ħë
Ġëª ¹ìĭľ
íĹ ī
Ġë°© ìľ¼ë¡ľ
Ġìĸ´ëĶ ĺ
food stagram
ìĦł ìĿ´
íķĺ ê¸´
ĠëĤĺíĥĢë Ĥľ
Ġê´Ģ íķľ
ìķĪ ìĿĢ
ĠìķĬìķĺ ì§Ģë§Į
Ġë§ŀ ìķĦ
ìłľ ì£¼ëıĦ
ì§ ľë
ìħĢ ìĬ¤íĥĢê·¸ëŀ¨
Ġì³Ĳëĭ¤ë ³´ìķĺëĭ¤
! ãĢį
Ġê²ĥìĿ´ ê³ł
1 5
ìĬ¤ íĦ°ë
ìĿ´ë įĺ
ì§ĳ ìĿ´
ic i
Ġì°į ìĸ´
Ġë§Īë¬´ë ¦¬
Ġë¹ Į
ĠëĮĢ ê¸°
Ġìĸ´ëĸ ł
§ ¨
ìľ¡ ìķĦë
ĠìĦ± ë¶Ħ
¬ë ¿į
ìĦ¸ íĬ¸
Ġíķ¸ë ĵľ
ê ¶
ĠëĤĺ íķľíħĮ
Ġíľ´ë ĮĢ
ĠíĽ Īë
Ġë³´ ìķĦ
ìĺģ ìĥģ
Ġì¹ĺ ê³ł
ĠíĶ¼ ê°Ģ
ê¹ ¥
Ġê±¸ ìĿĮ
ì¹ĺë ©°
ìĬ¤ ìĻĢ
ĠìĤ¬ìļ© íķĺëĬĶ
p et
ê·¸ë łĪ
Ġìļ© ìĦľ
ĠìŀĲ ìľł
Ġë§¥ ì£¼
Ġìĸ´ëĶ Ķë
Ġíĸīë³µ íķľ
Ġëĭ¤ ìĨĮ
ëĭ¨ ëĭ¤
Ġìª ¼
Į Ķëĭ¤
Ġíĺ ģ
Ġìļ´ ìĺģ
Ġê² ¨ë
Ġë¯¿ ìĿĦ
Ġì¦Ĳ ê¸¸
Ġìĺ¤ ì§ģ
Ġê±¸ë ł¤
Ġë°ĺ ì°¬
ìĸ¸ ëĭĪ
2 5
Ġëĭ ĺ
ê²ĥ ìĿ´
Ķ ĺ
ĠìŀĲìĭł ìĹĲê²Į
ĠëĬĲê»´ ì§ĢëĬĶ
ë ĥĲ
ë³´ ëĭ¤ëĬĶ
ĠëĳĲë ĵľë
Ġë Ŀ¼ëĬĶ
ł¸ë įĺ
íķĺê³ł ëĬĶ
łĮ ì§ķ
ĠìĿ¼ë ¶ĢëŁ¬
Ġìĸ´ ì°Įë
ĠìĨĮë¦¬ ì³¤ëĭ¤
ëĭµ ê²Į
Ġë°© ê¸Ī
ĠëĪĪë ıĻ
¢ °
¬¸ ìĿĢ
Ġë³´ë Ĥ¸
ê²Įë Ĥĺ
ĠíĮĮ ìķħ
ĠìļĶë ¦¬
ìĽ ¨
ë¶Ģë ¦¼
ìķĪ ìĿ´
ĠìĿ´ë łĩ
ĠëĲľ ëĭ¤ê³ł
Ġë¯ ¼ë
ìķĦë ¥¼
° Ń
Ġë§Įëĵ¤ ê³ł
Ġì²ĺìĿĮ ìľ¼ë¡ľ
Ġâ Ŀ
íĻ Ģ
ĠëĳĲë ²Ī
ë³´ë ¥¼
ĠìķĦë ŀĺë¡ľ
ìĿ¸ ìľ¼ë¡ľ
ĠìĤ¬ëĤ´ ê°Ģ
¶Ģ ìĿĺ
ĠëĬ ĻìĿĢ
ĠíĬ¹ë³Ħ íķľ
Ġ1 4
ë £¨
Ġìĺ¤ëĬĺ ìĿĺ
¦¼ ìĿĦ
Ġ ï¼į
ì§Ģ ë©´ìĦľ
ĠëĤĺ ìĦ°ëĭ¤
Ġìĸ´ë¨¸ëĭĪ ìĿĺ
Ġ ?
ì¤Ģ ìĿĢ
ë§Į ìĿĢ
Ġìĭľê°Ħ ìĹĲ
¬ë ½ķ
Ġë§Ĳ íķľ
íħĮ ìĿ´ë¸Ķ
ĠìĤ¬ ìŀ¥
ìŀĳ ìĿĢ
ĠìĹĨ ëĬĶëį°
ìĺ¨ ëĭ¤
ĠìĹ¬ ê¸°ëĬĶ
ê·¸ëŀĺ ìĦľ
ìļ ¤
Ġë§Īì§Ģë§ī ìľ¼ë¡ľ
ê·¸ ê±´
Ġì£¼ë °©
self ie
ĠìĨį ìĿĺ
ĠíĽĮë ¥Ń
Ġë¨¹ ìĹĪëĭ¤
ĠìĥĿê°ģ íķ´ë
ëĲľ ëĭ¤
Ġíĳ¸ë ¥¸
Ġê´Ģ ìĭ¬
Ġëģ Ī
Ġëħ¸ë ¦ĩ
ì¤ĺ ìĦľ
d e
Ġ1 7
Ġëª¨ ìĹ¬
íģ¬ ëĬĶ
ĠìłķëıĦ ëĬĶ
Ġë§Ŀ ìĦ¤
ìĿ¸ë ¶Ħ
ëĭ¤ìĿ´ìĸ´íĬ¸ ìĭĿëĭ¨
Ġ O
ĠìłĢíĿ¬ ëĬĶ
Ġ E
ìķĦë Ŀ¼
Ġíķ´ë ³´
ĠìķĦìłĢ ìĶ¨
ìĭľ ì£ł
Ġê·¸ëħĢ ìĹĲê²Į
Ġë¨¸ë¦¬ ì¹´ë
Ġ ***-****-****
íĿ ł
ë Ŀ½
Ġëĭ¤ ìĿ´ìĸ´
ì¤ Į
Ġêµ ´
ĠâĢ ķ
ëļ ±
Ġëĵ± ìĿ´
ìľ Ĺ
Ġëª¨ë¥´ ê²ł
ĠìĿĺ ìĭĿ
ĠëĨĵ ìĹ¬
ĠëģĮ ê³ł
ê³¼ë ıĦ
Ġëĵ¤ ìĸ´ë
Ġì§ģ ìĽĲë
ë³´ ê³ł
ìĿ´ë Ŀ¼ë
Ġê³łë ĵ±
Ĥ Į
Ķ Ģ
íĬ¸ ìĿĺ
Ġë§Ľ ìĿĢ
ãħ ģ
Ġë°Ķ ê¹¥
Ġê° ĵ
Ġë Ł¬
ĠìķĪ ê³ł
Ġëĵ¤ë ł¸ëĭ¤
Ġìļ°ë ¦°
Ġë¬´ íķľ
Ġíĭ Ī
Ġë§Įë Ĥ¬
Ġìĺ¤ ì§Ģ
ìłĲ ìĿĢ
ìĥ ĲëŁ¬ëĵľ
ĠëĺĲ ëĭ¤ìĭľ
ĠìŀĪ ëĭµëĭĪëĭ¤
ìĻķ ìĿĺ
¦¬ë §Į
Ġë¬´ìĦľ ìļ´
§Īë ¥¼
Ġë§Ī ìĭľ
íķĺ ìĭ¤
ĠðŁ Ļ
íĿ¬ ìĿĺ
Ġë§ŀ ì¶Ķ
ĠíĶĦë ŀĳ
íĪ¬ ìĸ´
êµĲ ìľ¡
ĠìĺĪ ìłĦ
Ġê°Ĳ ìłķ
Ġë³´ ê²Į
ĠíħĮ ëĭĪê¹Į
ê²ĥ ê°Ļ
ĠíĻľ ìļ©
ë ª½
ê·¸ë ĥ¥
ĠìĿ´ê³³ ìĹĲ
ê¼ ¼
Ġë¶Ģë Ł¬
Ġëĵ£ ëĬĶ
Ġë§¤ ëĭ¬ë
¥ ľ
ĠíķĺëĤĺ ëĬĶ
... ?
ĠëıĦ ìłĢíŀĪ
Ġëĭ¹ìĭł ìĿĺ
Ġìĺ® ê²¨
1 6
Ġê·¸ëĤĺ ë§Ī
íĹ Īë
ê° Ĵ
íĹ Ĳ
Ġëĵ¤ëł¤ ìĻĶëĭ¤
ĠíĻ Ģ
ê·¸ë Ł°ëį°
ĠìĺĪ ìłķ
Ġíķ´ ê°Ģ
ê±´ë į°
ĠìĽ Ķë
ĠëĤ¨ ìĿĺ
Ġë°ľ ìĥĿ
ĵ £
Ġìĺ¤ë ©´
ëĭ¨ ìĿ´
ê¸° ê¹Įì§Ģ
ĠìĿĺ ê²¬
ë¨¹ ë¶Ģë¦¼
Ġëľ» ìĿĦ
ĠìĹ¬ê¸° ìłĢê¸°
ĠëĦĪ íĿ¬ë
íĺ¸ë °ķ
Ġê¸ī íŀĪ
ëª ĩ
ìĨĮë ¦¬ë¥¼
insta gram
Ġì§Ģ ê¸ĪëıĦ
Ġìŀ¬ë ¹¨ë¦¬
Ġãħĭãħĭãħĭãħĭ ãħĭãħĭ
íĪ¬ë ¥¼
¶ ĦëıĦ
ĠìĥĿê°ģ ëıĦ
Ġì¹¼ ìĿĦ
Ġë©Ķë ī´ë
ĠëĬĲê»´ ì¡Įëĭ¤
ł¸ ìĿĦ
ĠìĺĨ ìĹĲìĦľ
ĠëĬĲëĤ Ģ
ĠëĲĺ ëĬĶëį°
ìľ¡ìķĦ ìĨĮíĨµ
Ĩ ĢìĿ´
Ĳĺ ì§Ģ
Ġ å
ê³ł ëıĦ
ĠìķĮ ìķĦìĦľ
Ġë°ĺ ê°Ģ
ĠëĶĶ ìŀĲ
ìĬµ ìĿĦ
Ġê´Ģë ł¨
ĠìĿ¼ìĸ´ë Ĥ¬ëĭ¤
ìŀ ĶìĿĦ
ĠíĻĶë ©´
Ġê°ĢëĿ¼ ìķī
ĵ Ń
¶Ģ ëĬĶ
ĠëĴ¤ ìĹĲìĦľ
Ġì° ¸ë
ìŀĲ ëıĦ
íķĺë Ħ¤ìļĶ
ĠíķĦ ìĪĺ
ĠìĻ Ģë
ĠìĺĪë »Ĳ
ĠìĿ¼ ìĸ´
Ġê³ģ ìĹĲ
ìĿ¼ ìĿĺ
Ġì¡° ê¸Īë§Į
íĺķ ìĿĦ
Ġì§Ģë Ĥľë
ĠëĬ¥ ëł¥
ĠíĶ¼ë¶Ģ ìĹĲ
ëªħ ìĿ´
ł¸ ìĬµëĭĪëĭ¤
ĠëıĪ ìĿ´
Ġìĭľ ê°Ħë
± ī
Ġë¶Īë łĢëĭ¤
ĠëıĦ ìĽĢìĿ´
Ġì ĳ¥
ªħ íķľ
Ġëĸłìĺ¬ë ŀĲëĭ¤
ë³´ ëĭĪ
¡ľ ëĬĶ
ĠìĪĺ ìĹħ
ëĤĺ ë¬´
ëĬ ¦
ĠìĤ¬ ìĿ´ë¡ľ
Ġìĺ¤ëŀ« ëıĻìķĪ
ì¡°ë ¥¼
ĠëħĢìĦĿ ìĿ´
ŀ ¨
Ġìį ©
Ġì¢ĭ ìķĺìĸ´ìļĶ
íķĺ ê¸°ë¡ľ
ìĤ¬ ìĺµëĭĪëĭ¤
ļ ±
ê¼ Ń
ĠðŁ ¤
Ġì¹¨ë ĮĢ
ìĩ¼ íķĳ
ì§Ħ ìĿĦ
ĠíĶ¼ë ¥¼
u s
Ġëĭ¤ë ¦Ħ
ê¿ Ģ
Ġê¿ ĪìĿĦ
Ġê¸° ìĪł
íķĺëĬĶ ìĹ¬ìŀĲ
ì ª
ë ¯¼ë
ì¡° ëĬĶ
ĠëĦĪë ¥¼
Ġê·¸ë¦¬ê³ł ëĬĶ
íĮĮ íĭ°
ĠìłĦ íĻĶë
íĺķ ìĿ´
Ġë°° ê³ł
¨¸ëĭĪë ¥¼
ĠìĿ´ ìģĺ
Ġìķŀ ìĦľ
Ġëĵ± ëĵ±
Ķ ľ
u l
Ġìłĳ ê·¼
ìķĦë ³´
ĠíĽĦ íļĮ
ĠìĽ ¬
Ġì² łë
Ġë¬¼ ìĿ´
Ġëį §
ìĭŃ ëĭĪëĭ¤
Ġì¤Ģë ¹Ħë
íķľ êµŃ
ðŁĳį ðŁı»
Ġëĭ¤ë ¦¬ë¥¼
Ġì£¼ ìĭľ
ĠìĿ´ìķ¼ ê¸°ê°Ģ
Ġë§ĲìĶ Ģë
Ġíĥľ ìĸ´ëĤĺ
ĠìĹ¬ ìľł
Ġíıī ë²Ķ
ëĬĶ ê±°
¦¬ë Ŀ¼ê³ł
ĠíĴĢ ìĸ´
Ġë§Ī ìĿ´
ª¨ë ¥¼
Ġì´ ¬ìĺģ
Ġ )
Ġìļ°ë ¦¬ë¥¼
Ġí ĮĢ
ĠìķĬ ì§Ģë§Į
Ġë§Ī ì¹¨
Ġíĥ ĳ
Ġëĵ¤ìĸ´ ìĻĢ
Ġíİ ¸ë
ë įĶë
ê·¸ë §Į
Ġê°Ĳ ìĭ¸
íŀ ĺ
íĶĦë ¦¬
ìĩ ł
ê° ĦëıĦ
ĠìĿ½ ê³ł
¦¼ ìĿ´
í ĮĢ
êµ¬ ìĿĺ
ë§Ī íĨł
íķ´ ì¡Į
ĠìļĶ ê±°
ĠíĹĪë ¦¬ë¥¼
.. ?
ĠëĦ ī
Ġê±°ë ¶Ģ
ì» ¥
Ġìĺģ ìĹħ
íķĺ ì£ł
ìŀ¥ íķľ
ĠíļĮë ³µ
ìĭ¬ íķľ
ì°¨ ê°Ģ
Ġë¶Ģë ¥´ëĬĶ
ĠíĹ¤ ìĸ´
Ĳë ¦¬
Ġë¬´ ìĤ¬
ĠìłĢ ê¸°
ĠìĪĺ ì¤Ģ
ĠìĥģíĻ© ìĿ´
Ġëª° ìķĦ
ë§Ī ìłĢ
Ġê±´ë Ħ
Ġê±°ë ¦¬
ìĹĲ ë§Į
Ġëĭ´ë °°ë¥¼
ìŀ Ħë
ĠìĹ° ì¶ľ
Ġì¢Ģë įĶ
Ġâ Ĺ
ê²½ ìĿĺ
Ġê·¸ëŁ¬ íķľ
Ķ ¸
Ġë¬´ìĹĩ ìĿ¸ê°Ģ
ë łĪë
ìķł ëĬĶ
ĠìĿ´ê²ĥ ìĿ´
ìĥĪë ģ¼
Ġë¹ Ħë¡ľ
ĠëĦĪë¬´ë ıĦ
Ġëĭ´ë °°
ìĮ Ī
Ġë± ĥ
ĠëĮĢëĭµ ìĿĦ
Ġë°ľë Ŀ¼
Ġê³¼ ìłķ
ĠìĨį ìĿ´
ëĪ Ħë
Ġê± į
ìĺģ ìĿĦ
Ġë°Ķ ìĤŃ
Ġê·¸ìłľ ìķ¼
ĠëķĮë ¶ĢíĦ°
ì ĮĢ
Ŀ¼ ìĿ¸
o w
ìĤ¬ ìĭ¤
Ħ ëĭ¤
ĠìĨĲë °Ķëĭ¥
Ġê³ °
ìĹĲ ê²Ĳ
Ġì° ¬ë
¦¬ë ¯¸
Ġë¸Ķë ¡ľ
Ġ ãħłãħłãħłãħł
Ġê³ł ê¸°ë¥¼
ë° Ģ
ìĭľ ìŀ¥
ê²¨ ì§Ħ
Ġëĸłë Ĥľ
Ġêµ¬ë ©į
Ġê³ ¤
Ġë¶Īë Ł¬ë
) .
Ġìĸ´ ìĥī
íĥĢë ¯¼
ëĭ¤ë ĵ¬
Ġê´Ģ ê°Ŀ
íķ´ ì£¼ëĬĶ
ìļĶ ì¦ĺ
ê·¸ ê²Į
ĠìĥĿê°ģ íķĺë©´
ĠìĺģíĻĶ ìĿĺ
Ġìłľ ìĻ¸
íı¬ë ©Ķ
Ġëĺĳ ê°ĻìĿĢ
Ġì¢ĭ ê²łëĭ¤
¸ ëĭ¤
ĠëĶ ´
ĠìŀĬ ì§Ģ
Ġëĭ¤ìĿĮë Ĥł
_ -
Ġê³µê²© ìĿĦ
³¸ ëĭ¤
Ġì£½ ëĬĶ
Ġê²Ģ ìĥī
ĠíĽ Ķ
Ġë©ĭ ì§Ħ
!!!! !
ĠíĿ ł
ĠëĤ´ë ±ī
ìĹĲ ëĭ¤
ĠìķĪë Ĥ´
ĠìĿĮë £Į
ĠìĿ´ë²Ī ìĹĶ
ĠìĭľìĽĲ íķľ
ĠìŀĪ ìľ¼ëĭĪê¹Į
Ġë³µ ìŀ¡
² łë¦¬
Ġë°Ķë ³´
Ġì§Ħ ì§Ģ
Ġíķł ê¹Į
Ġì²ĺë ¦¬
ĠìĿ¼ ìĿ´ëĭ¤
ĠìĭĿ ìľ¼ë¡ľ
ĠìĿ¸ê°Ħ ìĿ´
ìĹ ĳ
p or
Ġìĥ ¤ë
Ŀ¼ ìĿĺ
ĠíĻĶë ¥¼
ì¡° ê°Ģ
Ġë§ĪìĿĮ ìľ¼ë¡ľ
ĠðŁ Į
Ġê¸° ìģ
ìĿ´ë ŀįëĭĪëĭ¤
Ġëģ Ħ
Ġë°° ìļ°
ĠìĦ¤ ë§Ī
ĠìĦľìĦľ íŀĪ
Ġì§ĵ ìĿĦ
ì§ ľë¦¬
Ġíĸ¥ íĸĪëĭ¤
ì³Ĳ ìĦľ
ĠìĨĮë ¦¬ë¡ľ
ł¸ ê³ł
Ġêº ¾
¦¬ ì¦Ī
Ġë°ĶëĿ¼ë ³´ëĬĶ
Ġìłľ êµŃ
ê·¸ë Ł¬ë
¡ľ ë¶ĢíĦ°
Ġì°¨ë ¡Ģ
Ġë§¨ë Ĥł
Ġë¹Ħë °Ģ
ìĭľíĤ¤ ê³ł
Ġë³´ë Ł¬
Ġëĭ¤ë ¥´ê²Į
ĵľë ¦¬
ĠìĶ ¨ë
ìĭľ íĶ¼
ëĭĺ ê»ĺìĦľ
Ġ2 4
Ġëĭ¤ëĭĪ ëĬĶ
Ī Ī
ìĿĺ ê°Ģ
ĠëĪĦë Ĥĺ
í īģ
Ġì£¼ ìľĦë¥¼
² Įë
Ġë²ł ìĿ´
ëĭ¤ë ³´ìķĺëĭ¤
ĠíĿĺëŁ¬ë Ĥĺ
· Ķ
Ġë§Ĳ ìŀħëĭĪëĭ¤
Ġì£¼ìłĢ ìķī
ìĭ¶ ëĭ¤
Ġì°Į íĳ¸ë
Ġë¿ ľ
ë¬¼ ìĿ´
Ġì ıĻ
ĠìķĦ íĶĪ
³´ë įĺ
Ġê°Ī ìķĦ
Ġëĺ ¥
Ġëĵ¤ ìĿĦ
ê°Ģ ë©´
ë ¦¬ë¥¼
t ra
ìŀ¥ ëıĦ
¼ ëĭ¤
íİ¸ ìĿĺ
ĠìĽĥ ê³ł
íĮĲ ìĹĲ
Ġê¸ ģ
Ġê¹¨ ëĭ«
Ġìľ ¼ë¡ľ
íĮĲ ìĿ´
ì§ĳ ìĹĲìĦľ
ê´Ģ ìĿĢ
Ġìłģ ìĸ´ëıĦ
ìħĢ íĶ¼
ìĬ¤ëŁ¬ ìĽĮ
Ġëı¼ ì§Ģ
ŀ ´
ë Ł¬
íķĺ ê²ĮëıĦ
Ġì§Ģ ìľ¼ë©°
Ġìłģ ëĭ¹íŀĪ
ĠíĿĲë ¥´ëĬĶ
ĠíĬĢ ìĸ´ëĤĺ
Įëĵľ ìľĦ
ìĿ¸ë ĵ¤
Ġìłľ ê±°
ĠìłĪë §Ŀ
Ġì£¼ ìĦ¸ìļĶ
. )
ĠìĤ¬ìĭ¤ ìĿĢ
v el
Ġë łĪìĿ´
ê¹Įë ´Ĳ
íķ´ ì§Ģê³ł
Ġì§Ģë °°
ìĺ¤ëĬĺ ìĿĺ
ĠìķĦìĿ´ íħľ
ıĮ ìķĦ
Ġë¶ĢëĵľëŁ½ ê²Į
ë¥ ł
ĠìķĦ ìĿ´ëĬĶ
Ġì° °ë
ìķĦ ì§ģ
! âĢĿ
Ġê³ł ìĨĮ
ìĸ´ë Ħ£
Ġê¹ ľë
ëıĦ ìĿĺ
Ġëľ ¨ë
Ġìĺ¤ ê³ł
. ``
Ġì£½ ìĿĮìĿĦ
ìĦ± ë¶Ħ
ĠëĮĢë ¥Ļ
ìĨĮ ìĹĲ
°Ķë ŀĮ
íĤ¤ë ©°
Ġê³ ¼ë
ĠìŀĲìĦ¸ íŀĪ
Ġì¦Ĳ ê±°ìļ´
íĬ¸ë ıĦ
ĠìĿ´íķ´ íķł
Ġì¥ ¬
Ġê¸°ë ¦Ħ
Ġë§Īë ¦¬
ĠìĤ¬ë ĥ¥
Ġë°ĶëĿ¼ë ³´
´ Ħ
Ġìļ´ë ªħ
Ġìĭłë ŀĳ
ìĦĿ ìĿĦ
ĠìĥĿê°ģ íķł
Ġê°Ģ ìŀĲ
íķĺ ê°Ģ
ĠëĬ¦ ê²Į
Ġì¢ĭ ê²Į
Ġìļ´ ìłĦ
Ġìŀ¡ ìķĺëĭ¤
2 2
ĠìŃ Ī
Ġìĸ´ëĶ Ķë¡ľ
ĠìĹ´ ìĸ´
Ġì°¨ê°Ģ ìļ´
íļĮ ìĹĲ
Ġíŀ Īë
Ġë§Ľ ìŀĪë
ĵ¤ ìķĦ
Ł° ì¹ĺ
¬¸ íķĻ
Ġìłķ ë§Ĳë¡ľ
.... ...
ìĿ´íģ¬ ìĹħ
Ġê±° ìļ¸
Ġëĵ¤ìĸ´ ìĺ¤
íķľ ìĿ´
ìĥī ìĿĺ
ĠìĻ¸ êµŃ
Ġê¸° ê°Ģ
Ġê°ģ ê°ģ
ìĻ ¸ë¡ľ
Ġëª°ë ł¤
ĠìłĪë ĮĢë¡ľ
Ġë°ĳ ìĹĲ
ĠëĶĶ ìŀĲìĿ¸
íĸī ë³µ
Ġì²ĺìĿĮë ¶ĢíĦ°
ìķĦë ¹ł
Ġíķ´ ëĭ¹
ĠìĹ¬ëŁ¬ë ¶Ħ
Ġìł ¤
Ġìĭľ ê°ģ
ĸ ¨
Ġë²Ī ì©į
ĠìĪ¨ ìĸ´
ĠíĿ¥ ë¶Ħ
ë¬¼ ìĿĦ
ĠìķĦëĭĪë Ŀ¼ëĬĶ
Ġê¾¸ ì¤Ģ
íķĺ ëĬĺ
Ġë§Ī êµ¬
ª ¬ë
Ġìĭ¤ ë§Ŀ
ê°Ħ ìĿ´
Ġì§Ģ ìĽĲ
Ġë¹Ľ ìĿ´
ĠíĿĺëŁ¬ë Ĥ´ë
Ġë°ĸ ìĹĲìĦľ
ĠìĿ¼ë ¡ľ
Ġ19 9
ìĥ ¤ë
ĠìŀĪ ìľ¼ë©°
Ġë¹ł ì§Ħ
m a
ê²łë Ĥĺ
Ġê±´ë į°
Ġê¹ ĥ
ĠìķĪë Ĥĺ
Ġìµľë ĮĢíķľ
ĠìĹī ëį©
ë¬¼ë ¡ł
ê¸°ë Ŀ¼ëıĦ
æ Ń
ì§ ¤
Ġë¶Īë ¹Ľ
Ġãħ ĩ
Ġìĭ ¸ë
Ġìŀħ ìŀ¥
ĠëĨĢë Ł¬
Ł¬ ìĬ¤
íĹĪ íĹĪ
Ġê¸°ëĭ¤ë ¦¬
ĠëĤĺ ê°ĢëĬĶ
Ġì£Ħ ìĨ¡
ì¹¨ ìĿĦ
Ġê¸°ëĭ¤ë ¦¬ëĬĶ
Ġê±´ ì§Ģ
ê¸° ê¸°
ìķł ê°Ģ
ëĺ ĳ
Ġë§Ī ìĭľë
ì£¼ ìĹĲ
ìķ½ ìĿĦ
ìŁģ ìĿ´
ĠìłĲ ìĿ´
ĠëĦĪë ıĦ
ëĭĪë ¥¼
Ġ" âĢ¦
êµ¬ë ¦¬
ĠíĸĪ ìĿĦ
Ġë³´ ëĭĪê¹Į
Ġìĥ Ģ
ëĭ¤ë ¦¬
ëĤĺ ìĦľ
Ġì§Ģ ëĭĮ
ë ĵĿ
ĠëįĶ êµ¬ëĤĺ
Ġìłķ ë¶Ģ
Ġë¹Ħë¡ľ ìĨĮ
n a
ê» ĳ
ê´ ľ
Ġíĺ¼ë ŀĢ
Ġê±°ê¸° ìĦľ
ĠíĹ Į
Ġëĵ ¬ë¿į
ìĹ¬ ê¸°
Ġì¡¸ ìĹħ
Ġê²ĥ ëĵ¤ìĿ´
Ġì¤Ģë ¹Ħë¥¼
ì²´ ìĿĺ
Ġë¬¼ ê³ł
ì¦ Į
~~ ^^
Ġê±° ëĭ¤
ĠìĿ¸ ìĤ¬
Ġë§İ ëĭ¤
ĠìķĮìķĺ ëĬĶëį°
Ġë¶Ģ ìłķ
ìłĢë ¦¬
ãĢı ,
Ġì§Ģ ìĿĢ
Ġëĭ¤ë ¬¼
ëį °ë
ĠìĿ¼ ìĸ´ëĤľ
íĬ¸ë ¦¬
ëıĦ ìĹĲ
ìĦ ¸ë¡ľ
ìª½ ìĹĲìĦľ
Ġì¤ĳìĸ¼ ê±°ëł¸ëĭ¤
· °ë
ĠëĪĦ êµ¬ëĤĺ
ĠìĺĪ ìłĦìĹĲ
ê·¸ë ¦ĩ
ĠìķĦëĭĪ ìĹĪ
ëĮĢ íķľ
Ġë¶Ħë ĵ¤ìĿ´
¨¹ ìĿĦ
ĠíıŃ ë°ľ
ìĦ¸ ê³Ħ
ëĲ Ĳ
Ġíĥ ķ
Ġëª¨ìĬµ ìĹĲ
ìķĦë ¬´ë
Ħ Ľ
ðŁ¤ £
ê°Ģ ê¸°
ê²Į ìŀĦ
įĶëĿ¼ êµ¬
ë§¥ ì£¼
ĠëĪĪìķŀ ìĹĲ
ì¹ĺ ê¸°
ì¿ łë¦¬
İ ħ
Ġìĺ¨ ê°ĸ
ĠìŀĪ ìĸ´ëıĦ
Ġë¹¨ ê°Ħ
Ġìļ© ë³ĳ
Ġìĵ° ì§Ģ
Ġìłľ ì£¼ëıĦ
Ġëĵ¤ìĸ´ê°Ģ ìĦľ
ĠìĹ° ê²°
íĤ¤ ì¦Ī
Ġì½ §
ĠìĨ ľ
ĠìĥĿ ìĿ¼
Ġë¬´ ê³µ
ìŀĳ ìĿĦ
ìľ¡ìķĦë §ĺ
ĠìĿ´ë ¥´ë
ł¨ ìĿĦ
Ġìķłë ĵ¤
ł¤ ê²¬
Ġíģ¬ ê³ł
Ġìĸ´ ì§¸
ĠìĿ´ìĥģ ìĿĺ
ŀ Ĳë
ìĿ´ ëĭĪê¹Į
Ġëª¨ë¥´ ê²łëĭ¤
ĠëĮĢ ê³ł
ĠìĿ¸ ìĥģ
Ġê°Ĳ íĥĦ
Ĩ ĪìĿ´
íĮ¨ ìħĺ
Ġë³´ ìĿ´ê³ł
ì´Ī ì½Ķ
Ġì°¾ ìĿĦ
ĠìĹ¬ ê¸´
íķ¨ ê³¼
ĠíĨµ íķ´ìĦľ
ĠìĭĿ ìĤ¬ë¥¼
ì§ģ ìŀ¥ìĿ¸
ĠìŀĦ ê¸Ī
ĠíĮĮ ìĬ¤íĥĢ
² ¼ë
êµ¬ë ¡ľ
Ġë¬´ë¦İ ìĿĦ
íĬĢ ê¹Ģ
łë ĵł
ĠëıĦ ìłĦ
ĠìĪĺ ìĭŃ
ĠíĬ¹ ì§ķ
ë§Ľ ìĿ´
íķĺ ì§ĢëĬĶ
Ġê·¸ ëĭ¤
ì£¼ ìĸ¼
Ġê±° ì¹ł
ĠëĦĪ ìĿĺ
Ġê· Ģë¥¼
ĠìļĶ êµ¬
ìĿ¼ ìĦ¸
Ġëĭ¹ ìĹ°
ĩ ¨
íķ Ģ
Ġë¬¸ ìĿ´
Ġëĵ± ìĿĺ
ê· Ģë
Ġëĳĺ ì§¸
Ġíĺ¼ìŀĲ ìĦľ
§Į ìĿĦ
£ ¬
ĠëĶ Ķë
Ġíķĺë įĶëĿ¼ëıĦ
ĠìĤ¬ë Ĥ´ëĬĶ
Ġê°Ģ ê¸°
e d
Ĥ łë
Ġì±Ħ ìĽĮ
Ġë§ĪìĿĮ ìĿĢ
ì£¼ ì§Ģ
ģĦë Ł½
ê±° ì§Ģ
Ġëª¨ë¥´ ê²łì§Ģë§Į
ëĭĪ ìķĦ
ì£¼ë ¨¸ëĭĪ
ĠëĤĺìĺ¤ ê³ł
íĬ¸ ìĹĲ
²Ħ ê±°
ĠìŀĪ ìĨĮ
Ġì£¼ë ¡ľ
ĠìĿ¼ ìłľ
łĮ ì¦Ī
ĠìĤ¬ëŀĮë ĵ¤ìĹĲê²Į
íĥĢ ìŀĦ
g ood
ê·¸ë łĩê²Į
Ġëĭ¬ë Ŀ¼ê³ł
Ġë´ ħëĭĪëĭ¤
Ġê²°ë ¡ł
âĢ ¢
ëĭĺ ê³¼
Ġì§ ļ
¨¹ ì§Ģ
ĠìĹĨ ìľ¼ëĭĪ
ìĤ° ìĿĢ
Ġìĸ´ëĳĲ ìļ´
ĠìŀĪ ìĿĮìĿĦ
ĠíĪ Ń
Ġíĺ ĦëĮĢ
ìŀĪ ëĬĶëį°
Ġìĺ¬ íķ´
Ġíķĺ ìħ¨
ĠìĿ´ ìĽĥ
ĠëĤĺ ìģĺ
¨¸ë ¦¬
ľ ê»ĳ
íĸĪ ê¸°
Ġë²Įë ĸ¡
Ġ &
Ġë¬´ë ¦¬
ë ¶Īë
Ġëķħ ìĿĦ
ķ Ĳ
íĸĪ ëĬĶì§Ģ
ëĦ ī
ìĿ¼ë ³¸
Ġê³ĦìĨį íķ´ìĦľ
ìĿ¼ë ¡ľ
ĠêµĲ ìĪĺ
¥ ¼ë
ĠìķĦìĿ´ë ĵ¤ìĿĢ
Ġë ¦¬ê°Ģ
Ġìĭľ ëıĦ
ĠìĺģíĻĶ ê°Ģ
ĠíĿ¬ ìĥĿ
Ġë¿Ĳ ë§Į
Ġë¶ĦìľĦ ê¸°ê°Ģ
Ġê±¸ ìĹĪëĭ¤
u p
ìĿ´ ìĹĪëįĺ
¤ë ¦¬
ĠëĤ® ìĿĢ
íķĺë Ŀ¼ê³ł
íĽ Ħë¡ľ
Ġê¸° ìĸ´
ĠëģĿëĤĺ ê³ł
ìĦ¸ë ¨¼
ĠìłľíĴĪ ìĿĦ
ëĤ łë
ìĺ¤ëĬĺ ìĿĢ
ìĸ´ëĸ »
ĠìłĢë ¥¼
Ġê± ¸ë¡ľ
ĠìŀĲ ìľłë
Ġëª¨ëĳĲë ĵ¤
Ġ U
ê´Ģ ìĿĺ
Ġëª¨ë¥´ ì§Ģë§Į
Ġëĭ¤íĸī íŀĪ
Ġì¼ ľ
¹Ħ ìĿĺ
Ġê· ľë
Ġëħ¸ë ıĻ
ĠìłĦ íĨµ
Ġë¯¸ë ŀĺ
ëĦ ¤ë
ĠëĿ¼ ìĿ´
ĠìĿ´ ê±¸
Ġì£¼ ìŀ¥
ĠëĤĺ ê°Ħ
ê° ĵ
Ġê´Ģ ìĭ¬ìĿĦ
Ġì§Ģ ëĭĪ
Ġìĸ´ëĸ ¡
íĻĺ ìĺģ
ĠìĺĪìģĺ ê²Į
ìļ© ìĿ´
Ġìĺ¤ë ŀĺë
ĠìľĦíķ´ìĦľ ëĬĶ
ìķĪëħķ íķĺìĦ¸ìļĶ
ĠëĦĪë¬´ë ĦĪë¬´
Ġìĭ¶ ìĿĦ
ĠìĨį ìĿĦ
ĠëĮĢ ìŀ¥
Ġê½ ¤ëĤĺ
Ĩ Ģ
Ġìĭľê°Ħ ìĿĢ
ìĸ´ ëĬĶ
Ķ Ķë¡ľ
Ġë³ĳ ìĽĲ
ê¸°ë Ĥĺ
íĳ ľë¥¼
å ľ
æ ĸ
Ġê¸°ëĭ¤ë ł¤
ìľ¼ë Ŀ¼ê³ł
ê¸Ģ ìİĦ
Ġ f
Ġëª¸ ìĿĢ
ĠëĤ´ ê³ł
Ġì¡° ê±´
Ġì§Ģ ìĸ´
Ġ âłĢâłĢâłĢâłĢ
ìĤ¬ ì§Ģ
Ġíķľ ë²
ĠëĤĺ ìķĦ
ĠëĬ Ķ
ìĥ ´íĳ¸
ìĸ´ë ĶĶ
Ĥ Ń
Ġìĭłë °ľ
ìķĦë ¦¬
ì¡° ìĿĺ
íĶ¼ ìĬ¤
ĠíĮĮ ëĬĶ
Ġì³ ¤ëĭ¤
ë§Ľ ìĬ¤íĥĢ
ë ŀµ
Ġê³ł ìĸĳ
ì» ´
Ĥ ©
Ġê·¸ëłĩ ê³ł
Ġìłľë ª©
Ġíı¬ íķ¨
ĠëģĬ ìŀĦ
Ġìķŀ ìĿĦ
ĠìĨĮë ¦¬ìĹĲ
ĠìķĦìĿ´ ìĿĺ
ê¿ Ī
ê±´ ì§Ģ
íĽĦ ìĿĺ
§ ¤ë
ĠìĥĪ ìĤ¼
ĠíĶĮë łĪìĿ´
ê°ĢìĬ´ ìĤ´
Ġíķľ ê°Ģ
ìĭľ íĤ¬
ìĻ Ķë
íİ ¸ë
ìĪĻ ìĿ´
Ġì± Ħë¡ľ
ĠíĹĪë Ŀ½
ìĥĪë ¥¼
Ġê¸°ë ħĲ
1 4
Ġê°Ĳ ê°ģ
íı ´ë
Ġì²ĺìĿĮ ìĹĲëĬĶ
ĠëĤĺìĺ¨ ëĭ¤
íķĺ ìĺĢ
Ġë°© ìĹĲ
Ġë¹Ľ ìĿĦ
ĠìĤ Ĳ
i g
ĳ ¤
ä ¹
ìľł ìķĦ
Ġëĵ± ìĹĲ
ī ĺ
ìł Ŀ
Ġì° Įë
å ı
Ġíķĺë Ħ¤ìļĶ
ĠìķĦ ì¹¨ë
Ġê¹Į ëĭŃ
ìĸ ¸ë
Ġë¶Ģëĵľë Ł¬
æ °
Ġë© ´ë
Ġë°¤ ìĹĲ
Ġê°Ħ ëĭ¤
ĠëĤ¯ ìĦł
ëĭĪë Ŀ¼
Ġë ¥¼
ëĭ¤ë³´ë ©°
Ġë°©ë²ķ ìĿĦ
Ġëķħ ìĹĲ
ĠëĦī ëĦī
Ġê²ĥ ëĵ¤
ĠìłĦë ¶ĢíĦ°
ìł ĵ
ĠìĿ´ë Ł´
íķĻ ëħĦ
Ġë§İ ìķĺëĭ¤
ì¦Ŀ ìĿĦ
¹ ¡
ĠìĿ´ë Ĥł
ê°Ģë ĵĿ
ĠìĿ´ ìĹĲ
â Ī
Ġì§ĳ ìĸ´
Ġëĵ¤ìĸ´ ê°Ī
Ġê°Ģìł¸ ëĭ¤
Ġê±¸ë ¦°
ìĹ ł
m l
ĠìŀĲìĹ° ìĬ¤ëŁ½ê²Į
Ġê´ ´ë¡ľ
ìĹĪë Ħ¤
Ġê¸°ìļ´ ìĿ´
Ġìļ°ë¦¬ë ĤĺëĿ¼
ë ¬µ
ëªħ ìĿĺ
Ġê°ķ ëĤ¨
ìħĶ ëıĦ
ìĿ¸ ìĹĲê²Į
ĠìĭľìĦł ìĿ´
ëĮĢ ê°Ģ
ĠìĽĥ ëĬĶ
ê²½ ìĹĲ
Ġë¶Ģë¶Ħ ìĿ´
ĠìķĪë Ĳĺ
ĠíĶ¼ ìŀĲ
Ġê·¸ëŁ °ë
Ġê³§ ë°Ķë¡ľ
Ġì¡°ìĭ¬ ìĬ¤ëŁ½ê²Į
íķł ìĪĺ
ĠìłĢ ìĿĺ
ê¹Į ìĬ¤
ĠëĬĲëģ¼ ê³ł
ëĭĪ ìĬ¤
Ġë§Ĳ ìĹĨìĿ´
Ġê°Ĳ ìŀĲ
ìĶ ¨ë¥¼
ĠëĤ´ ëĬĶ
³´ ì§Ģ
k r
ê³µ ìĽĲ
ãħľãħľ ãħľãħľ
Ġ2 5
ëĵ¤ ìĸ´
ìĭ¤ ìĿ´
ê²ł ëĬĲëĥĲ
Ġì¹Ń ì°¬
ĠìĿ´ ìľłë¥¼
Ġìŀ¥ ìĪĺ
íĤ¤ ì§Ģ
§Įë ĳĲ
Ġë°©ë²ķ ìĿ´
ê¹ ¨ë
Ġìļ¸ ê³ł
ĠìłķëıĦ ìĺĢëĭ¤
íķĺ ìĭľë©´
ëĭĺ ê»ĺ
Ŀ¼ ìĬ¤
ĠíĬ¹ ìľłìĿĺ
ìĿ¸ë ĵ¤ìĿĢ
Ġì¹ľêµ¬ë ĵ¤
ìĿ¸ë ĵ¤ìĿĺ
³´ ìĦ¸ìļĶ
Ġíķł ì§Ģ
ĠìĹŃ ìĭľëĤĺ
ĠëĪĮë Ł¬
Ġ W
Ġë¬¸ ìłľë¥¼
ĠìĿ´ë¦Ħ ìĿĢ
ĠìķĦëĭĪë Ŀ¼ê³ł
ıĮ ìĿ´
Ġë§Īë Ĥĺ
ë ŀĺ
ĠìĤ´ ìĿ´
ë¹µ ìĬ¤íĥĢê·¸ëŀ¨
of f
ê°Ĳ ìĦ±
Ġê²½ìļ° ê°Ģ
ë°ĺë ł¤ê²¬
ĠìĤ´ë ł¤
ìĻķ ìĿ´
Ġì« Ħê¹ĥ
ë©į ìĬ¤íĥĢê·¸ëŀ¨
Ġëĭ¤ë ħ
Ġíķ¸ëĵľ íı°
Ġì»´ íĵ¨
Ġê·¸ëłĩ ëĭ¤
Ġêµ° ìĤ¬ë
Ġê°Ĳ ì¶Ķ
ĠìĨĮ ìĭĿìĿĦ
Ġê°ģ ì¢ħ
Ġê°Ģ ìłķ
Ġê²½ ìłľ
Ġì§Īë łĢëĭ¤
Ġë°ľ íĳľ
Ġíĸ¥ ìĿ´
ìĨĮ ìĦľ
ìĦ¸ ìł¤
Ġëĵ¤ ì§Ģ
Ġë§ ģ
Ġê¿ ĩ
ìķĦ ìĿ´ë
°© ìĿĺ
íĦ° ê°Ģ
ë ¦ī
Ġëħ¸ë ŀĺë¥¼
Ġìĸ¸ ê¸ī
ì° °ë
Ġê±¸ ê¹Į
» Ķ
Ġëĵ¤ìĸ´ ìĺ¤ëĬĶ
´¤ ìĸ´ìļĶ
Ġê°Ħ ìĭł
ìĹ Į
Ġìķ Īëĭ¤
£ ¹
ê¸°ë ©´
ĠìłĦ íķ´
íĺ Ģë
Ġê°Ħ íİ¸
ì¡Į ê³ł
i r
ĠìĻ¸ ì³¤ëĭ¤
ãħ ¤
Ġ J
íĹ ¬
íĮĮ ìĿ´
ĠìĤ¬ë ¡ľ
Ĥĺ ëĤĺ
on g
Ġê²ĥ ë³´ëĭ¤
³ ¸ë
Ġë ¦°
Ġê°ĢëĵĿ íķľ
ê¸°ë ©°
ìº £
ìľ¼ë©´ìĦľ ëıĦ
ìľ¼ë ¦¬ëĿ¼
Ġëª¨ìĬµ ìľ¼ë¡ľ
ĠëĤĺ ìĿ´ê°Ģ
Ġëª°ë Ŀ¼ëıĦ
íĪ ¼
Ġë¶ĢëĵľëŁ½ ê³ł
Ġë Ŀ¼ë©´
ĠëĶ ¸ë
ĠâĻ ¥
ĠìĿ´ ìľ½
Ġë§ĽìŀĪ ìĸ´ìĦľ
Ġëıħ íĬ¹
į° ìĿ´
Ġíĳ ľë
Ġêµ ¶
Ġíĥ ±
ĠìĿ´ëģĮ ê³ł
Ġìĺģ ìĽħ
¹ Ķë
Ġê° Ĵ
íĴĪ ìĿ´
Ġëĵ łëĵł
ìĭĿ ìĤ¬
ĠíĿ¡ ìĪĺ
da y
Ġë°Ķ ëĭ·
Ġê³³ ê³³
ĠìĤ¬ ê³¼
ë įĶëĿ¼ê³łìļĶ
ĠëĲĺ ìĹĪìĬµëĭĪëĭ¤
ĠìĦ¸ ìĽĮ
Ġìŀ¡ ìĿĢ
ìłĢ ê²ĥ
ìĿ į
ìĭľ ì¼°ëĭ¤
ë¬´ ì§Ģ
° ĺë
b e
ĠìĿ´ë ĮĢë¡ľ
ĠëģĿ ëĤľ
Ķ°ë Ŀ¼
ìĨĮ ëĬĶ
ëĲĺ ì§Ģ
Ġì§Ģê¸Ī ìĿĺ
Ġëĭ¤ ìĿ´
ĠëĮĢëĭ¨ íķľ
ĠìĿ´ë ¶Ī
Ġìĩ ł
Ġëĥī ìŀ¥
ĠìĤ¬ìĿ´ ì¦Ī
íķł ê¹Į
ìĤ° ìĿĺ
Ġìĥģ ì§ķ
Ġìĭ¤ ìłľ
ìŀ ĺë
ĠíĦ°ë ľ¨ë
ĠíĶ¼ë¶Ģ ê°Ģ
ìĿ´ë łĩê²Į
ĠëĤ´ë ¦°
ê°Ĳ ìĹĲ
ì¡ ¸ë
ì¿ł ìħĺ
Ġë³¶ ìĿĮë°¥
ı ðŁı»
Ġê²ĥ ìĿ´ëĿ¼
ìĻĶ ìĬµëĭĪëĭ¤
ĠëĤ ¸
Ġíķł ìĿ¸
ì¦Īë ¥¼
ĠëĤĺ ê°Ī
¯ ¹
__ __
Ġê°Ħìĭł íŀĪ
Ġê³łë ł¤
ê°Ĳ ëıĦ
u r
ĠíĶ¼ë ¡ľ
ł¨ë Ĳľ
Ġë§Ĳ ìķ¼
ĠìŀĲìĭł ìĿĢ
Ġê°Ģë¥´ ì³Ĳ
ë ģ¼
ìłĲ ìĹĲ
Ġê°Ģë ł¤
ì¦Ŀ ìĿ´
ĠëģĿ ìĿ´
Ġê¹Į ì§Ģ
Ġë ¥ĺ
³´ëĭ¤ ëıĦ
Ġê² ¹
ë²ł ìĿ´ë¹Ħ
Ġìĭľ ì¼°
Ġëª©ìĨĮë ¦¬ë¥¼
i m
íĨłë ŀĳ
ìŃ ī
1 00
Ġì°© íķľ
Ġê·¼ì²ĺ ìĹĲ
Ġë³´ë Ĥ´ë
ĠêµŃ ê°Ģ
Ġì¢ĭ ëĭ¤ê³ł
ì´Īë °¥
ĠíĻ Ģë¡ľ
ìĦ¼ ìĬ¤
Ġë§Ī ëĬĺ
ĠìĿĢ ìĿĢ
ĠëĤ¨íİ¸ ìĿ´
ìĹĪëĭ¤ ê³ł
Ġìĭ¤ë ł¥
ìĬ¤ íĤ¨
Ġëª¨ ìŀĲë
ì£¼ ìĭł
ëĤ ¨ë
ì¹´ë ¡±
Ł °ë
ìº Ĳë
ªħ ìĿĢ
ìŀ¡ ê³ł
ĠìĿ¸ë ¬¼ë
ìĹĪëĭ¤ ëĬĶ
ĠìĿ´ìľ½ ê³ł
ĠíĹĪ ê³µ
íģ¬ ê°Ģ
ì¡°ë ¡ľ
ĠìĿ¼ ìĥģ
ëĮĢ êµ¬
ìĦ± íķľ
Ġì´Īë °¥
ìŀĳ ìĿ´
ìŀĲë ĵ¤
Ġë¬¼ ìĹĲ
ì¡°ë ¦¬
Ġê´´ë ¡Ń
íĶĮë łĪìĿ´
Ġê°Ļ ê³ł
ë ĳĺ
Ġì¦ī ìĭľ
ê¸¸ ìĹĲ
Ġìł Ĳë
ìŀĲë ĵ¤ìĿĢ
ì¡° ìłĪ
ìŀ¬ë ¡ľ
¾ ħ
Ġë§ŀ ìĿ´
Ġê°ķëł¥ íķľ
8 0
ê» Ħ
ìĥĪ ìļ°
íĥľ ê°Ģ
ìŀĲë ¦¬ìĹĲ
ê·Ģ ìĹ¬
Ġê· ĵ
Ġëı¼ ìļĶ
Ġìĸ¸ë įķ
ì¹ĺë ¡ľ
³ ĢìĿĦ
Ġëª© ìĿ´
íķ´ë Ŀ¼
Ġë³´ ìĿ¼
Ġ âĢ¦
ìĸ´ë ¨¸ëĭĪ
Ġì§ĳ ìĿ´
ìĿ´ë ©´ìĦľ
Ġìĭľë ĮĢ
Ġê·¸ë ĵ¤ìĹĲê²Į
ìķĪ ìĿĺ
ĠìķĦìĿ´ ìĬ¤íģ¬ë¦¼
Ġìŀĥ ê³ł
ìĿ´ë ²Ī
âłĢâłĢ âłĢ
ãĢ İ
ìħ ĭ
ëį° ìĿ´íĬ¸
ķĮë ıĦ
Ġì§Ģ ìĨį
ëĭĺ ëıĦ
ë² łë
ìļ´ ìĿ´
Ġëª© ìłģ
Ġìĥģ ì²ĺë¥¼
Ġíİ ´
ww w
ëĭ¨ ìĹĲ
Ġíķľ ìŀħ
´Ĳ ëıĦ
°© ìĿĦ
¤ë įĺ
ì¢ħ ìĿ¼
ìļ°ë ©´
Ġê±´ë Ħ¤
ĠìĶ¨ ê°Ģ
ìĹ ´ë
Ġíķľ ëĭ¤ë©´
íķ¨ ìĹĲ
Ġê·¸ë ¦°
ìłĦ ìĿĢ
ìĨĮ ìĬ¤
Ġíĺ ľë
ĠìŀĪìĹĪ ê¸°
ìĭł íĺ¼
Ġì§Ħ ìłķíķľ
ê°Ĳ ìĤ¬
ĠìĦ± ìŀ¥
ĠëĤĺ ì§Ģ
ãħĭãħĭãħĭãħĭãħĭãħĭãħĭãħĭãħĭãħĭãħĭãħĭãħĭãħĭãħĭãħĭ ãħĭãħĭãħĭãħĭãħĭãħĭãħĭãħĭãħĭãħĭãħĭãħĭãħĭãħĭãħĭãħĭ
¡ ¬
ĠëĪĦêµ¬ë ıĦ
Ħë ¦¬
ĠìķĬìķĺ ê³ł
ê²¨ ìļ¸
ìļ°ë ıĦ
íĻĪ ì¿¡
ìĸ´ë Ĥ´
ĠìĬ¤íħĮ ìĿ´íģ¬
êµ¬ë §Ī
Ġë² ¤
ìĻ ¸ë
â ľ¨
íĳ ľë
Ġë°ľ ê±¸
Ġìĭ¶ ìĸ´ìļĶ
Ġëªħ ìĿĦ
Ġë°© ìĿĦ
ìĿ´ ìļĶ
Ġìĸ´ëĶĶ ìĹĲ
ì£¼ë ¶Ģ
ê²łë Ħ¤ìļĶ
Ġê°Ļ ê¸°ëıĦ
Ġìĥģ ëĮĢë
Ġë§Īì¹ĺ ê³ł
¡ Ģë¥¼
ĠëĤ ļ
ĠíĸĪ ìĸ´
Ġìŀĥ ìĿĢ
Ġê¸° íļĮë¥¼
íĺĢ ìĦľ
íķĺì§Ģ ëıĦ
ĠìĿ¼ ìĸ´ìĦľ
íĶ Ħë¥¼
ìł Ĳë
¬´ë ¥¼
ìĸ´ë ľ¨ë
ì§Ģ ëĤĺ
ìĸ´ë Ĥ´ë
Ġ =
Ġë²½ ìĹĲ
Ġê² Ģë
Ġë§Īë ĶĶ
Ġìĺ¨ íĨµ
ìłľ ìĹĲ
Ġê° ĩ
ì¤ įëĭĪëĭ¤
ìĬ¤ íħľ
ìľ Ī
Ġíĺ¸ ê¸°
ĠìĹĲ ìĸ´
§ ¡
ìĥģ íķľ
ĠìĻ¸ ì¶ľ
ĠëĤ´ ìī¬
ĠìĨĮë ¦¬ë
Ġë¨¸ë ¦¬ìĹĲ
ë ª»
ì½ľë ¦¿
Ģë ĵĿ
an g
Ġëĵ¤ ë¦¬
Ġìĸ´ ì§Ģë
ĠìĿ¸ë ıĦ
Ġë°Ŀ ìĿĢ
ĠìĹŃíķł ìĿĦ
Ġì£¼ë ¨¸ëĭĪ
Ġëıħ ë¦½
Ġê±° ìłĪ
ìĹĪ ëĬĶì§Ģ
Ġê°Ĳ ìłķìĿĦ
Ġë²Ħ ìĬ¤
ìłķ ìľ¼ë¡ľ
ĠëĽ° ìĸ´ëĤľ
Ġìķ¼ ì±Ħ
Ġë§ĲìĶ ĢìĿ´
ĠìłķíĻķ íŀĪ
ìĿ¸ íħĮë¦¬ìĸ´
ìĿ´ë ¸Į
Ġëª¨ ìķĦ
íĥ Ħë
Ġíķ¨ë ¶Ģë¡ľ
ê°Ħ ìĿĦ
ìĽĲ ëıĦ
íķĺíķĺ íķĺ
íĸī ìĿĦ
ĠìŀĪëĬĶëį° ìļĶ
ĠëıĻ ë¬¼
Ġìļ° ìļ¸
íķ´ì£¼ ìĦ¸ìļĶ
ĠìĿ¸ ìĭĿ
ĠíķĺëĤĺ ë¡ľ
Ġë§ĲìĿ´ ìĺ¤
oo t
ìĸ´ ìłľ
Ġë°Ķê¿ Ķ
Ġë³¸ ê²©
ĠìĬ¤ ìĬ¹
Ģë §Ľ
ĠìŀĲ ê¸°ë
Ġê°ĳ ìŀĳ
Ġëį ¤ë
ë·°íĭ° ìĬ¤íĥĢê·¸ëŀ¨
ìĸ´ëĸ» ê²Į
ìĻķ ìĿĢ
ĠìĿ¸ ê¸°
Ġìĸ´ ìĿ´
Ġëĥ Īëĭ¤
Ġíķĺ ëĭĪê¹Į
Ġìĸ´ë ¥¸ë
Ġê±° ì£ł
Ġë©Ķëī´ íĮĲ
ĠìľĦì¹ĺ íķľ
ĠìĬ¬ íĶĶ
ìĹĪë Ħ¤ìļĶ
Ġê·Ģ ìĹĲ
Ġê³¼ íķĻ
ëĭ¤ ëĭĪë
ĠìĽĢ ì¼ľ
íķĺ ê¸°ìĹĲ
íķ´ ê°Ģ
ìĭ ¸ë
Ġê´Ģ ìĭ¬ìĿ´
ì§ ĸ
íķľ ìĿĺ
ĠìĹĲë ĦĪ
Ġêµ µ
Ġì°į ìĿĢ
íĮ Ķë
ĠëķĮ ìĿĺ
Ġíľ ©
íģ¬ë ¦¬ìĬ¤
íĮĮ ìĬ¤íĥĢ
ìĺ¤ë ¥¼
Ġë²Ħ ìĦ¯
ê³ł ê°Ģ
Ġìĸ´ì© Ĳ
Ġëĵľë ¦¬
ìĺ¤ ëĬĺë
ĠìĥĿê°ģ íķľ
Ġëľ ¬
íķ´ ì§Ī
p y
ê´ľ ì°®
ĠëĮĢ ê¾¸
ëĮĢ ëĬĶ
Ġê°Ģë²¼ ìļ´
Ġ V
Ġìłģ íĺĢ
Ġë¬´ìĹĩ ìĿ´
ì§ ¸ë¡ľ
Ġìĸ´ë ¦¬
íĮĮ ìĿĺ
ìĨį ìĿĦ
ì¡Įë įĺ
Ġë§ µ
ĠíĸīëıĻ ìĿĦ
ĠìĻ ¸ë¡ľ
ĠëĬĲëģ¼ ëĬĶ
Ġê²ĥ ìĿ´ëĿ¼ëĬĶ
¶Ħ ìĿĦ
ĠìķĦë ĵ¤ìĿ´
ĠëıĻ ìĿ¼
ìĦł ìĿĢ
ê±° ëĭĪ
ĠìĹĨ ìľ¼ë©´
Ġíĥ ľë
Ġê³ł ìĪĺ
ìĦł ìĿĺ
Ġëĭ¤ë £¨
ì§Ģë Ł°
Ĩĵ ìķĺëĭ¤
ìĦ °
Ġê¸¸ ìĹĲ
ê³Ħ ëĬĶ
Ġëį ¥
ĠìĿĺë ¯¸ë¥¼
ĠìĤ¬ëŀĮ ìĹĲê²Į
ĠìĹĨ ê²Į
ê¸°ë ³´ëĭ¤ëĬĶ
ìĻ ĢëıĦ
ĠìĽĢì§ģ ìĿ´ëĬĶ
Ġë¶Ī ê½ĥ
Ġê³ł ìłķ
Ġì§Ģë Ĥ´
ìĹ¬íĸī ìĬ¤íĥĢê·¸ëŀ¨
ĮëĵľìľĦ ì¹ĺ
ãĢ Į
ĠíĨ ¡
Ġëĭ¹ ìĹ°íķľ
Ġìĺ¤ë ¦¬
ĠìļĶë łĩê²Į
Ġë³Ģ íĻĶ
Ġê¼¼ ê¼¼
è ¨
²ł ìĿ´
ĠìĹ Ķ
ì¦ Ĳ
ìĹĨ ëĭ¤
ĠìķĦë ŀ«
ìĦ± ë¹Ħ
ê³ °
íķĺ êµ¬
2 4
ĠíĻ© ìłľ
ìļ´ëıĻ íķĺëĬĶìĹ¬ìŀĲ
Ġì¶ķ íķĺ
ðŁĺ Ĭ
Ġì¤Ħ ìĿĦ
³´ ìŀĲ
ëĭ¤ë³´ë ©´
Ġê¾¸ì¤Ģ íŀĪ
ìŀ ¼
íİ «
êµŃ ìĹĲ
Ġê°Ĳ ê³ł
ĠëĤł ìĶ¨ê°Ģ
Ġëª» íķĺê²Į
ici al
ĠíĹ ĺ
Ġê·¸ ìķ¼ë§Ĳë¡ľ
Ġê³ł ì¶Ķ
Ġëļ ľë
Ġë¼ Ī
ìĤ¬ë ¦¬
# #
íĺģ ìĿĢ
¬ë ¡ľ
Ġíķĺ ìĭľë
ìĪĺ ë
Ġíİ¸ ìĿĺ
Ġê³Ħ ìĭł
5 00
ĨĪ ìĿĺ
Ġê°Ģë Ĥľ
Ġë¹ ļ
ì£¼ ìĿ¸
ĠìĹ¬ ìĦ¯
ĠìĤ¬ìĭ¤ ìĿ´
íĮ į
Ġëĭ¹ìĭł ìĿĦ
Ġëĭ´ ìķĦ
Ġìī¬ ìļ´
ëĭ ´ë
Ġê·¸ëŁ° ê°Ģ
ĠëĪĪ ìĿĢ
ìĭ¤ íķľ
Ġìłģ ìĿĺ
ĠìĤ¬ë¡ľ ìŀ¡
Ġì ¾Į
ëħĦ ìĿ´
ĠëıĮìķĦ ìĺ¤
½ Ģ
Ġëĭ´ ê²¨
ĠìĮ Ī
Ġìĸ´ìļ¸ë ¦¬ëĬĶ
¦¼ ìĿĺ
ĠíĿ¥ ë¯¸ë
Ġëĭ´ ê¸´
Ġ******** ********
ìŀ Īëįĺ
ĠìĿ´ìķ¼ ê¸°ëĬĶ
Ġë§Ĳ íķľëĭ¤
Ġë§Īë ¥¸
Ġë ĩĮ
1 3
ŀĢ íķľ
Ġë £¨ë
ĠìŀĲ ì¡´
Ġìĺ¤ ìłĦ
ot o
ĠëıĮìķĦ ìĻĶëĭ¤
ĠëĤĺìĺ¤ ì§Ģ
Ġì¢ħ ì¢ħ
¦Ħë ĮĢë¡ľ
ì¹ĺë ©´
ìĹ ¼ë
Ġíķĺë ł¤ê³ł
off icial
Ġì° °
Ġê³ł ê¸°ë
ĠìĪĺ ìĺģ
¦¬ ìŀĲ
ĠëĮĢ íĻĶ
ĠëĲĺ ìĸ´ìĦľ
Ĳĺë ©´
Ġë°° ê²½
ìĬ Īë
ŀ ¬
ca fe
Ġì±ħ ìĥģ
ĠëĬĲë ģ¼ë
Ġì°¨ ìĿ´ê°Ģ
ì¿ ¨
Ġì£¼ë¬¸ íķľ
Ġì§Īë ¬¸
ĠìķĦ ëĭĺ
© °ë
Ġê³łêµ¬ë ł¤
Ġë¶ ķ
ıĻ ìĿ´
Ġë¹ł ìł¸ë
ĠíĿ¬ë ¯¸
ĠíļĮ ìĿĺ
Ġê¹ĶëģĶ íķĺê²Į
ĠìĹ° ê¸°
Ġìĸ´ë ķĮ
Ġ ^
Ġë¶Ī ìĮį
Ġë°Ķ ìģĺ
Ġë§¤ ì½¤
ìĬ¤íģ¬ íĮ©
Ġì°© ìļ©
Ġìĸ¸ìłł ê°Ģ
ĠëĤĺíĥĢë Ĥ¬ëĭ¤
ĠëĮĢë ¹Ħ
Ġìĭł ì²Ń
Ġì£½ ê³ł
ĠëģĬìŀĦ ìĹĨìĿ´
Ġëĭ¤ ì§Ĳ
Ġëĭ¤ë ¥¼
Ġìĩ¼ íķĳ
ä »
Ġê» į
ìľ¼ë¡ľ ìĦľ
íı¬ë ¥¼
6 0
ìĦ¸ ìļ©
ĠìķĦë¹ł ê°Ģ
ê³łìĭ¶ ëĭ¤
íķĺë ©´ë
ê° ±
ìĮ ¤
ìĭľ ê¸°
Ġìĺ¤ë¹ł ê°Ģ
ĠëĮĢ ì¤ĳ
ìĿ¸ íĬ¸
ìĪĺ ìĻĢ
Ġìķ ¨ë
ĥ ī
ìĸ´ë ¦¬
¬´ ëĬĶ
ìĿ´ íĮħ
en t
Ġíķĺ ê¸´
ìĿ¼ë ıĦ
ìķłë ¥¼
ë ķħ
ì²´ ëĬĶ
ħĢ ê°Ģ
Ġë¯¸ ìĨĮ
Ġìĺ ¹
ĠìĬ¤ ë§ĪíĬ¸
ëĭ¤ëĭĪ ëĬĶ
ìĺ¤ ìĿ¼
Ġìł ĵ
Ġë ®¤
ìĺģ ìĸĳ
ĠìĦ¤ ìłķ
ìłĢ ê·Ģ
ê¾¸ë §Į
ê³¼ ìŀĲ
ĠëĤ´ë°Ģ ìĹĪëĭ¤
ĠëħĢìĦĿ ìĿĢ
ìĹĨ ìĸ´
êµĲ ìĿĺ
ë ¶Ļ
Ġí ŀĲ
ìĹĪ ì§Ģ
Ġëĸ¨ìĸ´ ì§ĢëĬĶ
Ġë³´ë ĥĪëĭ¤
Ġìī½ ì§Ģ
Ġê°Ħëĭ¨ íķĺê²Į
íĹ¤ ìĸ´
± ħ
ì¡ ¸
ĠìķĦëĭĪ ìĹĲìļĶ
ìĻĶ ëĬĶëį°
ðŁĺ ĭ
ìĹŃ ìĿĦ
ìĹ Ħë
ĠëĤ¨ ìŀĲë¥¼
ĠìĽĲ ë§Ŀ
b o
íĺķ ìĿĢ
ì¹ĺ ìĹĲ
ĠìĦ¸ìĥģ ìĿ´
ĠìĿ´ íĭĢ
ìķ¼ ìĭĿ
ìĪĺ ìĹĲ
l a
Ġê°ĸ ì¶Ķ
ìŀĲë ĵ¤ìĿĺ
Ġë¨¸ë¦¬ì¹´ë Ŀ½
ĠìĿ´ê²ĥ ìłĢê²ĥ
ĠëĮĢíķ´ìĦľ ëĬĶ
¶Ħë ĵ¤
íĮ ½
Ġíķľ ìłķ
Ġëĭ¤ê°Ģ ìĻĶëĭ¤
ìĿ¼ë ¦¬ë
§Į ìĿĢ
Ġì²ľ ìĹ°
ì© ¡
ĠìĤ¬ ìĹħ
Ĥ ¨ëıĻ
ìĿ¸ ìĥĿ
ĠìĤ¬ ì§Ħë
Ġë³´ëĤ´ ê³ł
Ġëª» íĸĪëįĺ
íĻĶë ¡ľ
ĠìĿ¸íĦ°ë Ħ·
ĠìĿ´ ìĹĪëĭ¤
íĭ° ìĬĪ
Ġê±°ë ¦¬ë¥¼
Ġë§ī ìĥģ
Ġì¡°ê¸Ī ìĿĢ
ìħ ī
Ġìĭ¶ìĿĢ ëį°
ðŁĺ ĺ
Ġìķ¡ ìħĺ
ĠëįĶë ¶Ī
Ġê±° ìļĶ
ìĹĲìĦľ ë¶ĢíĦ°
ë¯¼ ìĿĢ
Ġãħĭãħĭãħĭãħĭ ãħĭãħĭãħĭ
Ġìłķ ìĥģ
Ġìĸ´ë ¨¸
Ġì§Ĳ ìĬ¹
ë° ľë
ĠëĲľ ìŀ¥
kor ea
ıĻ ìĿĦ
Ġë§ĽìŀĪ ìĸ´ìļĶ
ĠëģĮë ł¤
ìĬ¤íħĮ ìĿ´íģ¬
¦¬ë Ŀ¼ëĬĶ
Ġëļ ľê»ĳ
ĠëĮĢ êµ¬
ìļ© íĴĪ
Ġì¡´ë §Ľ
Ġ the
ĠëĨ ĢìĿ´
ìĶ¨ ìĿĺ
Ġì£¼ ìĭł
ĠëĤ´ë ©°
ì¸µ ìĹĲ
ë ¨¸
ìłĢë Ĥĺ
ĠìŀĲ ìłĦ
ë ģ
ìĹĲê²Įë ¡ľ
ĠìłĲ ìĿĦ
Ġì¢ĭ ìķĺ
Ġë§¤ ìŀ¥
Ġë¶Ģ ìĦľ
Ġëģ Ķ
ìļĶ ê±°
Ġìĭłê²½ ìĿĦ
Ġê±±ìłķ ìĿ´
ë§ĽìŀĪëĭ¤ ê·¸ëŀ¨
Ġê¸ Ģë
ë© ´ë
ĠëĤĺëĪ ł
Ġì¹ĺë £Į
ĠìĹ¬íĸī ìĿĦ
ĠëĳĲëł¤ ìĽĮ
ĠìļĶ ìĥĪ
ìŀĳ ìĿĺ
Ġë¹Ħ ì£¼ìĸ¼
Ġë¶Ģ ìĹ¬
Ġê³ł ê³ł
Ġëĵľë Ŀ¼ë§Ī
Ġì²Ń ìĨĮ
ê² ĢìĿĦ
ìļ´ë ĵľ
ĠìłĦ íķĺ
Ġë§ĽìŀĪ ê³ł
ĠìĻĶ ìĸ´ìļĶ
êµŃ ìĿĢ
ĠëıĮìķĦ ê°ĢëĬĶ
į ®
ìĭ¤ ìĿĢ
ĠëįĶë ĵ¬
Ġ c
ë§Ĳ ìĿĦ
ĠìĤ Ń
ê¸ ¸ë¡ľ
ĠìŀĲ ê¾¸ë§Į
ëĮĢ ìĿĺ
ĠìĿĺ ìķĦ
Ġë¬´ë ł¤
ĠëĬ¦ ìĿĢ
ìĿ´ë ĦĪ
ê°Ģ ìŀĲ
Ġë¶ ĵ
Ġë°° ìļ°ë
³ĳ ìĿĦ
ìĸ ĺ
ĠìķĪ ìłķ
ìĭ «
Ġê±°ë Ŀ¼
ìłĪ ìĿ´
Ġíĺ Ģë¥¼
ì§Ģ ìĹĲìĦľ
Ġì§Ħ ìĭ¬
ìĭľ ìĿĺ
ĵ Ģ
Ġì§Ģ íľĺ
Ġê±´ê°ķ íķľ
êµ¬ë ¨¼
ĠìĺģìĽĲ íŀĪ
ĩ Įë
Ġë§ĳ ìĿĢ
ìĭľ íĤ¤ë
íĺ Ķ
Ġë¦¬ë ·°
å Ĳ
ãĦ· ãĦ·
Ġë¨¹ ìĿĮ
¥´ íĬ¸
Ġê°ľë ħĲ
Ġì°© ê°ģ
Ġëĭ¹ íķľ
ðŁı» âĢįâĻĢï¸ı
ëĬĲë ĤĮ
ìĦĿ ìĹĲ
©Ķë¦¬ ì¹´ë
Ġìĥ ĺ
Ġë§Įëĵ¤ ìĸ´ì§Ħ
ĠìĿ´ë ĵ¤ìĿĢ
Ġìº ¡
ĠìĹĦë§Ī ìĿĺ
ĠìĤ¬ëŀĳ íķ´
ĠìľłìĿ¼ íķľ
- )
ĠìĿ´ë ¥¸
Ġë¸Įë ŀľëĵľ
£Įë ¡ľ
ĠëıĮ ìķĦìĦľ
Ġãħłãħł ãħł
ê´Ģ ìĹĲ
Ġê·¸ëŁ¼ ìĹĲëıĦ
ĠìĬ¤ íģ¬ë
Ġë°Ľ ì§Ģ
Ġë§Īì°¬ê°Ģì§Ģ ë¡ľ
íķľ ì§Ģ
ĠëĭĪ ê°Ģ
ì· ¨ë
íĺķ ìĿĺ
Ġë¶Ī ìĿ´
Ġìĭ¶ ìĹĪëĬĶëį°
Ġ6 0
Ġëľ¨ ê³ł
ìĭĿ ìĹĲ
ĠìĽĥ ìĿĮìĿ´
Ġê·¸ê³³ ìĹĲ
Ġë¬´ìĸ¸ ê°Ģ
¿ Įë
ĠìĪ łë
ĠíĶ¼ë ¶Ģë¥¼
Ġë± ī
Ġíķľì°¸ ìĿĦ
ëĬĶ ê²Į
ĠìĿ´ë Ķ°
ëĭ¤ ìļ´
Ġë¶Ģ íķĺë
íĺ¸ íħĶ
íİ¸ ìĹĲ
dog stagram
ĠìĹ ¿
ì¹ĺ ìĿĺ
íģ¬ ìĿĺ
ĠëĤĺë ¦ĦëĮĢë¡ľ
Ġëĭ¤ ëĭĪë
íķĻ ìĿĦ
ìĺ¤ë ¥´ëĬĶ
Ġë¶Ļ ìĹ¬
° íĶĮ
Ġê°Ģê²© ìĿ´
ĠìŀĪ ì£ł
Ġìĭľ ê³¨
íİĺ ìĿ´ì§Ģ
Ġê·¸ëŁ¬ ëĭ¤ê°Ģ
ĠìĿ¼ ìļĶìĿ¼
ë¨¸ë ¦¬
ar t
ê²ł êµ°
Ġë²Ħë ¦´
Ġê¹ĶëģĶ íķľ
Ġëĵ Ŀ
ĠìĹİ ëĵľë
ĠìŀĪëĬĶ ê°Ģ
êµ¬ë ł¤
ĠìļĶì¦ĺ ìĿĢ
°Ľ ìĿĢ
oot d
ìļ© ìľ¼ë¡ľ
Ġëĭ¤ìĭľ ëĬĶ
ĠëĤłì¹´ë ¡ľìļ´
ì§ĳ ëĭĪëĭ¤
ĠëĨĴ ìĿ´
ĠëĦ ĺë
ĠìľĦ ìĿĺ
ĠíĸĪë įĶëĭĪ
ĮĢ ìļĶ
ìĭľ íķľ
ĠëıĮìķĦ ìĻĢ
ëĴ ¤
ê¸° ìĹĲëĬĶ
Ġìĸµ ìļ¸
Ġë§Ī ìĬ¤íĦ°
Ġì» µ
Ġì¤Ħ ìĿĢ
âĪ ¼
Ġê· Ģë
ĺ ¥
Ġëª» ë¨¹
ë§Ī ìĿĦ
Ġì«ĵ ìķĦ
ĠëĤĺ ê³ł
Ġë¯¼ ì£¼
Ġìŀ ĶìĿĦ
Ġì¤ĳ ìĭ¬
ĠìĬ¤ íİĺ
Ġë§Ĳë ĮĢë¡ľ
: )
ì° Ķ
ĠìĤ¬ë Ĥĺ
ĠìĨĮ íĮĮ
ĠìķĪíĥĢ ê¹Į
Ġãħ ħ
;; ;
Ġëĭ´ ëĭ¹
ëł¬ íķľ
ìĥ ĺ
ĠëĪĦêµ° ê°Ģê°Ģ
Ġì» ¬ëŁ¬
Ġíķľ ê²°
ĠëıĦë ĳĳ
ĠìķĦëĤ´ ê°Ģ
âĻ¥ ï¸ı
â ľ
ĠíĮĮë ıĦ
ê³µ ìĿ´
Ġê¸°ëĭ¤ë ł¸ëĭ¤
Ġì²ĺìĿĮ ìĹĲ
Ġë³´ìĹ¬ ì£¼ëĬĶ
ìĤ° ìĹĲ
ĠìĿ´ ìª½
ĠìĤ° ì±ħ
Ġë´Ĳ ìļĶ
Ġë¿Įë ¦¬
ê°Ģ ìĿĦ
Ġê¸° ì¤Ģ
Ġë§İìĿĢ ëį°
ì¤ĳ ìĿĦ
ì¹´ ìĺ¤
ĠìĤ¬ëĿ¼ ì¡Įëĭ¤
Ġìķł ìį¨
ìĸ´ ìĸ´
ĠìĹĨ ìĹĪê³ł
Ĩ Ķ
Ġë§Īë ķħ
Ġëª» íĸĪ
Ġë¹Ħ ìĭ¸
ê°Ģë įĺ
Ġê·¸ íĨłë¡Ŀ
ê³± ì°½
Ġë ¦½
Ġë¨¹ ìĹĪëĬĶëį°
Ġëª°ë ŀĺ
Ġë¨¹ ìľ¼ëĭĪ
ŀĦ ê¹Į
å¤ §
por n
¿ ľ
ê´ ´ë
ĠíķĺëĬĺ ìĿ´
Ġì¢ħ ìĿ´
Ġêµ¬ ì²´
ìłľë ¶ĢíĦ°
Ġìĸ´ ëĬĲë
ê°Ĳ íķľ
é ģ
ìĪ łë
Ġì§Ħ íķľ
Ġìĺ¤ë ¹łë
ĠíĨµ ê³¼
íģ´ë ¦°
Ġíĥ Īë
Ġ m
ðŁĺ ģ
ìħ ľ
ĠëĮĢíķľ ë¯¼
ĠíķĺëĤĺ ë§Į
ì§ĳ ìĿĢ
ĠëĤĺë ŀĳ
ì¡± ìĿĺ
Ġë°Ģë ł¤
Ġë¬´ ê±°ìļ´
íĦ° ìĹĲ
ë§Ĳ ê³ł
ĠíĽ Ī
Ĳ ģ
³¼ ê¹Į
ļ ê½ĥ
p ome
ë ģĿ
Ġ a
´ ħëĭĪëĭ¤
Ġ2 1
Ġì§Ģ ê²½
ëı¼ ì§Ģ
Ġëį° ìĿ´íĬ¸
ra ni
ĠìķĪ ìĿĦ
ĠìĨĮ ìĬ¤
ĠëĬ Ļ
ê³Ħ ìĹĲ
ĠìłĲ ìĿĢ
ĠìĨĮ ê¸Ī
ĠìŁ ģ
Ġëĵł ëĭ¤
íĳ ¼
ë ¦°
Ġì£¼ë¨¹ ìĿĦ
Ġìĥģ íĥľë¡ľ
ĠìķĬìķĺ ìĬµëĭĪëĭ¤
ë Ł½
Ġë¨¹ ìĹĪìĸ´ìļĶ
Ġìĭł ìĿ´
Ġë¿Įë ł¤
ĠëĮ ĵ
Ġìĺģ ìĸ´
Ġê±°ë ĥĲ
ê°ķ ëĤ¨
ì¡° ê°ģ
¹ ¨
ł¤ë įĺ
Ġì°¨ë ł¤
íķĺ ê²łìĬµëĭĪëĭ¤
ĠëģĶ ì°į
ìº ł
¶ ĵ
ìĸ Ģ
Ġìł Ĭ
ĠëĤĺë ŀĢíŀĪ
ĠíĮĮ ê³ł
ĠìĤ¬ë Ĥ´ë
Ġìľ Ĺ
ëĬĶ ì§ĢëıĦ
ëĤ ©
Ġíķľ ëĳĲ
ìĿĮ ìĿĢ
ĠíĽ ĳ
Ġë¹Ħë ªħìĿĦ
äº º
ĠëĲĺ ìŀĲ
rani an
ìĺ¬ë ŀĲëĭ¤
ĠìĤ¬ ìłķ
ĠìĬ¤ íĮĮ
pome ranian
°© ìĿ´
Ġì§Ģ ìĺ¥
ëĭ´ ìĿĦ
Ġìĸ´ì°Įë Ĥĺ
Ġëª» íķľëĭ¤
ì¹ µ
âĿ £
Ġëª¨ë¥¸ ëĭ¤ëĬĶ
Ġë§Ĳ íķĺì§Ģ
ĠíĦ° ìł¸
Ġê°Īë ĵ±
Ġë³´ìĹ¬ ì£¼
Ġê° ¸
Ġë¬´ ì§Ģ
ĠìĿ´íķ´ ê°Ģ
Ġë¹Ħ íĭĢ
ĠìķĦë²Ħ ì§Ģë¥¼
ìĹ Ķë
Ġê·¸ëŁ¬ë ©´ìĦľ
Ġìŀ İ
Ġë²Ħ íĭ°
Ġë© ĺ
ĠíĬ ¼
ĠìľĦ íĺĳ
ìĿ¸ë į°ëıĦ
ĠìĨĲ ëĭĺë
Ġê·¸ëŁ¬ ëĭ¤
ĠìŀĲë ¦¬ê°Ģ
ĠìķĬìķĺ ìĿĦ
ðŁĴ Ľ
ëĭĪ ëĬĶ
Ġì¢ĭìĿĢ ëį°
ĠìĪĺë ł¨
ł¸ ìĸ´ìļĶ
Ġê° ļ
Ġìłķ ìŀĳ
Ġìłģ ê·¹
ĠëįĶë¶Ī ìĸ´
ĠìĨį ìĤŃ
íĻĶë Ĳľ
ĠìłĦë ³µ
ìĤ ¼ë
ê°Ģ ìķ¼
ĠìĨĮë ¬¸ìĿ´
ìĤ° ê·ł
Ġìĭ¶ ìĬµëĭĪëĭ¤
ê°ĳ ê²Į
Ġë§Ĳ íķĺë©´
Ġì£¼ ìĿĺ
ĠíķĺëĬĶ ì§Ģ
Ġê°Ħëĭ¨ íķľ
ĠìĦ¸ìĥģ ìĹĲìĦľ
ĠëĮĢ íĻĶë¥¼
ĠìłĲ ìĹĲìĦľ
ĠëıĮë ł¤ë
ĠìķĶ íĬ¼
Ġë³´ ìĬµ
Ġëªĩ ëªĩ
Ġë¹ ¡
Ġëª© ìļķ
Ġë§Ī ìĦ¸ìļĶ
ĠìłĦ ìĭľ
ë§Įë ĳĲ
Ġê·¸ëĭ¤ ì§Ģ
Ġê¸°ë ĮĢë
âĢ¦âĢ¦. '
Ġìłķ ë³´ë¥¼
êº¼ë ²ĪìĹĲ
Ġìĺ¬ë ¦¬ê³ł
Ġë²Ħ íĬ¼
Ġìĵ°ë łĪ
Ġê¶Įë ł¥
ĠëĤ´ë ¦¬ëĬĶ
Ġì¹´ ìĿ´ëŀĢ
íķ µ
ĠìĪ¨ ìĿ´
ìĺ¤ ê°Ģ
íķľ ìĿĢ
ìļ´ ìĿĢ
ĠìĦ¤ë ĵĿ
íĶĦ ê°Ģ
ĠìĤ¬ëĿ¼ ì§Ħ
ĠìĿĺ ì§Ģ
ĠìķĦíĮĮ íĬ¸
e at
ê²ĥ ìĿĢ
Ġìĭ¬ ìĭ¬
íĶĦë łĪ
ĠëĦĺ ëĬĶ
ìŀĪ ìĹĪëĭ¤
ìŀĲë Ħ¤
Ġëĳĺ ìĿĢ
Ġëĵ¤ìĸ´ ê°Ķ
Ġíı °
Ġê³ł ê¸°ê°Ģ
Ġìº ł
ë ¬¸ë
ê±°ë Ŀ¼ê³ł
Ġë¬´ë £Į
ìĸĳ ìĿĺ
ĠìŀĬ ê³ł
p ic
êµ ½
Ġë§ĮëĤĺ ëĬĶ
ĠëįĶë įĶ
Ġìŀ¥ êµ°
ĠìĤ¬ìļ© íķĺê³ł
ĠìĬ¬ ì©į
Ġëĭ¤ìĿ´ìĸ´ íĬ¸
ĠìĤ¬ëĤ´ ìĿĺ
ìĬµ ëĭĪëĭ¹
ĠëĦĺ ìĸ´ê°Ģ
ìĿ¸ ì§ĢëıĦ
Ġë¸Ķë £¨
Ġë¶Ī íĸī
ì´Ī ìĹĲ
Ġëĭ¤ íģ¬
Ġê³µ ìĹ°
Ġíķľ êº¼ë²ĪìĹĲ
Ġë¹Ħë¡¯ íķľ
¯¸ë ¡ľ
¦¬ íķľ
íŀĪ ì§Ģ
ëŃĲ ìķ¼
ĠìĿ´ë §Į
ê¹Į ì§Ģë§Į
Ġê³ ½
Ġìŀħ ìĿ´
Ġì§ģ ìĹħ
Ġìĭłë ¬¸
ĠíĶĮë Ŀ¼
ĠT V
ëĶ °ë
Ġë¸Įë Ŀ¼
ê¸ī íŀĪ
Ġëĺĳ ëĺĳ
ĠíıŃ ëł¥
Ġì°į ê³ł
Ġì¼ Ģë
Ġë§Įë Ĥ¨
Ġì£½ ìĹ¬
Ġíľĺë ĳĲë
Ġê°Ħ ìŀ¥
ĥĲ ëĬĶ
ëĦ¤ ê°Ģ
Ġì§ ľë
Ġíķ´ ì¹ĺ
ĠìĨĮ ìľł
ëŃ Ĳë
Ġë°Ŀ íĺĢ
Ġì´Īë ĵ±
ë¯¸ ìķĪ
ĠìĿ´ë¦¬ ìłĢë¦¬
ì ĵ±
íķĺ ìĭľë
ìĭ¤ ìĿĺ
Ġìĭ¶ ìĹĪëįĺ
íĨµ ìĿ´
íĻĶ ìĿ´íĬ¸
ĠëıĦì°© íķľ
ì²ľ ìĿĢ
Ġë§ĪìĿĮ ìĿĺ
ªħ ìĿĺ
ìľ¼ ìĭľ
ĠëĪĪ ìį¹
Ġìŀĺë Ŀ¼
Ġìĸµ ì§Ģë¡ľ
ķĮë ¶ĢíĦ°
ĠìĥĿê°ģ íķĺì§Ģ
ĠëĤ´ë ©´
Ġì§Īë ¬¸ìĿĦ
ìĨį ìĿĺ
Ġì°¾ ê³ł
Ġë¬¼ë ¦¬
Ġíİ¸ ì§Ģë¥¼
ĠìĨĮ ì¤ĳíķľ
ĠìķĬëĬĶ ëĭ¤ëĬĶ
Ġë°ĽìķĦë ĵ¤ìĿ´
ë§ĺ ìĬ¤íĥĢê·¸ëŀ¨
ĠíĥĪ ì¶ľ
§ Ĳë
íķĺ ìĭľê³ł
ìĻ Ħë
Ġê°Ļ ì§Ģ
ìĹ¬ë ıĦ
íķľ ê²Į
íĥĢ ìĿ´
ĠìłĢ íķŃ
Ġë¨¹ ì§Ģ
ĠìĦľë¡ľ ë¥¼
íķ´ì£¼ ê³ł
Ġêº¼ë Ĥ´ë
ìłĢë Ł°
ìĺ¨ ìĿ´
Ġì§Ģë £¨
ĠìķĦë¬´ë łĩ
Ġë§ĮëĤĺ ê³ł
âĹ ĭ
Ĥľ ëĭ¤
ìŀ £
ë´ Ħ
ìĿ´ ê±´
Ġìĭł ìĿĺ
ìĸ´ ì©
Ġê·¸ëŁ¬ ëĬĶ
ê°Ģ ê²Į
Ġë¹Ħ íĮĲ
ë ī´
Ġì° ¡
ê°Ĳ ê³¼
Īë §Į
ìĿĮ ìĹĲëıĦ
Ġíĺķ ìĦ±
Ġë¬¼ ìĸ´
ê±´ë §Į
Ġ8 0
Ġë°Ķë Ŀ¼
ĠâĿ ¤
ĠëĤĺë Ŀ¼ë¥¼
ĠìķĦìī¬ ìļ´
Ġëķ Ģ
Ġë²Ĺ ìĸ´ë
Ġë°¤ ìĿ´
Ġê³µ ìĭĿ
íķ¨ ìĿĢ
ĠìĿ´ ìĤ¬
Ġê·ĢìĹ¬ ìĽĮ
ĠìĻĶ ìĬµëĭĪëĭ¤
ìĦłíĮĶ íķĺë©´ë
ìłĦ ìľ¼ë¡ľ
Ġ ç
ìŀĲë Ĥĺ
ĠëĤĺëĿ¼ ìĿĺ
Ġêµ° ìĤ¬ë¥¼
ł¸ ì§Ģë§Į
Ġë¹Ħë ªħ
Ġ æ
Ġì° Ĳ
Ġê· ł
ìŀĲ ìĹĲê²Į
Ġìľ ¼ë
Ġë¬» ëĬĶ
ì¿ µ
²ķ ìĿĦ
ĠìĨĲ ëĭĺìĿ´
êµ¬ë ©į
ĠíĻ Ģë
Ġê´Ģ ê´ĳ
Ġ- _-
Ġíıīë²Ķ íķľ
ë £Į
ìĦłíĮĶíķĺë©´ë §ŀíĮĶ
Ġë³¸ ëĭ¤
Ġì¤ĳ ìĭ¬ìľ¼ë¡ľ
ĠìĹ° ìĬµ
ĠìľĦ íķĺìĹ¬
ĠëĶ± ëĶ±
Ġê´Ģ ê³Ħë¥¼
ĠëĤ´ìļ© ìĿĦ
ìĿ´ë įĶ
ĠíĶĮë łĪ
ìħ¨ ìĬµëĭĪëĭ¤
å į
Ġê°ķ ì¡°
Ġì»¤íĶ¼ë ¥¼
Ġì±Ļ ê²¨ë
Ġì°¨ë ¶Ħ
£ »
Ġìī ´
Ġê¸°ë »Ĳ
Ġê·¸ëħ Ģë
ìĬ¤ëŁ¬ ìĽłëĭ¤
Ġëĭ¬ ìķĦ
¦ ħëĭĪëĭ¤
ìĿĢ ëį°
ìĹĨ ìĹĪëĭ¤
es s
ĠëĴ¤ì§ĳ ìĸ´
ĠëĤĺë Ńĩ
âĢ¦âĢ¦ ,
ph oto
Ŀ¼ë ¶Ļ
ìĿ¸ ìĬ¤íĥĢë
ì½ ľ
ë ¥´
food porn
ĠìĤ¬ ìĦľ
¹Ī ìĿĢ
ĠìĦ ¹
Ġìŀĺ ìĥĿ
ĠëĿ ł
ĠìĥģëĮĢ ê°Ģ
ëļ Ŀ
·° íĭ°
ìĸ´ë ¶Ļ
ĠìĿ´ìłľ ìķ¼
ìĿ¸ë ĵ¯
ĠìķĪ ìĿĺ
Ġê³¼ ìĿ¼
Ġê³łíĨµ ìĿĦ
ìļ° ëĭĪ
ì¹´ë ıĦ
ĠìŀĪë Ħ¤ìļĶ
j u
Ġê³µ ëıĻ
íļĮ ëĬĶ
Ġê·¸ë ıĦ
Ġì§ĵ ê³ł
Ġê±° ì¹ľ
ìĿ¸ê°Ģ ìļĶ
å ±
Ġìĭľ ì§ĳ
Ġëĸ¨ìĸ´ ì¡Įëĭ¤
ĠìĹ ĳ
ì§ķ ìĸ´
Ġê²½ ê³Ħ
Ĳ ¨
Ġìĸ¼êµ ´ë
k o
Ġíķĺ ìĭľëĬĶ
ĠìĤ¼ ê²¹ìĤ´
Ġë¶ĦìľĦ ê¸°ë¥¼
ĠìĪĺ íĸī
Ġë¬´ ëĭ¹
ìĥĿ ìĿ´
ê°Ģ ë°©
ĠëĪĪ ê¸¸ìĿĦ
Ġë² ¼ë
Ġìĸ´ëĸ ¨
Ġìļ°ë¦¬ ìĹĲê²Į
ìĸ´ë ¦°
å °
Ġíķĺ ìĭľ
ì§Ģìĸ´ íĦ°
ĠìĿ´ ìģľ
Ġ ï¼
ĠìĹĨ ìĹĪìĬµëĭĪëĭ¤
Ġìĸĳ íĮĮ
ìķł ìĬ¤íĥĢê·¸ëŀ¨
Ġê°Ķëĭ¤ ê°Ģ
Ġë¹Ħ ìĭ¼
Ġëĭ¬ë ŀĺ
Ġì°į ìĸ´ë
ê²© ìĿ´
Ġìŀ ī
ĠìĦ¸ìĥģ ìĿĺ
Ġê°Īë Ŀ¼
Ġì¶ľ ìĭł
ĠìĿ¼ ê³±
Ġãħİãħİ ãħİãħİ
Ġê·¸ë¦¼ ìĿĦ
ìĭľê°Ħ ìĿ´
ë¥ ĺë
s s
íĻĶ ìłĲ
Ġëª© íĳľ
íĦ ±
Ġìłķ ë©´
ĠëĨĢë ŀĲëĭ¤
Ġê¸ į
Ŀ¼ë ĸ¼
ĠìĦ °ëĭ¤
ĠìĤ¬ëŀĳ ìĿ´
ĠìĿ¼ìłľ íŀĪ
íĦ°ë ¡ľ
Ġë§ĲìĶ ĢìĿĦ
ê» į
ĠìļĶ ê±´
ĠíĶĦëŀĳ ìĬ¤
Ġìķ ĵ
íķ´ ì¤Ģ
ĠíĮ ©
Ġìĭ¸ ìļ°
Ġê°Īë ¹Ħ
Ġê·¸ëŀĺ ìļĶ
²ħ ìĬ¤
ê°ķ ìĿĺ
Ġíĺ¸ íĿ¡
ëª ¸
ì¤ĺ ìļĶ
ĠíĮ Ķë¡ľ
ĠìĿĺ ìĻ¸ë¡ľ
Ġì¤ĳ ê°ĦìĹĲ
Ġìŀ¥ ìĨĮ
ĠðŁĳ į
Ġê·¼ ìľ¡
ìľł ì§Ģìĸ´íĦ°
ĠìĦ¤ ì¹ĺ
ĠðŁĳ ī
íĤ ¨ë
ĠíĶ¼ ìĸ´
Ġíķĺ ê²łìĬµëĭĪëĭ¤
Ġëĵ¤ ìĿ´ë
o p
Ġê·¸ëŀ ¬ëĭ¤
ìļ° ìľł
ĠìĿ´ íĽĦë¡ľ
ìĽĲë ĵ¤ìĿ´
ì± Ħë¥¼
ì¹´ë ĵľ
íķ´ ì§Ģ
ìĦ¸ ìłľ
¦¬ë¸Į ìĺģ
ĠëģĿëĤ ¬
ĠìĹ¬ê¸° ê¹Įì§Ģ
Ġê³± ì°½
Ġìĸ Ģ
ĠëıĻ êµ´
Ġì¶ľ ìĹ°
ìķħ íķľ
ìĭł ìĥģ
_ +
ĠìĤ ½
ĠìĤ¬ëŀĳ ìĿĺ
Ġíĥ Ħë
ĠìķĬ ìķĺë
ĠìłĢëħģ ìĹĲ
ĠìĬ Īë
Ġëģ¼ ê³ł
Ġíĸĩ ë¹Ľ
ĠìĥĿê°ģ íķľëĭ¤
¹ Ħë¡ľ
íĿ¬ë ¥¼
ê°ľ ëĬĶ
Ġìħ Ķ
ë ģ¼ë¦¬
Ġ âĢ¦âĢ¦
ìĸ´ ì¡Į
insta daily
ĠíĻĶìŀ¥ ìĭ¤
Ġëĭ´ë °±
Ġê°Ģ ê¹Ŀ
Ġìłģ ìĿĦ
ìĹĲ ìĿ´
Ġê°Ħ ìĭĿ
ĠìĻ Ķë
ê² ¼ë
Ġìļ° ìľł
ĠëłĪ ìĬ¤
ĠíĹĪë ¦¬
Ġí į½
ì²ľ ìĽĲ
ìĸ´ ìļ©
ìłĪë ¡ľ
Ġ2 2
Ġì°¾ìķĦ ìĺ¨
íģ Ĳë
ì²´ íĹĺ
Ġìĺ¤ë ¡ľ
ìĸ´ ìĿĺ
Ġì¢ĭ ëįĶëĿ¼êµ¬ìļĶ
« ï¸ı
Ġíħ Ķë
Ġë¶Ģë ĮĢ
ĠìĤ´ìķĦë Ĥ¨
Ġëħ¸ë ŀĢ
ìľ¼ ìĦ¸ìļĶ
íĺ¸ íĺ¸
ìĽĢ ìĹĲ
Ġãħ ¤
Ġëĸ ´ëĭ¤
ì§Ģë Ŀ¼ëıĦ
ê°Ģ ìĹĲìĦľ
ìłĦ íķľ
Ġë§Ľ ëĤĺ
a k
ëĭ¤ë ³´
ĠìķĦì§ģ ìĿĢ
ì¾Į íķľ
Ġë¬´ ìĿĺ
Ġê±°ë ĳĲ
íĸĪ ìľ¼ëĤĺ
ĠíĹ ¬
ìķ½ íķľ
ĠìĬ¬ íĶĪ
ìĺ¤ë ŀľ
ĠìŀĪìĹĪ ìĿĦ
Ġë¨¸ë ¦¬ë
ĠìŀĲìĭłë ĵ¤ìĿĺ
Ġëª©ìĨĮë ¦¬ëĬĶ
Ġë¶Ģ íĦ°
ëª ¬
ĠìłĦì²´ ìłģìľ¼ë¡ľ
íĥ Ĳ
ĠìķĦë¦Ħ ëĭµ
´ë ĵľ
Ġíİ¸ ìĿ´
ì°¨ ëĬĶ
ìĩ Ħ
Ġì§ĢëĤĺ ê°ĢëĬĶ
ĠìĿ¸ ì¦Ŀ
Ġì¡° ìłķ
ë°ĺ ì°¬
ĠëģĮìĸ´ ìķĪ
Ġì´Ī ì½Ķ
Ġê¸° íļĮê°Ģ
ĠìĹĨ ìĹĪì§Ģë§Į
ł¸ ëĭ¤ëĬĶ
ìĺ¤ë ¦¬
íķ´ìķ¼ ì§Ģ
ë¹ Ļ
Ġê³łë °±
Ġë³´ ìĦ¸ìļĶ
Ġê°Ģê²© ìĿĢ
ĠìļĶ ì²Ń
ì£¼ ìĭľ
íķĺ ê¸°ëĬĶ
ĠìĤ¬ìĿ´ ìĹĲìĦľ
ìĪĺ ìĪĺ
ê¹Ģë °¥
ë¯¼ ìĿ´
ìĬ¤ íĬ¸ë¡ľ
ì¿ Ħ
Ġì¶© ìłĦ
Ġê¼¼ ì§Ŀ
ĠëĶ¸ ê¸°
ëĦ ĺ
ë¹µ ìĪľìĿ´
²Ħë ¦¬ê³ł
ĠìĬ¤íħĮ ìĿ´ì§Ģ
ìĤ Ĳ
Ġê³ł ìĸĳìĿ´
Ġìī ¬ë
ĠíĻĶëł¤ íķľ
ìĵ° ê³ł
Ġì¢ĭ ìķĺëįĺ
Ġë§Įë ĳĲ
ìĸĳ ìĿĦ
Ġì§ĳ ìĿĢ
Ġìª½ ìĿĦ
§Ī ìłĢ
Ġê³Ħ ì§ĳ
Ġë©į íķĺëĭĪ
Ġë¹Ħë °
ĠðŁ Ĳ
Ġë¬´ ê²¸
ĠìĨĮë¦¬ ìĻĢ
ê·¸ëłĩ ëĭ¤ë©´
Ġë½ Ģ
ëª °
ëĭ¨ ìĿĢ
ĠìĻĶ ëĬĶëį°
Ġìĸ´ê¹¨ ìĹĲ
²Ħë ¦´
Ġëľ» ë°ĸ
ĠìĦľë¡ľ ìĿĺ
Ġ: -)
201 7
ĠìĿ¼ìĸ´ ìĦ°ëĭ¤
íĿ Ķ
Ġ ãħĭãħĭãħĭãħĭãħĭãħĭãħĭãħĭãħĭãħĭãħĭãħĭãħĭãħĭãħĭãħĭ
Ġê²ĥìĿ´ ëĭĪ
Ġê¹ İ
Ġìĵ° ëĭ¤ëĵ¬
ĠëĪĪ ì¹ĺë¥¼
ĠëĤĺ ê°Ģë
Ġìłľ íĴĪë
íķĺë įĶëĿ¼êµ¬ìļĶ
Ġìĸ» ìĿĢ
Ġê±°ë ĵŃ
ĠìĥģíĻ© ìĹĲìĦľ
íĻ ī
Ġìļ° ìĹ°íŀĪ
Ġêº¼ë ĥĪëĭ¤
Ġë°° ëĭ¬
ĠìķĪ ìĹĲëĬĶ
ê ¶Įë
ĠìĿ¸ ìĥģìĿĦ
ìŀĲë ĵ¤ìĿĦ
Ġë¸Ķë¡ľ ê·¸
ĠíıŃ íĴį
ĠìŀĪë Ħ¤
Ġìĸĳ ë°ĺ
ĠìĿĺ ìŀĲìĹĲ
== ==
ìĦ¸ íķľ
ë¨¹ ê³ł
ìĭľê°Ħ ìĹĲ
ĠìĶ Į
ë³µ ìĿĦ
¬ĺ íķľ
ĠìĦ¤ëªħ ìĿĦ
Ġâĸ «ï¸ı
ìĪ ²
ìŃ Ī
Ġìĭľ ìĬ¤íħľ
2 1
ĠëĽ° ìĸ´ëĤĺ
íĸĪ ìĹĪëĭ¤
ĠíĴį ë¶Ģ
è Ģ
Ġì§Ģ ì§Ģ
ìĽĮ ì§Ħ
ĠìķĬ ëıĦë¡Ŀ
ë§Ī ëĬĶ
ĠíĻĶ ìĿ´íĬ¸
tra vel
ìĦĿ ìĿĺ
Ġëª© ìĪ¨
al l
ĠìĿ´ê²ĥ ëıĦ
ìĪĺ ìľ¡
ĠìĿ¼ì£¼ ìĿ¼
ĠìŀĲê¸° ìĿĺ
Ġìĸ´ë ¦´
ëĤ¨ ìŀĲ
ĠìĽ ¨ìĿ´
ĠìĨĮ ê³łê¸°
Ŀ¼ëĭĪ ìķĪ
ĠìĺĪ ìģ
Ġìļ¸ ìĿĮ
Ġì¥Ĳ ê³ł
¥´ë ¥µ
Ġëĵ¤ ìĹĪëįĺ
ĠìłĢ ìĹĪëĭ¤
Ġì§ĢëĤĺ ì§Ģ
Ġíŀ Ĳë
Ġë³´ ìĿ¸
ëĤ Ļ
ëĪĦ ê°Ģ
Ġë§Ĳë Ŀ¼ê³ł
ĠìĦ¸ë ł¥
Ġëįĺ ìł¸
Ġë§Īë ¥´
ëªħ ìĿĦ
ĠìĬ¤ íı¬
Ġìľłë Ł½
ĠëĤĺìĺ¤ ëĬĶëį°
ĠìĿ¼ìľ¼ ì¼ľ
Ġê²¬ë ĶĶ
Ġì§Ģ êµ¬
íĹ ¤ë
Ġë¹Ħ ìĽĥ
íı¬ë ©Ķë
ë ¡±
ĠëĴ· ëª¨
Ġë¶Ģ ìĹĮ
ì¤ĳ ìĿ´
ĠìĿ´ìĥģ íķĺê²Į
Ġëª¨ ìŀĦ
íĸĪ ì§Ģ
Ġë´ Ħë
íĥľ ìĽĲ
íķĺê³ł ëıĦ
ĠìĿ´ë ĵ¤ìĿ´
Ġê²ĮìŀĦ ìĿĦ
Ġë§Ĳ ìĿ´ì§Ģ
ì§Īë Ł¬
Ġì§Ģ ìłģ
ĠìĿ´ê³³ ìĹĲìĦľ
Ġê·¸ ì¤ĳ
Ġëĺĳ ê°Ļ
Ġëª¨ë ŀĺ
ĠëħĢìĦĿ ìĿĺ
ìĭ¬ ìĿĢ
Ġë©Ī ì¶°
Ġë¨¸ ê¸Ī
ì¹ľ êµ¬ë
Ĥ´ ì§Ģ
ĠìĨĮë ¦¬ëĬĶ
ª¨ ëĬĶ
ł¸ ëĬĶëį°
Ġë©Ķ ìĿ¸
Ġìļ¸ë ł¤
Ġë§Į ìĿ¼
ĠëĦ ĭ
ê²° ìĿĦ
ëĬ¦ ê²Į
°© ìĿĢ
Ġë§¤ë ²Ī
Ġìĺ¬ë ł¸ëĭ¤
íĻį ëĮĢ
ĠìĿ¼ ìłķ
ĠìķĦë Ĥ´ëĬĶ
ìł ¯
Ġìŀ¬ë £Į
Ġì°½ ë¬¸
ĠìĤ´ íı
ŀ ı
t er
ìĤ¬ ìĹĲìĦľ
íĥĢ ëĬĶ
Ġëĸłë Ĥł
Ġë¹Įë ł¤
ĠìĨĲ ëĭĺ
íĴ ĢìĿ´
ĠíĽĪë ł¨
Ġêµ¬ë ¦Ħ
ëĭ Ļ
Ġë Ľ
Ġìĭ¬ íķĺê²Į
ê³ §
Ġì°¸ ìĿĦ
ĠëĨĢë ŀĲ
ìķĦ ìĽĥ
ĠìĤ¬ëŀĮ ì²ĺëŁ¼
ĠëĨĵ ìĿ¸
ĠìŀĲëĦ¤ ê°Ģ
Ġê°Ĳ ìłķìĿ´
ĠëŃĶ ì§Ģ
¬ »
Ġê°ķ íĻĶ
ĠðŁĴ ķ
Ġê³łë§Ī ìĽĮ
Ġíķ´ ì£¼ëĬĶ
ìĬ¤ëŁ½ ê³ł
Ġê» ´
ê³µ ë¶Ģ
Ġë¶ģ íķľ
Ġìĥģ íģ¼
Ġìļ° ì£¼
ìłĲ ìľ¼ë¡ľ
Ġìĭ¬ íķľ
íı¬ë©Ķë Ŀ¼ëĭĪìķĪ
Ġê·¸ ëĬĺ
Ġì¢ĭ ìĬµëĭĪëĭ¤
§Ī íķľ
Ġìĭ± ìĭ±
ĥ Ħ
Ġê·¼ë ĮĢ
ëĦ Į
Ġë§Ĳ ìĿ´ìĹĪëĭ¤
ĠìĿĮ ìĭĿìĿ´
ì¹ ¼ë¡ľ
Ġê³µ ìľł
ìĦ¸ ëĬĶ
Ġë¬» ê³ł
ìķłìķł ìķłìķł
Ġìłģ ëĭ¹íķľ
Ġìĸĳ ëıĦ
ĠìĿĺ ëıĦ
¯¼ ìĿĢ
Ġë§Ĳ ìķĦ
ª¨ ìĿĺ
ìĤ¬ ëĭĺ
Ġìĸ¼ ìĿĮ
ìłĪ ìĿĦ
ì§Ģ ë°©
ê· ľë
ĠìĹ° ê²°ë
ê±¸ ìĿ´
Ġëĭ Īë
ìķĦë²Ħ ì§Ģ
ĠìĬ¤ ì³Ĳ
¥´ë ©´ìĦľ
Ġëª¨ìĸĳ ìĿ´
. ^^
Ġê´ľì°® ìķĦ
ĠìĻĦë²½ íķľ
ìľ¼ë ¡ł
Ĩ ¨
Ġì§Ģë Ĥ¬
Ġë²Ī ìĿ´ëĤĺ
ĠìĹ¬ ê¸°ê°Ģ
ê³ ½
ëĶ °
ĠëĲĺ ê¸°
Ġìıĺ ìķĦë
Ġëĭ¨ìĪľ íķľ
íĮ ł
¥´ë įĺ
Ġ2 3
ĠëĤ¨ ìĦ±
of fe
Ġê²ĥ ë¿Ĳ
Ŀ¼ êµ¬
§ £
ìĸ´ë ¦°ìĿ´
íĶĦ ëĬĶ
ĠëĲĺ ëĭĪ
Ġë°Ķ ì§Ŀ
Ġë©į ì²Ń
ìļ°ë ©°
Ġê²¬ë Ķľ
Ġìķ½ê°Ħ ìĿĺ
ĠëĨĵ ìķĺëĭ¤
ĳĲë ¥¼
ĠíĨł ìļĶìĿ¼
Ġë°°ë ¶Ģë
íķĺ ê¸°ë§Į
ìłĦë ¶ĢíĦ°
ë°Ķë ŀĮ
íĿĲ íĿĲ
Ġë°ľ íľĺ
Ġë°¤ ìĿĦ
ĠìķĬ ëĤĺ
ĠìĤ¬ì§Ħ ìĿ´
ĠëĤł ìĿĢ
ìĺ¬ë Ŀ¼
ê²Įë ¥¼
ĠìĻ¸ë ©´
ê±°ë ¦¬ë
Ġìľłë Ĥľ
ìķĦ ìķħ
ë§Ī ìĿ´
ê³ł ìļĶ
Ġì£¼ë¬¸ ìĿĦ
ìĿ´ë ¯¸
ê¸ į
ĠëĮĢë¶Ģë¶Ħ ìĿĺ
Ġìĭł ê³ł
ĠíĻį ëĮĢ
¨¹ ìĿĢ
ĠìĶ ©
Ġì¤ĳ ìĿĺ
³´ë ©´ìĦľ
ĵ łë
íĮ Ł
ĵ¯ íķľ
ĠìķĦì¹¨ë ¶ĢíĦ°
ĠìĻ ĢìĿ´
Ġë¶Ģë¶Ħ ìĿĦ
ĠìĥĪë ¡Ńê²Į
ģĪ íķľ
ê»ĺ ìļĶ
ëŁ½ ìĬ¤íĥĢê·¸ëŀ¨
Ġê²ĥ ëĵ¤ìĿĦ
Ġëĵ¤ìĸ´ê°Ģ ë©´
Įë ıĦ
Ġë°Ķë ŀįëĭĪëĭ¤
ĠìĤ¬ë ł¹
ĠëĨĪ ìĿĢ
Ġë§ŀ ê²Į
ŀĲë įĺ
Ń Ĳë
Ġë´¤ ëĬĶëį°
íĬ¸ë Ĥ¨
ĠëĤ´ë ¦¬ê³ł
Ġìĭł ìĿĮ
ĥ ħ
Ġê°ķ íķĺê²Į
ĠìĭĿ íĥģ
ê°ĳ ëĭĪëĭ¤
Ġë¬´ ê²Į
Ġê±¸ ê³ł
ìĬ¤ íĤ¤
íķĺ ìĺ¤
Ġì´Īë °ĺ
ĠíĬ¹ë³Ħ íŀĪ
Ġê°Ģ ì£½
¬¼ ìĹĪëĭ¤
Ġë°Ķ ìľĦ
ë Ĩį
©´ ìĹĲ
Ġ19 8
Ġëĭ¬ë ¦°
Ġìĭľ ì¦Ī
ĠíķłìķĦë²Ħ ì§Ģ
ĠìĤ¬ëŀĮë ĵ¤ëıĦ
ë°ľ ìĿĦ
ŀĢ ìĿ´
ĠëĤ´ ì§Ģ
Ġìłĸ ìĿĢ
ĠíĽĮë¥Ń íķľ
Ġê°Ĳ ëĭ¹
ĠëıĦ ë¬´ì§Ģ
Ġê·¸ë¦¬ íķĺìĹ¬
Ġì¹ĺë °Ģ
ĠìķĦë ¥´
ĠìłĦ ìĿĺ
ĠëĦ ·
ìĬ¤ íĨł
ê±´ ê°Ģ
Ġë¯¸ ì²ĺ
Ġìĭľ ìŀ¥
Ġíģ¬ë ¡ľ
łĮ ì§Ģ
Ġë§Ĳ íĪ¬
Ġë§ĲìĿ´ ì£ł
ĠíĶĦë¡ľ ê·¸ëŀ¨
ĠíĬ¸ ìľĦ
s on
Ġëĭ¤ ìĬ¤ë
ðŁĺ ħ
Ġë§ŀ ê³ł
íĤ ·
ìį ¨ë
Ġê¾ ¹
ĠìĥĪë ģ¼ë
Ġëĭ¨ìĪľ íŀĪ
ì¹´ ëĬĶ
ëĥ¥ ìĬ¤íĥĢê·¸ëŀ¨
ĠìķĦ ì¤Įë§Ī
°© ìĹĲ
Ġ h
ĠìķĬìĿĢ ê°Ģ
íĽĦ ê¸°
Ġë§ĽìŀĪ ìĹĪìĸ´ìļĶ
ìŀ¬ ê°Ģ
ĠëĤ´ ìĸ´
ìĥī ìľ¼ë¡ľ
Ġê°Ģ ìĦ±ë¹Ħ
Ġê¸Ī ìĦ¸
Ġë¹¼ ê³ł
ĠëĤĺìĺ¤ë ©´
Ġê° ĶìĿĦ
ëį° ìĿ¼ë¦¬ë
ĠìĦ¸ ê³Ħë¥¼
Ġëı ķ
¦¼ ìĿĢ
ê±´ ìĿĦ
ëħ ¹
ĠìĿ½ ëĬĶ
ĠìĿ¸ ìĬ¤íĥĢ
ìĨ Ĳë
íķĺë įĶëĭĪ
Ġí īģ
¥ĺë ¥¼
Ġë§Ľ ëĤľ
ĠìĹĺë ¦¬ë
ìĹĪ ìĿĮ
ìĨĲ ìľ¼ë¡ľ
íĬ¹ ë³Ħ
íķľ ê±°
Ġì¡° ê¸ĪëıĦ
ĠìķĦëĭĻ ëĭĪê¹Į
Ġì¢ģ ìĿĢ
Ġë²Ī ìĶ©
ĠìĿ´ ìľłë¡ľ
ĵ¤ ê¸°
. (
ĠìķĦìĿ´ë ĵ¤ìĿĦ
Ġìķłë ¥¼
ìī Ĳ
ê³µ ìĿĺ
ìĸ´ë²Ħë ł¸ëĭ¤
ìļ° ìĻĢ
Ġì§Ģ ê¸Īë
ìŀĲë ¦¬ë¥¼
Ġíķĺìĸ Ĺê²Į
Ġê¹¨ëĭ¬ ìķĺëĭ¤
Ġë¬´ìĦŃ ê²Į
ìĹĪ ìľ¼ëĭĪ
ĠìĥĿíĻľ ìĿĦ
íķĺë Ŀ¼ëĬĶ
Ġë¶Ī ìĸ´
ĠìĶ¨ ëĬĶ
z e
ĠìĿ¼ ì¢ħìĿĺ
Ġì£¼ë ³ĢìĿĦ
ê°Ģ ì§Ģê³ł
ìĺĢ ìĸ´
ĠëıĦ ìĭľëĿ½
æ Ī
ê²¨ ìł¸
ìĹĪë įĶëĭĪ
Ġë§ĮëĤĺ ìĦľ
Ġ âłĢâłĢâłĢâłĢâłĢâłĢâłĢâłĢ
Ġíĸ¥ íķľ
ì§ ľë¡ľ
Ġê¸° ê°Ħ
Ġìĺģ íĸ¥ìĿĦ
ĠìĹ¬ íĥľ
ìļ´ ìĿĺ
ê²° ìĹĲ
ĠìĬ¤íĬ¸ë łĪ
Ġìĸ´ëĸł íķľ
Ġì¶ľ ìŀħ
ĠìĥĿê°ģ ëĤĺ
Ġë¶Ģë ģĦëŁ¬
ĠìĤ¬ì§Ħ ìĿĢ
ĠìĿ´ ì²ĺëŁ¼
ê°Ģë ¦¬
ìĤ¬ë ĵ¤ìĿĢ
ìĺ¨ ìĿĢ
Ġì°¨ ë§Ī
ĠíĻĺ ê²½
Ġì ·
ĠìķĦëĤ´ ìĿĺ
©Ķë¦¬ì¹´ë ħ¸
ĠìĹ° íķ©
Ġê±´ë ĵľë
Ġ X
st y
Ġë³Ģ íķ´
Ġê°ľë °ľ
ĠìĨĮ ìļ©
ĠëĶ± íŀĪ
Ġëĭ¤ë ¦¬ê°Ģ
ì¹ľ ëĭ¤
ìĿ¸ ì§ĢëĬĶ
ĠìĨĮ ì¤ĳ
ë¶Ħ ê°Ħ
ì²ł ìĿ´
Ġë¯¸ ëĭĪ
Ġëĸ¨ë ¦¬ëĬĶ
ĠëĤ´ë Ĩĵ
Ġê±¸ ìĸ´ê°Ģ
Ġê´ĳ ê³ł
u re
ëĭ¤ë ħ
ìħ¨ë įĺ
³ Ħë¡ľ
Ĩ Ģë
c le
Ġìľł íĺ¹
ç Ķ
ĠëĦ Ĳë
ìłķ ë³´
¥´ ìŀĲ
¯¼ ìĿĺ
Ġëªħëł¹ ìĿĦ
Ġíĥľ ìĸ´ëĤľ
ĠíĶ ½
ëĵ¯ ìĿ´
Ġê³µ íķŃ
íĽĦ íĽĦ
c k
íķĺê³ł ìŀĲ
Ġë¹Ħ íıī
Ġíħ ħ
Ġê°Ĳ ìĥģ
ìĪľ ê°Ħ
ĠëķĮë¬¸ ìŀħëĭĪëĭ¤
ĠíĿĶ ìłģ
ìļ° ê¸°
ì¹ĺ ëıĦ
¯¼ ìĿ´
ĠìŀĲ ìĿĺ
Ġíķĺë Ł¬
Ĩ Ĵ
ĠìĪ ¯
ìľĦ ìĽĲ
Ġëĥ łëĥł
ĠëĦĪë¬´ëĤĺ ëıĦ
Ġë¬´ë į¤
ìłķ ë¶Ģ
Ġ9 0
Ġê°Ħ ìłĪ
ìĥĿ ìĿĦ
Ġë°Ķ íĥķ
Ġë¶Ī ìĳ¥
ëĤ´ ìĿ¼
ĠìĬ¹ ë¦¬
Ġìĸ¸ ëĭĪë
Ġíļ¨ê³¼ ê°Ģ
Ġì§ĢëĭĪ ê³ł
ĠìķĪ ìĿĢ
ĠëĲľ ëĭ¤ë©´
Ġì¡° ìĤ¬
ê» ĺë
Ġì° ľ
ĠëĮĢ ìłĳ
ì¯¤ ìĿĢ
Ġê³µ ì£¼
ê¸°ë Ĩį
Ġê¸¸ ìĿĢ
Ġì°¾ ê¸°
Ġê³ł ìļĶ
į Ł
ĠìĬ¤ íĨłë
~ !!
ìı ĺ
ĥĲë ©°
ĠìĿ´ë ĵ¤ìĿĺ
ìĹĪ ê¸°
ĠëķĮ ìĺĢëĭ¤
Ġëĵ£ ì§Ģ
ĠíĮĮ ê´´
ìłĿ íĬ¸
íĶĦë Ŀ¼
ìłĦ ì£¼
íĥľ ëĬĶ
ĠëĳĲë²Ī ì§¸
ĠëłĪìĬ¤ íĨłëŀĳ
Ġì¹´ë©Ķë Ŀ¼
ìĥĪ ê°Ģ
Ġë©Īì¶Ķ ê³ł
Ġì¤ĳ ëħĦ
Ġìĭľë °ľ
ĠìĹ¼ë ł¤
ê¸Ī ìĿ´
Ġìľ ¤ë
Ġë°ľ ìłĦ
ì¤Ģë ¹Ħ
Ġíķľ ëĭ¬
Ġìĸ´ë¦° ìĿ´
ê° ľë¡ľ
Ġëĵľë ¦´
Ġê°Ī ìĪĺë¡Ŀ
ĠíĮĮë ŀĢ
i d
ĠëĤĺìĻĶ ìĸ´ìļĶ
ìĦ¸ë¨¼ ì§Ģ
ì²ľ ìĿĺ
ĠíĴį ê²½
ëĭ¤ìĿ´ìĸ´íĬ¸ ê·¸ëŀ¨
é Ľ
ê²ł ëĬĶëį°
Ġíİ ľ
ĠìŀĪë įĶëĿ¼êµ¬ìļĶ
Ġê°Ĳ ìķĺëĭ¤
ĠìĺĪë ¯¼
ĠìłĦ ëĭ¬
Ġìŀ¥ë ¥´
â ĶĢ
ĠíĻľ ì§Ŀ
Ġì£¼ë³Ģ ìĹĲ
Ŀ¼ë ¯¸
ĠìŀĶ ìĿ¸
ĠìĿĺë¯¸ ê°Ģ
ìĺ¨ë įĶ
Ġë¬¼ê±´ ìĿĦ
Ġê³¨ë Ŀ¼
ĠëĦĺ ê²Į
íĥľ ìĿĺ
ì¶Ķ ê°Ģ
ê±° ìĹĲìļĶ
ĠìĪĺ ë°±
ĠëĮĢ ìłĦ
ľ ¸
Ġê³Ħ ê³¡
0 8
ħĢ ìĿĺ
ĠìĬ¤íĥĢ ìĿ¼
Ġëļ« ê³ł
ë¹ Ħë¥¼
ĠìĨĮ ì£¼
ĠìĺĪë ¥¼
Ġìĸ´ë ¨¸ëĭĪë¥¼
ĠíĿĶëĵ¤ ìĹĪëĭ¤
Ġê¹Ģë ĳĲ
Ġëª «
Ġ t
Ġíĺ Ģ
ìĤ¬ëŀĳ íķ´
Ġë§Ī ìĭ¤
ĠìĤ¬ëĿ¼ ìł¸
ĠíĸĪ ì§Ģ
Ġëĭ¤ íķ´
Ġì£½ ìĿ´ê³ł
¦Ħ íķľ
Ġëĭ¬ ê³ł
ìĭĿëĭ¨ ìĿ¼ê¸°
ĠíĶ¼ ìĭĿ
ĠìĹĨ ëįĺ
¨¹ ìľ¼ë©´
ìĪĺ ìĺģ
ĠìĤ´ íĶ¼
ìĿ¼ë ¶ĢíĦ°
ĠìĿĢê·¼ íŀĪ
Ġê¸° ìĹħ
Ġìłģ ëıĦ
Ġìĥģíĥľ ìĹĲìĦľ
ĠíĽ Į
ê´Ģ ìľ¼ë¡ľ
ĠìĿ¼ë ¶Ģ
íĽĦ ëĬĶ
Ġì¶Ķ ì²ľë
ĠìĿ´ë ²¤
ë ¦¬ê°Ģ
Ġê¹ ¡
ĠðŁ ¥
ìĸ´ë Ĩĵê³ł
Ġì°¾ ìķĺëĭ¤
ĠìłĦë ŀµ
ðŁ¤ Ĺ
ãħ Ī
ì¹ ©
ìĸ´ë ¨¸
ìļ°ë ¡ľ
âĺ ħ
Ġìĸ» ìĿĦ
Ġ âłĢâłĢâłĢ
Ġì°¸ ìĦĿ
Ġëĭ¤ ê¸ī
Ġì¢ĭìķĦ íķ´ìĦľ
ª© ìĿ´
ìĭľëĤĺ ìļĶ
ë©´ ìĿĦ
ìĦ± ëıĦ
Ġë°©ë¬¸ ìĿĦ
b ea
Ġìľ ĦëĮĢ
ê¾ ¼ë
ĠìĨĮ ìĭĿ
ëĥ ī
ĠìĹ¬ ìĿĺ
Ġë¯¿ ìĸ´
ĠìłĦ ìĹĲëĬĶ
ìĤ¬ íļĮ
Ġë°Ķ ìģľ
Ġíķ´ë °©
Ġê°Ļ ëĭ¤ëĬĶ
Ġìĥī ê¹Ķ
Ġê³µ ê¸°
Ġë§Īì°¬ê°Ģì§Ģ ìĺĢëĭ¤
Ġëĭ¤ê°Ģ ê°Ķëĭ¤
ĠíĨł ë§ĪíĨł
Ġë°Ķë ¥¸
ĠìĥĿê°ģ íĸĪëĬĶëį°
ĠìĿĺ ìĤ¬
Ġê·¸ëŀ ¬ë
ë³ ¼ë
¯¸ë ıĦ
© ľ
ë Ŀł
íĽĦ ìĹĲ
ĠìłĪë °ĺ
łë ¥¼
ĠìĤ´ìķĦ ê°ĢëĬĶ
ĠëĪ ķ
ìłģ ìĿ´ëĭ¤
Ġê½ ģ
ĠíĸĪ ìľ¼ëĤĺ
ĠìĤ¬ëŀĮ ê³¼
Ġíķľ ì°½
ĠìłĪë ¡ľ
ĠìĹ¬ ê²¨
å¤ ©
ë¯¸ íĦ°
Ġíķĳ íģ¬
ìĦ¤ ìĿĦ
ëĪĪ ìĹĲ
ĠìĹ¬ ìĿ¸
ĠìĥģíĻ© ìĹĲ
Ġìĭłë Ĥĺê²Į
ĠìĿĢ íĸī
ìĺ¤ë įĺ
Ġê°ĸ ëĭ¤
ìĦľ ë¡ľ
Ġìĭ¶ ëĭ¤ëĬĶ
Ġì§Ģ íĤ¤ê³ł
ĠìĽ ¬ë
Ġë¯¸ ìĨĮê°Ģ
Ġíľ´ëĮĢ íı°
ãĢ ĭ
ëĸ¡ ë³¶ìĿ´
ìĬ¤ íĮĮ
Ġë¬µ ë¬µ
ĠìĹĦì²Ń ëĤĺê²Į
¡¯ ëį°
ì´ ¬ìĺģ
ĠíķĺìĹ¬ ê¸Ī
Ġê·¸ê³³ ìĹĲìĦľ
Ġëľ¨ ê±°
ë¹Ħ ê°Ģ
ĠìĻľë ĥĲ
¤ íŀĪ
ĠìłĢ íĿ¬ë
ãĢį ,
Ġëĥīìŀ¥ ê³ł
ĠìķĦ ìĭľ
Ġë°Ľ ìķĺ
ìĺ¨ëįĶ íħĮìĿ´ë¸Ķ
ãħĭãħĭãħĭãħĭãħĭãħĭãħĭãħĭ ãħĭ
¹ Ĺ
ìŀĪ ìĿĮ
íĦ°ë ¦¬
ĠìĦ¤ë łĪ
9 00
Ġìµľë ĮĢ
c offe
Ġë³¸ ëĬ¥
ãħı ãħı
ĠìĿ´ ê¸°
ĠìŀĪ ëĭ¨
ĠíĸĪëĭ¤ ëĬĶ
ĠìĹī ëļ±
Ġìĭ¤ë Ĥ´
Ġë°© ìĸ´
ìª½ ìĿĺ
ĠìŀĳíĴĪ ìĿĦ
ĠíĬĢ ê¹Ģ
ê¸°ë ķĮë¬¸ìĹĲ
Ġ7 0
ĠëĲĲ ëĭ¤
Ġê°ĢëĬ¥ ìĦ±ìĿ´
ĠìĹĨ ìĿĮ
Ġëĭ¤ê°Ģ ìĻĢ
íĻ ľëıĻ
Ġë§Ī ìĭľëĬĶ
Ġê³ł ìŀĳ
łĪë ¹Ħ
ì§ ĦëıĦ
ê¶ Ĳ
ĠëĤĺê°Ģ ìĦľ
Ġê°Ķ ëĬĶëį°
ĠíĥĢ ëĬĶ
Į ëĭ¤
ë°Ľ ëĬĶ
ìļ© ìĿĦ
ł¹ ìĿ´
Ġìŀĳ ëħĦ
ìĨĲ ìĿĦ
c e
ðŁ ĩ
Ġê±° ì³Ĳ
Ġêµ° ìĤ¬
ĠìĿ´ë ĵ¤
ë° Ķëĭ¤
ì¢ħ ìĿ´
Ġíģ ¼
ìĽł ìĸ´ìļĶ
Ġì§Ĳ ìĿĦ
ìĹ ĺë
Ġë¹ ħ
ìĨĮ ìĿ´ëĭ¤
Ġíĸī ìĤ¬
Ġë§Įëĵ¤ ê¸°
Ġëĭ¹ ëĭ¹
Ġìĺ¬ë ¦°
Ġìŀĳ íĴĪë
Ġíĺķ ìĿ´
Ġì¢ħ ìĿ¼
Ġê² Įë
Ġíı ´ë
ĠìĹ° ìĸ´
ĠìĿĢë °Ģ
ë§Ī ìĿĺ
c t
ëĬ ¬
ĠëĤ ¡
Ġë°Ķë Ŀ¼ëĬĶ
Ġìĭľ íĤ¨
Ġë¨¸ë ¬¼ë
ëĭ¨ ìľ¼ë¡ľ
ĠìķĪë ıĦ
ìĸ´ìķ¼ ì§Ģ
ìĹĪ ìľ¼ë©´
ĠëĦ£ ìĸ´ìĦľ
Ġì§Ģ ê³ł
ìĺĢ ìĿĦ
Ġìį¨ ìĦľ
ç ¥
Ġë§ŀ ì§Ģ
Ġë½ĳ ìķĦ
ê¸°ë ³´ëĭ¤
ĠìĪĺ ê³ł
ìľ¼ ìħ¨
ëĭ¤ë ³´ê³ł
Ġìĭ¸ ëĬĺ
Ġìļ¸ ìĤ°
Ġì¡° ìłĪ
ì½ ķ
p o
Ġíĥľ ìĸ´ë
Ġê¸°ìĸµ ìĿĦ
ìĽĢ ê³¼
ì¤ĳ ìĿĺ
ìĸ´ì§Ħ ëĭ¤
Ġë¯¸ ìĬ¤
Ġë¯¸ ìĪł
ìłģ ìĿĺ
ĠìĨĲ íĨ±
Ġë¶Ģíĥģ ëĵľë
Ġì§Īë ¬¸ìĹĲ
Ġëįĺ ì¡Įëĭ¤
2 3
ì²Ń ìĨĮ
ĠìłĢ ê±°
íķĺ ìļ°ìĬ¤
ĠëķĮë ©´
ĠëĤľ ëĭ¤
ìĭľ ê¹Įì§Ģ
Ġ201 8
ĠíĮĮ íĭ°
Ġ Y
Ġìłģ ëĭ¹
ï¼ ŀ
ìĿ´ ìľł
Ġìĺ¤ë¡ľ ì§Ģ
Ġì´Īë ¡Ŀ
íģ´ë łĮì§ķ
ĠìĥĿ ê²¨ë
ĠìķĦëĭĪ ì§Ģ
Ġë°Ķë ¥´ê³ł
Ġë° Ń
Ġë§Ĳ ìĿ´ëĥĲ
Ġì°¾ìķĦ ê°Ģ
ìŀĲ ìĹ°
Ġë³´ ê´Ģ
Ġìµľ ìĨĮíķľ
Ġê·¸ë ¡ľ
ìļ ¸ë¡ľ
ĠëĲĺ ì°¾
Ġëı Īë
ĵł ê°Ģ
Ġìľ Ħë¥¼
ŀĳ ìĿĢ
ìĺ· ìĿĦ
ì¼ Ģë
Ġë°ĶëŀĮ ìĿĦ
Ġê³ł ê°ľ
ìŀ¥ ëĤľ
!!!! !!
diet er
ê·¸ë Ŀ¼
íĶĦ ìĿĺ
Ġì²ł ìłĢ
Ķë į°
ĠëĨĢë ŀį
ë ł¨
4 0
ë ¨¼
ìķĦ ê¸°ë
Ġëª¨ìĸĳ ìĿ´ëĭ¤
ĠìķĦë ĵ¤ìĿĦ
ìĽĶ ìĹĲ
Ġê²ģ ëĭĪê¹Į
Ġìľł ì¹ĺ
Ġhttp s
ĠìŀĪ ìľ¼ë
¯¸ ìĿĺ
un g
Ġë³´ë Ĥ´ëĬĶ
Ġë³´ ìķĺ
ìĸ¸ ìĿĦ
Ł ¿
£ ½
ĠìķĦë ģ¼
Ġë§Ĳíķĺ ìŀĲë©´
å ·
Ġì£ Ħë¥¼
Ġë°° ìĭł
Ġì¹ĺ ëĬĶ
Ġëħ¸ ìĿ¸ìĿĢ
ë§Īë ¦¬
Ġë§ĮëĤĺ ê²Į
§Į ìĿĺ
ìłķ íķĺê²Į
Ġìŀ¡ íĺĢ
food ie
Ġëĸ¡ ë³¶ìĿ´
ĠëĳĲ ìĸ´
Ĥ¸ ëĭ¤
ģĦë Ł¬ìļ´
Ġë°©ë²ķ ìĿĢ
ĠëıĮìķĦ ê°Ī
Ġëĭ¤ëħĢ ìĺ¨
Ġë¬´ìĤ¬ íŀĪ
Ġìĭľ ëĭ¬ë
Ġë¶Ģ ìĿ¸
ĠëĲĺ ìĹĪê³ł
Ġì²ĺìĿĮ ìĹĶ
ŀ Ĺê²Į
ĠìĥĿ ê¸°
Ġëĺĳ ê°ĻìĿ´
ìĥģ ëıĦ
ĠëĤĺ ë§Į
ĠëĤĺ ìķĦê°Ģ
Ġë¨¹ ìĸ´ìĦľ
³µ ìĿĦ
ìĿĮ ìľ¼ë¡ľ
Ġë§Īë²ķ ìĿĦ
ë§Īë ¥¼
ĠìĿĳ ìĭľ
Ġê¸ ¸ë¡ľ
Ġì¹ ¼ë¡ľ
Ġê³Ħ ìĤ°
ª¨ë į¸
ħ Ħë
ìķĦìķĦ ìķĦìķĦ
£ °
Ġëª¸ ìľ¼ë¡ľ
âĺ º
ĠâĹ ı
Ġëª© ìĹĲ
Ġë§ĲìĶĢë ĵľë
¦ ĦëıĦ
ĠìĥĿê°ģ íķ©ëĭĪëĭ¤
íķł ì§Ģ
Ġê¹ĶëģĶ íķĺê³ł
ê³Ħ ìłķ
Ġìĸ» ìĸ´
Ġë©Ķëī´ ê°Ģ
Ġëª° ìķĦë
ìľ¼ë ł¤ëĬĶ
ĠëĤĺ ìĦł
Ġìį¼ ëĭ¤
Ġëĵ¤ìĸ´ ìĦ°ëĭ¤
Ġìĸ´ì§¸ ìĦľ
ìļ´ë §Ľ
Ġìĺ¬ë ŀĲëĭ¤
Ġíķĺë£¨ ìĹĲ
ĠìĤ¬ëĿ¼ ì§Ģê³ł
Ġíģ´ë ¦¬ìĸ´
Ġëľ» ìĿ´
è ¡
Ġë ¦Ń
Ġì½© ëĤĺ
ĠìĿ´ ìłĦ
ìķł ìĿĺ
ĠëĬĲê¼ Ī
¦¬ë¯¸ ìĹĦ
ĠìĿ´ìļ© íķ´
íķ´ ìł¸ìĦľ
Ġìļ¸ë ł¸ëĭ¤
j e
íĴ Ģë
Ġì°¨ ìĹĲ
êµ¬ ëĭĪ
ì¸µ ìľ¼ë¡ľ
Ġì į°
Ġíķ´ ìĤ°ë
ĠìĶ ģ
Ġëĭ¤ìĸĳ íķĺê²Į
ìĪĺ ë¶Ħ
Ĥĺ ë¦¬
ìļ¸ ìĿ´
Ġì¦Ĳ ê¸°ëĬĶ
ìĺ¤ ìĿĺ
ĠëĤ¨ ìĿĦ
ĠìĿĳ ìĽĲ
ĠëĨĢëĿ¼ ìļ´
°Ķ ìĿ´
ĠëĶĶ ìłĢíĬ¸
Ġíļ į
ìļ´ ìĿĦ
¶Ħ ìĿĢ
ĠëĦ£ ìĹĪëĭ¤
insta good
ê·¸ë Ł´
¶Ģë ıĦ
Ġë¹Ħ íĥĢë¯¼
¹Ķë °¥
ĠìĤ´íı Īëĭ¤
Ġìĵ¸ ìĵ¸
Ġê±°ë Ŀ¼ëĬĶ
ãĥ ³
ìĹ ¿
Ġê°ķ ìĿĺ
ë¨¹ë°© ìĬ¤íĥĢê·¸ëŀ¨
Ġìĸ¸ëĭĪ ê°Ģ
Ġìŀ¬ ì´ī
ìĸ¼ êµ´
201 9
ê³¼ ìĿ¼
íĶ ĶìĿĦ
Ġì¶¤ ìĿĦ
Ġê¹¨ëģĹ íķĺê²Į
Ġë°° ìļ´
ì§ĳ ìľ¼ë¡ľ
ìª½ ìĿĦ
¡Ń ê³ł
u e
Ġê³µ ë¶Ģë¥¼
ĠìĦłìĥĿ ëĭĺìĿ´
ĠìķĬ ê¸°
ıĻ ë§Ľì§ĳ
Ġë³´ê³ł ìĭ¶
ĠìĽ ¨
Ġì¹´ë ĵľ
êµ ´ë
Ġë¶Ģë¶Ħ ìĿĢ
°ľ ìĿĦ
ë° į
Ġê°Ħ íĺ¸
Ġë»Ĺ ìĸ´
ĠìĹ¬ ìĿ¸ìĿĺ
Ġëĭ¬ë ¹Ľ
ìĥģ ìĹĲìĦľ
Ġìķ¨ë ²Ķ
ìĬ¤ íģ¬ë
Ġíŀĺëĵ¤ ìĸ´
íĸ¥ ìĿĢ
Ġìĭľë ¦¬ì¦Ī
Ġìĺ® ê²¼ëĭ¤
å Ń
Łī ìĿ´
ĠìŀĪìĹĪëĭ¤ ëĬĶ
ĠìĿ´ë ¡ł
íķľ íħĮë
Ġìŀ¥ ë¡ľ
ĠðŁ ĵ
Ġê°Ģê²© ëıĦ
Ġë§Ĳë Ŀ¼
Ġì£¼ ìĿ¸ìĿ´
ì¡Į ìĸ´ìļĶ
ëĥ łëĥł
f or
Ġì°į ìĸ´ë¨¹
Ġê°ģ ìŀĲ
Ġê³µ ì¤ĳ
ĠìĤ° ìĿĦ
ĠëıĮìķĦ ìĺ¤ëĬĶ
ì§ĵ ìĿĦ
Ġê²ĥ ìĿ¼
íĶĦ íĬ¸
ê°ľ ìĦł
ëĶ ©
íķĺ ìĹĲ
ĠëĬ¥ ëł¥ìĿĦ
Ġë¬´ ê±°
ĠíĸĪ ìĹĪëĭ¤
Ġê°Ģ ëĬĺ
ŀĢ ìĿĦ
Ġìĸ´ ìļ°ë
Ġëª©ìĨĮë ¦¬ìĹĲ
Ġìķł ê°Ģ
ĠìĹĲ ìĿ´
íİ Ļ
Ġë°° ìĨ¡
©Ķ ìĿ´ëĵľ
ë°Ľ ìķĦ
ìĭľ ê°Ħë
ĠìĥĿê°ģ íķĺë©°
å Ī
Ł¬ë ¯¸
p e
Ġìŀĳ ê°ĢìĿĺ
ĠìĤ¬ìĿ´ ìĿĺ
Ġì¤Ģë¹Ħë Ĳĺìĸ´
Ġê° ľë¥¼
ìŀĲ ê·¹
ê´Ģ ìĹĲìĦľ
ĠíĮ į
ĠëĳĲ íĪ¼
Ġë £¸
ĠíŀĲ ë§ģ
ìĿ´ ìĺĪìļĶ
ìļĶ ë¯¸
ì¡Į ìĬµëĭĪëĭ¤
Ġì²´ íģ¬
Ġì¶ ¥
ĠëĤ´ìī¬ ìĹĪëĭ¤
Ġë°Ģ ìĸ´
Ġìł ł
Ġíķĺ íķĦ
ĠìķĪë ĲĺëĬĶ
Ġíķĺ ìĿ´
ìĹŃ ìĹĲìĦľ
ëĤ ¬
íĭ°ë ¥¼
íħĮë ¦¬
ìĪĻ íķľ
Ġìĥ ĲëŁ¬ë
Ġê²½ ìļ°ëĬĶ
Ġë§ĽìŀĪ ìĸ´
Ġë³´ë Ĥ¼
Ġì£½ ìĿ¼
Ġëĭ¤ìĭľ ê¸Ī
ĠìĬ¬ ìĬ¬
ìķĪ ì£¼
ĠëĵľëŁ¬ë Ĥĺ
ĠíıīìĨĮ ìĹĲ
Ġì§ ¬ë½ķ
Ġê°Ļ ëĦ¤ìļĶ
ìĿĮë £Į
» ĳ
ĠëĤ¨ ê²¨
ĠëĦĺ ìĸ´ìĦľ
ĳ ¬
Ġìĺ¬ëĿ¼ ê°Ķëĭ¤
ì£¼ë ©°
Ġì£¼ ìĭŃìĭľìĺ¤
íħ į
ê² Ħ
Ġìłģ ìĿĳ
Ġê°Ħëĭ¨ íŀĪ
ê° ĶìĿĦ
ìĭĿ íĴĪ
Ġìŀ¡ ìĿĦ
Ġëĭ¬ ìķĦë
ìĹĪ ìľ¼ëĤĺ
ĠìłĢëł´ íķľ
ĠìĥĿ ìĥĿ
ëĪ Īë
ê°Ĳë ıħ
ħ Ģë¥¼
ĠíĸĪëĭ¤ ê³ł
ĠìĥĿ ìĦł
Ġë§ĲìĿ´ ìĹĲìļĶ
²ł ìĿ´ë¹Ħ
Ġìĭľ ì¼ľë
ë¬´ë ¥¼
¡ ¤ë
íŀ ĺë
°ľ ìĿ´
ĠìĿ¸ë ¬¼ìĿ´
ĠíķĦìļĶ ëĬĶ
ĠëĤĺ ëĭĪ
Ġë§Īë ĥ¥
ï ¤
Ġì£¼ ìĨĮ
oo n
Ł ê°ĢëĿ½
ĠíĥĦ ìĥĿ
ìĿ¼ ëĭ¨
Ġìī Ĳ
ĠëĪĪë¹Ľ ìĿ´
ìĺ¥ ìĿĢ
Ġì¿ µ
ĠìĭłìĦł íķľ
Ġë²Ħë ł¤
Ġëĺĳ ë°Ķë¡ľ
ĠëĤ¨íİ¸ ìĿĢ
ab y
ãħ ĵ
Ġë¨¹ ìĹĪëįĺ
ŀ Ħë
Ġê±° ëĬĲë
íħ Ķë
ê²ł ëĭĪ
Ġì¤ĳ ëıħ
ìĿµ ìĿĢ
Ġì§ĳ ìĸ´ëĦ£
Ġë§Ī ì¹ľ
¦¼ë ıĦ
é Ļ
Ġì ¯
íĮ Ĳë
ĠìķĦìĿ´ë ĵ¤ìĿĺ
ĠëķĮ ìĹĲ
íķ¨ ìľ¼ë¡ľìį¨
êµ °ëį°
°ķ íķľ
¤ Ħ
ĠëĤ´ ìĦ¸
Ġê²°íĺ¼ ìĿĦ
ĠìĿ¸ íħĮë¦¬ìĸ´
ĠëĦ£ ìĿĢ
íķĺ ê¸°ê°Ģ
ê± ±ìłķ
Ġíķľ ìĪ¨
ĠëłĪë ĵľ
ìĿ ½
ê²Įë §Į
ĠìĿ´ ìĻĢ
Ġê±°ë ¦¬ê°Ģ
Ġì¤Ģ ëĭ¤
ìļ© ìĭ¤
Ġëµ Ļ
ĠìĿ´ ìĭŃ
Ġê¸ī íķĺê²Į
Ġë¬ĺ íķľ
ĵľë ¦½ëĭĪëĭ¤
Ġíķ´ ì¤Ħ
Ġìĭ¤ íĹĺ
Ĥ ¬ëįĺ
ĠìĤ¬ìļ© íķ´ë
ĠíĿĺë łĢëĭ¤
ë°Ķëĭ¥ ìĹĲ
Ġë¯¸ìķĪ íķ´
g e
Ġê²½ ìŁģ
Ġìĥģíĥľ ìĺĢëĭ¤
ìĽĮ ìķ¼
Ġë² ¨
ĠìĿ´ê³³ ìĿĢ
ĠìłĦíĻĶë ²Ī
ê±°ë ¦¬ë¥¼
ĳĲ ëĬĶ
ĠìĨĲ ìĪĺ
Ġê³Ħ ìĭľ
ìĿĦê¹Į ìļĶ
ĠìĹ° ì£¼
Ġê·¸ëŁ¬ ì§Ģ
Ġíĺķ íİ¸
íĶĮë £¨
Ġëĭ¤ê°Ģ ìĺ¤ëĬĶ
íķĺ ëĬĲëĿ¼
įĶë Ŀ¼ë©´
ĠâľĶ ï¸ı
ìŀĪ ìĬµëĭĪëĭ¤
ì´Ī ìĿĺ
Ġíķľë²Ī ìĹĲ
Ġãħħ ãħĤ
ĠìłĦ êµŃ
ëĭ¬ ìķĦ
Ŀ¼ë Ĥĺ
Ġìĭ¶ ìĹĪì§Ģë§Į
ĠëĤ¨ ê²¨ë
Ġê°ķ ì¶Ķ
ìķī ìķĦ
Ġëĭ¨ íĺ¸
Ġìĥ¤ ìĽĮ
Ġì£¼ë ª©
Ġëĵ¤ë ¦¬ëĬĶ
Ġ201 9
íķĺëĬĶ ê±°
Ġë° ¤ë
Ġìłľ êµŃìĿĺ
Ġì£½ìĿĮ ìĿĺ
ĠìķĬ ëĭ¤ëĬĶ
) '
ĠìĽĲ ìŀĳ
ĠíĪ¬ ìŀĲ
ĠìĹ° ê·¹
Ł½ ê²Į
ĠíĥĢ ìĿ´ë
Ġë¶Ģì¡± íķľ
ë§Ĳ ìĿ´
Ġì¿ łë
æ Ŀ
íĻ Īë
ì» ¨ë
ìħĶ ìļĶ
ĠìķĬìķĺ ëĬĶëį°
ĠìĥĿ ìĤ°
Ġíĺķ ëĭĺ
Ġë³ĳ ëł¥
ĠëĤ¨íİ¸ ìĿĺ
y um
........ ........
Ġì§Ģ ìĭĿ
ĠìŀĪìĹĪ ìĸ´
ìłķëıĦ ë¡ľ
íĮ Įë¥¼
Ġìŀ¥ ìĤ¬
Ġíķľ ëķĮ
Ġíıī ìĿ¼
ìĸ¼ ìĬ¤íĥĢê·¸ëŀ¨
ĠìĤ¬ì§Ħ ì°į
ì¿¡ ìĬ¤íĥĢê·¸ëŀ¨
ëĨ ĢìĿ´
Ġë¶Ħëªħ íĸĪëĭ¤
Ġì§Ģíķĺ ì²ł
? ``
©° ìĭľ
ìĽĥ ìĿĮìĿĦ
ìħ¨ ëĬĶëį°
ĠíĿĶ íŀĪ
Ġíİ¸ ì§ĳ
Ġëĭ¬ ìĿ´
ĠíĿĳ íĿĳ
ĠëĨĪ ìĿĺ
Ħ¤ ìĿ¼
Ġë°© íĸ¥ìĿĦ
ì´ Įë
íķ¨ ê»ĺ
Ġë°ľë ¡ľ
ĠëĨ Ķë
Ġê´Ģë ŀĮ
ĠìºĲë¦Ń íĦ°ë
ëĪĪ ìį¹
ĠìĭľìĽĲ íķĺê²Į
coffe e
Ġë§¤ ì½¤íķľ
¹ ĪìĿ´
å ¯
.. !
ìĤ° ì±ħ
ĠìĤ´ ìĿ¸
Ġëĭ¤ê°Ģ ê°Ģ
³ ¼ë
ê³ł ë§Ī
²Ħë ¦¬
ĠìĪĺ ìĥģ
Ġë¬¸ ìłľë
ĠìĿ´ë²Ī ìĹĲëıĦ
Ġì²ł íķĻ
Ġê°Ĳëıħ ìĿĺ
ĠíĴĪ ìĹĲ
ì¤Ģ ìĿĺ
Ġ5 00
ħ¸ë ¥¼
ĠìĿ į
ĠíĦ° ìĺĢëĭ¤
Ġê° ¤ë
Ġë© ¸
ê°Ĳ ìĿĺ
ĠìĬ¤ë ©°ë
ë¶Ģë ĵ¤
ĠìĿ¼ìľ¼ ì¼°ëĭ¤
ĠíĹ Ĳ
¸Ķë ¡ľ
ĠëıĻ ê·¸ëŀ
ìĹ¬ ìķ¼
Ġë¬´ë ĮĢ
ê°ĳ ìĿĦ
Ġìĭ¬ê°ģ íķľ
Ġë°ľê²¬ íķľ
Ġëļ ±
ŃĲë ¨¹ì§Ģ
ë§Īë ¡±ìĿ´
ĠìĤ¬ ìĿ´ë¥¼
Ġê¼ ½
ĠìĻ¸ë ¶Ģ
ĠíĮ ¬ë
ĠìķĪ ìķĦ
Ġëª¨ ì¡°ë¦¬
ĠìĺģìĹħ ìĭľê°Ħ
ì¹ĺ ë§Į
Ġê·¸ëŁ¬ë ¯Ģë¡ľ
ë³´ë ©´
f it
âĢ¦âĢ¦ "
ĠëĪĪë¹Ľ ìľ¼ë¡ľ
Ġê°Ģë¡ľ ë§ī
ìĺ Ĩ
ĠëıĦ ë¦¬
Ġë°ľ ìŀĲ
Ġë¶Ī ê¸¸
Ġëĸ¨ ìĸ´ëľ¨ë
Ġì¢ħ êµĲ
ìĬ¤ íĭ°
ìĬ¤ ì½ĺ
Ġë§Ī ìĭł
ì§ ¬ë½ķ
ë įĶëĿ¼
Ġê·Ģ ê°Ģ
ìĬ¤ ìĹĲìĦľ
ðŁı ¼
Ġì§Ħ ìĭ¬ìľ¼ë¡ľ
Ġì¡° ìķĦ
Ġê·¼ë ¬´
Ġìŀħ ê°ĢìĹĲ
Ġê³µê°Ħ ìĿ´
ãħłãħłãħłãħł ãħł
Ġíľĺë ĳĺë
ĠìłĢ ì§Ģë
Ġìĸ´ì©Ĳ ì§Ģ
Ġë± Ģ
a y
Ġì½Ķë ¥¼
Ġê³¼ ìłķìĿĦ
ê¸° ëĬ¥
ĵ¤ìĹĲê²Į ëĬĶ
Ġìłľ ê°Īë
Ġíķĺë£¨ ì¢ħìĿ¼
Ġì¸ µ
Ġë§ĽìŀĪëĭ¤ ê³ł
ĠëĤ´ëł¤ ê°Ģ
Ġê·¸ëĤĺ ìłĢëĤĺ
ĠìĦ ¬ë
Ġë§Īë £¨
ĠìĿ½ ìĿĦ
ª °ë
ĠëĮĢ ìĤ¬
Ġë¶Ģ ì²ĺ
ìļķ ìĿĦ
ĠëĨį ëĭ´
na ver
Ħ Į
¶Ģë ¶Ģ
Ġìĭ¤ ìĿĢ
Ġê²ĥ ìĿ¸ëį°
ìĺ¤ ê¸°
ĠìĽĢì§ģ ìĿ¼
Ġíļ ¡
ðŁĮ ¸
ì¹ĺ ì¦Īë
ĠìŀĲë ³¸
ĠëŁ¬ ìĭľìķĦ
ìłĦ íķĺ
Ġíķĺë įĶëĿ¼êµ¬ìļĶ
ì¹ łë
ìĥģ ê³¼
Ġê³§ ìŀ¥
Ġíıī ê°Ģ
Ġìļ° ëĬĶ
Ġìŀħ ìľ¼ë¡ľ
Ġê²½ ê¸°
ìĬ¤ ì½Ķ
ĠìłĦ ìĦ¤
ĠìĥĿê°ģ íĸĪëįĺ
Ġê³ł ìĨĮíķľ
Ġíŀĺ ê»ı
ĠìĻĦë £Į
ĠìĮĵ ìĹ¬
Ġìłķ ëł¹
³ĳ ìĿ´
ê²° íĺ¼
Ġ ....
ł¹ ìĿĦ
ëĮķ ìĿ´
k g
Ġê°ľ ê°Ģ
ê¸´ ëĭ¤
ìĿ¸ ì¤Ħ
Įë ¦°
íĥĢ ê³ł
ìľ¼ ìľ¼
ĠìķĬ ìĬµëĭĪê¹Į
ë§Į ìľ¼ë¡ľ
ë įĶëĿ¼ëıĦ
Ġì§ĢëĤĺ ê°Ķëĭ¤
Ġìķ½ìĨį ìĿĦ
ĠìĨį ëıĦë¡ľ
ìķĦìĿ´ ìĬ¤íģ¬ë¦¼
Ġëĭ¤ìĿĮ ê³¼
Ġíķ´ ìĦĿ
Ġìķ½ íķľ
ë¯¸ ê°Ģ
ãħĮ ãħĮ
ĠìĤ¬ íĿĺ
ê°Ĳ ìľ¼ë¡ľ
ĠíıĲ íķĺ
Ġìĵ¸ë į°
ìĭľ ê¸¸
ìĨ ľ
ê²ł êµ¬ëĤĺ
ĠëĨĴ ìķĦ
Ġëĵ¤ ìĹĪìĬµëĭĪëĭ¤
Ġë°©íĸ¥ ìľ¼ë¡ľ
Ġëĭ´ ê³ł
į §
ĠìĿ´ë ª¨
on e
íĬ¸ë ¶ģ
ĠìĿ¸ê°Ħ ìĿĢ
ĠìĹ¬ëŁ¬ ê°Ģì§Ģ
Ġìŀ¬ë¯¸ ìŀĪëĬĶ
ĠìķĪë ı¼
ĠëıħíĬ¹ íķľ
Ġì¹¨ë ĮĢìĹĲ
íķĺ ì§Ħ
Ġë§ī ìĿĦ
Ġê·¸ëŀĺ ìķ¼
ìĥ¤ë ¸Į
Ġ g
å Ĭ
ì´Īë ¥¼
ĠìłĦìŁģ ìĿĦ
ĠìĿµìĪĻ íķľ
íģ´ë ŀĺ
Ġ of
Ġì· ¨ë
ľ ¬
Ġì¶ľ íĮĲ
ĠëĨĪë ĵ¤ìĿ´
ë´ ĩ
Ġì¹´ íİĺë
Ġì£½ ìĿ¸
Ġìŀ¡ ëĬĶ
ìĨĮ ìĹĲìĦľ
ĠìĽĶ ìļĶìĿ¼
ìķ ¤ë
Ġì¹ ¨ìĿĦ
ĠìĨŁ ìķĦ
ĠìľłëĤľ íŀĪ
ìĨ ¥
ëĤ ¬ëĭ¤
Ġëĭ¹ ìĭłë
Ġëĭ¬ë ŀĲëĭ¤
Ġëº ı
Ġë²Ī ê°Ī
Ġìĭł íĻ©
ìĻ ĵ
Ġíŀĺ ìľ¼ë¡ľ
ìĵ° ëĬĶ
Ġë°Ķëĭ¤ ë¥¼
Ġê¸°ìģ ¨
ĠëĤ¨ ê¶ģ
Ġëĭ¬ëĭ¬ íķľ
d er
ë ©Ķë
ĠëĮĢ íķĺìĹ¬
ĠìĨĮìĦ¤ ìĿĦ
ê ¶Ī
ãħİãħİ ãħİãħİ
ĠìķĬìķĺ ìĸ´ìļĶ
ê°Ĳ ìŀĲ
Ġë²Į ìĸ´
Ġìļ°ë ¦¬ëıĦ
íĮ ¨ë¥¼
Ġìķł ìłķ
Ġìĸ ½
ìĿ¸ ìĹĲ
Ġê°ķ ìķĦì§Ģ
Ĥ´ ê¸°
Ĵ ¤
Ġíķľ ë°Ķ
ìĻĢ ìĿ´
Ġê¼¬ë §Ī
Ġë¬´ë ¦¼
§¤ë ¥¼
Ġì£¼ë ¦Ħ
íĽĦ ê°Ģ
Ġë¬¼ëŁ¬ë Ĥĺ
Ġì§Ģ íĤ¤
ëĭ¹ ìĿĺ
Ġë§ĪìĿĮë ĮĢë¡ľ
Ġíģ´ë łĮì§ķ
ĠìĦ¼ ìĬ¤
Į Ħ
ĠìĦ¸ íĬ¸
Ġë°© ìĭĿ
ìļ° ì§Ģ
ìħĶ ì¸ł
Ġì²« ì§¸
ìŀĪ ìĿĦ
Ġìłľ ìĭľ
ĠìĤ¬ëŀĮë ĵ¤ê³¼
w e
²ł ìĿ´íĦ°
ĠëıĦ ìĦľ
Ġëĭ´ ìĿĢ
ìĤ°ë ¶Ģ
Ġë©Ķëī´ ëĬĶ
Ġíķľë² ĪëıĦ
Ġìĭľ ì¦Į
Ġìłķ ìĿĺ
Ġêµ¬ íķ´
ĠìĬ¤ íĨłë¦¬
å± ±
¦° ìĿĺ
ìĨį ìĿ´
Ĳ ëĭ¤
Ġëª¨ìĬµ ìĿ´ìĹĪëĭ¤
ê±° ê°Ģ
ĠìĦľë¹Ħ ìĬ¤
_ <
Ġìĺģ êµŃ
Ġì¦Ĳ ê²ģê²Į
ëª¨ ëĭĿ
ìĭ¬ë ıĦ
ĠíĬ¹ ìĿ´
Ġì£¼ë ©´
ìĽĶ ìĿĺ
ĠëĤĺ ì¤ĳ
¦¬ ìĻĢ
Ġì¡´ìŀ¬ ê°Ģ
ĠìĽĥ ìĸ´
Ġë¶Ħ ìĦĿ
íĺĦ ìĿĦ
Ġê ¶
Ġì§ ł
ìĭľ ìŀĳ
Ġìłķ ìĭłë
ìĦ¸ ìĿĺ
Ġë©Ģë¦¬ ìĦľ
ĠìĽĢì§ģ ìĿ´ì§Ģ
êµ¬ ìĹĲ
íİ¸ìĿĺ ìłĲ
Ġëĳĺ ëĭ¤
ĠìĿ¼ ê·¸ëŁ¬
ĠìĿĺ ìŀĲ
ĠëıĮìķĦë ³´ìķĺëĭ¤
ìĽ ¨ìĿ´
ĠëģĪ ìłģ
ĠìķĦëĭĪë ĥĲ
ĠìŀĲìĦ¸ íķľ
Ġëª¬ ìĬ¤íĦ°
. ,
ĵľë Ŀ¼
ĠíĿĺë ¦¬ë©°
Ġìłģ ìļ©
ĠìĹ Ķë
Ġê³łêµ¬ë §Ī
Ġì¡°ë ªħ
ì²« ì¤Ħ
ë ´Ĳ
Ġëĭ¨ ì²´
ĠìĿ´ ìĻ¸
ìĤ° ìľ¼ë¡ľ
ĠíĹ Įë
ì¹ĺ ìķ½
ĠìĨĮìĦ¤ ìĿĺ
ëį°ìĿ¼ë¦¬ë £©
,,,, ,,,,
Ġ ãĦ±
ìłĦ ìĹĲìĦľ
Ġë°ĳ ìľ¼ë¡ľ
m o
ìķĪ ìĹĲìĦľ
ìĦłìĥĿ ëĭĺ
Ġë ¡Ŀ
Ġê·¸ë ³´ëĭ¤
Ġë¨¸ë ¬¼
ìħ Ģë
Ġë¶Īë łĢ
ĠìĹĨ ëĦ¤
¼ Ī
ĠëĤ´ë ħĦ
ĠìłĢ ìłĪë¡ľ
ê¼¬ ì¹ĺ
² ³
íŀ ĪëĤĺ
ĠìķĪë ¨¹
Ġë¶Īë ¦¬ëĬĶ
Ġë§İ ì§Ģ
íĥĦ ìĿĦ
Ġëĵ¤ ìĹĪìĸ´ìļĶ
Ġì§ Ń
Ĥ ®
ìĥĿ ìĿ¼
Ġëĭ¤ ëĭĲ
Ġê·¸ëŁ°ë į°ëıĦ
Ġë°© ìĹĲìĦľ
íģ Ń
ĠëıĻ ìĽĲ
ĠìŀĲìĭł ê³¼
ĠìĪł ìŀĶìĿĦ
Ġì¹ ¸
ķĮ ëĬĶ
íķĳ íģ¬
Ġìĭ¬ ìŀ¥
ìĽĢ ìĿĢ
ĠìŀĲëıĻ ì°¨
íĻĶ ìĹĲ
ìĸ¸ ìĦľ
ĠìĤ¬ë ıĦ
Ġê°Ģê¹Į ìĽĮ
ì° ¸ë
Ġëıħ ìĿ¼
©´ ìĿĦ
ì¡± ë°ľ
ĠëıĻìĥĿ ìĿ´
ìŀħ ê³ł
Ġíİ¸ íķľ
íĮĮ ê°Ģ
æ ĺ
Ġìĭľìŀĳ íķľëĭ¤
ĠìĹ¬ ìĿ¸ìĿ´
ĠìŀĪëĭ¤ ëĭĪ
ĠìĪĺ ìłķ
ĠíĹ Ĳë
ĠìĿ¼ìĸ´ëĤĺ ìĦľ
Ġìľł ëĭĪ
ĠìĪł ìĿ´
ĠëįĶëįĶ ìļ±
ê¸° ìķ¼
Ġï¼ ľ
ĠìĹ¬ ìĿ¸ìĿĢ
Ġë³´ë ĥĪ
ĠíĻĪ íİĺìĿ´ì§Ģ
ĠíĻĶìŀ¥ íĴĪ
ê³Ħë ŀĢ
ìľ µ
Ġìĸ´ë §Ī
ĠëıĮìķĦ ìĺ¬
Ġíķ´ìķ¼ ì§Ģ
Ġìĺ¤ëŀĺë Ĳľ
ĠìłĲ ì°¨
Ġìĺģ ê´ĳ
¦¬ ëĭ¤
ì· Ħëĭ¤
Ġíħ į
ì¢ħ ìĿĦ
ĠìĤ¶ ìĿĢ
ì½Ķ ìĬ¤
ìĽĲë ĵ¤ìĿĢ
ìĪĻ ìĿĢ
Ġë¯¸ ì¹ĺ
Ġãħ¤ ãħ¤
ĠìłķëıĦ ê°Ģ
ãħ £
Ġë°Ķ ìĿ´
íķ´ ìĿĺ
ê³µ íķŃ
ĠëĨĢ ê³ł
Ġë¬µë¬µ íŀĪ
į ´
Ġíķ´ë Ŀ¼
ê²ĥ ìĿĦ
ĠìĦ± ìĿĦ
ĠëĦĺ ê²¨
Ġì ©
Ġìĸ´ëĸ» ê²Įë
Ġë´Ĳ ìĦľ
Ġíĥľ ìĸĳ
ë ¦¼
ĠëĦ¤ ìĿ´ë²Ħ
Ġíģ´ë ŀĺ
ĠíĬ¼ íĬ¼
Ġì² ©
íķĺëĬĶ ê²Į
ë¯¼ ìĿĺ
Ġì¹´ë §Ī
ìĬµ ê´Ģ
ĠìĬ¤ íĥ
ĠìĿ´ìķ¼ ê¸°ë
ìľ¼ëĭĪê¹Į ìļĶ
ł¹ ìĿĢ
Ġìĥģ íĴĪ
ëħ ķ
ĠíĻķ ìĭł
ê¾¸ë ¯¸
Ġê°Ģë°© ìĿĦ
Ġì¡´ ìŀ¬ë
Ġì·¨ ê¸ī
ĠìĻľëĥĲ íķĺë©´
Ġë§Įë §Į
íĸĪ ìľ¼ëĭĪ
ĠìĿ¼íĸī ìĿĢ
Ġì±ħ ìĿĢ
Ġâĸ ²
ê±°ë ¡ľ
ìĺ¤ëĬĺë ŃĲë¨¹ì§Ģ
íĤ ´
ĠìķĦë¹ł ëĬĶ
íķ´ìĦľ ëĬĶ
Ġê¸°ìļ´ ìĿĦ
Ġì»´íĵ¨ íĦ°
ìĿ´ë Ŀ¼ë©°
ì¤ Ħë
ĠëŃĲ ì§Ģ
ª¨ë ¡ľ
ĠìĿ¸ íĺķ
Ġìī¬ ê³ł
Ġë³ĳ ìĽĲìĹĲ
ĠëĮĢ íĺķ
Ġì§Ģ ì¹ľ
ê¹Ģ ìĹĨìĿ´
Ġì´īì´ī íķľ
Ġë¯¸ ì¹ľë
ëĭ¤ìĭľ íĶ¼
ìķ Ķë
Ġì¦Ŀ ëªħ
Ġíķłë¨¸ëĭĪ ê°Ģ
âĢ¦âĢ¦ ãĢį
ê²° ìĿ´
ĠíĺĦìĭ¤ ìĿĦ
Ł ´ë
Ġì£¼ ìľĦ
Ġì§ĢëĤĺ ê°Ģ
Ġëĭ¬ ì½¤
ĠíĻ© ê¸īíŀĪ
Ġì» ¬ë
ĠêµŃë¬¼ ìĿ´
Ġê·¹ ë³µ
ì¢ĭ ê²Į
ĠìķĦë ¹łë
Ġë°ĺ ì¯¤
ëĤ ®
Ġë¶Ģë ĵ¤
ĠíĬ¹ ìĪĺ
ìĿ´ë ŀĺ
ĠìĹĲ ìĬ¤
ìĹ°ë Ĥ¨ëıĻ
Ġëħ¸ ìĿ¸ìĿ´
ëĬĲëĥĲ ê³ł
b aby
¹ ĦëıĦ
ĠìĦłë ªħ
ĠìĻĦë²½ íķĺê²Į
Ġìĭ¸ ìĽĢìĿĦ
ĸ ł
ĠíĨ¡ íĨ¡
ìĿ´ë ¸Įë
ĠìĿ´ë ¦Ħë
l y
Ġì§ ĻìĿĢ
Ġíķĺ ìĦ¸ìļĶ
ìĸ¸ ìĿ´
ìŀ¬ ëĬĶ
ì¹´íİĺ ìĬ¤íĥĢê·¸ëŀ¨
ë¶Ģ ìĿĺ
įĶë ĥĲ
Ġëı¼ ì§Ģê³ł
ë¶Ħ ìĿ´
ë§Ī ê°Ģ
ìĨ Ł
ì§ ¸ë
ä¹ ĭ
Ġë²Ħë ¦ĩ
ĠìĪ Ń
Ġëĭ¬ ì½¤íķľ
ìĤ¼ ê²¹ìĤ´
Ġì¢ĭ ëĦ¤ìļĶ
ĠêµŃ ìłľ
Ġê·¸ë ł¤ë
ĠíĥĢ ìŀħ
Ġì¤ĳ ìĹĲìĦľëıĦ
Ġìĥģ ëĭ¹íķľ
Ġëĸ ¼ë
ĠìĥģëĮĢ ìĿĺ
Ġê·¸ëķĮ ëĬĶ
ĠíĹĪë ²ħ
ĠíķĻêµĲ ìĹĲ
âĹĭ âĹĭ
bea ut
Ġë©Ģ ì©¡
ìĿ¸ë ĵ¤ìĿĦ
Ġìĸ¸ ìĸ´
ê·¸ë ¦¬
Ġë¶Ģ ì§ĢëŁ°
ĠìĹ° ìĨį
íĹ¤ íĹ¤
ĠìĨĮë ¬¸ë
íĴ ĭ
Ġìĭłë ¶Ħ
Ġëª¨ë į¸
ìĿ´ë ¦¬
Ġë³´ë Ŀ¼
ł¥ ìĿĢ
ê¹ Ķë
ĠìĤ¬ëŀĮ ìĿ´ìĹĪëĭ¤
íĽ Īë
201 8
ĠëĬĲëģ¼ë ©°
ìĸ´ë¨¹ ìĿĦ
ĠìĬĪ íį¼
ìķĦë ¬´
Ġì¿ ¨
ĠëķĮë ¡ľëĬĶ
ĠìĪľ ìĪĺ
t e
Ġìĭ¶ ëĭ¤ê³ł
Ġëĸ¨ ìĹĪëĭ¤
ĠìķĦ íĶĶ
ê¸° ê°Ħ
ìĹ¬ ìĦ±
Ġê°Ģë ³´
ëĭ¹ ìĭł
íĺ ľë¥¼
ëĭµ ëĭĪëĭ¹
! )
Ġê²ĥìĿ´ ì§Ģ
íĭ° ê°Ģ
ħĢ ëĬĶ
ĠìĤ¬ëŀĳ ìĿĢ
ì½Ķë ĶĶ
Ġê³ł ê°Ŀ
lo g
ĠíĨłë ģ¼
ĠìłĢíĿ¬ ê°Ģ
ģ Į
ìłķ ìĭĿ
å ŃĲ
ł ĺ
Ġìĸ´ë ¦¬ë
íķ´ íķĺëĬĶ
Ġë³¸ë ŀĺ
Ġê¹Ģë °¥
Ġì°¾ ìĿĢ
íķľ ìĿĦ
ĠìĿ¸ ìĤ¬ë
ë¡ľ ë¥¼
ĠíĻĺ ìĥģ
Ġíļ¨ ê³¼ë¥¼
íķ´ ëĬĶ
ìĿ´ìĹĪ ìĸ´
ĳ¥ ìĿ´
Ġë¹Ľ ëĤĺëĬĶ
Ġê°Ĳ ìĺ¥
ìŁ Ī
Ġíģ °ë
ìĹŃ ìĹĲ
Ġë¯¿ ëĬĶ
ìĹĨ ê³ł
ê²Įë ¡ľ
ĠìĹ° ìķł
Ġì°¨ ìĿ´
Ġìłķ ìĦ±
Ġìĭľìŀĳ íķĺëĬĶ
ê³ł ê¸°ë
Ġëĭ¨ëĭ¨ íŀĪ
ì£¼ ê¸°
ìĦľ ìĹĲ
ë³¶ ìĿĮ
ĠëĳĲ êº¼
Ġë³´ìĹ¬ ì£¼ê³ł
Ġë© Ģë
ĠëĲ ¨
Ġëĸłìĺ¤ë ¥´ëĬĶ
Ġì¡´ ìŀ¬ë¥¼
å ¿
ìĿ¸ ê±°
ĠìĪľ ê°Ħë
ou l
¦ ħ
²Ħë ¦¬ëĬĶ
ìĦ¼ íĦ°
ìĽ °
¨¹ ê¸°
ĠìĦľë ĦĪ
íĺ¼ ìŀĲ
ëį ĺëį°
·Ķ íİĺ
ë¬¸ ìĿĺ
íķłë ¨¸ëĭĪ
Ġíĥ Ĳë
ĠìĹ° ìĭł
ì²Ń ìĿĦ
ĠíŀĪ íŀĪ
ì§Ģ ëĭĪ
ĠìŀĲ ìĦ¸ë¥¼
íħĮ ìĬ¤
ĠëįĶë Ł¬
Ġì« ĢëĵĿ
ĠëŃĲë Ŀ¼
ĶĶë ¥¼
Ġëĸłë ĵ¤
í į½
ìĿ´ ê¸´
ĠìĭĿ êµ¬ë
ĠíĻķìĿ¸ íķł
Ġì¤ ¬
ĠìľĦíĹĺ íķľ
Ġê·¸ë §Įë
Ġê°Ģ ì§Ī
ĠìĤ´ìķĦ ìķ¼
ì¤Ħ ìĿ´
ì»¤ë ¦¬
Ġíİ¸ ì§Ģ
Ġë³Ģ íĺ¸
Ġì§Ģë ¶ķ
!! "
Ħ¤ ê°Ģ
ĠìĬ¬ íį¼
Ġíı¬ íķ¨ë
íĶĮë£¨ ìĸ¸ìĦľ
ĠìĨĲë ĵ±
Ġê³Ħ ëĭ¨ìĿĦ
ĠëĮĢë ¬¸
ĠëĬĺ ìĸ´ëĤĺ
Ġìĭ« ìĿĢ
Ġíĺ¹ ìĭľëĤĺ
ĠìĿ¼ìĸ´ë Ĥł
ëĤĺ ìĿĺ
ë§Īë ²ķ
Ġíķľ ê»ı
¨¹ ë°©
ìĺ¤ ëĭĪ
Ġêµ¬ ì¡°
ĠëĳĲ ê°ľ
Ġì¢ħ ì¡±
ł¸ ìĸ´
Ġê¸° ìĤ¬ë
Ġê°Ģ ì¹ĺ
ê´ĳ ì£¼
ĠìĽĢì§ģ ìŀĦ
įĶë Ł¬
ê°Ģë Ŀ¼
Ġë©Ķ ìĿ´íģ¬ìĹħ
Ġêµ °ëį°
Ġë² ¼
ĠìĨĮë ¹Ħ
Ġ in
íĨ °
ìĨĮ ìĿĺ
Ġìĭ¬ ìŀ¥ìĿ´
ĠìŀħìĪł ìĿ´
Ġëĵľ ìĽĮ
ĠíĻ© ê¸Ī
Ġëĥī ëıĻ
ëıĦ ìĭľëĿ½
ìĪ¨ ìĹĲ
Ġì¡± ë°ľ
ìĺģ ìĸ´
³´ ëĭ¨
íĺģ ìĿ´
íķ´ì§Ħ ëĭ¤
» ìŀİ
ìķĦ ìłĢ
Ġëĸ¨ ê³ł
íĶ¼ë ¥¼
Ġë¹Ħ ìĸ´
íĻĺ ìĿ´
¨ë Ķ©
Ġì¹ľêµ¬ ëĬĶ
Ġì¡° ê·¸ë§Į
ìķĪ ìľ¼ë¡ľ
ĠãĢ Ĭ
ĠíĽĮ ì©į
íĸĪ ìľ¼ë©´
Ġìĭ ľë¥¼
ì¦ ī
Ġíĺ Ĳ
ìĺĪ ìģľ
ìĥĪë Įģ
ĠìĦ¸ ìļ´
ìķĦìĿ´ íı°
Ġê°Ļ ëĭ¤ê³ł
ì¤ĳ ìĿ¸
ì¼Ģ ìĿµ
ĠìĦłíĥĿ íķľ
ëĭŃ ê°ĢìĬ´ìĤ´
ĠëŃĶê°Ģ ë¥¼
ĠìĦŀ ìĿ¸
íģ´ë Ł½
Ġìĭľ íĤ¤
ìłľ ê±°
d el
Ġì¤ĳ ìĿ´ìĹĪëĭ¤
Ġì¹ĺë ©°
ìĿ´ë ĵ¤ìĿ´
ì¹¨ ìĿ´
Ġì§Ģë ıħ
íķ ¸ë
ĠìķĪ ê²¨
Ġë Ł¬ë
ĠìĽĥ ìľ¼ë©´ìĦľ
Ġìķ½ ìĿĦ
ĠìĿ¼ìĸ´ëĤĺ ëĬĶ
¹ ¼
Ġê¸° íļį
ìĬ¤ë Ŀ¼
ĠìŀĪìĿĦ ì§Ģ
ì¿ł íĤ¤
Ġê±° ìĬ¬ë
Ġëĵ¤ìĸ´ ìŀĪëĬĶ
Ġíķ´ ì¤Ģ
2 9
ĠìĬ¬ íĶĦ
ëĤĺ ê³ł
íĻĶ ìĻĢ
ìĦł ê°Ģ
ĠíĻĶ ìĤ´
Ġì¢ĭìķĦ íķĺëĬĶëį°
å ¸
ëĭĻ ëĭĪëĭ¤
ìĦ¸ ê¸°
ìĹ° íķĺê²Į
Ġíĺķ ìĿĢ
Ġë¿ Į
ìµľ ê³ł
ĠìĿ´ ê°Ģ
ĠâłĢâłĢâłĢâłĢâłĢâłĢâłĢâłĢ âłĢâłĢâłĢâłĢâłĢâłĢâłĢâłĢ
ëĮĢ ìłĦ
Ġê³ģ ëĵ¤
Ġê°Ħë §ĮìĹĲ
Ġê°¸ ìĽĥ
ĠìĹ ½
ĠëĮĢ ìĥģ
ĠíħĶë łĪë¹Ħ
ì²ł ìĿĢ
ĠëĮ ģ
Ġìĺ¤ ê¸°
ìĦ¸ ìĹĲ
Ġìŀ¥ ìĦ±
Ġë¶Ħ ìĿĢ
Ġì²« ë²Īì§¸
ì¹ĺ ëĭ¤
ĠìŀĲë Ŀ¼
ĠëĪĪë ¬¼ë
ĠìĤ¼ ìķĦ
ĠìķĦë Ĥĺ
ë¹ ł
ĠëĸłëĤĺ ëĬĶ
Ġë¹ Īë
Ġë§ī ìķĦ
ìĿ¸ ìĬ¤íĥĢê·¸ëŀ¨
Ġíķĺ ìĺĢ
§Ĳ ìĿ´
Ġë¸Ķë £¨ë
å ¾
Ġê³µ ê°ľ
ĠìĻ Ķëįĺ
ĸ¡ ë³¶ìĿ´
2 7
ĠìķĦê°Ģ ìĶ¨
ĠìĺĪìģĺ ê³ł
Ġë°¤ ìĥĪ
íĬľë ĶĶìĺ¤
Ġê°Ħ ìĿ´
Ġ ,,
ê·¸ë ¦¼
ì´Īë ĵ±
Ġê·¸ë ĮĢ
Ġíķĺ ëıĦ
ìĺ¤ëĬĺ ëıĦ
ì¢ĭ ëĭ¤
ĠìĿ½ ìĸ´ë
ĠìłķíĻķ íķĺê²Į
¡ Ģë
Ġ+ _+
ðŁ Ķ
Ġìĸĺ ê¸°ê°Ģ
Ġë ĩĮë
Ġê·¸ëħĢ ìĻĢ
ìł ¤ë
ĠìĭĿ ë¬¼
Ġìĸ´ëłµ ì§Ģ
Ġë© ¤ë
íľ´ ê°Ģ
Ġë¨¸ë Ńĩ
Ġë²Į ìĸ´ì§Ħ
ê³ł êµ¬ë§Ī
ĠìĨį ëıĦ
ëĳĲ ê³ł
Ġêµ´ë Ł¬
ĠìłĲë ł¹
ä ½
© ©
Ġì´Ī ì¡°
Ġëį§ ë¶Ļ
Ġê² ĢìĿ´
Ġì§Ģ ìĽĮ
Ġê²½ìļ° ìĹĲëĬĶ
ĠìŀĪ ê¸´
ìĭ¬ ìĹĲ
Ġíķĺë ł¤
ĠëĨĵ ì¹ĺì§Ģ
Ġìŀ¬ë¯¸ ê°Ģ
Ġì»¤ ìĦľ
ì³Ĳë Ĥĺ
ç İ
ĠìĿ´ ìĪľ
ĠìĤ¬ë §Ī
Ġìĸĩ ìĿĢ
Ġì§Ģë ¥´ë©°
íķĺëĭ¤ ëĭĪ
¹ Ķ
ìľ ¨ìĿ´
Ġë§ĽìŀĪ ìĹĪëĭ¤
Ġê°Ģë ıĦ
ê°ĲìĤ¬ íķ©ëĭĪëĭ¤
Ġìĺģ íĸ¥
íŀĲ ë§ģ
ĠìĤ¬ë §Ŀ
ģĦë Ł¬ë¯¸
ĮĢ ê³ł
Ġë¯¿ ì§Ģ
Ġì¹Ń ê¸°
ĨĪ ìĿĢ
ĠìĽĢì§ģ ìĺĢëĭ¤
Ġìĸ´ë§Ī ìĸ´ë
¬¼ ìĿĺ
ìł¯ ë°¤
Ġìĭłë Ŀ¼
ĠìĤ¬ìļ© íķ´
sty le
ĠìķĦ ìļ°
íķĺëĬĶ ì§Ģ
ê³µ ìĿĢ
Ġë¬¼ ìĸ´ë³´
é ĸ
łĪë ¥¼
Ġê±¸ ì³Ĳ
íĮĮ ëĬĶ
ĠìĬ¤ íĭ°
ĠíĦ ¸ë
Ġìĺ¬ë ¦¬
¬´ ê°Ģ
Ġìĵ°ëŁ¬ ìł¸
ì¹¼ë¡ľ ë¦¬
ì£¼ ìĻĢ
ì§Ħ íķľ
ĠëĤ´ìļ© ìĿ´
ãħħ ãħİ
Ġìķŀìľ¼ë¡ľ ëıĦ
2 6
ìĭľ ì¼°
ĠìŀĲë ĵ¤ìĿ´
ĠìĹ°ëĿ½ ìĿĦ
Ġíķ´ ìĻ¸
ê¸° ìĹĲìĦľ
ê·¸ë ¦°
Ġëª¨ ìľ¼
Ġëĵ¤ìĸ´ ìĺ¬ë
ĠìĿ´ë£¨ ìĸ´
Ġì¦Ĳ ê²¨
ĠìĿ¼ìĿ´ ìķ¼
Ĳ ©ëĭĪëĭ¤
íķĺ ìĿ´
Ġê¹¨ëģĹ íķľ
ĠíĶ¼ íķł
ĠìĿ¸ìĥĿ ìĿĦ
Ġë°Ķë ŀĮë
ĠíĻķìĭ¤ íķľ
ìŀ¥ ë©´
ê±°ë ¦¬ê°Ģ
ìł¸ë Ŀ¼
ĠëĬĲëģ¼ ê²Į
er t
ĠëĨĪë ĵ¤
ĠìĻ ĶìĿĦ
Ġê³Ħ ìłĪ
ĠìĻķ êµŃ
Ġë°°ë ¶Īë
ĠìŀĲ ìĤ´
łĪë ĵľ
Ġì¡°ë §Į
ëĵ¤ ë¡ľ
ìļ°ë ¦¬ë
Ġì¦ Ī
Ġëĭ¨ ìĪ¨ìĹĲ
Ġíķłë¨¸ëĭĪ ëĬĶ
ĠìłĦ ê¹Įì§Ģ
ĠðŁ İ
ĠìĤ¶ ìĿ´
ĠìĿ¼ë Ł¬
ĠìłĦë Ĥł
¥´ ëĭ¤
ĠìĦ¸ íĥģ
Ġë¶Ī ê°Ģ
ì»¤ë ħķ
Ġíķĺë Ħ¤
Ġë¶Ļ ëĵ¤
ĠìĪĺ íĻĶ
ìĦľ ìĦľ
ìĤ¬ë ł¹
ĠëķĮë¬¸ ìĿ¸ì§Ģ
ëĬĺë ¡ľ
Ġ !!!
ĠìĺĪ ìĿĺ
¥´ ìĿĺ
Ġë¬´ë ¦¼ë
ì£¼ ìĬ¤
Ġë¿Įë ĵ¯
Ġë¬´ìĸ¸ ê°Ģë¥¼
ĠìĤ¬ë §ī
Ĳë ¥¼
ì¶Ķ ëĬĶ
Ġìłĸ ìĸ´
ĠíĨ ¤
Ġì°¸ ê°Ģ
ìĦł ìľ¼ë¡ľ
ou t
Ġê±°ì¹ł ê²Į
Ġì¡°ê¸Ī ìĿ´ëĿ¼ëıĦ
ëĭ¤ìĿ´ìĸ´ íĬ¸ë
ĠìĿ½ ìĸ´
ĠëłĪë ª¬
Ġìķ ¤
Ġë°Ķ ê°Ģ
¯ Ħ
ĠìĨĲ ìŀ¡
ê·¸ëŀĺ ìļĶ
ĠìĬ¤ ì¼Ģ
íķľ ìŀĶ
9 9
ĠìĿ´ ìĦ±
ĠëĦĪë ¨¸
ĠìĿ´ ê¸¸
Ġë§Ľ ë³´
¦¬ë ł¤ê³ł
ĠìķĦëĭĪ ìĺ¤
³´ë ł¤ê³ł
ĠìĪĺ ìļ©
Ġë°ľ ìĿ´
Ġìĸ Į
Ġìĥģ ëĮĢë¥¼
íĩ´ ê·¼
į ľë
ìĨĮë ħĦ
ĠëĦĺ ì¹ĺëĬĶ
İ Į
ĠìķĦ ì£¼ë¨¸ëĭĪ
ìĦ¸ìł¤ ê·Ģ
ìŀĳ ê°Ģ
Ġìŀ¥ ìĭĿ
ĠìĬ¤ ìľĦ
íĺľ ëĬĶ
¡ łë
Ġë³´ê³ł ëĬĶ
ĠìĤ¼ ìĭŃ
ê°ľìĽĶ ìķĦê¸°
âĿ£ ï¸ı
Ġìĸ´ë ¥´
ê° ¯
Ġê¹ į
ë ½
Ġë°Ľ ê²Į
ĠìĿ´ê³³ ìĿĦ
Ġâ ĶĢ
2 8
ĶĶ ìħĺ
ĠìłľíĴĪ ìĿĢ
êµĲ ê°Ģ
Ġì¶© ê²©ìĿĦ
ĠìĥĿê°ģ íķĺ
ĠëĤł ìķĦê°Ģ
Ġì¢ĭ ëĭ¤ëĬĶ
Ġê´Ģê³Ħ ê°Ģ
Ġë³Ħ ëĭ¤ë¥¸
ĠëĤ¨ ê¸°ê³ł
Ġíķĺë Ŀ¼
Ġê²° ìĭ¬
Ġëį° ëĬĶ
Ł¬ë ¸Ķ
íĺ¹ ìĭľ
ìĿ´ ìĿ´
ìĿ¸ ê°Ħ
Ġíİ¸ìķĪ íķľ
Ġìļ°ë¦¬ ì§ĳ
ìĿ¼ë Ł¬
ĠâĻ ¡
ëıĦ ì¹ĺ
ìħ ĺë
ĠìŀĲ ê¸°ë¥¼
ĠìĬ¤ íĤ¨
ë°Ľ ìĿĢ
ìĻĶ ìĿĦ
Ġì ĳ¤
Ġë¬´ìĦľ ìĽĮ
ê° Ķëįĺ
ìĦł ìĹĲ
í Ĳģ
pet stagram
ĠìŀĪ ê¸°ìĹĲ
íĻĺ ê²½
ĠëĮĢíķľë¯¼ êµŃ
ì¹´ ê°Ģ
Ġë§¡ ìĿĢ
Ġíķ´ë ¬¼
Ġë¬´ ìĭ¬
Ġíķ Ģ
ĠíĬ¹ íŀĪëĤĺ
ì½Ķë ĦĽ
ãħĭãħĭãħĭãħĭãħĭãħĭãħĭãħĭ ãħĭãħĭ
Ġì¡°ìļ© íķľ
ìĥ ĮëĵľìľĦì¹ĺ
Ġëį° ê°Ģ
Â· Â·
Ġë¹Ħ ê·¹
íĨµ ìĹĲ
ì²´ ìĹĲ
Ġëĵ±ìŀ¥ íķĺëĬĶ
Ġìĭ¬ë ¦¬
Ġ to
Ġê±· ê³ł
ìĽ Ģë
ìļ´ë ĮĢ
Ġì¡´ ê²½
ĠìĿ´ íĺ¼
Ġ2 8
Ġìĭľ íĤ¤ëĬĶ
Ġìĸ´ëĬĲë į§
¿ Į
Ġë¶Ģë ¥¼
Ġë¬¼ë¡ł ìĿ´ê³ł
ĠìĹ´ë ¦°
Ġì§Ģ ê·¹
ĠìĬ¤ë§ĪíĬ¸ íı°
ĠìĬ¤ íĤ¬
ĠìķĪë ³´
¡Ń ì§Ģ
¹ Įë
Ġ è
íľ ´ë
ìĭľ íĭ°
ĠìĿ´ë¦Ħ ìľ¼ë¡ľ
Ġìª½ ìĹĲ
Ġê¸Ī ìļĶìĿ¼
ìķĦë ¡ľ
ĠëıĻ ìĿĺ
ĠëıĮìķĦ ê°Ķëĭ¤
Į ĵ
Ġì§§ ê²Į
ì£Ħ ìĨ¡
s p
ìŀ¥ êµ°
ìłķ ìĭł
ì°¨ë ¡ľ
æ Ĺ
ê¸ Ģë¡ľ
ê°ĻìĿĢ ëį°
ìĺ¤ë ©´ìĦľ
ë°Ľ ê³ł
ìĸ´ë ĵ¤ìĹĪëĭ¤
íĭ ¸
Ġëĭ¬ë Ŀ¼ë¶Ļ
Ġê·Ģ íķľ
m t
Ġë¬¼ë ģĦëŁ¬ë¯¸
ìĽł ì§Ģë§Į
Ġíĺģ ëªħ
Ģë įĺ
Ġë§Ĳ íĸĪìĬµëĭĪëĭ¤
Ġì³Ĳëĭ¤ë ³´ê³ł
Ġë©Ķ ìĭľ
ĠëĳĺìĿ´ ìĦľ
ĠìĹĦë§Īë ¥¼
ĠìĿ¸ ì²ľ
ĠëĲĺë ıĮìķĦ
ĠìĤ¬ ê¸°
ìĿ¸ íĶĮë£¨ìĸ¸ìĦľ
Ġë¶Ļ ìĿĢ
į° ìļĶ
ĠìĦł ìĪĺ
íķĺìŀĲ ë§ĪìŀĲ
ĠëĪĪë¹Ľ ìĿĦ
ĠëģĿëĤ´ ê³ł
ĠìŀĪ ê²łì§Ģë§Į
Ġê¸ī íķľ
Ġíķľ ìĹĨìĿ´
Ġêµ¬ ìĽĮë
¯ Ģ
íĸ ĪëĤĺ
ìĺ¬ë ¦¬ë¸Įìĺģ
Ħ¤ ëĬĶ
íĬ¸ë Ŀ¼
¼ë ıĦ
ì¸ Ħ
ëį ľë
Ġê±°ê¸° ëĭ¤
ĮĢë ıĦ
§£ ê²Į
Ġìľł íĸī
Ġëĭ¬ëł¤ ê°Ķëĭ¤
Ġëļľë ł·
Ġê¹¨ ìĸ´ëĤĺ
ĠìļĶë Ł°
Ġëª¨ ìĭľê³ł
Ġì½Ķ ìĬ¤
Ġë°Ŀ ìķĦ
Ġìŀłë ĵ¤
ĠëıĻë £Įë
Ġìĭ¤ ì²ľ
Ġê±· ìĸ´
ĠìĤ¬ê±´ ìĿ´
Ġë¬´ ê°Ģ
¹ êµ´
ĠìĿ´ ìłķëıĦ
Ġê±¸ìĸ´ ê°Ķëĭ¤
ĠìĪĺ ìĪł
ĠëĲł ê¹Į
ìĺ¤ëŀľ ë§ĮìĹĲ
ĠìķĦìłĢ ìĶ¨ê°Ģ
Ġê´ĳ ì£¼
Ġë°Ľ ìķĦìĦľ
Ġëħ¸ë ŀĺë
ĠìĤ¬ìŀ¥ ëĭĺìĿ´
ĠìĹĨ ëĭ¤ë©´
Ġë¦¬ íķĦ
ĠíĹ ī
Ġìĭ¸ ìļ°ëĬĶ
Ġìĺ¨ëª¸ ìĿ´
âĢ Ķ
Ġì¹ľêµ¬ë ĵ¤ìĿ´
ĠìĥĪë²½ ìĹĲ
ļ ľ
ĠìĪĺ ìłľ
ìłģ ìĿ´ìĹĪëĭ¤
Ġìŀĳ ê³ł
âĢ¦âĢ¦ ?"
ê°ķ ìĿĦ
íĶĮë Ł¬ìĬ¤
ì£¼ ìħĶìĦľ
ĠìĿ´ê²ĥ ìĿĦ
Ġì§Ģ íĤ¤ëĬĶ
Ġê³³ê³³ ìĹĲ
Ġë²Ħë ¦¬ëĬĶ
Ġìĸ´ëĶ ľ
ì°½ ìĿĦ
ìķĦëĵ¤ ë§ĺ
he al
Ġìĸ´ëĸ»ê²Įë ĵł
Ġë¶Ģë ¥¸
ĠìĹ° ìĥģ
ĠëĤ´ìļ© ìĿĢ
ĵľë ł¤ìļĶ
Ġì¢ĭ ìĿĮ
Ġ you
ë§Į ìľ¼ë¡ľëıĦ
ìĺ¤ ìŀĲ
¥ĺ ê°Ģ
Ġë¦¬ë ·°ë
ê¹Į ì§Ħ
Ġíı¬ë ıĦ
Ġê³¼ìłķ ìĹĲìĦľ
Ġë²Īê°Ī ìķĦ
ëĭ¨ ê³Ħ
ĠëĿ¼ë Ķĺ
Ġì°¨ ëĭ¨
Ġìĭľ ìķ¼
Ġê³µ ìĨĲ
ĵľ ìĹĲ
Ġìĸ¼ë§Īë ĵłì§Ģ
íı¬ë ¡ľ
ì½ľë Ŀ¼
ĠëĲĺ ëıĦë¡Ŀ
ĠìĿ¼ìĸ´ë Ĥ¬
ê· Ģë¥¼
ĠëĤ´ëł¤ ìķī
Ġíİ Ħ
m in
ìĭľ ëıĦ
Ġë¬´ ê¸°
Ġë¯¸ ìĽĮ
Ġì°¨ ê³ł
Ġ âłĢ
2 00
ŀĢ ìĿĢ
Ġê²ĥ ìĿ´ë©°
ĠìĨĮë ¦¬ëıĦ
¶Ħë ĵ¤ìĿ´
ëį° ìĿ´
Ġíİ¸ë ¦¬
Ġê±· ëĬĶ
ĠíĬ¸ ìľĹ
íħĮ ìĿ¼
Ĥ´ë ł¤
ĠìłĢëħģ ìĿĦ
-------- --------
ĠìĦ¸ ìļ°ê³ł
Ġë¯¸ë £¨
ëĭĪ ê¹Ĳ
ĠëıĮ ìĿ´
íĶĮë Ŀ¼
Ŀ¼ë ¡ľ
Ġë¶Ģëĵ¤ ë¶Ģëĵ¤
ĠìķĪ ê²½
Ġëª¨ ìĹ¬ë
ì°¨ ìĹĲ
ëĲ ©ëĭĪëĭ¤
ĠëĤ¨ ëĬĶ
Ġì°¸ê³ł ë¡ľ
ĠíĻ© ìłľìĿĺ
E R
ëĭ Ĳë
ĠìŀĪ ì§ĢìļĶ
Ġë¹Ħë ²¼
Ġë°°ë ł¤
ĠìĿĺê²¬ ìĿĦ
§Ľ ìĿ´
Ġíĳľìłķ ìĿĢ
Ġë¬´ìĹĩ ìĿ¸ì§Ģ
Ġë ŀĳ
Ġíħ Ĳ
Ġì°½ ì¡°
ì¶ķ ìłľ
ìĬ¤íĥĢë ²ħìĬ¤
Ġì§ĳ ì°©
Ġìĭ«ìĸ´ íķĺëĬĶ
ê» ´ë
ĠêµĲ íļĮ
li fe
Ġìį¨ ìķ¼
Ġë Ĺ
ëĭ¤ ìĿ´
Ġì¶© ëıĻ
Ġì£¼ë¬¸ íĸĪìĸ´ìļĶ
ê¸° ìłĢê·Ģ
Ġíĭ° ì¼ĵ
Ĥ´ë ©°
ĠìĪ Łê°ĢëĿ½
ìĵ ´
íĦ° ëĬĶ
Ġíĥĵ ìĹĲ
ìĤ¬ ìĹĲê²Į
Ġê·¼ë ³¸
ìĸ´ê°Ģ ê³ł
Ĥĺ ìĦľ
ìĪł ìĬ¤íĥĢê·¸ëŀ¨
âĢ¦âĢ¦. âĢĿ
Ġê³ł ì§ĳ
Ġê³Ħíļį ìĿĦ
Ġê³ł ìĬ¤ë
Ġë°Ķë ¥¼
Ġë¹Ħ ì¥¬
ì¿łë ¡±ìĿ´
Ġëª°ë ł¤ë
w or
Ġíķĺ ìĭł
ìĸ´ëĸ ¤
ëĭ¹ ìĿĦ
Ġë¬¼ ìĿĮìĹĲ
ëĶ¸ ìĬ¤íĥĢê·¸ëŀ¨
ĠëĤĺ ê°Ķ
Ġìļ¸ ìĿĮìĿĦ
Ġê¹Ģ ìĺģ
ì§ ł
ìĬ ¥
Ġë¹ł ì§Ī
ĠìĻĢ ìĿ¸
ìĤ¬ ê±´
ï §
ĠìĿ´ìĥģ ìĿĢ
Ġë©° ëĬĲë
Ġíģ¬ë¦¬ìĬ¤ ë§ĪìĬ¤
ĠìŀĦ ìĭł
z z
ãĥ ¼
Ġíķľ ëĪĪìĹĲ
ëĮĢ ìĹĲ
Ġãħĭãħĭãħĭãħĭãħĭãħĭãħĭãħĭ ãħĭ
ĠìķĬ ëįĺ
ë ķĮë
Ġìĭľë Ĥ´
ĵ¤ ë§Į
ĠìĿ´ ìłľë¶ĢíĦ°
ĠìĿĺ íķľ
ĠìłķëıĦ ë©´
Ġì¿ł ìħĺ
ĠíĻ ľë
s i
ĠëĲĺ ìĹĪìĿĦ
ì¡°ì°¨ ëıĦ
°ë įĺ
it h
Ġë§Įë ĵľ
ĠìĤ´ íĶ¼ë
Ġì±ħ ìĿ´
ë§Īë Ŀ¼
ĠíĬ ķ
¶Ģ ìĹĲ
Ġì¢ĭ ì§Ģë§Į
ĠìĿ´ìĸ´ ì§ĢëĬĶ
h ome
ĠìĤ¬ìļ© íķľ
Ġê´Ģ ì°°
ĠëĬĲëĤĮ ìĿ´ìĹĪëĭ¤
ê±° ìĹĲ
¦¬ ìĺ¤
Ġì§ģ ìŀ¥
ì±ħ ìĬ¤íĥĢê·¸ëŀ¨
Ġì°¨ë Łī
ìĽĲ ê³¼
Ġê±°ë ¶ģ
ðŁĳį ðŁĳį
l ook
Ġì´Ŀ ìĿĦ
Ġëĵ¤ ìĸ´ë³´
êµŃ ë°¥
ĠìŀĲë Ħ¤ë
ĠìĹ° ê¸°ë¥¼
íİĺ ìĿ´
Ġìª½ ìĹĲìĦľ
êµ¬ë §¤
ë¦¬ íķĦ
;; ;;
ĠíĮ ¥
N S
ìĸ´ ìļ¸ë
ìĭľë ĮĢ
¿Ĳ ë§Į
Ġìłĵ ê°ĢëĿ½
ĠëĤ´ë ²Ħë
ìľĦ íķ´
ê¶Į ìĿ´
ìĺ¤ë ¥¸
Ġìļ© ëŁī
Ġë°Ķë ¹ł
Ġë°ĺë ĮĢë¡ľ
ĠíĴĪ ê³ł
ìĭľë °ľ
Ġê¹Ĭ ê²Į
ĠëĤĺëĪĦ ìĸ´
ê·¸ëłĩ ìĬµëĭĪëĭ¤
ĠìŀĬ ìĸ´ë²Ħë
ĠìķĶ íĿĳ
Ġê´Ģë ł¨ëĲľ
Ġê¸° ê³Ħ
ĠìĦľ ìļ´
Ġë¬´ ê´Ģ
Ġì»¤ íĶĮ
ìĤ¬ ê³¼
Ġëĭ¹ ë¶Ħê°Ħ
Ġì¢ĭìķĦ íķł
ê°Ģ ëıĦ
Ġìĸ´ëĶĶ ìĦłê°Ģ
ìļĶê±° íĬ¸
ĠëĶ¸ ìĿĦ
ĠëĪĪ ìĹĲëĬĶ
íķľ ë²Ī
ì¸ °
ĠìĤ¬íļĮ ìłģ
Ġë§Īë ¦¬ê°Ģ
ìŀ¬ ìĿĺ
ĠìŀĪ ìĬµëĭĪê¹Į
ĠëĬ¥ ëł¥ìĿ´
íĶĮë łĪ
íĺ ľë
ĠìĤ¬ ìĿ´ë
d y
ĠëĮĢ ìĻķ
Ġì£¼ ìļĶ
ìĥĿ ìĿĺ
Ġì§ĢëĤľë ²Ī
0 7
Ġë³´ë įĺ
Ġíĺ¸ë °ķ
íĸĪë įĶëĭĪ
Ġìĭł ìĦ±
ff f
ë° Ń
íĴį ìĿ´
ac k
O R
ìķĦ ëĭĪë
ëıĦì¹ĺ ë§ĺ
ĠìłķíĻķ íķľ
Ġë¬» ìĸ´
¬´ ì¹¨
Ġì» ¸
ì£¼ë °©
ĠëĶ°ë ¥¸
Ġê³łìĬ¤ë ŀĢíŀĪ
ĠíĤ ¹
ĠìĹĦë§Īë ŀĳ
Ġì¹ĺ ì¦Īë
ĠìĶģ ìĵ¸
Ġìķŀ ìŀ¥
Ġê³µ ìĿĦ
ĠìĤ¬ëŀĮ ìľ¼ë¡ľ
Ġë°ĺ ì°¬ë
b ook
Ġìĸ´ëĶĶ ê¹Įì§Ģ
Ġìŀ ¦
ĠìĿ´ ì¤ĳ
ì¹´ ìĿ´
Ġëį° ìĿ´
ìĭ ¯
ĠìĿ¼ íķĺëĬĶ
ç Ħ
ê·ľ ëĬĶ
ë°© ìĿĦ
íĭ°ë ¸Į
Ġìĺ¤ ìĿ¼
įĶ êµ°
Ġë°Ľ ìľ¼ë©°
íģ¬ë¦¬ìĬ¤ ë§ĪìĬ¤
ĠëĤ¨ ê¸´
¶ĢíĦ° ëĬĶ
Ġì¶Ķ êµ¬
ì¡°ë ¦¼
ë°Ķ ìĤŃ
ĠâĢ ¢
Ġìĸ´ì© ľ
Ġë¶Ħë ĵ¤ëıĦ
ĠìķĮìķĺ ìĸ´
ĠìıŁìķĦ ìł¸
Ġë¬´ë¦¼ë §¹
Ġë¬» ìĿĢ
ĠëĤ¯ ìĦ¤
ìľ¼ ìĭ¤
Ġìĺ¬ë ¦¬ëĬĶ
Ġìķł ë§¤
łĪìĿ´ íģ¬
ê¸ĭ íķľ
Ġë°Ķë ĶĶ
Ġê¸°ë ĮĢë¥¼
ãĢı (
ìĿ¸ ì¦Ŀ
¬¼ ìĿĢ
... )
íĺģ ìĿĺ
¨ ¸ë¡ľ
ìĽĢ ìľ¼ë¡ľ
ĠìĬ¤íĬ¸ë łĪìĬ¤
Ġê³łë ĮĢ
ĠëĤĺëĿ¼ ê°Ģ
ìķĦ ëĭĻëĭĪëĭ¤
¸Įë Ŀ¼
ĠìķĮìķĦ ì°¨ë
Ġë´ ¤ëĭ¤
Ġê°Ģ ìļĶ
ĠíĤ¤ ê°Ģ
ĠëįĶ ìĿ´ìĥģ
Ġë§Įëĵ¤ ìĸ´ìĦľ
ĠìŀĪ ê²łì§Ģ
ĠìķĦëĭĪë Ŀ¼ë©´
ìľ ĦëĮĢ
ê¸¸ ìĿĢ
Ġìķłë ĵ¤ìĿ´
ê³ł ë¡ľ
íĤ ¤ë¡ľ
Ġíķ´ ì£¼ê³ł
ìĿ¸ ì§ĢëĿ¼
íĭ Ī
Ġì¹ ľë
Ġíķł ìĪĺ
ĠëģĿ ìĿĦ
ĠíĹ¤ ìķĦë
ìłģ íķľ
ì¸łë ¥¼
Ġì§ĢëĤĺ ë©´
Ġê¸° íļĮ
ĠëĳĲ íĶ¼
íĨµ íķľ
Ġë²Ī ìĿĺ
Ġê¸°ë¶Ħ ìĿĦ
ìº ¡
Ġìłķ ìĭĿ
ĠëĬ ĳ
ëıħ ìĦľ
Ġë¶Ļìŀ¡ ê³ł
³´ ê°Ģ
ĠëĳĺëŁ¬ ìĭ¸
ëĶ¸ ê¸°
ê¸°ë ħĲ
Ġêµ³ ê²Į
ìĪ ¨ìĿ´
in e
ĠìĤ¶ ìĹĲ
ĠëĴ¤ ëĬ¦ê²Į
Ġëĭ´ ìķĦë
ĠëĬĺ ìĸ´
Ġê³¼ê±° ìĿĺ
ê´ĳ ìĿ´
ðŁĳ ı
Ġìĸ´ëĳĲ ìĽĮ
íķ´ ì¤Ħ
Ġë²Ī ìĹŃ
Ġì£¼ ê¸°
Ġë§ Īëĭ¤
ì» ¬ë
Ġë³´ ìŀħëĭĪëĭ¤
¬¼ ìĹĲ
ìĺ¤ë ŀĺ
Ġë¯¸ë ģĦëŁ¬
ĠìĪĺ ìŀħ
Ġë¬´ë Ĥľ
beaut y
ìĽĶë ĵľ
Ġë§¤ ìĿ¼ë
Ġë¬´ì²Ļ ìĿ´ëĤĺ
Ġê°Ģ ìĭľ
Ġëķ ĢìĿĦ
ĠìĥĿ ê²¼ëĭ¤
Ġë¶ĪìķĪ íķľ
Ġëª¸ ìĿĺ
ì»¤ íĶĮ
ĠëĪĪë ¶Ģ
ĠìĨŁ êµ¬
¿Ĳ ìĿ´ìĹĪëĭ¤
ĠíĻĺ ìĺģ
Ġë ¡¤
Ġìŀĳ ìłķ
Ġì¢ħ ë¡ľ
ê³¨ë ª©
Ġìĸ´ì¨ Į
Ġë§Ĳ ê³¼
ĠìĥĿê°ģ ìľ¼ë¡ľ
Ġëħ¸ ìĿ¸ìĿĺ
Ġê°Ĳ ìĭľ
ĠìĤ¬ê±´ ìĿĦ
ĠìĿ´ë »Ĳ
ë²ł ìĿ´
ĠëıĻë £Į
ìķł íĶĮ
Ġìĥ ´íĳ¸
ì± Ļ
íĥķ ìĿĦ
Ġâĸ ¶
ëĬĲë Ŀ¼ê³ł
Ġì§Ħ ìŀĳ
Ġì·¨ íķľ
ĠìĤ¬ëŀĳ ìĹĲ
Ġ201 7
ì§Ģ ë§Ī
ìķ °íĶĮ
Ġê³łë ıħ
Ġìĭľë ĮĢìĿĺ
ĠìĤ¼ ì´Į
é ĩ
Ġìĭ ¤ë¡ľ
íķĦë Ŀ¼
Ġê·¸ ì§Ģ
ĠëĤ Ģ
Ġìĭľìŀĳ ëĲľ
ģ¼ë ¥¼
íı ´
ĠìĨĲê°ĢëĿ½ ìľ¼ë¡ľ
Ġë³´ ìĹ¬ë
Ġì´ Į
Ġë°ķ íĺĢ
Ġëĭ´ ëĭ´
ĠíĿĲë ¥´ê³ł
íľ ĺë
ĠìĪĺ ìĹ¼
ŀĢ ìĿĺ
ì¹ĺ ìŀĲ
ì§Ģë ĵ¯
Ġë§Īì§Ģë§ī ìĹĲ
ë·° ìĬ¤íĥĢê·¸ëŀ¨
ĠíĢ Ħë¦¬
íĮĮ íģ¬
¹ Į
ê·¸ë ¨¸ëĭĪ
ĠíķĺëĤĺ ê°ĻìĿ´
ĥĲë ©´
Ġëħ¸ëł¤ë ³´ìķĺëĭ¤
ĠìĿ´ë£¨ ìĸ´ì§Ħ
ì´Ŀ ìĿĦ
âĢ ķ
Ġì°½ ë°±
ìĸ¸ ìłľ
ĳ ł
Ġë§¤ ìļ´ë§Ľ
ê³ł ë§Ļ
ĠëĤ´ ìĭ¬
§Ŀ ìĿĦ
íļ¨ ê³¼
Ġê° Ķëįĺ
ĠìĤ¬ìļ© íķĺë©´
ĠìŀĪ êµ¬ìļĶ
ìĥĪë ²½
ë¶Ģ ê°Ģ
ê²¬ ìĬ¤íĥĢê·¸ëŀ¨
Ġê¹Ĭ ìĪĻìĿ´
ĠíĪ¬ë ªħ
ì² łë
ĠìĽ¨ìĿ´ íĮħ
ìĿ¼ ê¹Įì§Ģ
Ġë°ĺë ©´
ì¡° ìĦł
Ħ ëĬĶ
ĠìĿ´ ìĸ´ìĦľ
Ġê·¸ëŁ¬ ê³łëĬĶ
j mt
íĨłë ¥¼
ìĿ´ë Ł¬
ì§ģ ìĿĦ
l ing
Ġë¨¹ ìľ¼ë©´ìĦľ
Ġíĥľ ëıĦ
ìĭľë ¶ĢíĦ°
Ġìĸ¸ìłľ ê¹Įì§Ģ
ĠìĦ¸ìĽĶ ìĿ´
¶Ħ ìĿĺ
Ġë°© ìĭĿìľ¼ë¡ľ
Ġíĺ¸ë ŀĳ
ìĹ° ìĸ´
Ġë°ĺ ê°ĳ
ĠìĦŀ ìĹ¬
° Ķëĭ¤
íĮ Ŀ
ì¤ į
ì¡´ë Ĥĺ
ìĤ¬ëŀĮ ìĿ´
Ġìĥģ ìĬ¹
Ġë§İ ìĿĦ
ìŀĦ ìĹĲëıĦ
ıĻ ìĿĢ
âĺ Ĩ
ĠìĪĺ ë©´
Ġê°Ļ ì§Ģë§Į
ê³łìĭ¶ ìĿĢ
íķĺë ł¤ë©´
ĠíļĮ ìĭĿ
ìĽł ê³ł
ì¶ °ë
Ġìĥģíĥľ ê°Ģ
Ġì¹¨ ì°©
ĠëĦĪ íĿ¬
Ġìĸ´ìļ°ë Ł¬
ëķ ¡
ĠìĪĻ ìĺĢëĭ¤
Ġìłķìĭł ìĹĨìĿ´
ĠìŀĪëĤĺ ìļĶ
ĠíĹ ¬ë
ĠìĬ¤ë ¬´
" (
ĠìĪĺ ë§Į
§ İ
íĺ Īë
Ġìĸ´ ì¼Ģ
ìļ°ë ¦¬ê°Ģ
Ġëĸłìĺ¬ë ł¸ëĭ¤
ê·¼ íķľ
íķľíħĮ ëĬĶ
ëŃ ĺ
c y
Ġëª» íķ´ìĦľ
ĠëĤĺ ìĿ´ìĹĲ
ì¡Į ìĿĦ
Ġë°° ëĬĶ
ìĹĪëĬĶëį° ìļĶ
ĠìķĦ ìķĦ
ìĿ´ë įĶëĿ¼êµ¬ìļĶ
ĠìĬ¤ íĥĢë
íĭ°ë ĶĶ
ĠðŁĺ į
æĸ ĩ
ìľł ìĤ°ê·ł
ĠìŀĲë ¥¼
ìĺ¤ë Ĥĺ
ĠìķĪë Ĳľ
Ġíķĺ íķĺíķĺ
êµ¬ ìĦĿ
°© ìĹĲìĦľ
ĠìĿ¼ë³¸ ìĿĺ
Ġë²ł íĬ¸ëĤ¨
ìłľ ëıĦ
Ġê°Ļ ìķĺ
ì¤Ħ ìĿĦ
Ġëª°ë Ŀ¼ìĦľ
Ġë¶Ģë ¶Ģ
ìĿ´ìĹĪ ìĿĦ
Ġëĭ® ìĿĢ
ì¢ħ ìĿĢ
ĠìķĦë²Ħì§Ģ ìĻĢ
ëĬĶ ëĶĶ
ê±°ë ¦¬ë©´ìĦľ
ê¼ ½
íĻĺ ìĿĢ
c m
Ġëįķ ìĹĲ
ìĭ¤ íŀĪ
ĠìķĦì§ģ ê¹Įì§Ģ
Ġì¡°ë§Į ê°Ħ
... !
ĠìĹīëļ± íķľ
ĠìĹĨ ê¸°
Ġëĵ¯ ìĭ¶
ĠìĨĲê°ĢëĿ½ ìĿĦ
ĠìĥĿëªħ ìĿĦ
ê°ĳ ìŀĲê¸°
Ġìķł ì´ĪìĹĲ
ĠìĦłë ¬¼ë¡ľ
ê¿ į
ìĽĮë ıĦ
ł Įë
ĠìĥĿ ì¡´
Ġê·¸ëŁ¬ë įĺ
Ġì¡´ìŀ¬ íķĺëĬĶ
ĠëĤĺ ìĿĢ
Ġì·¨ íķ´
ë ¦¬ëĬĶ
ëĭ¹ ìĿ´
ĠìĿ´ëŁ° ìłĢëŁ°
ĠìĦ¸ê³Ħ ìĿĺ
Ġíĺĳ ë°ķ
ĠìĿµ ìĿĢ
ê½ ģ
ë¶Ī ìĿĦ
ĠìłĢ íĥĿ
ĠíĸĪ ëĬĶì§Ģ
Ġì£¼ ìĸ´
ëĶ ¸ë
ìĹ° íķ©
ĠìłĦ ìļ©
ĠìĪĺ ëĭ¤
ĠìĿĺ íķĺë©´
ĠìĤ¬ ìĥģ
ì¶Ķ ì¶ľë
Ġíķĺê³ł ëĬĶ
ëĭ¤ë©´ ìĦľ
ðŁĻ Ĭ
ĠìĹĨ ìĨĮ
ĠìĹ¬ ìľłë
Ġë© ¸ë
ĠìĤ¬ìļ© íķĺê¸°
ĠëıĮë ¦¬ê³ł
ĠëĤĺíĥĢë Ĥ¬
ĠìķĮëł¤ ì§Ħ
Ġë¯¼ë §Ŀ
Ł¬ ìĦľ
ĠëĮĢë ¦¬
ĠëĤĺê°Ģ ê³ł
ìķĦ ëĭĺ
ì¹´ ìĿĺ
ìĺĪë ¥¼
ìĿĮ ê³¼
Ġë§Ī ì¡±
ĠëĶ° ìľĦëĬĶ
ĠìĿ´ë§Ī ìĹĲ
Ġìĸ´ë¦¬ë ĳ¥
ì§Ģ ì»¬
Ġê½ĥ ìĿĦ
ì§Īë ¡ľ
Ġëª° ê³ł
ĠêµĲ íĨµ
Ġë°Ķë ĤĺëĤĺ
ĠíķĺëĬĺ ìĹĲ
å ¹
ĠìĿ´ë ¯¼
¹Ħ ìĹĲ
ä¸ Ģ
Ġë¬´ ê¸°ë¥¼
© Ģ
Ġìŀ¥ ìĿĦ
ê²© íķľ
Ġì°¨ ëĬĶ
Ġì³Ĳëĭ¤ë ³´
Ġì£¼ë§Ĳ ìĹĲ
ê°ģ ìĿĦ
ì« ĵ
Ġb y
ĠíĮĮê³ł ëĵ¤
ëĬĲ ëĭĪ
¦¿ íķľ
Ġì§Ģì¼ľë ³´ê³ł
ë§İ ìĿ´
r y
Ġê°ķ ìļĶ
Ġëĭ¬ëł¤ ê°Ģ
íħĲ ì¸ł
ìĺ¤ìĺ¤ íĭ°ëĶĶ
Ġìī¬ ëĬĶ
ëĮĢ íķĻ
Ġì²ĺë Ł¼
°© ìľ¼ë¡ľ
ĠíĻĺ íķĺê²Į
ĠìĿ¸ ê³µ
ĠìĤ´ ê¸°
ĠìĤ´ìķĦ ìĺ¨
ç¥ ŀ
ìķĦë ħ¸
ìĹ° êµ¬
ì£¼ë ħĦ
íĪ Ń
ëĶ Ķë
ĠëĤ´ìĿ¼ ìĿĢ
ë ©Ķëī´
Ġì§Ģ ëĬĶ
ìłķ ê³¼
ĠìĨĮ ìĬ¤ê°Ģ
Ġìŀ¡ ì§Ģ
íķĺ êµ°
íĸĪ ëĭµëĭĪëĭ¤
ëª °ë
ĠìĹī ë§Ŀ
ĠìķĦ íĮł
íĿ ī
ĠìķĦë ĵĿ
ĠìĭĿ ê°ĲìĿ´
Ġíģ´ë ¦Ń
ĠìķĪìĭ¬ íķĺê³ł
Ġì£½ ì§Ģ
ĵľë¦´ ê²ĮìļĶ
ì§ģìŀ¥ìĿ¸ ëĭ¤ìĿ´ìĸ´íĦ°
ĠìĹĨ ìĹĪìĸ´ìļĶ
ĠìĦľ ëĬĺ
ìĻĶ ê³ł
Ġëĭ¦ ìķĦ
ë ¸Į
Ġëĵ¤ ìľ¼ë©°
Ġíķ¨ ìľłë
ìľ¼ë¡ľ ë§Į
Ġìĭłê¸° íķľ
heal th
¥´ ìĭľ
ĠíĿ¡ ìŀħ
ĠìĹĨ ìķł
Ġëĭ¤ë¥´ ëĭ¤
Ġíķĺ ì£ł
Ġ3 00
Ġë³¸ê²© ìłģìľ¼ë¡ľ
ĠíĻ ĺë
ç Ľ
Ġê¿ °ë
íķĦ ìĪĺ
Ġìĺ¨ ëĭ¤
ĠìķĦìĿ´ ìĬ¤
Ġìĸ¸ë ¡ł
ĠìĨĮëħĦ ìĿĢ
ľ ¯
Ġì° »
Ġì¹ľêµ¬ë ¥¼
ëĬĶ ì§ĢëĬĶ
Ġëĭ¹íĻ© íķľ
Ġê²ģ ëĤĺ
ĠëĲĺ ëĭĪê¹Į
êº ½
Ġë§Į íĻĶ
íķĺ ìĺĢìĬµëĭĪëĭ¤
ì¡° ìĭ¬
Ġë°± ìľł
ë ľ¨
Ġì§Ģ ìĭľ
ĠëķĮ ìĹĲëĬĶ
Ġíĸĩ ìĤ´
ĠëĤĺë ³´ëĭ¤
ì§Ģë ª»
ĠìĦ¸ìĥģ ìĿĢ
êµ° ê³¼
ĠìĿ´ ìĨĮë
ãħĭ ãĦ±
ì²ľ ìĿ´
Ġìŀ¥ ë¯¸
Ġë³ĳ ìĿĦ
ĠíķľêµŃ ìĿĺ
Ġë§ ĺë
ł¤ ëıĦ
Ġìĵ° ê¸°
Ġê·¸ë £¹
Ġìµľ ìĦłìĿĦ
Ġíķľ ìĦ¸
ìĪĺ ìĹħ
¯¸ ëĭĪ
Ġê³Ħ ëĭ¨
Ġë°ľ ê²¬ë
Ġê°ĳ ëĭĪëĭ¤
Ġê·¸ë¦¬ ìĽĮ
Ġê°ĢëģĶ ìĶ©
ê³ °ë
Ġë¶Ģë ¥´ê³ł
ìĿ´ëĿ¼ê³ł ëĬĶ
ìĻ¸ ìĦł
Ġíİĺ ìĿ´
°Ľ ìķĦ
Ġëľ °
Ġíĳľìłķ ìĿ´ìĹĪëĭ¤
°Ľ ê³ł
ĠìĥĿê°ģ íķĺëĭĪ
ì± Ħë¡ľ
Ġë§ĽìŀĪ ìĿĮ
ì±ħ ìĿ´
ë¬´ ê°Ģ
Ġëħ¸ ìĺĪ
f re
Ġì°¾ ì§Ģ
Ġì³Ĳ ëĭ¤ë³´ë©°
ëĭ´ ìĿ´
ì½Ķë įķ
Ġìĵ°ëłĪ ê¸°
Ġìł ¤ë
íķł ìĿ¸
ìĨ¡ ìĿ´
Ġìĭľ ê°ĦëıĦ
ìº ī
ĠëĬ ĺë
ĠìĦľë ¥¸
Ġì£¼ ì²´
Ġë¹Ħ ìĥģ
Ġëĸłë Ĥ¬ëĭ¤
ĠëıĦ ëĭ¬
Ġ2 7
ĠìħĪ ìĿ´ëĭ¤
yum my
Ġë§Ľ ëĤĺê²Į
Ġê¿ Ģë§Ľ
Ġêµ³ ìĿĢ
ĠëĮĢë ŀµ
Ġë Ł°
íĬ¸ ìĻĢ
Ġëĵ± ë¡Ŀ
ìķ ĬìĿĢ
Ġìŀĺëª» ëĲľ
ãħħ ãħĤ
ìĭĿëĭ¨ ì¡°ìłĪ
Ġíķ© ë¦¬
ĠìŀĪ ìŀĲ
ìļ° ìļ°
Ġë²Ħë ¦¬
ë³ ķ
Ġë¨¸ë¦¿ ìĨįìĹĲ
íĽ ĪìĿ´
Ġì£¼ë³Ģ ìĿĺ
ìķĦ ìĿ´ê³ł
íı¬ë ıĦ
Ġëĭ¤ëħĢ ìĻĶìĸ´ìļĶ
íĽĪ ìĿĢ
Ġì»¨ ìħī
Ġìķķ ëıĦ
ëħĦ ìĿĺ
ĠëķĮë¬¸ ìĿ´
Ġìĭ¸ ìļ¸
ĠëĳĲë ĵ¤
ĠëĤĺ ìĿ´íĬ¸
ĠìĥĿê°ģ ëĤĺëĬĶ
Ġê³Ħ ìķ½
ìĹ ¥
ĠìĹĺë¦¬ë ²łìĿ´íĦ°
Ġë§İ ìķĦìļĶ
ì§Ģë įĺ
¦¬ìķĦ ëĬĶ
e an
Ġê·Ģ ìĭł
Ġìŀ¬ ëĬ¥
Ġë £
ìĿ´ íĶĦ
Ġì¤ Ħë
ĠëįĶ ìļ´
ìłĦë ¬¸
h a
ëĭ¤ ëĭ¥
Ġë³´ ìĤ´
Ł¬ë ¥¼
Ġë°ĶëĿ¼ë ³´ëįĺ
Ġëĭ¤ìĿĮ ìĹĶ
ìĤ¬ë Ĥĺ
ìŀł ê¹Ĳ
Ġë°ľë Ŀ¼ë
ëĬĶ ëĭ¤ëĬĶ
Ġë³´ ëĭ¤ê°Ģ
Ġìĺ¬ëĿ¼ ê°ĢëĬĶ
ĠíĴĢ ê³ł
Ġë°ľê±¸ ìĿĮìĿĦ
Ġíİ Į
ìłģìľ¼ë¡ľ ëĬĶ
ìĺ Ľ
Ġìĸ´ë ł¸ìĿĦ
Ġì°½ ìĿĦ
. ]
3 1
ê·¸ëŁ¬ ëĭĪê¹Į
Ġêµ¬ë ¶Ħ
ĠìłĦ ê¸°
ëĭ¤ìĿ´ìĸ´íĬ¸ ê¸°ë¡Ŀ
ìĿĮ ìĿĺ
ëĪĦ êµ¬
ëĭ¤ ë³¸
Ġë°© íķĻ
Ġë¨¹ìĸ´ë ³¸
ìĭ¬ ìĿĺ
Ġë§ŀ ìķĺëĭ¤
ìĦľ ìļ¸ë
ĠìķĬ ëĤĺìļĶ
Ġìĺ¤ë ¥´ëĬĶ
Ġë°ĳ ìĹĲìĦľ
Ġë¨¹ìĸ´ë ³´ê³ł
Ġìĭ¤ ìĪĺ
íĨł ë§ĪíĨł
ĠëĳĲë łµ
ê³¨ ìĿ´
ĠìĿ´ìĸ´ íı°
ĠëįĶë Ł¬ìļ´
ĠìĨĮíĮĮ ìĹĲ
ë¬¸ ìĿ´
Ġì§± ì§±
ëĤ Ń
ì²ľ ìĹ°
ë¶ģ ìĬ¤íĥĢê·¸ëŀ¨
Ġë¬´ ê³µìĿĦ
ĠíĻķìĭ¤ íķĺê²Į
ĠìķĮë ¦¬ëĬĶ
ĠìĦŃ ì·¨
é ĥ
Ġìĺ ´
ãĥ «
ëĭ¤ë Ħ¤
Ġì°¾ ìķĦìĦľ
ĠëĬĲ ëĭ·
ðŁĺŃ ðŁĺŃ
ĠìĿĢìĿĢ íķľ
ìĸ Į
Ġëĭ¬ë ¦¬ëĬĶ
ìĪł ì§ĳ
lo ve
ĠìķĪëħķ íķĺìĦ¸ìļĶ
Ġë§Ĳ ë§Į
ĠìĥĿ ê¸°ëĬĶ
Ġë²½ ìĿĦ
ìĪŃ ìķĦ
³´ë ¥¼
Ġê³łëĵ± íķĻêµĲ
ª¬ë ĵľ
Ħ ¨
Ġëĸłë Ĥ¬
Ġë§ĪìĿ´ íģ´
Ġ n
Ġìŀ Ń
Ġìĸ´ë ¨¸ëĭĪë
ĠìłĢë ²ĪìĹĲ
ìłľë °ľ
ĠìŀĲ ìĭĿìĿ´
ìłĦ ìŁģ
ĠëĥĦ ìĥĪë¥¼
Ġìĺ¤ ì§ķìĸ´
ĠëĤ® ê²Į
ì¶Ķë ¥¼
c or
ĠìľĦëĮĢ íķľ
¦¬ ìķĪ
Ġëĭ¨ íĺ¸ë°ķ
Ġë¹Ħë Ĥľ
ĠëĤĺ ìĦľëĬĶ
ĠëĶ°ë ŀĲëĭ¤
íķĺ ìħĶìĦľ
Ġì¹ĺ ì¼ľë
ìļ ¬
Ġë³´ ëĭ¤ëĬĶ
Ġëª¨ íĹĺ
ìĿĮ ìķħ
ĠìĪĺ íķĻ
Ġì§Ħ ìĭ¤
Ġê¸į ìłķ
ìķĦë ĥĲ
Ġëĵ¤ìĸ´ ê°Ģë
Ġëª°ëĿ¼ ìļĶ
íķĺë ĥĲ
Ġì°¸ ì¹ĺ
er s
Ġë°Ķëĭ¥ ìĿĦ
g i
ĠíĻķìĿ¸ íķĺê³ł
ĠëĨĢë Ŀ¼ìĦľ
ìĹ £
Ġë§Ī ìħ¨ëĭ¤
of instagram
ĠíĺĦ ìĥģ
ëŃ Ķ
Ġê¸Ģ ìİĦ
Ġìµľ ìĨĮ
Ġë¬» ì§Ģ
Ġíı¬ë ¡ľ
ìĬ Ĳë
ìĸ´ë Ĥ¸
ë°© ë²ķ
Ġíĸīë³µ íķĺê²Į
ĠëĬĲëĤĮ ìĿĺ
ðŁĻ Ī
cle an
Ġêµ°ë ĮĢ
ĠëĪĪ ìĹĲìĦľ
Ġì ¨
Ġë łĮ
ĠíĻķ ë³´
ëĭ¤ë ħĢ
Ġë°ĺìĿĳ ìĿĦ
Ġê²½ ê¸°ëıĦ
Ġë³´ ìĬ¤
£¨ ê°Ģ
ĠìĬ¤ìĬ¤ë¡ľ ë¥¼
ĠëĦĵ ê³ł
ħ ìĭľëĭ¤
ðŁ¤ Ń
ĠíĬ¸ë ŁŃ
ĠëĤ´ëł¤ë Ĩĵ
¯ ¿
Ġì¦Ĳ ê²ģ
ê¹ ¡
Ġ2 6
ĠëĤĺìĻĶ ìĬµëĭĪëĭ¤
Ġìłľ ê°Ī
ĠìĿ¸ê°Ħ ìĿĦ
ê²¹ ê²Į
íĶĦë łĮ
Ġë©Ķ ìĿ´
Ġê²ĥë§Į ìľ¼ë¡ľëıĦ
Ġêµµ ìĿĢ
ê°ľ ìĨĮë
Ġë§ĮëĤĺ ë©´
Ġãħİ ãħħãħİ
ĠìĪĺ ìĽĲ
Ġë°© ìļ¸
Ġì½ ķ
Ġë°ĸ ìĿĦ
ìĸ´ë ĨĵìĿĢ
Ġê²½ ë¹Ħ
Ġë§İ ìķĺ
ë³´ë ¦¬
ĠìĦ¸ ìĽłëĭ¤
Ġë©Ķëī´ë ¥¼
Ġê³ł ì³Ĳ
íĮĮ ìĦľ
ĠëħĦ ìĿ´
ĠìłĦë °ĺ
ê² Ģë
ìĹĲìĦľ ë§Į
ìĹŃ ë§Ľì§ĳ
ĠëĤĺìĻĢ ìļĶ
Ĥĺ ìĿĺ
Ġì°¨ë ¦¼
íĽ Ĺ
íİ Į
íİ¸ ìĿ´
Ġëħ¸ íĬ¸ë¶ģ
ĠìĶ» ê³ł
Ġê°Ģ ìŀħ
ĠëĤĺìĦľ ìĦľ
Ġêµ¬ ìļ´
Ġíı¬ ìĿ¸
ar d
???? ????
ĠìĿ½ ìĿĢ
Ġë°Ģ ê³ł
Ġëį ľë
ï ¦
Ġìĺ¤ë ¥´
ëħĦ ìĿĦ
ê³ł ì¶Ķ
Ġìĭľ íĤ¤ë
Ġì¦Ĳ ê¸°
ĠíĿ ĺ
ĠìĪľê°Ħ ìłģìľ¼ë¡ľ
Ġëĵ¤ìĸ´ ìĦł
ĠìĻ¸ ìĹĲ
Ġìĵ°ë ©´
Ġìļ° ìĬ¤
ĠìĪľê°Ħ ìĹĲ
ë§Īë §Ī
Ġê²° ê³¼ë¥¼
Ġìĸ´ëĳ ¡
ìĿ´ë ¯Ģë¡ľ
Ġì¹ĺ ìĹ´
íĽ Ħë¥¼
ĠëıĻ ìŀĳ
Ġ19 7
Ġë°¥ ëıĦ
Ġìĥģ ëĮĢë¡ľ
ĠìĿ¸ íħĮë¦¬
Ġë¨¼ ì§Ģ
Ġê°ķ ëł¬íķľ
¸ë Ł°
ĠìĻĢ ì¤ĳìĹĲ
ĠëĤĺìĺ¤ ê¸°
ĠëĤ® ìĹĲ
Ġì¢ħë¥ĺ ìĿĺ
k y
ĠìķĦë Ĥ´ë¥¼
Ġíİ ´ë
Ġë§ ´ë
ì£¼ë §Ľì§ĳ
ĠìĭĿ ìĿĢ
Ġëª¸ ìĹĲìĦľ
Ġìĸ´ëĬĲ ìłķëıĦ
ĠìĨĮ íĻĶ
ĠëĤ´ëł¤ ê°Ķëĭ¤
Ġì¥ Ķ
ìľł ê°Ģ
ì°¨ ê³ł
ĠìĹ¬ìľł ê°Ģ
Ġê¹ľë ¹¡
íĸĪ ìľ¼ë©°
Ġë¬´ìĹĩë³´ëĭ¤ ëıĦ
ĠìķĬëĬĶ ëĭ¤ë©´
0 5
Ġìķŀ ìĿĺ
ĠíĪ¬ ìŁģ
Ġìŀĥ ìĸ´ë²Ħë
ìĺĪë »Ĳ
m b
Ġë¬´ë ł¥
íĸĪ ìĿĮ
ìĽł ìĬµëĭĪëĭ¤
ì´Ī ì½ľë¦¿
ìĭľ ìĽĲ
Ġê¸°ë ĳ¥
Ġì¢ Ĩ
ìĤ¬ íķĺê³ł
Ġìĭ¶ ìľ¼ë©´
Ġê²½ ìļ°ëıĦ
Ġì§ Ļ
Ġê½ĥ ìĿ´
ðŁĺį ðŁĺį
Ġë§Īëĭ¹ ìĹĲ
Ġì´ Ľ
ë°° ì¶Ķ
ĠìĬ¤ë ¬¼
ĠìĤ°ë ľ»
ì· ¨ë¥¼
Ġê²°êµŃ ìĿĢ
ĠëĶ¸ ìĿ´
ĠëĳĲë ¦¬ë
ë© ¸
Ġëĭ¨ë °±
Ġê¶ģê¸Ī íķľ
íŀĪë ©°
Ġì´Īë ĮĢ
ĠìŀĲ ìĦ¸ë¡ľ
Ġë³´ë ıĦ
ł¨ ìĿĺ
Ġë ĥ¥
ĠìĤ¼ ìĦ±
Ġê²ĥ ìĿ´ëĤĺ
íĶĦë¡ľ ìłĿíĬ¸
Ġì¸¡ ë©´
Ġê³µê°Ħ ìĿĦ
Ġëıĭ ë³´
ìł ĸ
ĠìķĪ ìª½
ĠëĤ´ëł¤ ìĻĢ
Ġì§Ģ ì³Ĳ
ĠìĨĮ ìĨį
íİ¸ ìľ¼ë¡ľ
Ġìĸ´ëĳł ìĿ´
Ġíķľê°Ģ ìļ´ëį°
Ġë¬¼ ê±´ë
Ġë´ ĲëĿ¼
Ġê·¸ëłĩ ê¸°ìĹĲ
ĠìĦłìĥĿ ëĭĺìĿĢ
ê° Ķë
Ġì£¼ ìľĦìĹĲ
ãħĭãħĭãħĭãħĭãħĭãħĭãħĭãħĭ ãħĭãħĭãħĭ
ìĩ łë¥¼
ĠìĨĮ ìĭĿìĿ´
ĠìŀĬ ìĿĦ
Ġëª¨ ìĿ¸
Ġë§ŀ ìĿĦ
ĠìłĦìŁģ ìĿ´
ê³ł ë¦¬
ìŀĪ ìľ¼ë©´
ëĭ¤ë įĺ
t i
Ġì°½ ë°ĸ
Ġë°Ģ ì°©
íİ¸ ìĿĦ
ë°© ìĹĲ
ì¹´ë ¥¼
Ġë³´ ìŀ¥
Ġë¬´ ìŀĳ
ĠìķĮ ìķĺë
ĠíĿĶëĵ¤ ìĸ´
Ġë²Ķ ì£Ħ
ĠìķĮ ìķĦìķ¼
ì¦Īë ¡ľ
Ġìķ¼ë ¬´
Ġëĵ¤ë¦¬ ì§Ģ
ìĸ¼ë ¦¬
v ie
Ġìĥģ ëĭ¹
ìĬ¤ íĭ°ë
ê¼ ´
Ġíŀĺëĵ¤ ê²Į
ìĨ Ķë
ĠìĨĲë ª©
ĠìĦľ ìļ¸ë¡ľ
ĠìĬ¤ íĶ¼
ðŁĴ ļ
íĪ¬ ìĬ¤
Ġì¤Ģë¹Ħ íķ´
ĠìĦľë °©
Ġìĺ¤ëĬĺë Ĥł
ì£¼ë ©´ìĦľ
íķĺ ê²łëĭ¤ëĬĶ
ĠìĨį ìĿĢ
ì¶ľ ê·¼
ìķĮ ê²łìĬµëĭĪëĭ¤
Ġìŀĳ ìļ©
Ġë ¾
A N
ĠìķĦ íĻī
ë¬¼ ìĹĲ
ĵ¤ìĿ´ ìĹĪëĭ¤
ľ ìĹĲ
ëĵ¤ ìĹĲ
ĠìķĮìķĦë ĵ£
¤ë įĶëĭĪ
Ġê³łë¯¼ ìĿĦ
ì± Į
ĠìłĦ íĻĶê°Ģ
ĠìĹ¬ íķĻìĥĿ
íķĺ ê³¤
Ġë³Ģ íĻĶë¥¼
Ġì°į ìĸ´ìĦľ
Ġê°Ļ ìĿĮ
íĤ ¥
ì° ¹
íĺ¸ ìĻĢ
0 4
ðŁĺ Ħ
ĠëĬĲëģ¼ ì§Ģ
Ġê³µ ìĤ°
ê¸ī ìĿĦ
Ġìĸ´ ìł¯ë°¤
ë »
Ġíŀĺ ìĹĨìĿ´
Ġê² Ł
ĠìĥĿê°ģ íķ´ëıĦ
Ġì§ĢëĤĺ ì¹ĺê²Į
ëĤł ìĿ´
ì²ľ ìĿĦ
ne ko
ĠìķĦ ê¹Ŀ
ĠìĹ¬ë įŁ
Ġê° Ķë
Ġë¹ĦêµĲ ìłģ
ì ¾ħ
ĠëĤĺ ìĿĦ
ë¶Ģë ª¨
ĠëĤ ľë¦¬
Ġíľ© ìĭ¸
ìĭľë Ŀ¼ëıĦ
ëĭ¤ëĭĪë ©°
Ġìľł ìłĢë
Ġì´Ī ìĽĶ
ĠìĻķ ìĿ´
ĠìĹĲ íĶ¼
ê±°ë ¦¬ëįĺ
ìŀĪ ì§Ģ
Ġì£¼ë ¯¼ë
ĠìĦł ê±°
Ġì°¨ ì¸°
Ġì´Ī ì½ľë¦¿
íķĺ ê¸°ë¥¼
ê³łë £¨
ĠíĹ¤ ë§¤
Ġê¸ Ģë¡ľ
ê³µ ì£¼
ìĹ¬ ìĦ¯
Ġë°Ģë ł¤ë
Ġëª½ ê³¨
Ġê³¤ë ŀĢ
y e
ĠìłĦ ìĭł
Ġìĭłë ¹Ħ
Ġëĭ¿ ëĬĶ
ĠìĦľ ìĸĳ
Ġë³Ģ íĸĪëĭ¤
Ķ ´
Ġëĭ¤ë ¥¸ë
Ġëĭ¹ íķł
ĠìĪł ìĹĲ
ê·Ģ íı¬
ëª¨ë ĳĲ
ĠìĿ´ë ¡ľ
ĵł ëĭ¤
Ġê·¸ë ŀĺë
ĠìĿ´ íĥĪë
Ġíķĺë ĵ¯
Ġíķĺë £»
Ġìłķ ì²´
Ġìĭ¬ ìĥģ
ìłģ ìĿĢ
ìĥĿ íĽĦ
Ġì§ĵ ëĬĶ
Ġë©Īì¶Ķ ìĹĪëĭ¤
Ġë¬´ ê²ģ
§Ī ìĿĦ
ĠìĨĮë ¬¸
Ġê³¼ ìŀ¥
ĠìķĪ ê°ľ
ĠëķĮë ¥¼
ĠìĺĪ ì¸¡
ìĦ¸ë Ł¼
Ġìĸ¸ìłł ê°ĢëĬĶ
Ġê¶ģê¸Ī íķ´
ĠâĿ¤ ï¸ı
ĠëĤ¡ ìĿĢ
Ġìĭľ ê¸°
Ġìĸ ĺë
ĠëĮĢ ìĿĳ
Ġìµľê·¼ ìĹĲ
Ġë§Ī ìĤ¬ì§Ģ
Ġë² ļê½ĥ
ë²Ħ íĦ°
ë ł¤ê³ł
ìĦľ íĬ¸
Ġë¬» ìŀĲ
âĢĶ âĢĶ
íĺ¸ íĿ¡
Ġê¸°ë³¸ ìłģìľ¼ë¡ľ
Ġìĸĳ ìª½
Ġì¢ħë¥ĺ ê°Ģ
ìľ Ļ
ìĿ¼ ì§Ģ
Ġë§Ľ ìŀĩ
ìĹ´ ìĿĦ
Ġëº ¨ìĿĦ
Ġë¶Ģë ĶĶ
Ġíİ ĳ
¹Ī ìĿĺ
Ġìļ°ë ıĻ
ìį ½
ĠëłĪë ²¨
ĠëĲĺìĸ´ ìķ¼
ĠíĦ± ìĿĦ
Ġíķ´ ê²°ë
ĳĲë ¶Ģ
ê¾ ¸ë¡ľ
ĠëĮĢëĭµ ìĿ´
ĠìĤ¬íļĮ ìĿĺ
ðŁĲ ·
ëĳ¥ ìĿ´
é Ŀ
ê¸° ìĤ¬
Ġì¦Ĳ ê¸°ê³ł
Ġìħ Ģë
ëªħ ìĿĢ
ĠâĢ Ķ
Ġì¹ľêµ¬ë ĵ¤ê³¼
Ġì¢Ģ ì²ĺëŁ¼
ëĦ Ľ
ĠìķĪíĥĢ ê¹Ŀ
Ġìĸ´ëł¤ ìļ¸
Ġíķĺ ìĺ¤
Ġíķĺ ìĭ¤
ìĬ¤ë Ĥĺ
ìł ¤ë¦¬
ê°Ģ ë©´ìĦľ
ê¸°ë ĵ¤
ì¹ĺ ìĻĢ
Ġíķĺë įĶëĭĪ
ĠìĤ¬ìĭ¤ ìĹĲ
ìĿ´ ê¹Į
ìĽħ ìĿĢ
ĠëĳĲë ¶Ģ
ĠìĹ¼ ìĥī
ĠëĮ ķ
Ġìķķ ë°ķ
į ¸ë
ĠìĥĪ ì½¤
íķĦ ìļĶ
ìļ°ë ĵľ
Ġì§ĢëĤĺ ê³ł
Ġê¿Ī ê¾¸
ë¸Ķë ŀĻ
ĠíĦ° íĬ¸ë
ĠìĦ± ë²½
ĠìĿ´ë¯¸ ì§Ģ
Ġê°Ģì¡± ìĿ´
ìķĦ ëĭĮ
Ġì£½ ìĹĪëĭ¤
Ġëª¨ ëĭĪ
ðŁ ĵ
Ġìłľ ê²Į
ĠíĹĪ ê³µìĿĦ
ĠìĹĨ ìĹĪëĬĶëį°
Ġì£ĦìĨ¡ íķ©ëĭĪëĭ¤
0 2
Ġë³´ ìķĦëıĦ
Ġë³ĳ ìĤ¬ëĵ¤ìĿ´
ĠìķĪ ì£¼
Ġê³łë ¬´
ê±¸ ìĿĮ
Ġ th
Ġë°Ķ íĢ´
ëĭ ¿
ìĸ´ë Ĥ´ëĬĶ
Ġìĺ¤ë ¥´ë
ĠíĬ¸ë ¦¬
ĠìŀĲ ì¹«
ĠìĦ¸ íĮħ
ìħ¨ë ĤĺìļĶ
ìį¨ë ¶ĢíĦ°
b log
Ġê¹ »ìŀİ
ĠìĻ¸ ìĹĲëıĦ
Ġê³¨ ì§ľ
³¶ ìĿĮ
ìĺĢ ëĭ¤ëĬĶ
ĠìĿ¸ ìłľ
è ĩ
Ġëĵ¤ ìĹĪëĬĶëį°
ĠìĽĢì§ģ ìĹ¬
Ġíĳ¸ì§Ĳ íķĺê²Į
Ġê¸° íĥĢ
Ġëªħ ìĿĢ
ìĺµ ìĨĮìĦľ
o s
íĦ° ìĹĲìĦľ
Ġë§ī ê±¸ë
Ġë¶Ģ ì¶Ķ
Ġê¸° ì´Ī
ĠëĤ¨ ì§Ģ
ãħłãħłãħłãħłãħłãħłãħłãħł ãħłãħłãħłãħłãħłãħłãħłãħł
ĠìıŁ ìķĦë
Ĵ Ģ
ìĦ¸ ì§Ģ
Ġê·¸ë¦¼ ìŀĲ
ëĭ¬ ìĿ´
ĠëıĻ ë¬¼ë
ĠìĨį ìĹĲëĬĶ
Ġë¯¸ë ł¨
Ġë²Ĺ ê³ł
ì¹´ íİĺë
Ġì¢ĭìķĦ íķĺì§Ģ
Ġíĳľ ìĭľ
ar k
ĠìĹĶë Ķ©
Ġ ~~
ìł ĦëıĦ
ĠëĲĺë ©´ìĦľ
Ġíı ´
ì§ĢìķĬ ê³ł
Ġë§ĪìĿĦ ìĿĦ
Ġê°ĩ íĺĢ
ĳĲ ìĹĲ
Ġê°Ģë §Ī
ĠìłĢ ìĹĲê²Į
Ĥ´ ìĸ´
ĠìłĢë ²Ī
ĠìķĪ ì§Ģë
ĠëģĦëįķ ìĿ´ë©°
ìĤ¬ ìłģìľ¼ë¡ľ
Ġ d
ĠëĤĺ ë¡ľ
ìĤ°ë ıĻ
Ġìĥģì²ĺ ê°Ģ
ĠëĴ¤ íĨµ
Ġìŀ¬ë £Įë
Ġì½©ëĤĺ ë¬¼
ìº Ħ
ëĭ¤ ìĿĮ
ìĭĿ ê³¼
ĠìĹ° ê°ľìĨĮë
ĠìĺģíĻĶ ìĹĲìĦľ
ĠëĮ Ħ
Ġíĺķ ìĿĺ
ĠíĪ¬ë įľ
ĠëĤĺëĪĦ ê³ł
ĠëĤĺìģĺ ì§Ģ
ĠìĿ´ë Ł¬ë
ìĿ¼ ì§ĢëıĦ
íķ´ë ³¼
Ġê°ĢëĬ¥ íķĺëĭ¤
.... .....
ðŁĻ Ħ
Ġê²ĥìĿ´ ìķ¼
ĠëĲ Ĳë
Ġë³´ ìĭľë©´
§¤ ìĿ¼
ê±´ê°ķ ìĭĿ
Ġìŀ¥ ìķħ
ĠëĦ£ ìĸ´ë
Ġë³´ ìķĺëįĺ
Ġê¿ ĪìĿ´
ìĿ¼ ì°¨
ĠìŀĳíĴĪ ìĿĢ
Ġì§Ŀ ìĿ´
ĠìĶ ¨ë¥¼
ĠíĹ¤ íĹ¤
Ġëĥī ë©´
Ġë²¼ ìĬ¬
ìĽł ëĬĶëį°
Ġíķľ ìļ°
Ġìŀĳ ëıĻ
ĠìĿ´ëŁ° ê±°
Ġê³ł ê¸°ëĬĶ
Ġê°ľ ìļ´
Ġê¿Ī íĭĢ
¨ë ¡ľ
ĠìĤ¬ ê·Ģ
Ġì¹ľêµ¬ ìĿĺ
Ġì¡°ìĦł ìĿĺ
Ġë§ĪìĿĮë ıĦ
ĠìĨĲ ìĹĲìĦľ
Ġì½ľë Ŀ¼
ĠìĪĻ ìĹ¬
Ġì²ł ìłĢíŀĪ
ĠëķĮë ł¤
ĠìĹ ®
ëĬĶ ê±¸
ĠìķĦëĭĪ ìĹĪì§Ģë§Į
Ġê±±ìłķ íķĺì§Ģ
Ġë³µìŀ¡ íķľ
Ġë§Ĳ íķĺìŀĲ
ĠìĿ´ë ĨĪ
) `
ì¹¼ êµŃìĪĺ
Ġê¸° ìłĪ
ìĪł ìĿ´
ìł Ĭ
Ġì¹ Ļ
Į ðŁı»
Ġë¨¹ìĿĦ ìĪĺ
íķĺ ëĭ¤ë©´
ìĪĺ ê³ł
Ġìĸ´ ì¡°ë¡ľ
ê¸Ī ìĿĢ
ĠìĿĺ ìĭĿìĿĦ
Ġìĸ¼êµ ´ëıĦ
Ġë§ī ê³ł
ĠëĤłë ł¸ëĭ¤
Ġê·¸ê³³ ìĿĦ
Ġìĺ¤ë¹ł ëĬĶ
íĬľë ¸Į
ĠìĪĺ ìĤ¬
Ġë¨¹ ëĭ¤ê°Ģ
ìĿĮë ıĦ
ĠìŀĪ ìŀĸìķĦ
ĠíĽĦë ł¤
ê¹ ħ
ĠìĤ¬ íķŃ
íĦ° ìĿĺ
ðŁĺ ¢
Ġíİ¸ íķĺê³ł
ıĻ ìĿĺ
ĠìłĦ ì²´ë¥¼
ìģ ĺë
ĠëĭŃ ê°ĢìĬ´ìĤ´
ĠìĿ´ë ĵ¤ìĿĦ
Ġë© ´ëıĦ
ĠíĥĿ ìĭľ
è¨ »
ì¹ ¼ë
íĿ Ĳë
Ġë©Ķë ī
p up
Ħ ¬
ĠìĿ´ë ³Ħ
ĠëĨ Ķ
Ġì§ĢëĤĺ ê°Ħ
ìĬ¤ëŁ½ ëĭ¤
ĠíķĺëĬĺ ìĿĺ
Ġìŀ¬ë¯¸ ìŀĪê²Į
¥ ¨
ĠìĹŃ ìĤ¬ë¥¼
Ġíĸ Ħë
ëĭĪë ©Ķ
Ġë³Ģ ìĭł
ĠëįĶìļ± ëįĶ
ëĤ´ë ¥¼
Ġê°Ģë¦¬ ì¼°ëĭ¤
ĠìĽĢì¼ľ ì¥Ĳ
ìĿ¼ë ¥ľ
ĠíĶĦë ¦¬ë¯¸ìĹĦ
Ġìµľ ì¢ħ
Ġëĭ¤ìĿĮ ìĹĲëĬĶ
ìĿ´ ìĸ´ìĦľ
Ġë§Ī ê°Ĳ
c ook
ĠêµŃ ë¯¼ë
ĠëĤ¨ ìķĺëĭ¤
Ġíĺķ ìłľ
ê°Ģ ì§Ģë¥¼
ĠìķĦìĿ´ë ĵ¤ê³¼
ìĤ °ëıĦ
Ġë§Ī ì¹´ë¡±
¥ĺ ìĿĺ
Ġìĺ Ģ
ìĭľ ê²Į
Ġëĵ¤ ìĸ´ìļĶ
¥´ ê°Ģ
Ġì¶Ķ ìļ´
Ġãħĭãħĭãħĭãħĭãħĭãħĭãħĭãħĭ ãħĭãħĭ
ìĿµ ìĿĦ
ìķĦ íĬ¸
ê¸°ë ĵ¤ìĿ´
ìķ µ
ìĦ¤ ìĿ´
æ µ
ëĭ¤ ëĤĺ
Ġìŀ ¤
ìĸĳ ëħĲ
ĠìķĦìĿ´ íı°
ĠíĶĦë łĪ
Ġëª¬ ìĬ¤íĦ°ë
Ġë¡ľ ë´ĩ
Ġëĭ¤ìĿĮ ìĿĢ
ĠìĽĢ ì°Ķ
ìĹĳ ìĬ¤
ì§Ģë ĦĲ
ĠíĨµ ìĿ¼
ä¸ Ń
Ġíķĺë Ŀ¼ê³ł
ãħł ãħľ
Ġíķľ ì¸µ
ì§Ī ìĿĢ
ĠìĹĨ ëĤĺ
íĸĪ ìĹĪëĬĶëį°
Ġì¹ĺ ìĨŁ
ìĥĪë ģ¼ë
n d
ðŁ¥ °
íĮ ¥
Ġì¢ĭ ê²łìĸ´ìļĶ
Ġê°Ģìł¸ ìĺ¨
ĠìłĢë §Į
ìĸ´ ìĿ´
ì» ¬ëŁ¬
ĠìłĪë ²½
¯¸ ìĹĲ
ìħĺ ìĿĦ
ðŁĳ ī
Ġìĭ¤ë ł¤
Ġì»¤ë ²Ħ
Ġìŀĺ íķĺëĬĶ
ĠêµĲ íĻĺ
ĠíķĻêµĲ ìĹĲìĦľ
á ħ
ç ¾
ê³µ ê¸°
Ġë°ĺê°Ģ ìļ´
ĠìĨ¡ ìĿ¼ë¥ľ
Ġê»´ ìķĪ
ðŁĺ Ŀ
Ġë²Ī ìĹĲ
ĠìĹ¬ìŀĲ ìĻĢ
ìĤ° ìĹĲìĦľ
Ġëħ¸ ìĿ¸
ê° Ľ
ê± ±
ĠëĤĺìĻĶ ëĬĶëį°
! ``
ìĿĺ ëĬĶ
íĥ Ĳë
ĠìĦłë ¬¼ìĿĦ
Ġìĭ« ëĭ¤
ĠíĮ Ŀ
ĠíĬ¹ ìĿ´íķľ
ë ¡Ģ
ĠëĮĢë §Į
Ġìŀĳ ìłĦ
Ġì°¨ ê°ĳê²Į
ĠìŀĲë ŀĢ
ĠìĿ¸ìĥĿ ìĿĺ
ìĿ´ íĥľìĽĲ
Ġëª¸ë ¶Ģë
± ĥ
ĠìĿ¸ íķľ
n g
ê¸°ë ¦Ħ
Ġìł ĪìĿĦ
ĠëĬĲëĤĮ ìĿĢ
Ġê¸° ê´Ģ
Ġê°Ħ ìĹĲ
Ġë¦¬ ìĸ¼
ĠìķĦëŀĺ ìĹĲ
ĸ ¤
°ķ ìĬ¤
Ġíĭ ĪìĿĦ
ãĦ¹ ãħĩ
ëıĦ ëĮĢì²´
²Ī ì§¸
ëĦĪ ëĬĶ
ļ «
Ġë°ĺ ìĺģ
íĸĪë Ħ¤
Ġë³µ ìĪĺ
ê¶Į ìĿĺ
Ġë»Ķ íĸĪëĭ¤
ì°° ìĿĦ
ĠìķĬëĬĶ ëĭ¤ê³ł
0 6
Ġëļ« ìĸ´
ìłģ ìĿ´ì§Ģ
Ġë¹Ħ ëĭĲ
ĠëĨĵ ìķĦ
ĠëħĢìĦĿ ìĿĦ
ou s
Ġë² ħ
Ġê³µ íĨµ
ìľłë Ł½
ĠìĺĪ ìĪĺ
Ġë¬´ë ¦¬ê°Ģ
ìķł ê²¬
ìĸ´ ê°ĢëĬĶ
íĶ Īë
íĬ¸ë Ł¬
Ġë°©ë²ķ ìľ¼ë¡ľ
ĠíĹ ĪëĤĺ
Ġê¸¸ ê³ł
t a
ĠëĨ ĪìĿĦ
Ġëħ¹ ì°¨
âĢ¦âĢ¦ !"
ĠëŃĲë ĥĲ
Ġíķľ ë³µ
ì¤ĳ ê°Ħ
íĬ¹ë³Ħ ìĭľ
ì¯ §
ĠëģĿëĤĺ ë©´
ì¼ĢìĿ´ ìĬ¤
ĠìĿ¼ë°ĺ ìłģìĿ¸
êµ¬ ìĻĢ
Ġì°¸ ì§Ģ
Ġë¡ľ ë§¨
Ġëĳĺ ìĿĺ
¡¯ ëį°ë
Ġê¸°ëĭ¤ë ¦´
Ġìĥģ ì²ĺë
Ġë¹Ħ íķĺë©´
íĴ ĪëıĦ
Ġë¶Ģ ì¹ľ
Ġìľ µ
ëĮĢ ê³ł
ë¬¸ íĻĶ
Ġê²½íĹĺ ìĿ´
Ġëķ ĢìĿ´
ĠìķĪ íķĺê³ł
Ġê²° ê³¼ë
Ġíıī ìĸĳ
Ġìĺ¬ëĿ¼ ê°Ħ
æ ³
ëıĻ ë§Ľì§ĳ
ĠìĬ¬ ê·¸ë¨¸ëĭĪ
ĠìĤ¬ë¬´ ìĭ¤
ĠìĹīëį© ìĿ´ë¥¼
Ġíķĺë £¨ë¥¼
ł¤ë Ŀ¼
ê°Ķ ìĬµëĭĪëĭ¤
Ġë³´ë ¦Ħ
Ġì¶Ķ ì¸¡
ĠìķĦ ìĤŃ
Ġíľ Ļ
ìļ°ë ¦¬ëĬĶ
ĠëģĿ ëĤł
íĶĮë ¡ľ
ĠìłĢë ¦¬
ãħ Ĭ
ìĭ¶ ìĿĢ
ê¶ģ ìĿĺ
Ġê·¸ëŁ ´ë
Ġíļ Ł
ĠëĴ¤ë į®
ĠíĦ°ëľ¨ë ł¸ëĭ¤
ë¹ ¨ë¦¬
ĠíĿĺëŁ¬ëĤĺ ìĻĶëĭ¤
ĠìĹİëĵľë ł¤
ĠìĹĨ ìľ¼ëĭĪê¹Į
³´ ê²Į
íı Ĳë
pup py
³¶ ìĿĮë°¥
ì£¼ë¶Ģ ìĬ¤íĥĢê·¸ëŀ¨
íŀĪ íŀĪ
ĠìľĦ ì¹ĺëĬĶ
ĠìĤ¬ ìłķìĿĦ
Ġë§ĪìĿĮ ê»ı
íĶĦë¦¬ ì¹´
ìĸ´ë Ĥ´ê³ł
Ġìĭľë ¦¬
Ġìļ© ê¸°ë¥¼
íİ Ģ
Ġê¹Ģ ì¢ħ
ĠìŀĪìĹĪ ê¸°ìĹĲ
Ġëĵ¤ëł¤ ìĺ¤ëĬĶ
ĠìĿ´ë£¨ ê³ł
ìķ ±
Ġê·¸ë ĵ¤ê³¼
ĠìĺĨ êµ¬ë
ĠìĪĺ ë¡Ŀ
ëĭ¤ìĿ´ìĸ´íĬ¸ ê³Ħìłķ
Ġê¸° ìŀĲ
êµ¬ë ıĦ
Ġìķ µ
ìĬ¤ë ©Ķ
ìł¸ ìļĶ
Ġëħ¸ ëĬĶ
Ġìĺ¬ë ł¤ìĦľ
Ġìĺ¨ëª¸ ìĿĦ
ĠìĤ´ ìĤ´
ëĦ¤ ìĿ¼
ìķĦìķĦ ìķĦ
ĠìĹ¬ìŀĲë ĵ¤ìĿ´
Ġë¹Ļ ê¸ĭ
ì ĮĢë
ĠìľĦ ì¹ĺë¥¼
Ġë³Ģ íķľ
ĠëĤ¨ìŀĲ ìĻĢ
Ġíķĺë©´ìĦľ ëıĦ
ìŀ¥ ìĹĲê²Į
íı¬ íĦ°
ĠëĬĲê»´ ì§Ģ
Ġíĥ ĲëĿ¼
Ġìŀ¥ ë¹Ħ
Ġê¹Ķë ł¤
ĠíķŃ ë³µ
Ġê°Ģê²© ìĹĲ
Ġë§¤ëĭ¬ë ł¤
Ġë²ł ìĸ´
Ġìļ°ë ¬¼
Ġëĵ£ ê¸°
ĠíĿĺë ł¸ëĭ¤
ĠìłĲ ìĭ¬ë
Ġì¹¨ ìŀħ
ĠìķĦëĭĮ ì§Ģ
Ġê¸Ī ìķ¡
ê³ł íķľ
Ġê¸°ë °ĺ
ĠëĶ° ìľĦ
ìĪĺ ìłľ
ë¶Ģë ¶Ħ
ĠëĤ¨íİ¸ ìĿĦ
ëĭĪ ìĿĺ
Ġë¶Ģë Ł½
ĠíĸĪ ìľ¼ëĭĪ
Ġìļ´ëıĻ ìĿĦ
Ġê°Ħíİ¸ íķĺê²Į
ëĺ Ĳë
ìĻķ ìĿĦ
ĠëıĮìķĦ ìĺ¤ì§Ģ
ìķĦë¬´ë ¦¬
ĠìĺĪë»Ĳ ìĦľ
ðŁĴ Ļ
Ġëĵľë łĪ
Ġê³ł íķ¨ìĿĦ
ìŀĲë Ŀ½
ĠìļĶ ê¸°
ĠíĶ¼ íķ´ë¥¼
æ Ľ
Ġë¬´ ìŀ¥
ĠìĿ¸ ê·¼
ìŀĦ ìĿĢ
íĥĢë ¥¼
Ġìŀĥ ìĸ´ë²Ħë¦°
Ġê´ľì°® ìĿĦ
ìķĦëĭĪ ìķ¼
Ġì» ¨ë
Ġëķħ ìĿ´
Ġíķĺ ëĬĺë¡ľ
g ht
í ħĢ
Ġìłģ ì§Ģ
Ġê±¸ ìĸ´ìĦľ
Ġë²ł ìĬ¤íĬ¸
ê³³ ìĿ´
ìĦ¸ ìĥģ
ĠìķĦë ĵ¤ìĿĺ
łĪ ê°Ģ
ëıĦ ë¦¬
Ġì°½ ê³ł
ê·¸ë £¹
ìļĶ ê°Ģ
ì£ µ
Ġê³µ ê°Ĳ
Ġë¶Ļ ìĿ´ê³ł
ìĤ¼ ê²¹
ĠìĿ´ ìĬ¹
Ġíķĺë ł¤ëĬĶ
Ġê±°ë ŀĺ
ĠìĿ´ë ¥´ëĬĶ
Ġë³Ģ íĻĶê°Ģ
ìĭľ íĹĺ
ê¸°ë Ŀ¼
ĠìĿ¼ë §Į
Ġì¶Ķ ê°Ģë¡ľ
ĠìĻĶ ìĸ´
Ġì° ¹
ĠìŀĪ ê²łëĬĶê°Ģ
ì²ĺ ìĿĮ
ì§ģ ìĿ´
ĠìĿ´ë §Īë¥¼
ĠëĶ° ìĬ¤
íĢ ĺ
ĠìĤ¬ëĿ¼ ì§ĢëĬĶ
Ġíı¬ê¸° íķĺê³ł
ë§Ī ì§Ģë§ī
Ġìĭłë ¢°
Ġì²Ń ì£¼
ê¸° ê²Į
¡ł ìĿĦ
Ġì¹´ ìļ´
Ġíİ¸ìķĪ íķĺê²Į
Ġìŀħêµ¬ ìĹĲ
ê·¸ë łĪìĿ´
ĠëĶ°ë ¦Ħ
ëĸ łë
Ġë°Ķë ŀĢëĭ¤
Ġë²Į ìį¨ë¶ĢíĦ°
ĠìĪĻ ìĿ´ê³ł
Ġë§ĪìĿĦ ìĹĲ
Ġê²½íĹĺ ìĿĦ
ĠìĨĲ ìĿĢ
Ġìľł ìļ©
ĠíĪ¬ ìŀħ
Ġëĭ¹ ê·¼
ĠìĦł íĺ¸
ìĿ´ ê¸°ìĹĲ
ìļ°ë ıĻ
ĠìķĮë ©´ìĦľëıĦ
íĺ¸ë ĳĲ
ĠìĤ¬ ìłĦ
Ġë°Ķë ¥´
ĠëĮĢë ¦½
Ġê°ĸ ê²Į
Ġìĭľ ì²Ń
íİ ĳ
ĠìĺĪë »
íħĮë Ŀ¼
Ġë§¡ ê³ł
Ġë¹Ħì¥¬ ìĸ¼
ĠëĶ°ë ¥´ëĬĶ
Ġíķµ ìĭ¬
ĠìĤ¬ëŀĳ íķĺê³ł
ĠëĳĲë £¨
ç Ļ
íı¬ ê°Ģ
Ġì² ¨ë
ìĤ¬ë ¹Ħ
ĠìĹ° ê¸°ê°Ģ
ĠìłĦ ê°ľ
Ġíķľë§Īë ĶĶë¡ľ
Ġëĭ¹ ì²¨
ê²¨ ìļ´
ìĽĶ ìĿĢ
ĠìĥģíĻ© ìĿĢ
ìłľë Ĥĺ
ĠíķłìķĦë²Ħ ì§Ģê°Ģ
æ Ļ
é Ģ
ĠìĥĿ ê¸¸
Ġë§Ĳ ìĿĺ
Ġìłľ ìķķ
Ġë³´ë ł¤ê³ł
Ġì¼ĢìĿ´ íģ¬
ìŀ¡ ìĿĦ
įĶëĿ¼êµ¬ ìļ©
ĠìŀĲ ê¸°ëıĦ
ĠëĤ´ë ¿ľ
Ġëį° ìĦľ
Ġíķĺë£¨ ê°Ģ
âĺº ï¸ı
íĪ¬ë ¡ľ
ĠìĨĲëĭĺë ĵ¤ìĿ´
ĠìŀĪ ëĬĲëĥĲ
Ġìłķ ì¤ĳ
ĠìłĲ ìĭ¬ìĿĦ
Ġë°± ìŀĳ
Ġë§ĮëĤĺ ëŁ¬
Ġê¸° ì°¨
ĮĢë ©°
Ġëªĩ ë²Ī
Ġì¶©ë¶Ħ íķľ
ĠìķĮë °Ķ
ĠìĪł ì§ĳ
ë¹µ ì§ĳ
íĸĪëĭ¤ ê°Ģ
ĠìłĦ íĪ¬ë¥¼
ĠíĺĦ ìŀ¥
ãĥ ©
ëĲĺë ©´
ê¸°ë ©´ìĦľ
ĠíĨµ ë¡ľ
³´ë Ĥ´
ë°ĺ ìĤ¬
Ġëī´ ìļķ
Ġì§ĳ ëĭ¨
Ġê¼¬ë °ķ
Ġê²ĥ ìĿ´ëĥĲ
ìķĦëĵ¤ ìĬ¤íĥĢê·¸ëŀ¨
Ġê¼¬ë ¦¬ë¥¼
Ġìŀ¥ë©´ ìĿĦ
ķ ï¸ı
¶Ģ ì§ĸ
Ġìŀĺë ¨¹
Ġìļ¸ ìĹĪëĭ¤
Ġìĸ¸ë ľ»
Ġìħĭ ìĿ´
åľ ĭ
ĠíĻį ì½©
ĠìĦľ ìļ¸ë
Ġìľł ì§Ħ
Ġìĸ´ìļ¸ë ¦¬ì§Ģ
ê¸° ëĭ¤
ĠëĳĲë¦¬ë ²Ī
ĠìĦľìļ¸ íĬ¹ë³Ħìĭľ
ê¸°ë ¶Ħ
Ġì´īì´ī íķĺê²Į
Ġë¶Ģëª¨ ëĭĺ
ë³´ ëĬĶ
ìĿ´ë ĶĶ
Ġì» ·
Ġíĺ¼ ìŀ£
ĠíĥĦë ł¥
Ġê²½ ìķħ
Ġ**************** ********
Ġíķĺ íķĺ
Ġì°¨ë ³Ħ
©´ ìĿ´
Ġëĭ¹ ëĤĺëĿ¼
Ġëĵ¤ ë©´
Ġë¶Ģ ì¶ķ
Ġë¹ ¤íŀĪ
Ġê²° ìłķìĿĦ
Ġìĸ´ì©Į ëĭ¤
ĠìĭĿ ë¯¼
ĨĪë ĵ¤
Ġê¸° ìģĺ
ĠìĭĿ ëŁī
ðŁĻ ĭ
å ¥
ìŀ¥ ëĭĺìĿ´
Ġë¶ī ê²Į
Ġìŀĳ ê²Į
íķ´ë ĵľë
ê²łë ĥĲ
ĠìĿĮìķħ ìĿĦ
ĠìĨĮë ĵľ
ĠëĶ°ëľ» íķĺê²Į
ìĪ łë¡ľ
ĠìĤ¬ìļ© íķĺì§Ģ
Ġìĵ° ìĹ¬
ĠìĦ±ê²© ìĿ´
ëĬĶ ëĭ¤ê³ł
Ġì§Ģ ìĦ±
ìĭľë įĶëĿ¼êµ¬ìļĶ
Ġì¶© ëıĮ
Ġë´¤ ìĿĦ
ĠìŀĪìĹĪ ìľ¼ëĤĺ
Ġë² Ļ
Ġëª¨ë ¦ħëĭĪëĭ¤
ĵľë ¦Ħ
Ġë½ Ģë
k in
Ġìĺ¬ëĿ¼ ìĺ¤ëĬĶ
ĠìĿ´ ìłķ
ê±° ëĬĶ
Ġìļ¸ë ¶Ģì§ĸ
Ġë§Ī ìĭŃìĭľìĺ¤
Ġìĸ¼êµ´ ìĹĲëĬĶ
Ġë¼ Īë
Įë¦° ì§Ģ
Ġë īĺ
ĠìĹ¬ë ¦Ħë
ĠëĪĦêµ¬ë ³´ëĭ¤
Ġë¶Ģ ê·¼
Ġìĺ¤ë Ŀ¼ë
ĠíķĦìļĶ ëıĦ
Ġíĥģ ìŀĲ
` ,
ĠìĹ¬ ëĬĲ
Ġë§ī ìķĦë
Ġëĭ¤ëħ Ķ
Ġê¸°ë¶Ħ ìĿ´ìĹĪëĭ¤
ìł¸ë ıĦ
ëĭĪë©Ķ ìĿ´ìħĺ
Ķë ²ħ
ĠìĬ¹ ìļ©
ãĥ »
ĠìĨĮìĦ¤ ìĿĢ
Ġìłķ ë³´ë
ì ĳ¤
Ġì£¼ ìłľìĹĲ
ìĽĮ íĦ°
ìķĦëĵ¤ ìĹĪëĭ¤
Ġì´Īëĵ± íķĻêµĲ
Ġë°Ľ ìķĦìķ¼
¦¬ë ł¤
íĺ¸ ê°ķ
íĴĪ ìľ¼ë¡ľ
ê°ģ ìĿ´
ìķĦë §Ī
Ġê±° ìĺĢëĭ¤
ì§Ī ìłģìĿ¸
Ġë°± ìłľ
Ġëĵ¤ìĸ´ê°Ģ ê³ł
ê³ ¤ë
ĠìĿ¸ ê¸°ê°Ģ
Ġë²Ħë ł¸
ìĺ¥ ìĿ´
íķ´ë³´ ìĦ¸ìļĶ
Ġëıħ ìĦľ
Ġëı¼ ìĦľ
ic e
ĠìĹ° ìĺĪ
ĠêµŃ ë¬¼ë
ì£½ ìĿĦ
ë°° ê³ł
© ĭ
ë İħ
ìį ¸
íĺľ ê°Ģ
¬¼ë ıĦ
ĠìŀĶ ìŀĶ
êµŃ ìĹĲìĦľ
ĠìĦł ìłķ
Ġë¨¹ ëĬĶëį°
ĠëĦĪë ¨¸ë¡ľ
ìĿ¸ë ĶĶ
Ġë¬´ìŀĳ ìłķ
ê¸° ìĹĶ
Ġìŀ¬ ìĥĿ
ĠìĦłë ľ»
ê¶Į ìĿĢ
Ġíķľ ê°ķ
ìĺĢ ê¸°
ĠìĹ´ ìĸ´ë
Ġë¬¸íķĻ ìĿĺ
Ġìµľ ìķł
Ġì°½ ìŀĳ
ê²ł êµ°ìļĶ
Ġëĸ¡ ë³¶
Ġë¹Ħë ¹Ħ
ìĬ¤ íĬ¸ë¥¼
Ġì¹¼ë Ĥł
Ġë ®
ê·¸ë ł¤
ĠìĦ¸ê³Ħ ìĹĲ
ì¡Į ì§Ģë§Į
ðŁĳ Ģ
Ġëº ¨
Ġìĭł ìķĻ
ĠìĹ°ëĿ½ ìĿ´
ìĵ ¸ë
ĠìļĶë ŀĢ
ìĿ´ë ŀĦê¹Į
Ġê±° ê¾¸ë¡ľ
ìŀĦ ìĹĲ
Ġìľł ê¸°ëĨį
Ġë¬´ ìĸ¼
ì±Ħ ê°Ģ
íķĺ ê²Įë
íŀ ĪëıĦ
ì£¼ë ¬¸
ê³°ë ıĮìĿ´
ĠìĹ¬ë¦Ħ ìĹĲ
ì¡´ë§Ľ íĥ±
Ġë¬µ ìĿĢ
Ġìĥģê´Ģ ìĹĨ
ĠíĭĢ ìĸ´
Ġâĺ ħ
ĠëıĦ ëĬĶ
Ġë§ī íĺĢ
Ġê¸°ì¡´ ìĿĺ
ìĿĺ ìłķ
ĠìĨĮ íĻĺ
Ġê²Ģ ìłķ
Ġëĵ Ģ
ĠíĿĲë ¦Ħ
Ġìĭł ìĥģ
Ġë§Īë²ķ ìĤ¬
çİ ĭ
Ġíķĺë£» ë°¤
Ġê°ľìĿ¸ ìłģìĿ¸
ìĤ¬ë ĵ¤ìĿĺ
ëĮ ģ
ĠìĪĺ ìĬµ
°© ë²ķ
ëĬ ī
ìĤ¬ ì¹´
ê°ľ ìĬ¤íĥĢê·¸ëŀ¨
ëį°ìĿ¼ë¦¬ ê·¸ëŀ¨
Ġì¹ľ ìłķ
Ġë§Īë ĪĦë
ĠìĤ´ë įĺ
ëıħ ìĬ¤íĥĢê·¸ëŀ¨
ê¹ ľ
íļĮ ìĹĲìĦľ
ĠìķĬìķĺëĭ¤ ë©´
ĠìĿ´ë ħĲ
ĠëıĮìķĦ ê°Ģê³ł
ĠëĤĺíĥĢë ĤĺëĬĶ
diet food
ĠìĹĨ ìŀĸìķĦ
Ġë©´ ìĿ´
ãģ Ħ
âĶĢ âĶĢ
¦¬ë ŀĳ
ëĤ ľë
Ġë³Ģ ê²½
f a
ìĪĺ ìĽĲ
ł¹ ìĿĺ
ëĭ¤ìĿ´ìĸ´íĬ¸ ìĿ¼ê¸°
ìĺµ ëĭĪê¹Į
¨¼ íĬ¸
Ġë²Ĺ ìĸ´
°Ķë ĶĶ
¡ Ģë¡ľ
ë§Ľ ìŀĪëĬĶ
Ġê¹Ģ ìłķ
ĠíĸīëıĻ ìĹĲ
ìĿ¸ìĬ¤íĥĢë ²łìĿ´ë¹Ħ
A L
ĠìłĦ ì²´ê°Ģ
ìĿ¸ë ĵľ
Ġê¸°ë ¥¼
íĥĦ ìĿ´
Ġëģĵ ìĹ¬
Ġì¡°ë ¦¬
Ġíķ´ì£¼ ìĦ¸ìļĶ
ĠíĽĦë °ĺ
ëĭ¹ ìĹĲ
!!!!!!!! !!!!!!!!
ĠìķĬ ìľ¼ëĭĪ
ìĭł íĺ¼ë
Ġê³ł ìļ´
Ġì§Ħë ıĻ
ë°Ķë ĶĶ
ul l
Ġì£¼ë ıĦ
ê°ģ ìĿĢ
daily look
Ġìĺ¤ ìĭł
ì¡Į ëĭ¤ëĬĶ
ìĽĥ ê²¨
ĠìĹī ìĹī
Ġìŀ¥ë©´ ìĿ´
æ ķ
è »
ï ¥
æ Ģ
ĠëĤĺ ìĺµëĭĪëĭ¤
Ġìŀł ê²¨
å º
ĠìķĬìķĺ ìĸ´
ìŀ ĦëıĦ
ì« Ħê¹ĥ
Ġìĭľìŀĳ ëĲĺìĹĪëĭ¤
ãħ¡ ãħ¡
Ġê¼¼ê¼¼ íķĺê²Į
ĠìĦľ ìĪł
ĠðŁĺ Ń
Ġìĺģ ìĹŃ
ĠíļĮ ìłĦ
ëĮķ ëĮķìĿ´
Ġìĥ¤ë ¸Į
Ġëĭ ī
Ġê±° ìĭ¤
Ġìĭľ ìĿ¸
Ġë¹Ħ ì°¸
Ĺ ê³ł
ĠìĥĿê°ģ ë§Į
ĠìĥĿê°ģ ìĿ´ìĹĪëĭ¤
Ġë¯¸ ì³¤
°ĶëŀĮ ìĿ´
ìĿ´ë Ĥł
¦¬ë ĵ¤ìĿ´
Ġê¹Ģ ìĹĲ
ĠíķłìķĦë²Ħ ì§ĢëĬĶ
ìĤ¬ë ĵ¤
ĠíĹĪë ¬´
¿ ëĤł
Ġ and
ĠìĽĢì§ģ ìŀĦìĿĦ
Ġëĭ¤ëħĢ ìĺ¤
Ġìº Ħ
Ġë¶Ħëªħ íķľ
ìļ´ëį° ìĿ´ìħĺ
ë ĵĢ
ìĹĲ ìĦ¼ìĬ¤
ĠìķĦë ¥´ë
Ġë°Ķ ì§Ģ
Ġíĺķ ìĭĿ
Ġì°¾ìķĦ ìĻĶëĭ¤
ìª ¼ë
ìĪĺ ëĿ¼
Ġë¶Īíİ¸ íķľ
Ġëĭ¤ ëĭĮ
Ġì§Ħ ìŀħ
Ġë¶Ģë ıĻ
Ġê³³ ëıĦ
íķ¨ ìľ¼ë¡ľ
Ġì¿ł íĤ¤
ìĺ¥ ìĿĺ
íķ´ë ²Ħë
Ġìķ¼ ìĻ¸
Ġìļķ ìĿĦ
ĠëĳĺëŁ¬ë ³´ìķĺëĭ¤
ĠëĲĺ ìĹĪìĸ´ìļĶ
Ġë§ī ëĤ´
Ġíķľë°Ķ íĥķ
Ġì¤ĳ ìĿ¸
Ġìļ°ë¦¬ë ĵ¤ìĿĺ
ìŀĦ ìĤ°ë¶Ģ
ĠíĽ Ĺ
Ġì§Ģê·¹ íŀĪ
Ġìķ ±
íĹ ĺë
Ġëĵ¯ íķĺëĭ¤
ìĨĲ ìĿ´
ĠìĤ¬ ì§ĦëıĦ
Ġìļ° ìĬµ
ìĨĲ ìĹĲ
Ġíķ© ê²©
Ġë²Īë §Į
Ġë³ ĦëıĦ
ĠìĤ´ ìķĺ
ìĦŃ ìĿĢ
Ġê³¨ ê³łë£¨
ê·¸ë §Īíķľ
Ġê¸° ìĥĿ
êµĲ ëĬĶ
ĠëıĪ ê¹ĮìĬ¤
¿ Ķ
Ġëĭ¹ íķĺê³ł
Ġê±´ ê°ĢìļĶ
Ġìŀłë ĵł
¦¬ë įĶëĭĪ
ìĤ¬ íķĺëĬĶ
Ġë°¥ ìĿ´
Ġìĸ´ëĶĶë ¡ł
Ġëļľê»ĳ ìĿĦ
> ,
Ġì°¾ìķĦ ìĻĢ
ãĥ ¡
ĠíĮį íĮį
ê¸ ´ë
Ġ2 9
Ġê³± ê²Į
Ġì§Ģ ê°Ģ
íĳľ ê°Ģ
ëĭ¬ë Ŀ¼
Ĥĺ ê³ł
Ġìŀĺë Ŀ¼ë
íĶ¼ ì¸ł
Ġì¢ħ ë¥ĺë
Ġìĭ¤ ì»·
Ĥ ¨ìĿĦ
Ġëĭ¨ ìĸ´
ì§ģ íķĺê²Į
Ġ e
ì§Ģ ê°Ħ
Ġìĸ¼ ìĸ´ë¶Ļ
¥´ë Ħ¤
ĠìĪĺ ë¹Ī
ĠìĿ¼ë ĵ¤ìĿ´
° ĸ
Ġê°Ħ ìĿĺ
ì¿ł ìķĦ
ê±°ê°Ļ ìķĦìļĶ
ĠíĻķ ë¥ł
ìĹ¬ë Ŀ¼
íĻĶë ¬¸
Ġìľłë ıħ
é Ń
Ġìĭł ìĦ¸
Ġëį°ëł¤ ëĭ¤
Ġìĭ¶ ëĦ¤ìļĶ
íĺķ ìľ¼ë¡ľ
ê±°ë ¦°ëĭ¤
Ġìŀ¥ ìłĲ
ë¨¹ ì§¤
ìķŀ ìĹĲ
ĠìĹĨ ìĸ´ëıĦ
ìĥģ íĥľ
ĠìĶ¨ë °ľ
ìĦ± ìĹĲìĦľ
ĠêµŃ íļĮìĿĺ
ë ¿Įë
Ġì§ ¤
Ġíı ¼
ĠëĤ´ë ¦´
ĠëĦĪ ìĹĲê²Į
ĠìĦłìĥĿ ìĿ´
Ġíı¬ìĬ¤íĮħ ìĿĢ
Ġìłķ ì²´ë¥¼
¦¬ íĬ¸
ĠìĦł ìĸ¸
Ġê±´ ìĦ¤
ìĽĶ ìĿ´
ðŁ¤ Ķ
Ġê³µ ëŀµ
ì§Ĳ ìĿĦ
ìĺĪ ìĪł
ĠìĶ© ìĶ©
´Ĳ ìķ¼ì§Ģ
ĠíĪ¬ë ªħíķľ
æ ī
ĠëĤĺë īĺ
ĠíĿĶëĵ¤ ë©°
Ġê³Ħ ê¸ī
ë¶Ģ ëĬĶ
Ġ v
íĺĦ ìĭ¤
Ġì° ¼ëĭ¤
Ġì³ ¤
íĻ ĺë
Ġê³µ ê¸ī
Ġë¹Ħ ëĭ¨
êµ° ìĹĲ
Ġìĭľìŀĳ ëĲĺ
ĠìĿ´ ì§Ģ
Ġíŀĺ ìĿĢ
¦¬ìķĦ ìĿĺ
Ġì¼ Ħ
ìĪľ íŀĪ
Ġê±°ì§ĵë§Ĳ ìĿĦ
Ġëĵ¤ìĸ´ ìĻĢìĦľ
Ġì±ħ ìŀĦìĿĦ
Ġì¹´ íĨ¡
Ġìłķ ìĪĺ
ê±° ì£ł
Ġê²Ģ ìļ°ë
Ġë°Ģ íģ¬
°Ķë Ŀ¼
íĺ¹ íķľ
Ġë§Ĳ ìŀħëĭĪê¹Į
ìĸ´ë ĥĪëĭ¤
ĠìĹĦë §ĪëıĦ
Ġì£¼ìĿ¸ê³µ ìĿ´
A D
ĠìŀĲë £Į
Ġíı¬ ìĿ¸íĬ¸
ĠìķĦ ê¹Įë
Ġì¢ĭìķĦ íķĺê³ł
ĠìĿ´ìĸ´ ì¡Įëĭ¤
éģ ĵ
ì¤ĳ êµŃ
íĶ¼ ìķĦ
Ġì§ģ ìłĦ
ĠìĦŃ ìĦŃ
ë³´ ìĬµ
Ġì°į ìĿĦ
Ġëĸ¨ìĸ´ ì§Ī
Ġì§Ģê¸Īë ¶ĢíĦ°
ħ ¹
Ġê·¸ ìª½
ê¹ ĢìĿ´
Ġê²° íķ©
ĠìĪľ ìĪĺíķľ
ê¶ģ ìĿĦ
ĠìĿ´ íĬ
ì¶© ìłĦ
ĠìĿ´ ìĭľ
ĠìŀĳíĴĪ ìĿ´
ĠìĤ´ ìķĺëĭ¤
Ġëĭ¬ ìķĦëĤĺ
ìĦ¸ìł¤ ìĺĪ
ï ½
ìľ¡ìķĦ ê·¸ëŀ¨
êµ Ĳë¡ľ
Ġìĥģ íĥľë¥¼
ìĨĮë ¦¬ìĹĲ
Ġíĺķ íĥľë¡ľ
Ġë¶Īë ¦¬
ìľ¤ ìĿĢ
o g
Ġìĭ¤ë ł¥ìĿĦ
ê³¡ ìĿĦ
ĠëĤĺë¬´ë ¥¼
Ġìľ ¨
Ġì¡° ê°ľ
ĠëĳĲ ê°Ģì§Ģ
íĳ ľë¡ľ
Ġëĵ¤ ìľ¼ë©´
ĠëŃ Ķëį°
Ġê·¸ë¦¼ ìŀĲê°Ģ
Ġìĸ´ëłµ ê²Į
¹Ħ ìķĦ
ë§Įíģ¼ ìĿĢ
Ġëĵ¤ìĸ´ ìĺ¬
íļĮ ìĤ¬
ì§Ħ ìłķ
íĮĮ ìĿ´íĦ°
ëı Įë
Ġìĺ¤ë łĮì§Ģ
ê´Ģ ê³¼
ĠíĻĶ ìĿ´íĮħ
ì½Ķ ëĬĶ
sel ca
ĠëıĻ ìĺģìĥģ
íİ ł
Ġë¹¨ë Ŀ¼
ë ĥĲê³ł
Ġìĺ¬ë ¦´
íķĻ ê³¼
ìĦ¸ ìĿ´
Ġë§Ľ ë³¼
¸Įë ¡ľ
Ġìĺ· ìĿ´
ëĭ´ ìĿĢ
ĠëļĿ ëĶ±
ĠìĪĺíĻĶ ê¸°ë¥¼
Ġì¼Ģ ìĸ´
! ?
Ġì ¾ħ
¶Ħë ĵ¤ìĿĢ
Ġíĸĩ ìĤ´ìĿ´
ìĪĻ ìĿĺ
ĠìĿ´ ìłĦìĹĲ
Ġì¡° ì²ľë
Ġë¬» íĺĢ
Ġê°ĸ ì¶ĺ
ëĬ ĳ
ĠìłľíĴĪ ìĿ´
ĠëıĻ íĻĶ
ĠíĶĦë ¦¬
Ġìĺ¤ë Ŀ½
§Įíķľ ê³³
ĠëģĶì°į íķľ
m m
ê¾ ¹
ĠëĵľëŁ¬ë Ĥľ
a g
ìłķ ë¦¬
Ġì§Ħ ì§ľë¡ľ
ìĹĪ ëĭµëĭĪëĭ¤
ë² Įë
ìķĦ ê¹Į
Ġë¬¼ëŁ¬ ìĦľ
Ġìĭľê°Ħ ìĿĺ
Ġìľ¡ ì¦Ļ
Ġíĥģ ìĽĶ
Ġê³³ ìĿ´ìĹĪëĭ¤
ĠëĤ´ëł¤ ìĺ¨
ĠìķĪìłĦ íķľ
ìłĢë ¶Ħ
Ġë¹Ħíĸī ê¸°
Ġê°ľ ìĿ¸ìĿĺ
ìĹĦë §Īë
ìľĦ ìĻĢ
ĠìĿ¼ ìĿ¼ìĿ´
ĠíĽ Ħë¡ľ
Ġêµ³ ìĸ´
Ġìī¬ ìĹĪëĭ¤
ĠìŀĳíĴĪ ìĿĺ
ĠìĦłìĥĿ ìĿĢ
ĠìŀĪ ìľ¼ëĤĺ
Ġë§Ī ìķ½
Ġíķĺë įĺëį°
Ġë°ľìŀĲ êµŃ
!!!! !!!
Ġì¥Ĳ ìĸ´
° ĳ
O N
ê¸ Ķ
Ġë°ĳ ë°ĺì°¬
ess ert
Ġë§Ĳ ìķĦìļĶ
ĠìķĬ ìĨĮ
Ġë³ĳ ìĿ´
ìĿ¸ íĺķ
íĿĳ íĿĳ
ª¨ íĨł
ìķ¼ë ¥¼
ĠìĮĵ ìĿ¸
ĠìķĦë ŀĳ
ĠíĦ°ë Ŀ¼
Ġìĥģ ìŀĲ
ĠìĦ± ìĿ¸
ĠìłĢë §Īëĭ¤
Ġìĭ¬ íĶĮ
ðŁĴ ĵ
íĻĺ ìĿĦ
ìľ¼ë ł¤ë©´
ĠíĺĦìŀ¬ ìĿĺ
ì¿łë ¦¬ë
Ġìĭł ìĿĢ
Ġì²ľ ìŀ¬
ëĭ¬ ëĭ¬
Ġëª» íķĺë©´
ëĭ¤ë ĵ¤
íĺ¸ ìĹĲ
Ġíİ¸ íŀĪ
°¥ ìĥģ
Ġëª» íĸĪì§Ģë§Į
or e
Ġë¯¸ ìĹŃ
¦¼ íĶ½
íĸ¥ ìĿĺ
ðŁĳ ıðŁı»
Ġê¸°ìĸµ ìĹĲ
Ġê±´ì¡° íķľ
Ġëª¨ë¥´ ê²łìĬµëĭĪëĭ¤
Ġì¹¨ë¬µ ìĿ´
Ġìŀ¡ìķĦ ëĭ¹
ĠëŃ £
Ġë§¥ ì£¼ë¥¼
§Ī ìĿĺ
ĠìĿĺ íķ´ìĦľ
ãħľãħľ ãħľ
Ġì´Īë Ŀ¼
Ġíĺľ íĥĿ
¸Ķ ë§ģ
íķĺì§Ģ ìķĬ
ìķĮ ìĿ´
ĠíĦ° ì§Ī
ĠìľĦ ìĹĲëĬĶ
Ĥ´ë ¡ľ
Ġíķĺ ê¸°ëıĦ
Ġìª ¼ë
ĠëĳĲêº¼ ìļ´
Ġë§Įë Ĥ¬ëĭ¤
kor ean
ĠíĸīëıĻ ìĿ´
íĮ¨ë ĵľ
t u
ìŀ¥ ìĨĮ
Ġì£ ł
Ġë³´ë ¦¬
Ġê¸°ìĸµ íķĺê³ł
³´ë ł¤
ìĦ¼ íĬ¸
Ġìĭ £
Ġë³´ìĹ¬ ì¤Ģëĭ¤
ê·¸ëłĩ ì§Ģ
íĸĪëĭ¤ ë©´
Ġê°Ĳ ê¸°
Ġìĸ´ ìĿ´ê°Ģ
Ġìŀ¥ ê¸°
ĠíĭĢ ìĸ´ë
I N
íĮĮ ìļ°ë
Ġì¹¼ êµŃìĪĺ
ĠìķĶ ìĤ´
ĩ ´ë
ĠìĿ´ë Ŀ¼ê³ł
ĠìĿ¼ ìŀħëĭĪëĭ¤
Ġë¨¹ ë°©
Ġìº ¬
Ġìĵ°ëŁ¬ ì§Ħ
ìłĢë ¥¼
ìĹĲ ë¯¸
Ġë¶Ģë ¦ħ
it e
âĢ ĭ
Ġìĸ´ë¨¸ëĭĪ ìĻĢ
ĠìħĪ ìĿ´ìĹĪëĭ¤
Ĳĺ ëĬĶëį°
ëıĦ ìĹĲìĦľ
ì£¼ ì°¨
Ġíĸīë³µ íķ´
ì¹´ë ©Ķë
Ġì§Ī íĪ¬
Ġì¤Ģë¹Ħ ê°Ģ
Ġë³Ģë ªħ
Ġê±´ëĦ ¸ëĭ¤
ĠìĹ¬ìŀĲ ìĹĲê²Į
ãħłãħłãħłãħł ãħłãħł
ĠìĶ¨ ìĿĺ
Ġìĵ°ëŁ¬ ì¡Įëĭ¤
ê·¸ëŁ¬ë ©´
Ġë³´ ìķĪ
§Ī ê°Ģ
ì¹ĺë ©´ìĦľ
Ġê°Ģë įĺ
insta dog
Ġë¬¼ ìĿĢ
ĠìŀĲìĭłë ĵ¤ìĿ´
ìŀĲë ŀĳ
Ġê±¸ ì¹ľ
ĠìĹ¬ë ıĻìĥĿ
´Ĳ ìĦľ
ĠëĲĺìĹĪëĭ¤ ëĬĶ
Ġêµ¿ êµ¿
ĠëĮĢê¾¸ íĸĪëĭ¤
ëĭ¹ ìĿĢ
ĠìĹĦ ì§Ģ
s m
ì§Īë łĢëĭ¤
Ġë§¤ìĿ¼ë §¤ìĿ¼
» ĺ
Ġê°Ļ ìķĺìĸ´ìļĶ
Ġãħ¡ ãħ¡
es e
´ ĲëĿ¼
å ¼
íķ´ ìĺ¨
ĠìĦľë ĳĲë
³´ë Ŀ¼ê³ł
Ġìłķ ê¸°
0 3
ĠíĤ¤ ìĬ¤
ĠìĿ´ëłĩ ëĵ¯
ĠíĬ¸ë łĪ
ĠíĭĢë¦¼ ìĹĨìĿ´
ĠìĹ´ë ł¤
Ġë¹Ħ ì¶Ķ
¥´ë Ĥĺ
Ġìĺ¤ ê²Į
Ġì¶Ķ ìłģ
Ġì£¼ ìĽĮ
å Į
Ġëª¸ë ļ±
Ġë¶Ģ ìĸ´
ì°® ìĿĢ
Ġíŀĺëĵ¤ ëĭ¤
Ġì³Ĳë ĵ¤ìĸ´
ì§Ģ ëĭ¤
ë§Ī ìĬ¤íģ¬íĮ©
ê³µ ê°Ħ
ĠìĿ´ ìĻķ
Ġë¶Īë §Į
Ġë¨¹ìĸ´ë ³´
ë°ľ ìĿ´
Ġíķĺ ê¸°ë¡ľ
Ġëĭ¨ íİ¸
ĠíĮĮ ìĽĮ
íĶĦë ŀĳ
Ġìĸ» ìĸ´ë
ëĨ Ģ
ê·ĢìĹ¬ ìļ´
ĠëĲł ì§Ģ
ìħ Ī
Ġìĭ¶ ê³ł
Ġë§Ĳë ģĶ
Ġë°¥ ë¨¹
ìĿ´ë ĵľë
Ġìŀĳ ìĹħìĿĦ
Ġì¤ĳ ìĹĲëĬĶ
Ġë¯¸ë ŀĺë¥¼
ìķħ ìĿĺ
ê²Ģ ìĿĢ
ĠìłĢë Ł¬
ĠìĤ¬ìĭ¤ ìĿ´ìĹĪëĭ¤
Ġìļ ±
²Ħ ìĬ¤
íĪ °
ì²ł ìĿĺ
ì²Ļ ìĿ´
çĦ ¡
ĠëĤłë ł¤
Ġê·¸ìłľ ìĦľìķ¼
Ġë¯¸ êµŃìĿĺ
Ġìĸ¼ë £©
ĠìĿ´ë ¦ĦëıĦ
ĠëıĮ ê³ł
ë¶Ħ ìĿĦ
Ġê³³ ìĿ´ëĭ¤
ĠëģĿ ìľ¼ë¡ľ
Ġìłķë§Ĳ ìĿ´ì§Ģ
ê¿ Ģë§Ľ
Ġê¿ĩ ê³ł
ľ °
ìĬ Ĳ
ìĿ¸ ì§Ģë¥¼
ĠëĬĲëĤ ĮëıĦ
ĠìķĮ ìķĦìļĶ
Ġëĭ¬ëł¤ë ĵ¤ìĹĪëĭ¤
Ġë©¸ë §Ŀ
Ġê°Ĳëıħ ìĿ´
Ġí ĵ¨
ìłĢ ê°Ģ
Ġëª¨ë¥¸ ëĭ¤ê³ł
ĠíĿ¬ë§Ŀ ìĿĦ
è ª
Ġê³µ íĹĪ
ĠíķĻ ìĬµ
ł¨ ìĿĢ
Ġìĸ¸ìłľë ¶ĢíĦ°
.. )
ì¡Į ëĭ¤ê³ł
íĺķ ëĭĺ
d essert
Ġë¶Ģë ģĦëŁ½
ìĺ¨ ìĿĺ
Ġëªħ ìĿ´ëĤĺ
Ġìĺ¤ë¥¸ ìª½ìľ¼ë¡ľ
Ġìłľ ì¡°
ĠëĸłëĤĺ ì§Ģ
ĠíĦ¸ ìį©
Ġë³´ ëĬĶëį°
ĠíĮĮ ìĿ¸
ĠíĻķìĿ¸ íķľ
Ġë§Įëĵł ëĭ¤
ê±´ ìĿ´
ìĹĲ ìĸ´
Ġëĵ± ìľ¼ë¡ľ
ĠíĿĲë Ńĩ
ĠìĿ¼ìľ¼ íĤ¨
ĠìĿ´ëģ ĦëĬĶ
ë ¯¿
ĠìĿ¼ë °©
ĠëĬĺ ìĸ´ëĨĵ
ou r
Ġë¶ĦìľĦ ê¸°ëĬĶ
Ġì£½ ìĿ´ëĬĶ
ì´Ī ê°Ģ
Ġê°ĢëĤľ íķľ
ĠìĨ Ķë
ĠëĮĢ ìĥģìĿ´
ìĦ¸ë ĮĢ
Ġìĵ¸ ìĸ´
ĠìķĦë ĤĻ
ĠìľłìĿ¼ íķĺê²Į
s n
ĠìľĦ ìĥĿ
ìķĦìłĢ ìĶ¨
ĠíķĺëĤĺ ìĿ¸
ĠëĤł ìĿĦ
E D
ìľ¼ ìĭľë©´
Ġì¡° ìŀĳ
ëĭ¨ ì§Ģ
Ġìļ¸ë ¦¬ëĬĶ
Ġì¹ľêµ¬ë ŀĳ
ìĹĺ ìĿĢ
ëĨ Ģë
ë¸Įë Ŀ¼
Ġê¸°ëĮĢ ê°Ģ
ê³ł ëĵ±
ĠìŀĲ ê²©
Ġë°© íķ´
Ġë¶Ħ íĻį
Ġë³´ìĹ¬ ìĦľ
ĠëģĮìĸ´ ëĭ¹
íķĺ êµ¬ëĤĺ
ìĭľê°Ħ ìĿĦ
ìŀ Ķë
ðŁĺ ļ
Ġì£¼ ì¶¤
ìĦłíĮĶ ë§ŀíĮĶ
Ġê±´ê°ķ íķĺê²Į
íķĻ ìłģ
ðŁ¤ ©
ëĲĲ ëĭ¤
ĠìłĲ ìĿ´ëĭ¤
ìĽĮ ìĭľ
ĠëĦĪ ìĻĢ
ëĭ¬ë Ŀ¼ëĬĶ
ìłĦ ì§ĳ
Ġê³µ ìĤ¬
ĠíĨµ íķľ
ĠìķĦìĿ´ë ĵ¤ìĹĲê²Į
ŁŃ ìĭľ
ìī¬ë ©°
íİ Ħ
Ġê±°ë ¦¬ëĬĶ
Ġë²ĦíĬ¼ ìĿĦ
ī ìĿĢ
ìļ §
Ġê±¸ë ¦¬ëĬĶ
Ġê¸Ģ ìĵ°
ìĪĺ ê¸¸
Ĳĺ ê¸°
ìĪĺ ìĹĲê²Į
ĠíĿł ì¹«
ëħ ĦëıĦ
ĠëĦĺë Ħĺ
¦¬ë ĵ¯
ì²Ń ìłķ
ĠíĻĺ íķľ
ì¹ĺë ĵ¯
Ġë´Ħ ìĿ´
íĹ¬ ìĬ¤
ìĿ¸ ì²ľ
Ġì§Ģ íĤ¤ë
Ġê±° ëĭĪê¹Į
Ġ3 5
Ġíķľ ìĥģ
ì°© íķľ
ì²´ë ıĦ
ģĿ ìĿĦ
ê² ĢìĿ´
ĠëıĪ ìĿĢ
ëĤ ¨ëıĻ
Ġìĸ¼ íķı
Ġìĭ¸ ìĽĢìĿ´
Ġìĵ¸ëį° ìĹĨëĬĶ
Ġë¨¹ ìŀĲ
Ġìĸĺ ê¸°ëĬĶ
ëĳĲë ¶Ģ
ìĿ´ë ł¤
¦¬ëıĦ ë¡Ŀ
ĠëıĻ íĸī
ĠíĨł íķĳ
£¨ë ¡ľ
ê²Ł ëĭ¤
ĠìĤ´ ìĿĦ
ì° Ĳ
ĠíĨµ ìłľ
Ġìª½ ìĿ´
ìĤ°ë §Ľì§ĳ
² Īë
íĮ ģ
ì§ĳ ìĿĺ
Ġìĺ¬ëĿ¼ ìĺ¨
Ġìĸ´ëĶĺ ê°Ģ
ĠëĮĢ ê°Ģ
ìĦ¸ ìĹ¬
ìĬ¹ ìĿ´
ê·Ģ íķľ
¢ °ë
Ġê±°ëĬĲë ¦¬ê³ł
ìĤ¬ ê³ł
êµŃ ìľ¼ë¡ľ
£¨ ë§Į
ĠìŀĲë ¶Ģ
Ġì£¼ë ¬´
ìĥī ìĿĢ
ìĬ¤ ì¹´
ìĤ¬ íķŃ
íĤ ¬ë¡ľ
Ġìłģ ìłĪ
ĠëģĿ ëĤĺëĬĶ
ëĭ Īëįĺ
Ġìĸ´ëĶĶë¡ł ê°Ģ
ĠìĤ¬ë ¶Ģ
ĠìĺģíĻĶ ìĹĲ
ãħĩ ãħĩ
Ġê°Ģ ìķ¼ì§Ģ
ĠëĳĲ ê·¼
ê°ķ ìĿ´
Ġì¢Į ìļ°
ĠìŀĲìľłë ¡Ńê²Į
ìłĬ ì¤Įë§Ī
ìĭľ ê³Ħ
ĠìļĶë ıĻ
ĠìķĬ ìľ¼ëł¤ê³ł
³´ ëĭ¤ê°Ģ
Ġìĭľ ê°Ģ
Ġë§Ī ìĤ¬
Ġê°Ģë ł¤ê³ł
ìĺĢëĭ¤ ê³ł
ëħĦ ê°Ħ
ìĹ´ ìĿ´
Ġìĭ¤ íĸī
ëıĦ ê·¸
Ġì§Ģë ¦¬
Ġìĺ¤ íĨłë
Ġëª¨ë¥´ ê²łìĸ´ìļĶ
Ĥ ¬ë
ìŀħ ëĭĪëĭ¹
ìĭľ ìłĪ
íĺ ¸ë¡ľ
Ĳĺ ìĦľ
ĠìĿ´ìļ© íķ´ìĦľ
ĠëŃĲë ĵł
ëįĶ êµ°ìļĶ
Ġê°Ĳ ìĿĢ
ĠëĴ¤ ìĹĲëĬĶ
Ġê¾¸ë ©°
ĠìĪĺ ìĹĨìĿ´
ĠìĦ±ë¶Ħ ìĿ´
ĠìķĦë ¦¬
Ġë¿Ĳ ìŀħëĭĪëĭ¤
Ġê³łë ¥´
ĠíĺĦ ì§Ģ
ì¦ ĪëıĦ
ĠìŀĪìĿĦ ì§ĢëıĦ
ĠíĮĲ íĥĢ
ìĤ¬ ìļ©
ìĪĺ ìļķ
ĠíĥĢ ìŀĦ
Ġì°Įíĳ¸ë ł¸ëĭ¤
ç Ł
Ġë³´ìĹ¬ ì¤Ģ
Ġìļ´ë ªħìĿĦ
Ĥ´ ìĦľ
ì¤ ¬ëĭ¤
ĠìłĦ íĺķ
ĠìĿĮ ìĦ±ìĿ´
ĠíĽĳ ìĸ´ë
ì§Ī ìĿĺ
ĠìĹ´ íĿĺ
ĠìĦľìļ¸ ìĹĲìĦľ
ìķ½ ìĿ´
ë§ŀ ì¶¤
ĠìħĢ íĶĦ
Ġëĭ¹ëĭ¹ íķĺê²Į
Ġë°° ìĹĲ
ìĦ¤ ë§Ī
ĠìķĦìłĢ ìĶ¨ëĬĶ
Ġë¶Ģ ìĥģ
ìłł ìŀ¥
Ġê³ģ ìľ¼ë¡ľ
ĠìĽħ íģ¬ë
íķĺ ìĭŃìĭľìĺ¤
Ġë³´ê³ł ë¥¼
it y
ìķ¼ ìĿĺ
ĠíĮĶ ê³ł
- ^
Ġìĺ µ
Ġê·¸ëŁ¬ë ©´ìĦľëıĦ
Ģë¦¬ ì§Ģ
ë¡ľ ëĬĶ
íķľíħĮë ıĦ
Ġê°Ģ ëĭ¤ëĵ¬
ĠëĴ·ëª¨ ìĬµìĿĦ
ìķĦ íĮĮ
¦° ìĿĦ
Ġë¹ł ì§ĢëĬĶ
ìº ¬
ĠíĮĮë ¦¬
Ġê°Ħ ì§ģ
êµ¬ ìłķ
dog s
ĠíĺĦìĭ¤ ìĿĺ
ĠëıĦë įķ
Ġêµ¬ìĦ± ëĲĺìĸ´
Ġë»Ķ íķľ
Ġê°ģ ìŀĲìĿĺ
ĠíħĮ ìĬ¤íĬ¸
ĠíĮ¨ ìĬ¤
Ġë°Ķíĥķ ìľ¼ë¡ľ
³´ë ¡ľ
§Ĳ ìĿĦ
Ġê²°ê³¼ ê°Ģ
Ĥĺ ìĻĢ
ĠìŀĲë ¦¬ë¡ľ
ĠìĿ´ ê²¨ë
Ġê°Ĳ ìĦ±
¥´ë ¥¼
ê²Į íĭ°
Ġë¨¸ë ¦¬ëĬĶ
§ŀ ìĿĢ
ĠìĪĺ ì²ľ
íķ´ì£¼ ìĭł
ĠìĿ´ê³³ ìľ¼ë¡ľ
íķĻ ìĿĺ
Ġìĺģ ê°Ĳ
ıĮ ìķĺëĭ¤
ĠìŀĲìłĦ ê±°
ìĹ¬ë Ł¬ë
ĠìĤ´ íķ´
ê³µ ìľł
Ġë¶ĦìľĦ ê¸°ëıĦ
Ġê°ĢëĬĺ ê²Į
ê³³ ìĹĲ
ì°½ ìĿ´
ìļ°ë ©´ìĦľ
ëĤľ ëĭ¤
Ġë¶Ģë¶Ħ ìĹĲ
ĠìĿ´ë¥´ë Ł¬
Ġìĥģ ëĭ´
ì¡° íķ©
Ł¬ë ¦¬
Ġìĵ ±
Ġë§Īë ¦¬ìĿĺ
Ġê³ł ê¹ĥ
ìĿ´ëĤĺ ë§Ī
Ġìĭ¬ ìłķ
ìĤ¬ë ĵ¤ìĿĦ
ĠíĶĦë Ŀ¼
Ġíİĺ ìĿ´ì§Ģ
Ġê·¸ ì¹ĺë§Į
ìĽĮ ì¡Įëĭ¤
Ġë²ķ ìĿĦ
ë ´ĲìļĶ
ìĿ´ ìĹĲê²Į
Ġê¶ģê¸Ī íķ´ìĦľ
ĠìķĬìķĺëĭ¤ ëĬĶ
Ġìŀ¬ ìĪĺ
Ġë¶Ģ íĻľ
Ġë°ĺ ìĦ±
Ġì¤Ģë¹Ħ íķľ
ĠìĿ´ëŁ¬ ê³ł
ĠíĽĦ ìŀĳ
ĠìĿ´ìĥģ ìĿ´
Ġê±¸ë ł¸ëĭ¤
ê²© ìĹĲ
ê²ł ëĭ¤ë©°
ĠëıĪ ìľ¼ë¡ľ
ĠìĹ´ë ĳĲ
ëĥ Ħ
Ġëĸ¨ìĸ´ ì§Ģì§Ģ
m i
ĠìĦľìļ¸ ìĹĲ
ĠìĦ± íģ¼
Ġíģ° ìĿ¼
E S
ĠëĲĺ ëĬĶëį°ìļĶ
Ġìŀħ ìŀ¥ìĹĲìĦľ
Ġì« Į
Ĳ ¬
ľ ¨ë¦¬
ĠìķĬìĿĢ ëį°
ìļĶë¦¬ ìĬ¤íĥĢê·¸ëŀ¨
ë²Į ìį¨
ĠìĿ´ë ¥¸ë
Ġìĸ´ë¥¸ ìĿ´
Ġì§Ħ ìĭ¤ìĿĦ
Ġê°Ģ ì§ĢëĬĶ
ĠëıĮìķĦ ê°Ħ
ĠìĸĳëħĲ ìĿ´
Ġíĥķ ìĪĺìľ¡
ĠìĹĨ ì£ł
Ġì²ĺë °ķ
ĠìĻķ ìŀĲ
b b
ĠìĪĺ ìłľë
ĠìĿ´ìĥģ ìľ¼ë¡ľ
ĠìŀĲ ì²´ë¥¼
Ġëª¨ë °ľ
ìľł ëĬĶ
íı¬ ìŀ¥
Ġê°ľë ³Ħ
ĠìľĦì¹ĺ íķ´
ìĨĮë ¦¬ë¡ľ
ëĬ ł
ĠëĲĺ ìĹĪëįĺ
Ġë°ķ ìĬ¤
ĠëĲĺìĹĪëĭ¤ ê³ł
Ġìĺ¤ëŀľ ë§Į
ìŀĲë Ŀ¼ëĬĶ
ĠìķĮìķĦë ³¼
Ġìŀ¬ë°Į ê²Į
ĠíĢ ĺ
Ġë¶Īê°ĢëĬ¥ íķľ
Ġì²´ë ł¥
Ġíļį ëĵĿ
Ġíĸ Ħ
ĠëĤĺë ¹ł
Ġëĥ Ī
ĠìĿµ íŀĪ
Ġíį¼ ìł¸
ë§Īë ķħ
Ġê±±ìłķ ìĿĦ
Ġíĺ Īë
ĠìĿ¼íĸī ìĿ´
Ġê¿°ë ļ«
íĻ Ģë
ĠëĤ´ ìĹĲ
ĠëģĬ ìĸ´
íĴĢ ìĸ´
Ġìłľê³µ ë°ĽìķĦ
ĠìĹŃìĤ¬ ìłģ
ê·¸ëŀ ĺë
ĥī ë©´
Ġìĺ¤ íģ¬ë
íķĺë ¡ľ
Łī ìĿĦ
ðŁĻ Ĩ
ĠëĽ° ì³ĲëĤĺ
ìĽ ĢëıĦ
ê³ ĦëıĦ
ìĨĲ ê°ĢëĿ½
at ion
ĠëĤĺ ìĻĶë
íļĮë ¡ľ
ìķ¼ ê²łëĭ¤
Ġìŀĳ ê°Ģê°Ģ
Ġë°ĶëĢ Ĳ
Ġëĵľ ìħĶë
ĠìķĮëł¤ ì£¼
ĠìĻ¸ ì¹¨
ĠëĮ Ķëĭ¤
íĻĶìĿ´íĬ¸ íı¬ë©Ķ
ê°ķ íķľ
Ġê±°ë ĮĢ
Ġìĺ¤ íģ¬
Ġëª¨ ê³µ
ìłľ íķľ
Ġíķ´ë ³´ê³ł
Ġë³´ ìĦĿ
Ġíĺķ ìłľë
Ġê²ĥ ëĵ¤ìĿĢ
ĠìĿ´ë Ŀ¼
Ġì§Ħì§Ģ íķĺê²Į
ĠëĤ´ë įĺ
°ķ ìĿ´
íĮ© íĬ¸
B S
Ġëªħ ëıĻ
ĠìŀĪìĹĪ ì§Ģ
² ¨ë
ìĿ´ë ¦¬ëĿ¼
Ġìĥģ ìĺģ
Ġê°ķ ëĮĢ
ĠëĿ¼ë ©ĺ
ìķĮ ê³ł
at ch
Ġìłķì¹ĺ ìłģ
ĠìŀĪ ê²łìĬµëĭĪê¹Į
ìĨĮë ıĦ
ìĽĲë ĵ¤
ìķĦë ©Ķë¦¬ì¹´ëħ¸
ê·ľ ê°Ģ
ĠìĪľ ìĪľíŀĪ
ĠìĿ´ ê±°ë
ì§Ģë Ł¬
ëĤł ìĶ¨
ĠìĤ°ë §¥
ĠìĿ´ëŀĺ ìĦľ
ê³°ëıĮìĿ´ ì»·
Ġìłķë©´ ìľ¼ë¡ľ
ĠíħĮìĿ´ë¸Ķ ìĹĲ
ĠìĹĺ íĶĦ
k at
ĠìŀĪ êµ¬ëĤĺ
Ł¬ ìī¬
Ġê±° ê³ł
ĠìĤ´ ê²Į
ĠìķĪ ìĵ°ë
Ġíķĺë £¨ë
Įģ ìĿĢ
ê¸°ë ĮĢ
Ġì¤ ĦëıĦ
ĠìĤ´ë ©´ìĦľ
ì£¼ìĿĺ ìĿĺ
6 5
ì§Ī ìĹĲ
Ġë¶Ģíĥģ ìĿĦ
ĠìħĢ íĶ¼
ĠìĨĮë Ĥĺë¬´
Ġíŀĺ ê²¹ê²Į
Ġíĸīë³µ ìĿĦ
ĠìĭľìĦł ìľ¼ë¡ľ
Ġìĺ¤ë ¸Į
Ġì²ľ íķĺ
Ġëħ¸ ìĿĦ
ìĽĲë ŀĺ
ìĿ´ ì¦Ī
ê¹ į
ìĿ´ë ¦Ħ
Ġìŀĺ ìĸ´ìļ¸ë
ĠìłĢë ŀĳ
íĹ Ľ
ĠìĨį ëĪĪìį¹
ĠìĤ¬ ìĿ´ê°Ģ
´ī ìĿ´
ĠìĽĲëŀĺ ëĬĶ
ëŃĲ ê°Ģ
Ġê·¸ë ¦½
Ġë¯¸ë Ħ¤ë
Ġê°Ģ ì§Ģë¥¼
Ġë ¡±
ĠíĬ¹ ìłķ
ĠìķĦìĿ´ë ĵ¤ëıĦ
Ġëª¨ ê¸Ī
Ġëĥ Ħë
Ġìľł íĨµ
Ġì¢ħ íķ©
ë°ĺ ì§Ŀ
íķĺ ìĺµëĭĪëĭ¤
0 9
ìĿĮìĭĿ ìĬ¤íĥĢê·¸ëŀ¨
Ġëħ¼ ìĿĺ
Ġì»¤ë ²Ħë
ĠëģĿ ìĹĨìĿ´
Ġê¹¨ëģĹ ìĿ´
ìĿ´ìľł ìĭĿ
ĠëĮĢ ìĽĲ
ðŁĻ ıðŁı»
ìĸ´ì£¼ ìĹĪëĭ¤
íĮĮë ¦¬
ĠìĦŀ ìĸ´
Ġìĥģê´Ģ ìĹĨìĿ´
ĠìĻķ ìĿĺ
Ġê°Ŀ ê´Ģ
Ġë§Ĳ ì²ĺëŁ¼
ëĤĺ ë©´
Ġê¸°ë ıħ
Ġì¶ ľëıĻ
Ġë²Ħ íħ
ðŁĶ ¥
Ġìħĭ ì§¸
ëĤĺ ë¥¼
ĠíĦ¸ ìĸ´ëĨĵ
Ġë°ĺìĿĳ ìĿ´
ĠìĿ´ëĶ° ê¸Ī
Ġë°ķ íŀĮ
ì½Ķë ĵľ
Ġê·¸ë ķĮë¶ĢíĦ°
ĠëĲĺë Ĥĺ
ìŀĲ ìĭĿ
ìĦ± ìŀ¥
Ġìĭľìŀĳ íķł
ìĿ´ìĹĪ ê¸°
ê³ł ìĿĺ
ìĤ¬ìĿ´ ì¦Ī
Ġì§Ģ ìłĲ
ðŁĺ ±
Ġê²°íĺ¼ ìĭĿ
Ġì¹ĺì¦Ī ê°Ģ
Ġê¸° ìĬµ
Ġëª¨ë °Ķ
ĠíĻĶ ìĤ´ìĿĦ
ab le
ĠêµŃëĤ´ ìĤ°
į ĺë
Ġë§Į ëĭ¤
Ġ4 5
ĠíĮĶ ì§±
Ġíĥľ ëıĦë¥¼
Ġëĵ¤ë ¦°
ĠìĹ´ë ¦¬ëĬĶ
Ġê°Ģ ëĬĶëį°
¨¹ ìĹĪëĭ¤
Ġê°Ļ ìľ¼ë©´
ìĽĢ ìĿĺ
Ĳĺ ìĹĪ
Ġë¶Ī ì¾Į
ĠëĤĺë¨¸ ì§ĢëĬĶ
Ġ> _<
Ġê·¸ë łĪ
ĠëĤł ëıĦ
Ġìķ¼ ì±Ħë
ì¶Ķ ìĸµ
ê¸ī íķľ
ĠíĻį ë³´
² Ļ
Ġë¨¹ ëįĺ
Ġìłľ ìŀĦ
¬¼ ê³¼
Ġì£½ ìĸ´ëıĦ
ðŁĮ ¿
b re
ë§ ¨ë
ìľ¼ë¡ľ ìĦľëĬĶ
Ġê°ľ ìŀħ
Ġê³ł ìĨį
Ġë°° ìļ°ê³ł
ìĹ¬ë ³´
ìĺĢë Ĥĺ
íĢ ´ë
Ġë§ŀ ìĦľ
âĢ¦âĢ¦. ãĢį
Ġê°ģ ê¸°
ë° Ģë
ĠìĤ° ìĹħ
ĠëĬĲê»´ ì§Ģì§Ģ
Ġê¸ ĢìĿ´
Ġì¡°ìĭ¬ ìĬ¤ëłĪ
Ġë¶Ģì§ĢëŁ° íŀĪ
ĠìĨĮ ìŀ¬
ê·¸ ê±°
ì§Ģ ëĬĶëį°
¦¬ë Ħ¤
Ġì¢ĭìķĦ íķĺ
°¤ ìĹĲ
Ġìĸ´ìĥī íķľ
Ġê²Ģ ìĤ¬
Ġ ****
ì² ¨ë
ł¤ë ¥¼
Ġë³´ ê¸°ë§Į
ĠìĿ´íĬ ¿ëĤł
ĠëĶ°ë ¥´ë©´
Ġìķł êµŃ
ĠìĪĺ ìĭľë¡ľ
Ġë°ĺ ìĿĢ
ãħĭãħĭãħĭãħĭãħĭãħĭãħĭãħĭ ãħĭãħĭãħĭãħĭ
¤ ì¼Ģ
ĠìĨĮ ê³ł
Ġê°Ģ ì¹ĺë¥¼
Ġëĵ¤ ìĹ¬ë
Ġì°½ ë¬¸ìĿĦ
ìĤ¼ ì´Į
Ġë©Ī ì·Ħëĭ¤
Ġë§ĳ ê³ł
ĠìķĪ ì¢ĭìķĦ
ìłĦ ìŀĲ
Ġëĵ¤ ìĹĪìĿĦ
Ġíı¬ íĨł
Ġë¸Įë ŀľë
ĠìĿ¸ ìļ©
Ġë§¤ ëĭĪ
Ġê°ĪìķĦ ìŀħ
ëŃĲë Ŀ¼ê³ł
Ġì½ °
Ġì¶Ķ ê²©
Ġëĭ´ ìĹĲ
ê±´ë ĮĢ
ĠìĿ´ìģĺ ê²Į
ĠíĴįë¶Ģ íķľ
ĠìłĦ ìŀĲë
Ġê¸Īë°© ìĿ´ëĿ¼ëıĦ
ĠìĹ ł
Ġë¹Ħë° ĢìĿĦ
ĠíĨł íķ´ë
ëª¨ë ĵł
ĠíĬ¸ìľĦ íĦ°
Ġë°ķ ìłķ
Ġìī¬ ì§Ģ
ĠìĥĿê°ģ íķ´ìĦľ
íķĺ ìĺĢê³ł
Ġë³´ë ŀĮ
Ġëĵ± ìĿĢ
ìĿ´ìķ¼ ê¸°
Ġê²ģ ìĿ´
Ġìľ¡ ì²´
ëķ Ĳ
ĠíĻ© ìłľê°Ģ
Ġê¸°ëĬ¥ ìĿĦ
Ġëĸ¨ë ©°
Ġì°¢ ìĸ´
ĠëĪĪëıĻ ìŀĲê°Ģ
ìĤ¬ë ¬´
ĠëĲľìŀ¥ ì°Įê°ľ
Ġê³µ ë¶Ģë
P G
ĠëĪĦ ìĽĮìĦľ
Ġë§ĮëĤĺ ì§Ģ
ìŀł ìĿĦ
Ġìĭ¶ ì§Ģë§Į
Ġë²Ĺ ê²¨
° ľë¡ľ
ĠìķĦëĭ ´
ìĸĳ ìĿĢ
Ġì» ¸ëĭ¤
ĠìĿĺë ¬¸
ĠìĹĲëĦĪ ì§Ģ
Ń ī
ĠìĹĨ ëĦ¤ìļĶ
ĠìĤ¼ ê²¹
Ġíķ© ë¥ĺ
ĠìķĦ ê¸°ë¥¼
ĠìĹĨ ìĹĪìĿĦ
íĮ ¸
Ġìŀħ íķĻ
íŀĺ ìĿĦ
Ġê±° ëĭĪ
ãĥ Ŀ
Ġê±´ ì¶ķ
Ġíģ¬ ê¸°ê°Ģ
Ġë²ķ ìĿ´
ĠìŀħìĪł ìĹĲ
ìĬ¤ë©Ķ íĭ±
ì¤ĳ ìĹĲìĦľ
ĠëĲľ ëĭµëĭĪëĭ¤
ĠëĪĦêµ° ê°ĢìĿĺ
Ġë ¸Į
ê°Ħ ìŀ¥
Ġìĺ¬ëĿ¼ ìĻĢ
Ġê´ĳ ê²½ìĿĦ
Ġìŀħë§Ľ ìĿĦ
Ġëĭ¤ë ĵ¬
Ġì¹ľ íķľ
ĠëĤĺìĦľ ìķ¼
l u
ê° ¤ë
ë°ķ ìĬ¤
Ġê¸°ë³¸ ìłģìĿ¸
ĠëĽ°ìĸ´ë Ħĺ
Ġì§Ģê²½ ìĿ´ìĹĪëĭ¤
Ġíķĺ ëĭ¤ëĭĪ
Ġê±°ë ¦¬ìĹĲ
ĠëĽ °ë
ĠìķĦ ê¸°ë
Ġìŀ¥ ë¬¸
Ġìĭł ì¤ĳ
ĠìŀĲë ª½
ëĭĪë ŀĳ
ĠìĿĺë ħ¼
Ł ¼ë
Ġë³´ ìĿ´ë©°
Ġìķħ ë¬¼
Ġìĸ´ê¹¨ ê°Ģ
Ĥ´ ê°Ģ
Ġê²° ê³¼ëĬĶ
Ġê³ģ ìĹĲìĦľ
Ġíŀĺ ì°¨ê²Į
ìĿ´ë ĥĲê³ł
ĠìĿ´ë ¤Ħ
ĠìĽ ¹
ĠíĮĮ ê´´ë
Ġìĸ¼ íģ°
ĠìĭŃ ìĹ¬
ĠìĬ¤íĭ° ì»¤
ê°Ģ ìĻĢ
ĠëĮĢ ì¡°
ìĿ´ë ıĻ
Ġê³µ ìŀ¥
ë¸Ķë £¨ë
į® ë°¥
Ġì°į ëĬĶ
Ġê²¨ ìļ¸ë
ê·¸ë Ĥĺ
Ġìľł ìķĦ
ëıĦ ìĻĢ
°± ìĿ´
ä¸ ī
ë§ŀíĮĶ íķ´ìļĶ
ĠëĮĵ ê¸Ģ
ĠìĿĺ ìĽĲ
Ġëªħ íĻķ
¦¼ ìĹĲ
ĠìĻ¸ ìĹĲëĬĶ
ĠìĺģíĻĶë ¡ľ
ĠìĪĺ ë°ķ
ìĽĲ ìĪŃ
ê±°ë ł¤
íĮĲ ìľ¼ë¡ľ
eat clean
ìĬĲë ŀŃ
ê·¸ ëĬĶ
Ġëĭ¥ íĦ°
Ġë²Ħíĭ° ê³ł
ìĿ´ë ¹Ħë
ìŀ¥ êµŃ
ĠëĳĲ ê»ĺ
Ġë§Īë ıĦ
ë ĨĪ
Ġìĭ ¼
Ġìĺ¤ ìħ¨
Ġìĭľ ê³Ħë¥¼
ìĬ¤ë ĥħ
Ġë°ĺ íķŃ
Ġì§Ħì§Ģ íķľ
ĠíĿ łë
Ġìĥī ìĿ´
Ġìĸ´ëłµ ëĭ¤
ìĦ ŀ
ĠìķĮ ê²Įë
ìļ¸ ìĤ°
íĶ¼ë¶Ģ ê´Ģë¦¬
ëĤ´ ëĬĶ
ĠëĸłëĤĺ ê³ł
ĠìºĦ ìºĦ
ĠëĲĺ ìļĶ
ĠëĤł ë§Īëĭ¤
Ġì°¾ìķĦë ³¼
ìĿĢ ìĿĢ
ĠíĿ¬ë¯¸ íķľ
ìķĦ ìĿ´ê°Ģ
Ġìĥ ĮëĵľìľĦì¹ĺ
Ġë§Ī ìħĶë
ê·¸ ëĭĪ
ê·Ģ ê°Ģ
Ġìĭ¤ë ł¥ìĿ´
ĠëĴ¤ë Ķ°ëĿ¼
Ġíķĺ ëĬĲ
ìĿ¸ë ĵ¤ìĹĲê²Į
ĠëķĮ ìĻĢ
ĠëĬĲëĤĮ ìľ¼ë¡ľ
ìĭł ìĥĿ
íķł ê²Į
ìĦł íģ¬ë¦¼
ĠíĮĮë Ŀ¼
Ġëµ Ī
ĠìĿ´ë¥¸ë °Ķ
Ġíķ´ë ³¸
Ġìĭ« ìĸ´ìĦľ
ig ht
Ġë¯¸ ì¹ł
Ġìĭłë ¶Ģ
Ġìĭ¸ ìĦľ
p om
Ġë¬¸ ìĿĺ
ĠìĦłìĥĿ ëĭĺìĿĺ
Ġê¹ľë °ķ
ĠìĥĿ ê²¨ìĦľ
ìľł íķľ
ĠìĻķ ìĿĢ
Ġìĺ¤ ìĭŃ
Ġìŀħ ìĽĲ
Ġë¬¸ ìŀ¥
Ġë§Ĳ íķĺë©°
ìĨĮë ¦¬ëĬĶ
ĠíķľêµŃ ìĹĲìĦľ
ðŁĲ ¶
ĠìıŁìķĦ ì§ĢëĬĶ
Ġëħ¸ë ł¥ìĿĦ
²ł íģĲ
Ġëª¨ ì²ĺëŁ¼
Ġìķŀ ìĦ¸
Ġëª» ë§Īëķħ
ĠìĨĮë¦¬ ìķ¼
ĠìŀĲëĦ¤ ëĬĶ
ë§Ī ìĿĮ
ì¶ķ íķĺ
Ġíķľíİ¸ ìľ¼ë¡ľëĬĶ
Ġíį¼ë ¶Ģ
íİĺ ìĿ¸
Ġë§ī íŀĮ
ĠëģĮìĸ´ ìĺ¬ë
ĠëıĦì°© íĸĪëĭ¤
ìĦľ ë°©
íķ´ë ³´ê³ł
Ġíŀĺëĵ¤ ìĹĪëĭ¤
ĠëĮĢ ì²´ë¡ľ
Ġì£¼ ìĿ¸ìĿĢ
Ġìĭł ìĿĦ
Ġëĭ¨ ìłķ
ĠìłĢ ìĻĢ
ĠS NS
ĠëĲĺ ì§Ģë§Į
íı ´ë¡ľ
ĠìĹ´ë ł¸ëĭ¤
ë¬´ ìĹĩ
Ġì§Īë ¦°
Ġì¹ĺë ªħ
Ġìķ¼ë¬´ ì§Ģê²Į
ê±°ë ¦´
sta r
ĠíĢ ´
ĠìłĦíĻĶë²Ī íĺ¸
Ġê¸° ìģľ
ĠëĲĺ ìĸ´ë²Ħë
Ġë§Į ìĦ¸
ëĭĪ ìĻĢ
Ŀ¼ë ³´
ì¡± íķľ
Ł¬ë ľ¨ë
íķĺ ê²łëĭ¤ê³ł
ìłĦ ìĭľ
ĠìĿ´ìļ© íķĺìĹ¬
ìĺ¤ ì¹´
ĠìĿ´ëģ Įë
Ġë²Ħ íĦ°
§Ŀ ìĿ´
ë łĮ
ì§Ģ êµ¬
ĠëĿ¼ ìĿ¸
ìĹĦë§Ī ê°Ģ
Ġë¨¸ë¦¬ì¹´ë Ŀ½ìĿĦ
ëĤ¨ ë§¤
Ġë¬´íķľ ë¦¬íķĦ
° Ģë¦¬
Ġê¸° ìĽĲ
ĠíĮ¨ë °°
Ġêº Ħ
ì« Ģ
Ġìĭľì¼ľ ìĦľ
á Ħ
Ġì±ħ ìĿĺ
ĠìķĦëĭĪëĿ¼ ìĦľ
Ġëª¨ìĸĳ ìĿĺ
Ġìĺ¤ë¦¬ ì§ĢëĦĲ
ìĿ´ íĬ¸ë
Ġì£½ ìĿ´
íķ¨ ëıĦ
Ġê·¸ë¦¼ ìĿ´
ĠëĤł ê°ľë¥¼
Ġëĭ¬ë ł¸ëĭ¤
ac e
Ĥ ï¸ı
ðŁĴķ ðŁĴķ
ĠìķĦëŀĳ ê³³
ĵ¤ ìĿ´ëĭ¤
Ġìļ°ë ł¤
³´ë Ŀ¼
ĠìĹĨìĹĪ ê¸°
íģ´ëŀĺ ìĬ¤
ĠëĤĺìĺ¤ ìŀĲ
° ï¸ı
Ġê±° ì¹¨
ìĿ¼ë ³´
ìľ¼ë ¦¬
íĳ ¹
ìľł ì±Į
ĠìĤ¬ìĭ¤ ìĿ´ëĭ¤
Łī ìĿĺ
íĳľ ëĬĶ
Ġë³¸ ìĿ¸ìĿ´
ëĭ¬ ì½¤
ĠíĮ¨ ìħĺ
ìļ© ìĿĢ
íģ¬ë ¦¼ë
Ġë§Ĳ ìķĺ
Ġëĸ¨ìĸ´ ì§Ģê³ł
ĠìĨĲë ª©ìĿĦ
ìĹĲ ìĬ¤
ĠëĤĺ ìĺ´
ì¤ĳ ìĹĲëıĦ
íĥĢ ìŀħ
Ġìķ Ĺ
Ġìı ł
ì¸µ ìĿĺ
3 3
ì§Ģ íĦ¸
Ġë§Ĳ ìķĦìķ¼
ĠìĹ° ìŀ¥
Ġì¹´ìĿ´ëŀĢ ìĿĢ
ë³ ¸ë
ê³Ħ ìĹĲìĦľ
ê´ĳ ìĹŃìĭľ
ì² ¼
Ġë§Ĳ íķĺìĺĢëĭ¤
§Ī ëĬĶ
Ġìķħ ëª½
ìĻĦ ìłĦ
Ġê³ł ê¸°ëıĦ
ĵľ ìĻĢ
,, ,,,
Ġì¤Ģ ëĭ¤ê³ł
íĸĪ ê¸°ìĹĲ
ĠìłĢ ì²ĺëŁ¼
Ġê³łë ¥¸
ĠìĤ¬ ìĿ´íĬ¸
íĻĪ ìĬ¤íĥĢìĿ¼
ĠíļĮ ìĽĲ
Ġíķľë²Ī ìĶ©
h o
Ġë³´ ê¸°ìĹĲ
ĠëķĮë ³´ëĭ¤
i p
ê·¸ë ķĮ
Ġãħĭãħĭãħĭãħĭãħĭãħĭãħĭãħĭ ãħĭãħĭãħĭ
ĠìĿ¼ ìĿ¸ê°Ģ
Ġë³´ë įĶëĭĪ
Ġëĭ¨ ê³¨
Ġë¹Ħ ì¼ľ
ê¸° ìŀĲ
ëħ Ģë
Ġì« Ļ
Ġë½ĳ ìķĦë
me ow
Ġê·ĢìĹ½ ëĭ¤
... (
ĠìłĲ íĶĦ
Ġê³³ ìĿ´ëĿ¼
ì°¬ ìĿ´
Ġë¡ľ ìĿ´
Ġ201 6
Ġìĺ¨ëª¸ ìĹĲ
Ł¬ ê°Ģ
ìĭľíĤ¤ ê¸°
ç ī
Ġëĸ ´
ìĨĮíĨµ íķ´ìļĶ
ë§ŀ ìķĦ
ĠëĬĲê»´ ì§Ħëĭ¤
ì£¼ ëĭĪ
Ġê·¸ëķĮ ìĺĢëĭ¤
ĠíĻľëıĻ ìĿĦ
Ġë²Ĺìĸ´ë Ĥł
ì¶ľ ìĤ°
ì¤ĳ ìķĻ
ìĺ¬ë ¡ľ
ðŁĴ ª
ìĺ¤ë ©°
íŀĪë ©´
. <
Ġìĺ¬ë ŀĲ
ãĦ± ãĦ±
ĠíĿĶëĵ¤ë ¦¬ëĬĶ
ĠëĬĲëĭ· ìĹĨìĿ´
ì§Ģ ìĹŃ
Ġë¶ĪìĮį íķľ
Ġìĸ´ ê¹ĢìĹĨìĿ´
ì¢ħ ë¥ĺ
ĠìĿ¼ ìĿ¸ì§Ģ
Ġì¢ĭìķĦ íķĺìĭľëĬĶ
Ġãħ Ī
r om
ģ Īë
ĠìĦ¤ëªħ ìĿ´
ë§Įë ıĦ
Ġìŀ¬ë¯¸ ìŀĪ
ëĭ¤ ìĦ¯
Ġìļ° ìķĦ
ĠëĤĺê°Ģ ë©´
ľë ¿ľ
Ġì¤ĳ ë°ĺ
Ġì¼ĢìĿ´ ìĬ¤
Ġì£¼ìłĢìķī ìķĺëĭ¤
ĠíĥĢìĿ´ë °į
ĠìĿ´ë į°
ĠìĪľ íķľ
ĠëĤĺëĪĦ ëĬĶ
ãħ łë
Ġëª¨ë¥´ ì§Ģ
ìŀĲë ĵ¤ìĹĲê²Į
ĠëıĮ ì§Ħ
~~ ~~~
Ġíĺķ ìĥģ
Ġëľ»ë°ĸ ìĿĺ
ìº Ķ
Ġë¯¸ ìĦ¸ë¨¼ì§Ģ
ê°Ķ ê³ł
ìłĢ ê²©
¡ł ìĿĺ
ĠìŀĪìĿĦ ê¹ĮìļĶ
ĠìĿ´ë Ŀ¼ëĬĶ
ĠíļĮ ìĥī
Ġë°ĸ ìĿĺ
ĠìĽĶ ê¸ī
ĠìķĦíĮĮ ìĦľ
Ġë§Ī ìĬ¤íģ¬íĮ©
Ġì§Ģ ê»Ħ
ë²Ħ ìĦ¯
Į ķ
Ġíķ« íķľ
Ġê°ĳìŀĳ ìĬ¤ëŁ°
Ġì²łìłĢ íķĺê²Į
è ģ
ĠìĦ¤ íĥķ
´¤ ìŀĲ
ĠìĪĺ ë¥¼
ìĶ ¹
ĠëĦ¤ ìĿ¼
Ġíķĺì§Ģ ìļĶ
Ġìķł ëĭĪë©ĶìĿ´ìħĺ
Ġìŀ¬ë ¯¸ë
íķĦëĿ¼ íħĮìĬ¤
Ġê°Ģ ìŀĲê³ł
ĠìĿ¼ ê¸°
ëĤĺ ëĭĪ
Ġì§Ģë Ĥ´ë
ìľĦ ê¸°
ıĻ ìĹĲ
íĤ ¬ë
ł¸ ëĭ¤ê³ł
Ġìĭľë ĮĢìĹĲ
Ġìŀłë ĵ¤ìĸ´
Ġíķľ ê°ĢëĵĿ
ê²ĥ ë§Į
Ġê°Ĳ ì§Ģ
ĠìķĦëĭĮê°Ģ ìļĶ
h y
n ch
ê°ķ ìĿĢ
ìĻĶ ì§Ģë§Į
Ġëĭ¨ëĭ¨ íķľ
í ĵ
Ġëª¨ìĬµ ëıĦ
íĻĪë ©ĶìĿ´ëĵľ
Ġì¶ľ ìĭľë
ì»¨ë ĮĢ
ê² Ķ
Ġì¹´ ì¹´ìĺ¤
ĠìķĮëł¤ ìł¸
ì½ °
íĻ© ìĿĦ
ĠìļĶ ìĭľ
Ġë²Ħë ŁŃ
íķĺ ê²łëĭ¤
ĠìķĬ ëĭ¤ê³ł
ê¹Įì§Ģ ìĿĺ
Ġë³¼ ê¹Į
ĠìĦ± ìłģ
ĠìĦ± ê²©ìĿĦ
ĨĪë ĵ¤ìĿ´
ĠìĨįìĤŃ ìĺĢëĭ¤
_ =
Ġìį °ë
ĠëĲĲ ìĸ´
ĠìĮĵ ìķĦ
ĠìĽĲ ì¹Ļ
Ġë³ĳ ëł¥ìĿĦ
Ġë¬´ê²¸ ìĿĢ
ê°Ģë ĵł
Ġë¶Ħë ħ¸ë¥¼
ê°Ľ ê²Į
Ġìĺģ íĺ¸ê°ķ
°± ìĿĦ
ë ±ħ
ê¸Ģë ŀ¨
ĠìĨĮëħĢ ìĿĺ
ìĪ į
ĠìĹĺ íĶĦë
Ġì¡´ë§Ľ íĥ±
ģ ëĭĪëĭ¤
Ġê° ±
Ġê°ķ ìĿĦ
ĠìĿ´ìľł ëıĦ
Ġë¶Īë¹Ľ ìĿ´
ë ¬ĺ
ĠìĤ´ìķĦ ê°Ī
Ġìłł ìŀ¥
ê¸° ëĭ¤ë
Ġìŀ¬ë ¯¸ë¥¼
ì¡± ìĿĦ
°± íĻĶìłĲ
ìĥĪë ¡ľ
ĠìĿ´ íĨłë¡Ŀ
Ġíĸ ĪëĤĺ
Ġìŀł ìĹĲìĦľ
Ġì£½ ê¸°
íģ´ë¦° ìĭĿëĭ¨
- _-
Ġìķ Ķë
ìķĦ ì¹¨ë
Ġë³´ ìŀĲë§ĪìŀĲ
ĠìĤ¬ ìĨĮíķľ
ĠìĤ´ ìķĦìĦľ
ĠíĸĪ ìĹĪëĬĶëį°
Ġëĵ¤ìĸ´ìĦľ ìŀĲ
Ġì¤ĳ íķĻêµĲ
ĠëĤł ê°ľ
Ġë¯¸ìķĪ íķľ
ĠìļĶë ¦¬ë¥¼
ĠëıĻ ìĸĳ
Ġê±¸ë ¦¬
Ġê´ľì°® ìķĦìļĶ
ìµ ¸
ĠìłĢ ìŀ¥
¯¸ë ĦĲ
Ġëª¨ ìŀĲ
Ġê³¼ ìŀĲ
íİ¸ ìĹĲìĦľ
ĠìķĬ ìľ¼
Ġë§Ľì§ĳ ìľ¼ë¡ľ
ĠëĭŃ ê°Īë¹Ħ
Ġê°Ģ ì¹ĺê°Ģ
ĠìĤ¬ ìŀĲ
ë©´ ìĹĲ
Ġë§ī ë§ī
Ġë¹Ħë ²¼ë
Ł°ë įĺ
ĠëĦ ¥
ĠìłĢëħģ ìĿĢ
Ġê¸° ìĤ¬ê°Ģ
ìĺ¤ë Ŀ¼ê³ł
Ġê¸° ìĹ¬
ëł¬ íķĺê²Į
g y
ĠëĮĢ ê³µ
Ġê°Ģë ©´ìĦľ
ĠëĤĺë ĵ¤ìĿ´
Ġê°Ħ ëĭ¤ê³ł
ĠëįĶë Ł½
b i
ĠìĦľ ìĦ±
Ġìŀł ìŀĲ
ìķłìķłìķłìķł ìķłìķłìķłìķł
Ġê·¸ë ĮĢë
Į Ķ
Ġë¶Ħë ¦¬
Ġì°Ķë Ł¬
____ ____
s c
ëĭ¤ê°Ģ ëıĦ
ĠëĮĢë ª©
ĠíĻķ ìŀ¥
Ġëĭ¨ë ²ĪìĹĲ
ìĹ¬ ìĪĺ
ìĬ¹ ìĿĦ
ĠíķĺëĬĶ ê°Ģ
Ġê¼´ ìĿ´
ĠëĤ´ë±ī ìĹĪëĭ¤
Ġìĸ´ë £¨ë§Į
ì¡° ìķĦ
Ġíĸ¥ íķĺëĬĶ
Ġìĭľë ħ¼
ĠìķĮë ©´
ìĤ¬ ìĿ¸
Ġë§Ī ìĬ¤
ë§ī ìĿĦ
Ġì£Ħ ì±ħ
ĠíĮ Ĳë
ĠíĹ Ŀ
Ġíķł ê¹ĮìļĶ
ìĭľë Ħ¤
Ġê²ĥìĿ´ ìĺµëĭĪëĭ¤
Ġëĭ¦ ìķĦë
ì± Įë¦°ì§Ģ
ĠíŀĪë ¡ľ
° Ķë¡ľ
Ġë§Ĳë Ŀ¼ëĬĶ
ĠíĹĪë ¬¼
Ġê±¸ë ¦´
Ġíľ´ ê°Ģ
ĠìĿ¸íĦ°ë ·°
Ġë³ĳìĤ¬ë ĵ¤ìĿĢ
Ŀ¼ë ©ľ
ëĭ¨ ê³¼
Ġë¹Ľ ìĿĺ
Ġëª© ëįľë
ĠìĦľë ¥ĺ
ĠìĪ¨ ê²¨ì§Ħ
ĠëıĮë ¦°
ĠðŁĺ Ĩ
Ġë°Ķê¿ Ģ
ĠìĨĮ ê°ľë
Ġë²Ħ ê±°
ĠíħĮ ìĿ´ë
ãĥĿ ãĥ¡
ĠìĤ¬ë Ĥ´ë¥¼
ĳĲ ê°Ģ
Ġë¨¹ ê²Į
ìļ© ëŁī
Ġíķľ ìĭ¬
ĠìĨį ìĹĲìĦľëıĦ
Ġì¹ľ ì²Ļ
Ġìĺ¬ëł¤ ëĭ¤ë³´ìķĺëĭ¤
Ġë¹Ħ ìĦľ
ĠëĲĺ ìĹĪëĬĶëį°
Ġê°Ĳ ìĪĺ
ĠìĥģëĮĢ ëĬĶ
Ġëį¤ë ²¼ë
Ġìłķ ëĭ¹
ë¹ ¨
Ġêº ½
Ġì½Ķ ì½ĶëĦĽ
ëĭµ ì§Ģ
ĠìĿ´ë¶Ī ìĿĦ
íĶĦëłĮ ì¹ĺë
Ġìĺ¤ íķ´
Ġê²½ ìĺģ
ĠìĽ¬ ìĿ¼
ë İ
ĠìĿ¼ íĴĪ
ĠëĪĪ ì´Īë
ì§Ģë Ŀ¼ê³ł
ĠíĿĲ íĬ¸ëŁ¬
ì§Ī ìłģìľ¼ë¡ľ
Ġê°Ģë¦¬ íĤ¤ë©°
Ġë°ĶìĤŃ ë°ĶìĤŃ
ĠëįĶ ëĬĶ
ĠìĿ¸ ìĹ°
Ġìķł ìĿ¸
ì°¨ë ¡Ģ
ìĪ «
íĺ¸ë ıĦ
Ġë ŀľ
ì¡° ê¸Ī
ĠìĿ´ íķ´ë
Ġë¯¸ ìĤ¬
ìĬ¤ íı¬
Ġê°Ģ ì§ľ
ì¶ ĺë
ì¢ĭìķĦìļĶ ë°ĺìĤ¬
Ġêµ¬ìĦĿ ìĹĲ
ìĥ ĪëıĦ
Ġë°© ìĿ´
ĠëĤ´ëł¤ë Ĩĵê³ł
ê°ľ ìĿ¸
ĠìķĦ ìļ¸ë
Ġë¬´ íĳľ
íķĺë ĵ¯ìĿ´
à ¹
ìĭľë įĺ
ĠìĨį ìĥģ
ê¶ģ ìĿ´
Ġìĥģ ìĿĦ
ĠíĽĦ ìĹĲëĬĶ
ëĿ¼ë ¥¼
Ġìĵ° ê²Į
Ġìļ°ë ļĿ
ëĭ¹ ìĭłìĿĢ
Ġë¯¼ ê°Ĳíķľ
ĠëĤ´ëł¤ ìĺ¤ëĬĶ
ĠëĪĦêµ° ê°Ģë¥¼
ìŀ¥ ìĪĺ
Ġìŀħ ëł¥
ë§Ī ì¹´ë¡±
Ġì¡´ìŀ¬ íķĺì§Ģ
ĠìķĪìłĦ íķĺê²Į
Ġê°ľ ìĦł
Ġìĸ´ëł¤ ìĽĮ
å ĭ
ĠìĤ¬ëŀĮ ìĿ´ëĭ¤
ë§Īë £¨
ìĬ¤ ì¿¨
êµ¬ ìĹĲìĦľ
Ġë¬´ ìĭľë
ĠìĽĢì§ģ ìĿ´ê³ł
ĠëĪĦë Ĥĺê°Ģ
Ġíģ´ë Ł½
Ġê·¸ê²ĥ ìľ¼ë¡ľ
ĠìŀĲìĹ° ìĿĺ
íıĲ íķĺ
ìĦľ ë¦¬
íĥĢ ê°Ģ
Ġëĭ¹ ìĤ¬
ĠëĺĲ ëĭ¤ë¥¸
Ġë§Ŀ ê³ł
ĠìĿĺìķĦ íķľ
ê°ģ ìĿĺ
ĠìķĦëĭĪ ëĭĪ
Ġê·¸ ê°Ħ
ĠìķĦ ìĽĥ
Ġë³¼ ìĪĺ
ĠìĦ¬ë ľ©
ì£¼ë ¦Ħ
ne co
íķĺ ìŀĲë©´
ê°Ķ ëĬĶëį°
ìķĦì¹¨ ìĹĲ
ìĭ¬ ê³¼
ë¦¬ ëĭ¨
ĠìĿĮ ìĦ±
ìĦ¸ íķĺê²Į
Ġíĳ ¼
ĠìĿ¼ìĸ´ëĤĺ ì§Ģ
ìĻĦë £Į
¶Ģ ì§Ģ
ìľ¼ ìĿĮ
ëıĻ ëĦ¤
Ġë¬´ë įĶ
ĠìĨĮë ¬¸ìĿĦ
ë¶Ī ìĿ´
Ġìķŀ ìĹĲëĬĶ
ë¬¼ ê´Ģ
íĳ¸ëĵľ íĮĮìĿ´íĦ°
ĠìĤ¬ ìłķìĿ´
ĠìĽĥ ìĿĦ
Ġë¯¼ ê°Ĳ
ĠìĺģìĽĲ íķľ
ìļ ¥
ì¤ĳ ìĿĢ
íķ´ë ¬¼
ĠíĮ¨ íĦ´
. âĢĻ
Ġë ·°
íĻĶ íķľ
ìĭľë ¯¼
ĠëĮĢíķĻ ìĥĿ
ìĹĲ ìĹĲ
íĬ¸ ìĹĲìĦľ
ì¡± ìĿ´
ëĵľë ĶĶìĸ´
ĠìĥĿ ê²¨
Ġìłľ íķľ
ìłĪë ¯¸
_ *
íĭ° ëĬĶ
Ġì§Ģê¸Ī ê»ı
Ġì¤Ħ ê¸°
³ Ħë
ë¶Ģ ìĹĲ
ĠìĬ¤íħĮ ìĿ´
ĠìķĬ ìŀĲ
Ġìĥģ ìĿĺ
íĿ Ļ
ĠìĽĲ ìĿĦ
ĳĲë ©´
Ġë§¤ëł¥ ìłģìĿ¸
ĠìĦ¸ ìĽĮë
Ġìł ¸
êµ° ëĭ¤ëĤĺ
ĠíŀĪ ìĸ´ë¡ľ
ìĺĢ ì§Ģ
Ġìŀ¡ íŀĮ
ĠëĤ¨ë ħĢ
ëĭĺë ĵ¤ìĿ´
ê²ĥê°Ļ ìķĦìļĶ
ĠíĹĪê³µ ìĹĲ
ĠëįĶìļ± ìĿ´
ĠëĴ¤ë ıĮ
ĠíĿ¡ ìĤ¬
ê·¸ë ¥¼
Ġë¶Ħ ìĿĦ
ĠìĤ¼ ê°ģ
ĠëĮĢíķ´ìĦľ ëıĦ
Ġë°° ì¹ĺ
³µ ìĿ´
Ġì°°ë ĸ¡
ì¡Į ëĬĶëį°
ĠìĺĪ ê³ł
íĻ© ìĿ´
Ġë¸Įë ¡ľ
íĻĪ ì¹´íİĺ
ĠìķĦë¬´ëłĩ ì§ĢëıĦ
ìŀĲ ìłĦ
Ġì¤Ħ ìĸ´ëĵ¤
ë§Ľ ëıĦ
² ¨ìĿ´
Ġíķĺ ëĬĶëį°ìļĶ
Ġë¬´ë £Įë¡ľ
Ġì¦Ŀ ê±°
ĠìĿ´ìļ© íķľ
Ġëĭ¬ëł¤ë ĵ¤
b u
ĠìĶ¨ ìķĹ
ìĬ¤ ìĬ¤
ĠìĿ¸ ì§Ģ
ĠìĦ¸ ìķĪ
Ŀ¼ìĿ´ íĶĦ
Ġì«ĵ ê²¨ë
ĠëıĦìĻĢ ì£¼
ici ous
Ġëĵ¤ìĸ´ ê°Ģì§Ģ
ìĬ¤ëŁ¬ ìļ¸
ĠìŀĪ ìŀĸìķĦìļĶ
ðŁĳ ĭ
ì¥ ¬ë
ëł¥ ìĿĢ
ĠìķĦìĿ´ë ĶĶ
ĠìĺĪìģĺ ëĭ¤
ł¥ ìľ¼ë¡ľ
Ġì§Ĳ ì§ĵ
æ ´
Ġì²« ëĤł
A R
I T
ì¹ĺ ê³łëĬĶ
ìĬ¤ë ŀĳ
ĠíĴį ê¸°ëĬĶ
ĠíıīìĥĿ ìĿĦ
Ġë¬´ìĭľ íķĺê³ł
ĠìłĢ ìª½
ìĶ Ģ
Ġëª¨ëĳĲ ìĿĺ
ìŀĸ ìĿĢ
ĠëĵľëŁ¬ë ĥĪëĭ¤
==== ====
ìĭľ ì¯¤
Ġìĸ´ëĳł ìĿĺ
Ġíĥ± ê¸Ģ
ë ĳĶ
íķ´ ìķ¼ë§Į
íķĺì§Ģ ìļĶ
Ġìĭ±ìĭ± íķľ
ë Ł°
ĠìĨĲë ģĿ
íĺ ĦëĮĢ
ĠíĿ¬ë¯¸ íķĺê²Į
ĠëĤĺ ìŀĲ
íĺ Ĳ
ê±´ ì¡°
Ġê°Ī ìĥī
ĠìŀĪìĹĪëĭ¤ ê³ł
Ġë¬¸ ìłľë¡ľ
Ġì¹´ë łĪ
Ġì²ľ ë§Ī
ĠìĨĮëħĢ ê°Ģ
íĶĮëłĪìĿ´ ìĬ¤
ĠëĴ·ëª¨ ìĬµ
Ġíĳľ íĺĦë
Ġì£Ħ ëĭ¤
Ġë§ĽìŀĪë įĶëĿ¼êµ¬ìļĶ
Ŀ¼ ìĿ´íĬ¸
ĠìĨį ëıĦë¥¼
Ġìłģ ìĸ´
ĠëĬĲ ê»´ë
Ġìĭ¸ ìļ°ê³ł
ĠíĿĺë ¦¬ê³ł
å Ł
ë ĵ£
ìŀĪëĭ¤ ëĬĶ
ĠíĶĮë ŀĺ
ĠìĹŃ ìĤ¬ìĿĺ
ĠëģĿëĤĺ ìŀĲ
p l
Ġë³´ ê¸°ìĹĲëıĦ
Ġìłģ íķ©
ĠìĬ ¥
ĠëķĮë §Į
ĠëĤł ì§ľ
ĠìĭĿ ê°Ĳ
ìı ł
ĠìĽ¬ë §Įíķľ
Ġíķĺ ê±°ëĤĺ
ĠìĤ¬ ì²ľ
Ġë© ±
Ġê³Ħ ìłķ
ë Ł¬ë
Ġë§Ī ëĭĪ
Ġëģ ¼ë
Ġëĭ¹ íķĺëĬĶ
ĠëĤĺëĪ Ħë
Ġì£¼ë¨¸ëĭĪ ìĹĲ
Ġë§Ī ìħĶ
Ġíķľ ëģ¼
ĠìłĦ ìŀĲ
Ġëª¨ ìķĦë
³´ë ıĦë¡Ŀ
Ġê·¸ëķĮ ê¹Įì§Ģ
ĠëĮĢëĭµ ìĿĢ
Ĩ ĪìĿĦ
Ġìŀ¥ íİ¸
ë¯¸ ì¹ľ
ĠíħĮ ê³ł
ĠíķĺëĬĺ ìĹĲìĦľ
Ġíķ© ì³Ĳ
Ī Īë
Ġìĥģ ê´ĢìĿ´
ìłľ ìĻĢ
ìłĢ ìĹĪëĭ¤
ëĭ¤ëĭĪ ê³ł
ê°Ģë ĵ¤ìĿ´
ê±¸ ìļĶ
íĻį ëĮĢë
Ġëĸ¨ë ł¸ëĭ¤
çĶ Ł
ĠìĪľ ìĦľ
Ġê·¸ë¦¬ ìĬ¤
ìĭľë ©´ìĦľ
°Ľ ëĬĶ
ĠìķĦ ìĬ¤
ì¹´ë łĪ
ìĸ´ë ĵ¤ìĸ´
Ġì§Ģ íģ¬ëĬĶ
Ġì´īì´ī íķĺê³ł
ìķĺë Ħ¤
ìĽĲë ĵ¤ìĿĺ
ä ¿
Ġê±°ë ŀĢ
Ġê¹Įë §Į
Ġëĭµëĭµ íķľ
kat ze
ìĺ¤ ê²Į
ĵ± ìĿĦ
ë²łìĿ´ë¹Ħ ìĬ¤íĥĢê·¸ëŀ¨
Ġë§Ī ëĬĶ
Ġëĭ¬ëĿ¼ ì§Ħ
ĠëĮĢ íķŃ
Ġíĺ ¸ë¡ľ
ìĦ¸ ìĥģìĹĲ
Ġ1 000
ĠíĽĦë ³´
Ġëĭ¤ë¬¼ ê³ł
ìľ ĦëıĦ
Ġë©Ī ì¶ĺ
Ġëį° ëĭ¤
ëĤł ë§Īëĭ¤
ĠìŀĪìĹĪ ìľ¼ë©´
¶Īë ıħ
ì»¤ íĶ¼ë
¹Ħ ìĻĢ
ìģ ľë
ĠìĿµ íŀĮ
Ġìĩ łë
Ġìĭľ íĤ¤ê³ł
Ġìķł ê¸°
Ġê³łë§Ī ìļ´
del icious
ĠìłĦ ê³µ
Ġê°ķ ë¦ī
ì§Ģë ŀĳ
ĠëĨĢë Ŀ¼ëĬĶ
Ġìı ľ
ìķĮ ìķĺìĸ´
Ġìĺģíĺ¼ ìĿĦ
ĠíĽĦ íĩ´
ĠëĪĦêµ° ì§Ģ
ìŀĲë ıĻ
ë¡ľ ëĵľ
Ġìĸ¼êµ´ ìĿ´ìĹĪëĭ¤
Ġì¤ĺ ìķ¼
Ġì¥¬ ìĭľ
ì°¸ ì¹ĺ
íĥĲë °©
Ġìĭľ ìĹĲ
ê¸°ë ŀĢ
ìŀ¬ë °
ðŁĺĤ ðŁĺĤ
ìĿĢ ìĿ´
ĠìŀĲ ìĭĿìĿĦ
Ġê·¸ë §ĮëĳĲ
¯¼ ìĿĦ
Ġ2 000
ìĹ¬íĸī ìĹĲë¯¸
Ġë¹µ ë¹µ
_ ^
ë ¶ĦëıĦ
Ŀ¼ë ©ĺ
ëĮĢë ¬¸
ê±´ê°ķ ìĭĿëĭ¨
Ġëĭ¹ìĭľ ìĿĺ
> <
ç ´
Ġíķĺ êµ¬
ĠëĨĢë ŀĦ
ìĬ¤ íĦ´
ĠìĬ¤ ìĭľ
ĠìķĦíĶĦ ê²Į
ĠíĮĶë ļĿ
èĢ ħ
å Ľ
ĠìĹŃ ëł¥
ĠíĪŃ íĪŃ
Ġì§Ģë Ĥ´ëĬĶ
ĠìĻķ êµŃìĿĺ
ìľ¤ ìĿ´
Ġâ ĳ
ĠìĹĲìĸ´ ì»¨
íļĮ ìĭĿ
ĠìĹ´ ìĩł
Ġíİ¸ìĿĺ ìłĲ
c li
į° ìĿ´íĬ¸
ĠíļĮ ìŀ¥ëĭĺ
Ġë©Īì¶Ķ ì§Ģ
ê²¼ë įĺ
ĠëĮĢ ê°ľ
ìĿ´ëĭ¤ ê°Ģ
ìĭł ê³¼
Ġê³ł ìłĦ
Ġìĥģ ì¶Ķ
Ġì§ģ ìĽĲ
ç ľ
ĠìĻ Ī
Ġë¨¸ë¦¬ ì¹¼
Ġì£¼ ìħĶìĦľ
Ġíĥľ íıī
Ġëį° ìļĶ
Ġë°ĺë ŀĢ
Ġë°°ê²½ ìľ¼ë¡ľ
Ġëĵ¤ìĸ´ ìŀĪ
íĮĲ ìĿĢ
ĠìķĮë ł¤ë
ç ļ
ìķ ĪëıĦ
Ĩĵ ìĿĦ
ĠíķľêµŃ ìĹĲ
Ġëª© ê²©
it t
¾ Įë
¦¬ë ĵľ
ĠìĥĿê°ģ íķ´ìļĶ
ĠíĬ¸ ì¹ľ
an t
ĠíĬ¸ë Ł¬ë¸Ķ
ĠìĦľë¹Ħ ìĬ¤ë¡ľ
ìĬ¤ ìĭľ
Ġêµ¬ íķł
Ġë°Ķ ìĭ¹
Ġê·¸ê²ĥ ìĹĲ
ì¤Ħ ê²Į
ĠëĪĦë ¥´ë©´
ë¿Ĳ ìĿ´ìĹĪëĭ¤
Ġê¾¸ë įķ
íĮĲ ìĹĲìĦľ
ĠìŀĬ íĺĢ
ĠìķĬ ëĬĶëį°
ĠìĻ ģ
ic k
ĠìķĪíĥĢê¹Į ìļ´
íĶ¼ ê°Ģ
ì¹ľ êµ¬ê°Ģ
ì½Ķ ê°Ģ
ĠëĪĮë łĢëĭ¤
ì·¨ë ¯¸
Ġë¨¹ ìĹĪìĬµëĭĪëĭ¤
Ġëĭ¤ê°Ģ ìĺ¨
Ġê¹Ķ ê³ł
à¹ ĳ
ĠëĮĢ ê²°
ĠíķŃ ê³µ
ĠìĸĢ ìĿĢ
ë°Ķë ³´
ĠëĪĪìķŀ ìĹĲìĦľ
g re
Ġìķ °íĶĮ
íĻ ľë
Ġë§Ľ ìĹĲ
Ġë³¼ ìĿĦ
ëĮĢë °ķ
ê·ĢìĹ¬ ìĽĮ
Ġë°Ķëĭ¤ ê°Ģ
é «
ĠìķĦ ìĿ´ê³ł
Ġë² ¨ë
Ġíıī ìĥģ
ĠìĹĦë§Ī ìĻĢ
ĠìħĢíĶ¼ ìĸ´ë
ë £¨ë
ðŁį ´
ìº£ ìĬ¤íĥĢê·¸ëŀ¨
Ġíıī íĻĶë
ìĪľ ìĿĢ
ĠíĮĮë ¬»
âĻ¡ âĻ¡
ðŁİ ¶
íĶĦëłĮì¹ĺë ¶Īëıħ
ç Ī
Ġë³¸ ëĭ¤ë©´
ĠìĹ¬ ìĦ±ìĿĺ
Ġìĸ´ ê¸ĭ
Ġë¶Ī íıī
Ġë²Į ì»¥
Ġê°Ģì¡± ìĿĦ
ìķłë ĵ¤
Ġìŀ¥ ì°©
Ġìŀĳ ëħĦìĹĲ
Ġìĸĳ ë³´
ìĬ¹ ìĿĺ
Ġê°ĢëĬ¥ íķ©ëĭĪëĭ¤
ìļ°ë¦¬ ì§ĳ
âĢįâĻ Ĥï¸ı
ĠëĤĺ ë§ĮìĿĺ
íĿ ĺë
Ġê°ĢëĬ¥ íķ´ìļĶ
ë© ĭ
Ġì¶Ķ ìĽĮ
ĠìĽĢì§ģ ìŀĦìĿ´
ĠìķĮìķĺ ì§Ģ
ĠíĮĶì§± ìĿĦ
ìĸ´ë ĵ¤ìĿ´
ìĸ´ë Ĥ¬ëĭ¤
Ġìĭľ ìĿĺ
ìĨĮ ìĻĢ
ìłľ ìĿ¼
Ġìĸ´ íĶĮ
Ġì²ĺë ħĢ
Ġëĭ¤ëĭĪ ê³ł
ĠìķĮë łī
¬¸ë ıĦ
b l
ĠëıĮìķĦ ìĦ°ëĭ¤
Ġê¾ Ģ
Ġëª¨ ìļ©
ĠíĦ° ì§ĢëĬĶ
ĠìĿ´íĽĦ ìĹĲ
ħ ìĿ´
Ġê½ĥ ìŀİ
f ic
Ġë°Ķë ¹
ĠíļĮ ìŀ¥
ĠìĬ¤íı¬ ì¸ł
ĠêµŃ ìĻķ
ĠëĤĺê°Ģ ìŀĲ
Ġê·¸ëŀ ¬ëįĺ
© ´ëıĦ
Ġì§ ĸ
ĠíĮĶ ìĿ´
êº¼ ìĿ´
Ġê²ī ìĿĢ
Ġëĭ¤ë ¥´ì§Ģ
Ġìŀ¥ ìĿ¸
Ġëĵľë Ĥĺ
Ġìĭ¤ ìĪĺë¥¼
Ġì°¨ ìĹĲìĦľ
ĠíĮĮ ìĬ¤íĥĢë
ĠíĿ© ìĸ´ìł¸
ìĿ´ ìĭł
Ġì§Ģ íģ¬
Ġì£½ ê²Į
¨¸ë ¦¬ë¥¼
ĠëĵľëŁ¬ë Ĥ´
ì§Ģ ëĤľ
Ġë¶Ģë ¥´ë
ĠìłĢ ê²Į
ĠëıĮ ìĿĦ
ĠíĥĿ ë°°
Ġì°°ë Ĥĺ
Ġìĭ¬ìĥģ ì¹ĺ
ë° Ł
ĠìķĦë ³´
Ġë ¦°ìĿĢ
ê´ĳ ê³ł
Ġë³´ ìĿ´ë
Ġë¶Ģ ìŀĲ
ĠìĨĮëħĢ ëĬĶ
íĸ Ħ
Ġê¸°ë ³ĳ
Ł¬ë ıĦ
ĠëĪĦêµ¬ë ¥¼
Ġíķ¸ë ĵľë
ê´ľì°® ìķĦ
c u
ìĭĿ ë¹µ
ĠëįĶ ìĽĮ
ĠëĺĲë ł·
ìĿ´ìĹĪ ìľ¼ëĤĺ
ĠìķĦ íĶĦë
°© ìļ¸
Ġìĸµ ìķķ
ìĿ´ë ´Ĳ
Ġë²Ħ ìĬ¤ë¥¼
â Ĥ©
Ġë§Ī ì£¼ë
Ġê°ķ ê¸°
Ġëĵ¤ìĸ´ê°Ģ ìŀĲ
êº Ħ
Ġë§ŀì¶° ìĦľ
ìĹ¬íĸīìĹĲë¯¸ ì¹ĺëĭ¤
ĠíĶ¼ ìķĦëħ¸
Ġë¬¸ìłľ ìĹĲ
Ġìī½ ê³ł
ìĭł íķľ
ìķĦë ŀĺ
Ġë© ľë
Ġê°Ħ íĺ¹
ĠìĹ¬ê¸° ìĹĲìĦľ
Ġë°¥ ìĿĢ
ìķ¼ ê°Ģ
Ġì»¤ íĬ¼
ch e
ĠíĭĢë¦¼ ìĹĨ
ì»¤ ìĬ¤
Ġì²ľ ì§Ģ
ì¶ľ íķľ
Ġíķ© ìĭľëĭ¤
ìĹ¬ ìĿĺ
ìĭłë ĵ¤ìĿ´
ìŀĲë¦¬ ìĹĲìĦľ
ì£¼ ìĸ´
Ġìĭ¶ ëĭ¤ë©´
Ġë» ¥
Ġì¡° ì¢ħ
ìŀĲë Ŀ¼ê³ł
Ġêµ¬ ìĬ¬
ĠìŀĦë ªħ
Ġìłķ íĨµ
Ġëĭ¹ ëıĦ
ì¶Ķì¶ľë ¬¼
Ġë ¦¬ëĬĶ
Ġê°Ĳ ìĤ¬ë
Ġì¶Ķ ìĦĿ
Ġìĭ¬ ìŀ¥ìĿĦ
Ġíĺ¸ ìľĦ
ĠT he
ł ¬
ìłĦ ê³¨
Ġëĸł ìĦľ
ì´Īë ¡ľ
ĠìĤ¬ ìĿ´ëĵľ
Ġê°Ģë ¦¬ì§Ģ
ëĭĪë §Į
Ġì§Ģ ê·¸
ĠíĻ© ìłľëĬĶ
Ġëħ¸ëŀĺ ê°Ģ
ĠìłľìĻ¸ íķľ
ë ģ¼ë
¬´ë ĶĶ
Ġì¹ľìłĪ íķĺê²Į
3 5
Ġë²Įë ¦¬ê³ł
Ġìµľ ì´ĪìĿĺ
³´ë įĶëĭĪ
ĠíĿĺëŁ¬ëĤ´ë ł¸ëĭ¤
ĠìĿĺë¯¸ ìĹĲìĦľ
Ġíĸĩ ë³ķ
ĠìĤ¬ë°© ìľ¼ë¡ľ
ðŁĻ ı
ëĮ ĵ
Ġê³µìŀĳ ìĿĢ
Ġë Ŀ½
Ġê¹Ģ ì¹ĺë
íĴį ê¸°
Ġì§Ģëıħ íķľ
ê·¸ëŀ ¬
Ġëĵ¤ìĸ´ ìŀĪìĸ´ìĦľ
ìĹĪëĭ¤ ê°Ģ
Ġë© İ
Ġíŀĺ ìĹĲ
ĠìķĦê¸° ìŀĲê¸°
Ġíľĺëĳĺë łĢëĭ¤
9 0
ĠíĶ¼ë ¶Ģë
Ġì¦Ŀ ìĺ¤
ë ®¤
ĠëĶĶ ìłĢ
ĠëĦ Ĳë¦¬
ìĸ´ë ĵł
íķ¨ ìĿĺ
íģ¬ë ıĦ
ĠëıĮìķĦ ëĭ¤
ë°© ìļ¸
ë ĵľëĬĶ
Ġì£¼ ìľĦìĿĺ
Ġë§Įì¡± ìĬ¤ëŁ¬
ê±°ë ©´
ê½ĥ ìĿ´
- !
ìĦľ ìĻĢ
ìĭľ ì½Ķ
ĠìĦľë ŀį
ĠëĦ£ ìĿĦ
§Įíģ¼ ìĿĢ
¡ł ìĿ´
Ġì§Ģ íĸ¥
Ĥ ¨ë
ĠìŀĲë ¦¬ëĬĶ
íķ´ë ³¸
ĠìĮĢ êµŃìĪĺ
ìĭĿ ë¬¼
ĠëĤ´ë¶Ģ ëĬĶ
Ġë ¡¯ëį°
ì» ¹
°ĺ ìĿĺ
Ġê³µ ê¸°ê°Ģ
Ġê·¸ëķĮ ìĿĺ
Ĥĺ ëĭ¤
ãĤ ¢
ĠëıĻê·¸ëŀ Ĺê²Į
ĠìķĦë ĵ¤ìĿĢ
ĠíķĻ êµĲë¥¼
ĠíĨµ ì§¸ë¡ľ
en d
Ġìĭłê²½ ìĵ°
Ì ¥
Ġìĵ°ë įĺ
Ġì¿ł íı°
se oul
Ġê°ĸì¶Ķ ê³ł
Ġë¬´ ê²ģê²Į
ãĢį (
ì°½ íķľ
íķł ê²ĮìļĶ
Ġê¹Ĭ ê³ł
ĠìķĦëĤ´ ìĻĢ
Ġì°¸ ì¡°
ĠëĮĢë ĮĢ
ĠìĤ¬ê±´ ìĿĺ
ìĬ ´ë
ĠìŀĪ ê¸°ëĬĶ
Ġë ¦´ë
Ġê¸ ´ë
ìĭľë ©°
ĠíĻ© íĻĢ
Ġë¯¿ ìĿĮ
Ġê°ĸ ëĬĶ
Ġì£¼ ìĸ´ì§Ħ
Ġìĺģ ìĥģìĿĦ
Ġê¸Ī ê°ķ
ë¦¬ë ĮĢ
ĠìĽĶë ĵľ
íŀĪ ê²Į
Ġì¢ĭ ìķĺìĿĦ
ĠíĭĢë ¦°
å ½
íķĺ ëĭµëĭĪëĭ¤
ìĿ¼ ê¹ĮìļĶ
ĠìķĦìĿ´ ìĹĲê²Į
ìĭľ ì¼ľë
ì¼ Ħ
ìľ¡ìķĦ ìĿ¼ê¸°
Ġë§ĪìĿĦ ìĿĺ
P C
ìĽĲë ĵ¤ìĿĦ
Ġë¹¨ë ŀĺ
ìĬ¤ íĬľëĶĶìĺ¤
Ġíĥľ ê·¹
Ġë¬´ìĿĺ ìĭĿ
ëĭ ĲëĿ¼
Ġìĥģ íĥľë
ĠíĨµ íĻĶ
Ġì¢Į ìļ°ë¡ľ
ĠíĿĶ íķľ
ìķĦ ìĻĢ
ĠìłĦ íĪ¬ë
Ġìĸ´ë¦¬ ìĦĿìĿĢ
ĠëįĶ êµ°ëĭ¤ëĤĺ
ê°Ķëĭ¤ ê°Ģ
Ġëĭ´ ìĿĦ
il l
ìĪ ¯
ìĭľë Ŀ¼ê³ł
Ġëĸ¨ìĸ´ ì§Ģ
Ġì§Ĳìŀĳ íķł
ìĶ ½
ĠìĻľ ì¼Ģ
ĠìĨĮìĦ¤ ìĿ´
ì»¤ë ²Ħ
ê³¼ íķĻ
ìĤ¬ ìĹħ
ìļ° ì¹ĺ
ĠìĿ¼ë ĵ¤ìĿĦ
ĠëĨĢ ìķĦ
ëĺ ¥
ê²° êµŃ
ìĻĶ ìĸ´
Ġë°ľê²¬ íķĺê³ł
Į ľ
Ġíģ¬ ê¸°
ìĬ¹ ìĿĢ
Ġê´´ë ¬¼
Ġê± Ķ
ĠìĤ¬ë ª¨
ìķĦë ĩ¨
ĠìĤ¬ìĭ¤ ìĥģ
´¤ ì§Ģë§Į
ĠìĽĥ ê²¨
ĠìĤ´ ì§Ģ
Ġëª¸ ê³¼
Ġìĺ¨ë Ŀ¼ìĿ¸
ĺ ëĭ¤
ìĺĢ ê¸°ìĹĲ
ìĻ¸ ìĿĺ
ê²łë įĶëĿ¼êµ¬ìļĶ
ĠìĿ¼ì°į ìĿ´
ëĭ¤ íĸī
ìĭľë ¦¬
ĠëĨĵ ìĿĦ
Ġìŀĺ íķ´
Ġë¯¸ë °±
ĠìĦ¸ ê²Į
Ġê°Ģê¹Į ìĬ¤ë¡ľ
ĠìĦľ ìĤ¬
ĠìĻĢ ìķ¼
ì¼Ģ íĮħ
Ġëª¸ë ıĦ
Ġìĸ´ë¦¬ëĳ¥ ìłĪ
ìĽ ¨ëĶ©
ĠìĹ¬ ìĿ¸ìĿĦ
ê±° ìĺĪìļĶ
íģ¬ íģ¬
ì½Ķ ìĬ¤ë©Ķíĭ±
Ġì°¨ë ¦¬ê³ł
ĠíĻ© ëĭ¹
łĪë Ĥĺ
Ġìłķ ë¦¬ë
ìĪł ìĿĢ
ìĻ¸ ëĭ¤
Ġìı łë
ĠíĮĶ ìĹĲ
Ġíķľ ëªħ
ĠìĦ± ëĬ¥
ĠìĿ¼ ìĿ´ì§Ģ
ĠìĻĶëĭ¤ ëĬĶ
è» į
æ ·
ìĺ¤ë ¥´ê³ł
ĠìĹ¬ë Ł¿
íĹ¬ ìĬ¤íĥĢê·¸ëŀ¨
ģ Įë
ðŁ¤£ ðŁ¤£
Ġìĭľ ëĬī
ì°¨ ìĿĺ
ì£¼ìĿĺ ìłģ
ĠìłĦë ©´
Ġìĭľ íĤ¬
Ġë²Ĺ ìĸ´ëĤľ
ĵ¤ìĹĲ ê²ĮëıĦ
ì£ĦìĨ¡ íķ©ëĭĪëĭ¤
ç ¦
ĠìĶ¹ ëĬĶ
íķ¸ë ĵľ
Ġì¤ įëĭĪëĭ¤
ëª ¸ë
Ŀ¼ìĿ´ë ¸Į
4 5
ĠìĿ Ĭ
ĠìĹ¬ íĬ¼
ĠëķĮ ì²ĺëŁ¼
ĠìĤ¬ëĿ¼ ìł¸ë
ĠìĦłìĥĿ ìĿĺ
Ġë¬´ ìĦł
Ġë§İ ìĬµëĭĪëĭ¤
Ġíį¼ ì¡Įëĭ¤
ìĺģìĸĳ ìłľ
ìľ¼ë¡ľ ìĦľìĿĺ
Ġì§Ģ ê¸ī
Ġë°° ìĸ´
ĠíĻĶ ìĤ°
Ġíķĺë£¨ ëıĦ
Ġë´¤ ìĸ´ìļĶ
íļĮë ıĦ
íķĺ ê¸¸
Ġíĸ¥ ê¸°ê°Ģ
íķ´ì£¼ ìħĶìĦľ
ëĤĺ ëĵ¤ìĿ´
Ġë¶Ģë ¥´ë¥´
Ġê·Ģ êµŃ
ì´ī ì´ī
Ġë¨¹ ìľ¼ëł¤ê³ł
ìŀĲë ¦¬ê°Ģ
ĭ ê²Į
ĠëĦĪ íķľíħĮ
ĠíķĻ ìĽĲ
ĠëĨĪë ĵ¤ìĿĢ
Ġíİ¸ ìĿ´ëĿ¼
R e
o k
įĺ ê°Ģ
ĠëĪĪ ê³¼
Ġìļ° ìĹ°
Ġê±° ëĬĶ
Ġê²ĥìĿ´ ì§ĢìļĶ
ĠìķĮìķĦë ³´
Ġê¹¨ëĭ« ê³ł
ê°Ģ ìĬ¤
ĠëĤĺ ìĦ°
ĠìŀĲìĹ° ìĬ¤ëŁ¬ìļ´
ë ķĮë¬¸ìĹĲ
¦¬ìĬ¤ ëĬĶ
ë¶Ī ê¸Ī
íħĮ ìĿ´
ê±°ë¦¬ ëĭ¤ê°Ģ
íĺľ ìĿĺ
ĠìĤ Ĳë
Ġìłķ ë³µ
ìĹĨ ìĿĮ
ìĹĪ ì£ł
ĠíĸĪ ìľ¼ë©´
ìĭ¤ íķĺê²Į
ìĦł ìĪĺ
ĠëıĮ ìķĺëĭ¤
Ġë°ľ ê¸¸ìĿĦ
ìĿ¼ë Ĥł
ìħ¨ ìľ¼ë©´
Ġë°Ķìģĺ ê²Į
¬ë įĶëĭĪ
Ġì§ĳ ìĿĺ
ĠëĽ° ìĹĪëĭ¤
ĠíĺĦìĭ¤ ìĹĲ
Ġìļ°ë¦¬ë ĵ¤
ìķĦ ì§Ģë
ëĭ¤ë ³´ëĬĶ
ĠìĹ¬ìŀĲë ĵ¤
ê¸° íķľ
ëĮĢ ìŀ¥
Ġì¹´ ìĬ¤íĬ¸ë¡ľ
ĠëĤ´ëł¤ ëĭ¤ë³´ìķĺëĭ¤
ĠìĤ¬ ìŀ¥ìĿ´
Ġìĺ¤ ì¤Į
Ġì£¼ë ©°
ĠëĮĢ ìĿĺ
¶Ģë ĮĢ
ìĿ¼ ìļĶìĿ¼
ĠíķĦìļĶ íķł
Ġìĺ¥ ìĪĺìĪĺ
ĠíļĮìĤ¬ ìĹĲìĦľ
ìĭĿ ëıĦ
cat son
catson instagram
Ġì§Ģ ìĪĺ
ĠìĤ¬ì§Ħ ìľ¼ë¡ľ
ĠíĿĺë łĢ
ĠìłľíĴĪ ìľ¼ë¡ľ
ìĭľ íĬ¸
Ġìĭľ ê³Ħ
Ġì£¼ ê´Ģ
ìĤ° ìĦ±
ĠìĪľë ĮĢ
ĠëĤłì¹´ë ¡Ńê²Į
Ġë§Į ì§Ģ
ì±Ħ ëĬĶ
ĠìĤ¬ë Ł¬
ĠëĮĢ ìĥģìľ¼ë¡ľ
Ġë§ŀ ëĭ¤
ëıĮ ìĿ´
Ġìļ°ë ĳĲë
Ġëªħ ìĭ¬
ê·¼ë ĳĲ
Ġê·ĢìĹ½ ê³ł
ìĦľ ë©´
Ġìłķ ë¬¸
Ġê°Ģë ³´ê³ł
ĠëĤ¨ ìª½
Ġì¤Ħ ìĿ´
©Ķ ìĿ´
ìĬ¤ëŁ½ ì§Ģ
Ġìĭľìŀĳ íķ´ìĦľ
ĠíĮĮ ìĬ¤
ìĿ´ë ¶Ī
ĠëĤĺ ìķ¼
¶Ģ íĦ´
ĠíķĺëĬĺ ìĿĢ
ĠìķĮë ²Ħ
Ġì°¡ ê·¸ë
Ġë§Įë§Į ì¹ĺ
Ġë¹ Ħë¥¼
ê²ł ìĿĮ
ìĤ¬ë Ŀ¼
Ġì¢ĭìķĦ íķ´ìļĶ
Ġê³ģ ìĿĦ
ĠëĤĺíĥĢëĤĺ ì§Ģ
Ġë¾ °
Ġì§Ģ íĤ¬
ĦĪë ¬´ë
ĠëĤ´ë²Ħë ł¤ë
ĠìĨĲ ì§ĵ
íĸĪë Ħ¤ìļĶ
Ġìºł íķĳ
Ŀ¼ë §Į
Ġë²Į ìĸ´ì§ĢëĬĶ
íķ© ëĭĪëĭ¹
ëĭŃ ê°Īë¹Ħ
Ġë§¡ ìķĦ
íķĺë įĶëĿ¼ëıĦ
ĠíĨµ íķ©
ĠëĦĺ ìĿĢ
Ġëį°ë ·Ķ
Ġê¼¼ê¼¼ íŀĪ
íķĺ ìŀĲëĬĶ
Ġë§ĪëĤĺ ë¥¼
ç «
íĬ¸ë łĪ
ì¡Į ìĸ´
íĻĺ ìĿĺ
Ġìŀĥ ì§Ģ
Ġìĸ´ì¨Į ê±°ëĤĺ
Ġë§Ľ ê³¼
Ġëª¸ ì§ĵ
¡ľ ìļ°
Ġìľ¼ ìĵ±
ì£¼ ìĭľê³ł
Ġì§Ħ ìĺģ
ĠìĹ¬ìŀĲë ĵ¤ìĿĢ
ĠëĤ³ ìĿĢ
Ġê·¸ë ¦´
Ķë »Ķ
ëĤ´ ìĤ¬ëŀĳ
§¤ ê°Ģ
Ġìĸ´ëĸ¨ ê¹Į
m on
ĠëĳĲ ì§Ģ
Ġêµ¬ ìĽĲ
ĠìĹ´ë ¦¬ê³ł
ĠìĨĮëħĦ ìĿĺ
Ġëª¨ëĳĲë ¥¼
Ġìĭ¸ëĬĺ íķľ
ĠìķĦ íı´ë¡ľ
ĠìĤ¬ ìķ¼
Ġê°Ģë ©°
°Ľ ìĿĦ
ĠëıĻ ë§¹
Ġê·¸ëłĩ ìĬµëĭĪëĭ¤
Ġê¸° ìĥīìĿ´
ĠìĦłë ³´
Ġë³´ìĿ´ ëĬĶëį°
i a
ì¤¬ ìĸ´ìļĶ
ĠìĹ°ë §Ĳ
íĽĪ ìĿĺ
Ġì¹¨ë¬µ ìĿĦ
ëĭŃ ë°ľ
ĠìĥĿëªħ ìĿĺ
ëĭµ ìĿĦ
Ġê·¸ë łĪìĿ´
Ġê°Ī ê¹Į
Ġëĭ« ê³ł
Ġìĺ³ ìĿĢ
ê±° ìŀĦ
ì¶ľ ìĿĦ
201 6
¥Ń íĹĮ
Ġë¶Īê¸¸ íķľ
ĠìĤ ¿
Ġë§Ĳ íķ´ìĦľ
Ġê¹Ģ íĥľ
¯¸ë ĶĶ
Ġì²ľ ìĤ¬
Ġìĭľ ì»¤ë
ĠëıĦ íĿł
ì°¨ë ¦¼
Ġë©į íķľ
é Ł
ĠìĻ ¤ì¼Ģ
ĠíĽĦ ê¸°ë¥¼
ì§ĢìķĬ ìķĦ
ìĤ¬ëŀĮë ĵ¤
ĠìĿ¸ ìĬ¤íĥĢê·¸ëŀ¨
Ġë°° ìļ¸
ìĻĢë Ŀ¼
ìĸ ĺë
Ġëĵ¤ ìĸ´ëıĦ
Ġìº Ķ
Ġê±· ê¸°
ĠìķĪ ìĿ´
ĠìĨĮ ìľĦ
ìĭľë Ŀ¼
íĭ° ìĸ´
Ġëľ ¸
ê¹¨ë ¹Ħ
ĠíĶĮëĿ¼ ìĬ¤íĭ±
ĠìķĬìķĺë Ĥĺ
Ġìĺ¤ëĬĺ ìĿ´
Ġëª¨ë¥´ ê²łìĸ´
ĠíĮ½ íĮ½
æ° £
Ġìĥ ´
Ġê°Ķ ìĸ´ìļĶ
ìĦ± ê³µ
Ġëª© êµ¬ë©į
Ġë°° ìļ°ëĬĶ
ê¹Ģ ìĹĲ
Ġê´Ģë ħĲ
Ġê³łìĨĮ íķĺê³ł
ĠìĤ¬ìļ© ìĿ´
Ġê·¸ë ¦¬ëĬĶ
ĠëĲĺ ìĦľ
ĠíħĮìĿ´ë¸Ķ ìĿ´
Ġìłģê·¹ ìłģìľ¼ë¡ľ
Ġê° ł
ðŁĴ ľ
ĠíĹ ·
Ġìĸ¼êµ´ ê³¼
è Ī
Ġëħ¼ë ¦¬
ĠìĿ´ ì§ĳ
Ġìľł ëıĦ
ê³łë§Ī ìĽĮ
Ġê²Į ìķ¼
Ġëĵľë ¬¼
ĠìĹĨ ìĹĪìĸ´
Ġì¢ĭ ëĦ¤
fre nch
ĠìĪĺ íķĦ
ĠìĿ¼ ìłķíķľ
ĠìķĦëĭĪ ëĭĪê¹Į
Ġìłķ ìĿ´
ĠìŀĪìĹĪ ëĬĶì§Ģ
Ġëª¨ìĸĳ ìľ¼ë¡ľ
Ġíķĺ ê²łëĭ¤
ë¯¸ ëĭĪ
ĠëĤľë į°
ĠëĳĲíĪ¼ íķľ
Ġë¬´ ê¸°ë
ë§Ī ì¼ĵ
ìĿ´ìĹĪ ê¸°ìĹĲ
Ġëĵľ ìĭľê³ł
ìĤ´ë ¦¼
Ġ x
íķ´ ì§Ģê¸°
Ġëĭ¤ìĿĮ ìľ¼ë¡ľ
ĠìĬµ ê´Ģ
â Ķ
ìĿ¸ ê²ĥ
íķ© ìĭľëĭ¤
ĠìĺĪë ¹Ħ
ĠëĪĦêµ¬ ìĿĺ
Ġì§Ģ ìłĢë¶Ħ
ê°Ģë ł¤
²ķ ìĿ´
ëĭ´ íķľ
Ġë¶Ħ ì£¼
as m
ê´ ĢëıĦ
Ġëįĺ ì§Ħ
ĠëģĬ ê³ł
ĠìŀĲ ìĻ¸ìĦł
Ġì§Ģë ŀĦ
Ġê·ľ ìłķ
ãģĦ ãģ
ìĤ ¶
Ġíķ´ë ³¼
Ġíĺ¸ ìĪĺ
ĠíķĦìļĶ íķĺëĭ¤
Ġì£½ìĿĮ ìĹĲ
ĠëĤ´ëł¤ ìĻĶëĭ¤
íĥĿ ë°°
Ġê·¸ê³³ ìĿĢ
Ġëį© ìĸ´ë
ĠðŁĳī ðŁı»
ĠìłĦ ì§Ħ
Ġë¬´ ìĭĿ
Ġìĭľìŀĳ íĸĪê³ł
Ġëįķ ë¶Ħ
Ġê³łë¯¼ íķĺëĭ¤ê°Ģ
ĠìľĦì¹ĺ íķĺê³ł
Ġìłĳ ìĭľ
Ġëĭµ ìĿĦ
Ġì¶ķ ë³µ
å® ¶
ĠëĤĺ ìĦ¤
Ġìłľ ìķĪ
ĠìĨĮë Ĥĺ
Ġê°Ĳ ìĿ´
ê°Ģë ĵľ
ĠíĥĦ íĥĦ
Ġìĭłê²½ ìĿ´
Ġìıĺ ìķĦ
Ġìŀĳ ê°ĢëĬĶ
ĠìĹ´ ìłķ
ìĽĥ ìĿĮ
ĠíĤ¤ ìĽĮ
Ŀ łë
ì§Ģë Ħ¤ìļĶ
ĠíĥĢ ìĦľ
Ġê¿ Ģë
Ġê°Ģë³į ê³ł
ł ĲëĿ¼
Ġê°ģ ìĺ¤
Ġëıħ ìŀĲ
Ġìłķ ê°Ī
Ġêµ¬ ì¶ķ
Ġëĭ¨ë ıħ
Ġëķ Ģë
ĠìķĦë ©Ķë¦¬ì¹´ëħ¸
ĠìĬ¤ ëĭĺ
ì´Īë Ķ©
ĠL G
ĠìĹ¬ ê°Ħ
íĿ Ķëĵ¤
ë¥ Ļ
ĠíŀĲë ģĹ
Ġë¹ ½
Ġì§Ģ ìĭľë¥¼
ĠìĦ¸ ì°¨ê²Į
âĿ Ĺ
M T
ĠìŀĪ ìĹĪëĤĺ
Ġì§Ģ ê°ĳ
ĠâĢ »
Ġë°ľê²¬ íĸĪëĭ¤
ĠìĹ°ë ª»
ĠìĪ¯ ë¶Ī
Ġìĭľ ì²´ë¥¼
ìĹĪ ì§ĢìļĶ
íĥĢ ìĽĮ
Ġë¯¸ ìļ©
Ġìĭľë Ĥĺë¦¬
Ġíķłë¨¸ëĭĪ ìĿĺ
ĠìĤ¬ë ¨¹
Ġì¶ľ íĺĦ
ĠìķĦë³´ ì¹´ëıĦ
Ġâ ľ¨
Ġë¶Ģ ìĿ¸ìĿ´
Ġëį® ìĸ´
Ġë¶Ī íĥľ
ë³´ ê¸°
ìĨĶ ì§ģ
ĠëĤĺ ì§Ģë§ī
âĢ¦âĢ¦ ?
Ġëĭ¤ëħ Ķëĭ¤
ĠìĤ´ë ©°ìĭľ
Ġë§ĽìŀĪ ìĹĪëįĺ
ĠìĤ° ìĹĲ
Ġë°Ķëĭ¤ ìĹĲ
¦¬ ëĭī
¶Ģ ìŀ¥
ĠìłĦ ì£¼
ĠíĨłë ¦¬ëĬĶ
Ġì¯ ¤
ìĿ¼ ìľ¼
Ġê³ł ìķĦ
Ġìĸ´ìļ¸ë ł¤
Ġêµ¬ë©į ìĿ´
Ġë°ĶëĿ¼ë³´ ëĭ¤ê°Ģ
ĠìĤ¼ ì¼°ëĭ¤
´ī ìĿĢ
Ġìļ´ ìĿ´
ì§ ĪëıĦ
ê± ·
ĠìĤ¬ íĺķ
Ġìĭľ íĸī
Ġë§Į ìł¸ë
ĠìĿ´ë¯¸ ì§Ģë¥¼
ðŁĳ ¶
ĠìĽĮ íĦ°
ĠìĿĺ ì§Ģë¥¼
ĠìłĦë ıĦ
ĠíĹĪë ¦¬ìĹĲ
ìĥĿíĻľ ìĿĦ
Ġìľł ì§Ģë
Ġë łĮì¦Ī
Ġìľł ìĭ¬íŀĪ
ìłĲ ìĿĺ
Ġíķ¨ê»ĺ íķĺëĬĶ
ĠìĦłíĥĿ íķł
ĲĲ ëĭ¤
ê·ľë ª¨
ĠìĨĮ ìĬ¤ìĹĲ
Ġê³¨ë ĵľ
Ġì°¨ì§Ģ íķĺê³ł
ìĭ« ìĸ´
§Į ìľ¼ë¡ľëıĦ
ĠìĹ¬ê¸°ìłĢê¸° ìĦľ
å ĳ
ĠëĤľ ê°Ĳ
¹Ľ ìĿ´
Ġìŀ¥ëĤľ ê°Ĳ
ĠìĿ¼íĸī ìĿĦ
íķĺê¸° ìĹĲëĬĶ
¦¬ë Ł¬
ìĹĪ ê¸°ìĹĲ
ĠìĨĮ ìļ©ìĿ´
íĥĢë ¥´íĬ¸
Ġì°° ì¹µ
ĠìŀĲ ìŀĳ
ìĤ° ê³¼
Ġìĭłë ħĲ
Ġëį° ìĹĲ
ĠìĹĨ ìĸ´ì§Ħ
ĠìŀĲë ĵ¤ìĿĢ
ł¥ ìĿĺ
Ġíĥľ ìĽĮ
Ġìĥģ ìŀĲë¥¼
ĠëıĻ ì§Ģ
Ŀ½ ìĿ´
¦° ëĭ¤ê³ł
Ġë³¸ ìĿ¸
ìľ¼ë Ŀ¼ëĬĶ
ĠìĿ¼ ìĿ¸
¦° ëĭ¤ëĬĶ
ê´ Ħ
Ġìĭľìŀĳ íĸĪìĬµëĭĪëĭ¤
Ġëĥ ħ
Ġì£¼ê³ł ë°Ľ
ĠëĤŃ ë§Į
íİľ ìħĺ
ĠìŀłìŀĲ ì½Ķ
ĠíĮ ¡
ĠíĽĦ ìĹĲëıĦ
ìĽĮë ĵľ
ĠìĤ¬ ìŀ¥ìĿĢ
Ġíĸ¥ ìĪĺ
Ġì¹´ë§Ī ìĿ´ëĿ¼ëĬĶ
ħ¸ ëĬĶ
ĠìĦ¸ìĽĶ ìĿĦ
ãĥ© ãĥ
Ġê¸°ëĭ¤ë ¦¬ëįĺ
........ ..
âĢ¢ âĢ¢
Ġì¤Ħ ê³§
íĮĲ ìĿĺ
Ġêµ¬ì²´ ìłģìĿ¸
ìĬ¤ íĶĦë
Ġë³´ ìĥģ
Ġìŀĳ ìķĦ
ĠëĤ´ëł¤ ê°ĢëĬĶ
ĠìĪľê°Ħ ìĿĦ
Ġìĭ« ìĹĪëĭ¤
Ġëĸłìĺ¬ë Ŀ¼
ê³ ¨ìĿĦ
ê³ł ìĸĳ
ìĭľ íķĺëĬĶ
Ġìĸ» ê³ł
Ġê´´ë¡ľ ìĽĮ
Ġì¢ĭ ìķĺê³ł
ĠìĦ¸ ê³Ħë¡ľ
íķĺê¸° ê¹Įì§Ģ
Ġìĸ¸ëĭĪ ëĬĶ
ĠìķĦ ëĬĳ
Ġì¥ Ĳë
Ġì£Ħ ê°Ģ
ë¶Ħë ĵ¤
ĠëļĿ ëļĿ
ĵľë ¦¬ê³ł
Ġë°ľ ìĤ¬
Ġë¶Ļ ìĿ¸
Ġìľł ìĤ°ê·ł
¡ł ìĿĢ
Ġê³ĦëŀĢ ì°ľ
Ġãħłãħłãħłãħł ãħł
ìłľ ìĿ´
ĠëĮĢë¶Ģë¶Ħ ìĿ´
ëĪĦë Ĥĺ
ĠëıĻìĿ¼ íķľ
ĠëĦ£ ìľ¼ë©´
ë² ļê½ĥ
Ġ19 5
Ġíĥľìĸ´ë Ĥ¬
' ,
ĠëĪĪë ıĦ
ĠìĿ¸ë ¯¼
Ġë¨¸ë¦¿ ìĨį
ëıĦ ìĦľ
Ġìłķ ì§Ģ
ĠìĿ¼ ìĿ´ëĿ¼
Ġê¸°ë³¸ ìľ¼ë¡ľ
Ġê·ľ ì¹Ļ
Ġê¹¨ëĭ¬ ìĿĢ
ë³¼ë §Įíķľê³³
ĵľë łĪ
íĮĮë ıĦ
æĿ ±
Ġëı ĪëıĦ
¦¬ë °Ķ
ĠíĽĦë °°
ĠëĤĺ ê°Ģì§Ģ
Ġë³´ ê¸ī
ĠìĿ¼ ìĿ¼
ìĸĳ ìľ¼ë¡ľ
ê°ľ ìĶ©
Ġëĵ¤ë Ł¬
ĠëĽ° ëĬĶ
ì³ ¤ëįĺ
Ġì¢ĭìķĦ íķ´
ìĥĿ ìĿĢ
ĠíĨµ íķĺëĬĶ
Ġì±Ħ ì°į
ĠìĦ °
ê±°ë ¦¬ìĹĲ
ĠíĺĦ ê´Ģë
Ġì¢ħ ìĹħ
Ġë°°ë ĤŃ
ĠìŀĪë ĥĲ
Ġìĭł ì´Į
Ġë§¤ ì£¼
ĠíĦ¸ ìĸ´
Ġìĭł ì²´
Ġë²Ħë ¦¬ì§Ģ
Ġë¦Ń ìĿĢ
Ġë°Ľ ìľ¼ë©´
Ġê±´ê°ķ ìĿĦ
Ġê·¸ëŀĺ íĶ½
Ġì£½ ìĿĮìĿ´
ëĤ´ ìĬ¤íĥĢìĿ¼
Ġì¹ łë
Ġê·¸ëŁ° ê±°
ĠìĹĲ ìĦ¼
ì£¼ë ¨¹
ĠìĭĿ ìĿĺ
Ġëħ¸ë ¦¬ê³ł
ĠìĥĪ íķĺ
Ġê³ł íķ¨
ê±° ìĿĺ
Ġìŀ¥ë ¡Ģ
ì§Ħ ê³¼
ĠìŀĪëĬĶ ê²Į
Ġë¯¸ ì³Ĳ
Ġìµľ ìĥģ
Ġì´Ī ê¸°
ĠìĨĶ ìĨĶ
Ġë©Ģ ì§Ģ
ìĶ¨ë °ľ
k m
ĠëĤ´ ìŀ¥
ĠëıĮìķĦë ³´ë©°
êµ¬ ê²½
ĠëĬĲê»´ ì§Ī
ĠìĪĺ ì¤į
Ġëĭ¤ë¬¼ ìĹĪëĭ¤
ĠíĦ° ìł¸ëĤĺ
ĠìĿµ íĺĢ
ŃĲ ï¸ı
Ġìķħ ë§Ī
ê°ľë Ĥĺ
ìī½ ê²Į
Ġì¦Ĳê±° ìĽĮ
Ġë§ŀì¶Ķ ìĸ´
ĠëıĻ ê²½
êµ ³
Ġë¯ ¹
ë ł¤ëĬĶ
ĠìĻ¼ ìª½ìľ¼ë¡ľ
Ġëĭ¤ ìļ´ë
ìĺĢ ìľ¼ëĤĺ
ĠìŀĳíĴĪ ìĿ´ëĭ¤
ì¤Ģ ëĭ¤ê³ł
ĠëĤ´ë ¯¼
Ġëĭ¹ìĭł ìĹĲê²Į
Ġë¨¹ìĿĦ ê¹Į
ĠìĪĻ ìĦ±
ìĹĲ ìķ¼
íķĺ ìĭľìĺ¤
ĠëĲ łë
Ġì²Ń ëħĦë
Ġë³´ ì¶©
ëĤ ±
ìł¸ ìķ¼
ê²ģ ì§Ģ
Ġê²ĮìŀĦ ìĿ´
ìĪľë ĮĢ
Ġíķľ ìĪľ
Ġë§Ĳ ìĿ¼ìĦ¸
ĠìŀĪìĹĪëĭ¤ ë©´
ìĭľ ìĬ¤
Ĥ´ ìķ¼
ĠíĹĪ íĥĪ
ê°Ĳ ìĤ¬íķľ
íı¬ íĬ¸
Ġì§Ģ íĮ¡
ìĿ´ìĹĪ ì§Ģ
ìļ ľ
ĠìķĬëĬĶ ê°Ģ
íģ¬ ëĭī
ë¹Ħ íĥĢë¯¼
ĠìĻĦìłĦ íķľ
Ġìŀĺëª» ìĿĦ
Ġë¹Įë Ķ©
Ġêµ¶ ì£¼ë
ëĭ¤ê°Ģ ëĬĶ
íħĮ ëĭĪ
Ġëĭ¤ ëĭ¤ë
ĠíĮ ģ
ĠìłĢ ìĬ¹
ë§Ī ëĬĺ
ê°Ģ ê²©
ëħ¸ë ŀĺ
Ġì¦Ī ìĿĮ
ł Ģëįĺ
æ° ´
ĠëĤ´ëł¤ ìĦľ
ìĿ¸ íķľ
êµĲ ìĪĺ
ê¾¸ë Ł¬
ĠíĸīëıĻ ìĿĢ
Ġë°ĽìķĦëĵ¤ ìĹ¬
Ġê·¸ë ¡ľë¶ĢíĦ°
´¤ ìĬµëĭĪëĭ¤
íķĺìħ¨ ìĬµëĭĪëĭ¤
ĠìĿ´ ìŀĲ
Ġëª» íĸĪìĬµëĭĪëĭ¤
ìģ ¨
ëª¨ ìĬµ
êµ¬ë ¦Ħ
ëĭ¤ë įĶëĭĪ
Ġëĵ£ ìŀĲ
Ġ15 0
ìķĺëĭ¤ ëĬĶ
ĠìĨĮ ìŀ¥
ê³µ ìĹ°
ì± ł
Ġìļķ ìĭ¬
ĠëĮĢ íķĺëĬĶ
Ġì§Ģë Ĥł
Ġë³´ë ¬¼
ĠëĤ´ëł¤ë Ĩĵìķĺëĭ¤
ĠìŀĦë ¬´ë¥¼
ìļ´ ìĬ¤íĥĢê·¸ëŀ¨
Ġíķ´ ìłģ
ìĺ¤ë ¡ľ
ĠìĪĻ ìĨĮ
sh ion
ìŀĲ ìĺĢëĭ¤
ê²ĥ ì§Ī
íĮĶ ìĿ´
ĠìķĬìķĺ ê¸°
ĠíĹĪë ĳ¥
Ġìĥī ìĥģ
Ġê·¸ë¦¬ ê³¤
ĠìķĦëŀĺ ìĹĲìĦľ
Ġê³Ħ ìĭľëĬĶ
ì²Ń ìĿ´
ë²Ī ì¶ľ
ë²ķ ìĿĦ
Ġëĭ¤ë£¨ ëĬĶ
ĠìĥĿ ë¦¬
ê¸ĢìİĦ ìļĶ
Ġìĭłë ŀĳìĿ´
ë°¥ ìĿĦ
ĠìĿ¼ìĸ´ëĤĺ ê³ł
ìĿ´ë Ŀł
ĠìķĮ ê²łìĬµëĭĪëĭ¤
ĠìĭľìĽĲ íķĺê³ł
ĠëĤĺ ìĿ´ë¥¼
âĢ¦ "
ĠìĦľë ¬¸
ê¸°ë Ŀ¼ê³ł
Ġê¸° ê»ı
Ġíģ¬ ëĭ¤
Ġëķħ ìĹĲìĦľ
Ġë§¤ë ł¥ìĿ´
ĠíĨłë ²Į
Ġëĵ¤ìĸ´ê°Ģ ê¸°
ĠìĨĮë ŀĢ
ìĿ´ë ª¨
ê°Ģë ´ĲìļĶ
ëĭ¬ ìĿĦ
Ġíĳ¸ì§Ĳ íķľ
ìħ §
íķ´ë ³´ëĭĪ
ĠëĬĲ ê¸ĭ
ĠìĿ¼ëĭ¨ ìĿĢ
ĠðŁĺ Ĥ
¬¼ë ©°
ìķĦë ¦Ħ
Ġëĵ¤ìĸ´ ìĺ¤ì§Ģ
Ġê°Ĳ ê²©
Ġë²Į ìĸ´ì¡Įëĭ¤
ĠìĿ´ìķ¼ê¸° ìĿĺ
Ġê³łíĨµ ìĿ´
Ġëª¨ìŀĲë Ŀ¼
ìĿ´ ìłł
Ġì£½ ìľ¼ë©´
ĠìĤ´ìķĦ ìŀĪëĬĶ
ĠìĪĺ íĺ¸
ĠìłĦ ìĤ¬
ìĹŃ ìĿĺ
ĠìĪľê°Ħ ìĿ´
Ġêµ° ìĤ¬ëĵ¤ìĿ´
Ġì§ľ ìŀĶ
ŀ ¬ëĭ¤
Ġëĭ¤ë £¬
ê´ĳ ìĿĦ
Ġì« Ģ
ìķĺëĭ¤ ê³ł
Ġì§Ģë Ĥ¸
ìĭľë ¯¸
Ġíľ´ë ¬´
ìķ ĪëĤĺ
¡ľ ìĦľ
ìĿ´ë ©´ìĦľëıĦ
ìĿ¸ë ĵ¤ê³¼
ĠìĿ¼ë ĮĢ
Ġë°ķ ìĤ¬
ë§Ī ìĬ¤íģ¬
ë¶Ħ ìłķëıĦ
ĠìķĦìĿ´ ìĻĢ
Ġìłķ ì±ħ
¬¸ íĻĶ
ĠëĤ´ë ³´ë
Ŀ½ íķľ
ëĲĺ ìĹĪìĬµëĭĪëĭ¤
ê¸° ìĸµ
ĠëıĦ ì¿Ħ
Ġì¤Ħ ìĿ´ìķ¼
ĠëĨĴ ìĹ¬
ìŀĲë¡ľ ìĦľ
² Ĺ
Ġìłķ ìĽĲ
ĠìķĪ ìª½ìľ¼ë¡ľ
Ġë²Ī ìĿĢ
ìģ ł
Ġì¶© ìĦ±
ĠìĪľê°Ħ ìĿ´ìĹĪëĭ¤
ĠìĿ¼ë ³¸ë
ĠíĿ° ìĥī
ĠìķĦ ìĭľì£ł
Ġë´ ¤ëįĺ
ëħĦ ìĿĢ
ê²½ ì°°
Ġëĭ¬ë Ŀ¼ëĬĶ
Ġê¸°ëĭ¤ë ł¸ëĭ¤ëĬĶ
Ġì¤Ģë¹Ħ íķĺê³ł
Ŀ¼ìĿ´ ìĬ¤
ìĪľ íķľ
Ġì¶ľ ìĭľ
ĠëĦ£ ëĬĶ
Ġìŀĥ ìĹĪëĭ¤
ĠíĬĢ ìĸ´
ìĿ¼ ì§¸
ìŀĲë Ŀ¼
ìĤ´ ìĿĢ
food pic
Ġì« Ħë
ĠìŀĲëŀĳ íķĺëĬĶ
p a
ìĹĨ ëĭ¤ëĬĶ
ĠíĮ¨ íĤ¤
Ġìĺ¤ ë§Į
ìĸ¸ ìĿĢ
ĠìĿĮìĭĿ ìĿĢ
ì§Ģë Ħ¤
Ġëĵľë Ŀ¼ìĿ´
Ġìŀ¥ ë©´ë
ì ıĻ
¨¹ ìĸ´ëıĦ
Ġì¡° ìĦ±
ë§¤ íĬ¸
ĠìĪ² ìĿĦ
ë°Ģ íģ¬
ĠìłĢì§Ģë ¥¸
ê·ł ìĿĢ
ìłĦ ê³¼
Ġëª» íĸĪìĿĦ
Ġë¶Īë ²ķ
ìľłë ¦¬
ìģĺ ëĭ¤
Ġë¹µ ìĿĦ
Ġì£¼ íĥĿ
Ġìĸ´ ìĦ¤
Ġìĥģìĥģ ëıĦ
ĠíĽĶ ì³Ĳë
ĠëĤĺ ìĻĶëįĺ
Ġìŀĺë Ĥľ
ĠìĹĲ ìĦ¼ìĬ¤
Ġì§Īë ł¤
Ġê¼Ń ê¼Ń
ĠëĦĺìĸ´ ê°ĢëĬĶ
ĠìķĦëĭĪ ìĹĪëįĺ
ê²Įë ģĶ
Ġë¶Ļ ìĺĢëĭ¤
Ġë¹Į ìĸ´ë¨¹ìĿĦ
æ ±
ĠìĥĿ ê¸°ë©´
ĠëĤ© ëĵĿ
Ġìĸ´ ì§Ģê°Ħ
Ġê³µ ìŀĲ
Ġì±Ħ ìļ°ê³ł
ëªħ ëıĻ
¸ ĶìĿĦ
íŀ Ļ
ëħ ĺ
Ġì¦Ŀ ê°Ģ
ĠìĤ¬ ëĭ¤
¬´ ìĿĺ
ëĭ¹ ìĭłìĿ´
Ġëĭ¬ ê±
Ġì§Ģë Ĥ´ê³ł
Ġë§ĪìĿĮ ìĨįìĹĲ
²Ħë ł¸
Ġë³´ ìķĺìĬµëĭĪëĭ¤
ë¨¹ ëĳ¥
Ġëľ¨ ëĬĶ
Ġì¦ī ê°ģ
Ġì²ŃëħĦ ìĿ´
Ġì»¨ë ĶĶìħĺ
Ġê²½ íĺ¸
ĠìłĦ ìĽĲ
ĠðŁ Ķ
ĠìĺģíĻĶ ëĭ¤
Ġìŀĩ ëĬĶ
ĠëĲĺ ìĸ´ë²Ħë¦°
Ġì¹ĺ ì¼ľ
Ġì¡¸ë Ŀ¼
ê·¸ë Ŀ¼ë
ì²ľ ë§Į
Ġê²ĥìĿ´ ê¸°
Ġë°¤ íķĺëĬĺ
Ġì¼ ľë
Ġë¨¹ìĿĮ ì§ģ
Ġë§Ĳ íķ´ë
ĠìķĦì¹¨ ìĿĦ
ĠëĵĿ íħľ
ĠìķĪë Ĳł
Ġì£¼ë¬¸ íķĺê³ł
ìĭľ ì§ĢìļĶ
Ġìľł ì§ĦìĿĢ
¬¼ë ĵ¤ìĿ´
ĠëĮĢíĳľ ìłģìĿ¸
Ġìĸ´ë§Īìĸ´ë §Ī
Ġê·¸ë ķĲ
ĠìķĦ íĶĶìĿĦ
ĠìŃĪ ìļ±
ë¨¹ëĳ¥ ë°į
Ġìĥģ ìĭ¤
ĠìĦ± ìĿĺ
ĠíķľêµŃ ìĿ¸
ìľ¡ìķĦ íħľ
Ġë°Ł ê³ł
Ġëħ¸ ê³¨
Ġëľ» ìľ¼ë¡ľ
ìĤ ¿
Ġíķĺ ë§Ī
ĠìĦ¸ë ł¥ìĿĦ
ĠìŀĶìĿ¸ íķľ
Ġê·¸ë ¿Ĳ
ĠìĪĺ ëĤ©
Ġìĭľ ìĸ´ë¨¸ëĭĪ
ĠëĳĲ ê»į
Ġì§ĵ ë°Ł
ìĿµ ìĿ´
Ġìĸ´ëĶĺ ì§Ģ
å ī
Ġê°Ģë ¦¬ê³ł
ĠìĽĢ ì¸łë
ë·°íĭ° ê·¸ëŀ¨
ìĬ¤ íĨłë¦¬
ì§ĳ ê³ł
ê°ķ ìłķ
ĠìĹ´ ìĿ´
ĠëĳĲëł¤ ìļ´
Ġíķ¨ìľłë Ĳĺìĸ´
ĠíĿ Ķë
Ġìĭł ìĿĮìĿĦ
Ġëĵľë ¦½ëĭĪëĭ¤
ĠìĿĮ ìĦ±ìľ¼ë¡ľ
ë³´ëĭ¤ ëıĦ
ĠëĤ¨ìŀĲ ìĹĲê²Į
Ġë¨¹ ìĹ¬
ëĮĢ ìļĶ
ĠíļĮ ìĤ¬ìĹĲ
ê·¼ëĳĲ ê·¼
Ġë¯¸ ìļ©ìĭ¤
Ġê°Ģì¡± ëĵ¤
ìĪĺ ëĭ¤
ĠìŀĪ ê²łëĭ¤
ìłĦ íĻĶ
Ġìĭľë ģĦëŁ½
ìĬ¤ ëĭĺ
Ġíķ ¥
ĠíĴ ĭ
Łī ìĿĢ
ðŁ¤ ¦
ìĺĢ ìĿĮ
Ġê²ĥìĿ´ ì§Ģë§Į
ì£¼ë ł¤ê³ł
Ġìĸĳ ìĿĢ
ĠìĹ¼ ìĥģ
Ġëª¨ë ĵ¬
Ġìľłë ¦¬ë
Ġë²łë ŀĢëĭ¤
ĠìłĢëł´ íķĺê²Į
Ġ ãħłãħłãħłãħłãħłãħłãħłãħł
Ġ ãĦ·ãĦ·
Ġíİ¸ ìĿ¸ëį°
ì¿ ¤
ĠìłĦë §Ŀ
Ġìĸ´ëĶĶ ê°Ģ
ĠíĿĶ ìłģìĿ´
íĸĪ ì§ĢìļĶ
ë§Īë ¥¸
Ġëĵ¤ ìĹĪì§Ģë§Į
Ġê°Ģë ¬¸ìĿĺ
Ġ- >
Ġíĥľ ëıĦê°Ģ
ĠìĹ ĩ
ìĪĺ ë¦¬
ëĭ¤ëħ Ķëĭ¤
Ġë§Ī ìĬ¤íģ¬
Ġíģ Ĳë
Ġë¶Ī ê³ł
Ġë ŀŃ
íķ´ ìļ©
ĠìĪĺ ì§ĳ
ë³ Ħë¡ľ
ª¨ ìŀĦ
ĠíĻķ ëĮĢ
Ġê³µìŀĳ ìĿĺ
ĠìĹ¬ ìŃ
ìķŀ ìľ¼ë¡ľ
Ġëĸłìĺ¤ë ¥¸
po st
ìĹĲ ìĿ´ëĵľ
Ġë° į
Ŀ¼ ìĿ´ëĵľ
Ġíķĺ ìħĶìĦľ
Ġëª¨ ìŀĲë¥¼
ìŀĪ ìľ¼ëĭĪ
Ġì°½ íĶ¼
Ġìĸ» ëĬĶ
Ġê±°ê¸° ëĭ¤ê°Ģ
ħ¸ë Ŀ¼
ìĨĮë¦¬ ìĻĢ
ê²Į ìŀ¥
Ġê³¼ ê±°ë¥¼
ìķĮ ìĿĦ
ĠìĨĶì§ģ íķĺê²Į
Ġ3 1
H E
ï §¡
Ġíķ´ë ³Ģ
ĠìĿ´ìłľ ê¹Įì§Ģ
ĠëĵľëŁ¬ë Ĥ¬ëĭ¤
íĥķ ìĿ´
Ġëª¨ë°Ķ ìĿ¼
ĠìķĦ ê¸°ê°Ģ
łĪìĿ´ ìħĺ
Ġëģ¼ ìĽĮ
Ġê°Ķ ìĬµëĭĪëĭ¤
Ġì§Ģê·¸ ìĭľ
â ĸ
Ġìļ Ķë¡ľ
Ġì¢ĭ ê²łìĸ´
ê±°ë ŀĳ
íĸ¥ ìĪĺ
ĠëĤĺì¤ĳ ìĹĲëĬĶ
ĠìĤ¶ ê³¼
íģ´ë łĮ
ĠìºĲë¦Ń íĦ°ë¥¼
ìĹĪ ìĨĮ
ìŀĪëĭ¤ ê³ł
ëª¨ë ¥¼
ĠëĲĺë ıĮë
ìµ ľë
Ġë°© ì§Ģ
ì²Ļ ìĿĦ
ĠìĨĮëħĦ ìĿ´
ĠìĪľê°Ħë ¶ĢíĦ°
ë ¶ķ
íķĺë įĶëĿ¼ê³łìļĶ
ĠìĨĮ íĨµ
íĻĶë Ĳĺìĸ´
ĠìĿ´ê³³ ìĿĺ
ĠìĬ¬ë ©°ìĭľ
ë©Ķ ìĿ´íģ¬ìĹħ
Ġê·¸ë ķĮë§Īëĭ¤
Ġëĳĺ ìĿĦ
å £
ê¸ī ìĿĺ
ï¼ ļ
ìķĪë ¦¬
ì§ĢìķĬ ê²Į
íķ´ë ¡ľ
ê¶ Ĥ
ĠëĪĪ ê¸¸ìĿ´
Ġíĺ¸ë ŀĳìĿ´
Ġê³łë§Ī ìĽĮìļĶ
ĠëĲł ì§ĢëıĦ
Ġì¹ľêµ¬ ìĻĢ
ĠìĻ¸ë ª¨
Ġëª°ëŀĲ ëĬĶëį°
Ġë³´ ìķĺìĿĦ
ĠìķĮ ìķĺëįĺ
Ġíľĺ ì²Ń
ì¹ĺë įĺ
ĠìĤ¬ìļ© íķ´ìĦľ
ĠìĨĮë¦¬ ìĺĢëĭ¤
ħĦ ìĿ´
ì§ĳë°¥ ê·¸ëŀ¨
Ġë§Īë ł¨ë
ĠìĦł ìĤ¬
ì¶Ķ ìĦĿ
ĠìĨĮë ¦ĦìĿ´
Ġì¦Ŀ ìłķ
ĠëĲĺ íĴĢìĿ´
Ġìĭł íĺ¼
ĠìĽĲ ìĪŃ
ĠëĦ£ ìĸ´ì£¼
ìĦłë °°
Ġì¤ĳ ëĭ¨
Ġì¶Ķ ì¶ľë
íĶĦ ëĭ¤
Ġì¶ķ ì¶ķ
d u
íĿ °
Ġë¬¼ë ł¤
Ġë°ĶëĿ¼ë ³¼
food fic
ìķ¼ë ģ¼
Ġë¶ĦìľĦ ê¸°ìĹĲ
ë© ´ëıĦ
Ġì³Ĳëĭ¤ë ³´ëĬĶ
ı¼ ì§Ģ
Ġë¬´ëĦĪ ìł¸
Ġë§Ī ìłĢ
ìķĦë ĵ¤ìĿ´
ĠêµĲ ëıĦ
Ġíİ¼ ì³Ĳë
Ġì£¼ìĿ¸ê³µ ìĿĢ
Ġìļķë§Ŀ ìĿĦ
ĠìŀĲ ìŀĲ
ì£¼ë Ŀ¼
ê¶ģ ìĹĲ
ĠëģĿëĤ ¬ëĭ¤
8 00
Ġë¶Ģë ¦¬ëĬĶ
Ł¬ë ¡ľ
Ġë§¥ ëĿ½
ĠìķĮìķĦë ³´ê³ł
íķłë ĵ¯
ìĽĲìĪŃ ìĿ´ëĿł
Ġê²° ìĭ¬ìĿĦ
Ġë§ĽìŀĪ ìĿĦ
íİĺ ìĿ´ìĬ¤
ì¤Ħ ê¸°
ĠëĤ© ì¹ĺ
Ġëĵ Ń
ĠìķĪ ìª½ìĹĲ
ĠìľĦ ìŀ¥
ë³´ ëĭ¨
ĠìĭľìĦł ìĿĢ
ĠíĥĿ ìĭľë¥¼
íķľ ê°ķ
Ġì§Ģì¼ľë ³´ëįĺ
ì§ĳ ìĬ¤íĥĢê·¸ëŀ¨
ìļ°ë ļ±
Ġë§ĮëĤĺ ë³¼
ĠëĤ¨ìŀĲ ì¹ľêµ¬
Ġíİ¼ì³Ĳ ì§Ħ
ìĬ¤íĭ°ë ²Į
ìĭł ëĭ¤
Ġì°¨ë ¡Ģë¡ľ
ĠìĦ¸ê³Ħ ê°Ģ
Ġë³´ê¸° ìĹĲëĬĶ
Ġë³´ ìĿ´ì§Ģë§Į
Ġë§Ī ìħ¨
ĠëĲĺë ¬¼ìĹĪëĭ¤
ĠìĭĿìĿĢ ëķ
Ġìŀł ìĹĲ
ë¶Ģë ¶Ģ
ðŁ ļ
Ġì§Ģ ì²´
ê¸ ĢìĿ´
¯¸ ìĪł
my ung
Ġìĥģíģ¼ íķľ
Ġê·¸ë ķĮë
ĠìĿ´ ìª½ìľ¼ë¡ľ
ĮĢë ¬¸
Ġë¡ľ ìħĺ
Ġìĸ´ëĸ¡ íķ´
ĠìĨĮ ìĽĲ
Ġìĭł íĻĶ
Ġê°ķ ìĽĲëıĦ
Ġìµľ íĽĦìĿĺ
íĨł ê°Ģ
ĠëĽ° ê³ł
Ġê³¨ë Ŀ¼ë
ê²Į íĬ¸
ĵľë ª¨
Ġìłģ ìłĪíķľ
Ġìķŀ ëĳĲê³ł
Ġê°ģ ì§Ī
Ġì½Ķë ¯¹
Ì Ī
íĶ¼ íĬ¸
Ġê²ª ìĿĢ
Ġê°ľë °©
Ġë§Ŀ ê°Ģ
ìĽ ¬
ĠìĥĿ ëŀµ
ĠëıĻ ìłķ
Ġê²½ ê³ł
Ġê¶ģ ê·¹
Ġìłĳ ì´ī
ĠìķĮë²Ħ íģ¬
Ġìĭľë ¯¼
Ġëķħ ë°Ķëĭ¥ìĹĲ
ĠìĦ± ì·¨
Ġê¼´ ìĿĦ
Ġ Q
ĠëĤ´ ê¸°
¬´ ê²Į
Ġìŀ¥ ë§Į
el l
ëĭ¤ë ¦¬ë¥¼
§Īë Ĥĺ
Ġì¹ĺ ë§Ī
Ġìĭľë įĶ
ĠìĥĪ ìĸ´ëĤĺ
Ġì§ĢëĤĺ ìĦľ
ìĬ¤íĬ¸ ê°Ģ
Ġë§Īëķħ íŀĪ
ĠëıĻ ìļĶ
ëŃĶ ê°Ģ
Ġë¯¸ ëĭĪë
ê¸Ģë Ŀ¼ìĬ¤
Ġë¶ĪëŁ¬ ìĿ¼ìľ¼
Ġìľł ì§ĦìĿ´
łĮ ìĿĢ
ĠëĤ¨íİ¸ ê³¼
íķĺ êµ¬ìļĶ
Ġì¡ Į
Ġëª©ìĨĮë¦¬ ìĺĢëĭ¤
ĠìĿ¼ íķĺê³ł
ìĺ¤ ëĬĶëį°
Ġëĵ¤ìĸ´ ìĦľëĬĶ
ðŁĺ İ
ìĹŃ ìĿ´
Ġë°ĺë °ĺ
ìľ ¨ìĿĦ
Ġê³łë ¡ľ
ìļ´ëıĻ ëħĢ
ĠëĨį ìĤ¬
Ġìĸ´ëĳł ìĿĦ
ĠìĿ´ëģĮ ìĸ´
ĠíĹĮë ³ĳ
Ġë ŀ©
Ġëĵ¤ ê²Į
Ġì¦Ĳ ê²¨ë
ĠìĬ¤ìĬ¤ë¡ľ ìĿĺ
ê¸ ĢìĿĦ
ìĭł ëıĦ
ĠìłĦ ëĭ¬ë
Ġëĵľ ìĦ¸ìļĶ
Ġì¹ĺë°Ģ ìĸ´
ĠìŀĪ ìľ¼ë©´ìĦľ
Ġíķľ ë°¤
ĠëĤ¨ ì¹ľ
ĠëĶ° ì§Ģê³ł
ì½Ķë ¦¬ìķĦ
ĠìĤ´íİ´ë ³´
ĵ¤ ì§Ŀ
ĶĶ ê°Ģ
Ġê°ķ ìłľë¡ľ
ĠìĻ ĢëıĦ
Ġìĭľ ì²´
ĠìĿ´ìķ¼ ê¸°ëıĦ
Ġë¬´ìĸ¸ ê³ĦëĬĶ
Ġë¹Ļ ê·¸ëłĪ
Ġê¸° êº¼ìĿ´
ĠëıĻ ë°ĺ
ì¡° ìĹĲ
ìĹĨ ìĸ´ìĦľ
ì¹ĺë Ĳĺìĸ´
Ġê°ĦìłĪ íŀĪ
íĴį ê²½
Ġë¬´ìĭľë ¬´
Ġëĭ¤ ê·¸
ìĹĪ ìľ¼ë©°
£¨ ëĬĶ
Ġíı¬ìĬ¤íĮħ ìĿĦ
ĥ Īëįĺ
Ġë§Ī íģ¬
ì²ĺë ¡ľ
Ġë¬¼ë ¡ľ
Ġì³Ĳ ëĭ¤ë³´ë
Ġë ¥ŃíĹĮ
ĠìłĦ ê°ľë
Ġíĸī ìľĦ
ìļ´ëıĻ ìĬ¤íĥĢê·¸ëŀ¨
Ġìĭ£ ê³ł
ĠìĿ´ íķĺ
Ġëª¨ ìĿĢ
ķĮ ê°Ģ
Ġê²ģ ìĿĦ
Ġê°¤ë ŁŃìĭľ
ë ĵ
íķ´ ì¤ĺ
ìĺĢ ëĬĶì§Ģ
ë°© ìĨ¡
ĠëĤ¨ë ĵ¤
Ġë§Ĳë¡ľ ëĬĶ
ĠëĪĦ ìļ´
Ġê³łë ¯¼ë
ĠëĤ¨ë ¶ģ
ìĿĢ íĸī
ĠêµŃ ìĪĺ
Ġê¿Ģ êº½
Ġìŀħ ëĬĶ
ĠìĦ¸ ì¢ħ
ëĲĺ ê¸°
ìĽĲë ıĻ
ìŀ¬ë £Į
Ġë¨¹ëĬĶ ê²Į
Ġë¨¹ìĸ´ìķ¼ ì§Ģ
ëģ Ħ
ê°ĲìĤ¬íķľ íķĺë£¨
ĠìŀĲ ìľłë¡ľ
ê³µ ê°Ĳ
ĠíĶ¼ ìĽĮ
£© íķľ
Ħ£ ê³ł
Ġíķľ ìª½ìĹĲ
Ĳĺ ê²Į
Ġìĸĳ ìĿĦ
Ġë¯¿ ìĿĮìĿ´
Ġë²Īë ĵ¤
Ġëĭ¤ëĭĪë ©´ìĦľ
Ġëĭ¹ ìĿ¼
Ġìķī ìĿĦ
ĠíĪ¬ íĳľ
íĻĪ íĬ¸
ìĿ´ ì²ĺëŁ¼
íģ ´ë¡ľ
Ġìļ°ë Ł¬ë
Ġë§¤ ëĭ¬
Ġìĺ¤ë Ŀ¼ê³ł
Ġìłķë³´ ê°Ģ
Ġê°Ģ ëĬł
ĠìķĪ ìĥīìĿ´
ì´ µ
Ġìĺ¬ë °Ķë
ìĤ¼ ìĦ±
ĠëŃĶê°Ģ ê°Ģ
Ġìłķ ëĮĢë
ìĽħ ìĿ´
l d
Ġ ;
ì²ľ ìĹĲ
Ġìľł ì§ĦìĿĺ
Ġë§¤ ì§ģ
Ġê´Ģ ê³Ħë¡ľ
ĠëģĮ ìĸ´ëĵ¤
Ġê°ĲìĤ¬ íķ´ìļĶ
ìĿ¸ìĬ¤íĥĢíĳ¸ëĵľ ê·¸ëŀ¨
ì£¼ë Ĥĺ
ĠëĮĢë ľ¸
Ġì§ĳìķĪ ìĿĺ
ìĭľíĤ¨ ëĭ¤
Ġì¶Ķ ê°Ģë
ì¹¨ë ĮĢ
Ġëª½ ëķħ
Ġì¹Ļ ì¹Ļ
Ã Ĺ
ĠìĹ°ë ĮĢ
health y
cor gi
íħ ħ
ĠíĸĪ ê¸°
Ġë²Ī ê°ľ
Ġíĺķ íĥľ
§ŀ ê²Į
ł¥ ìĹĲ
Ġìħ °
ĠìĻĶëĭ¤ ê³ł
ìŀĪë Ħ¤ìļĶ
Ġê¸° íļĮìĹĲ
Ġëª°ë ŀĲëįĺ
ł¨ íķľ
¥ĺ ëĬĶ
myung style
Ġê·¸ë ĮĢìĿĺ
ĠëĤĺë Ŀ¼ëĬĶ
Ġê°ĢëĵĿ íĸĪëĭ¤
âĢ¦ ?
ĠëĦĵ ê²Į
ĠëĤĺëĿ¼ ìĹĲ
ĠìķĪë Ĥ´ë
ðŁĴ ĸ
ĠíĺĦìĭ¤ ìĿ´
ìŀ¥ëĤľ ê°Ĳ
ĠìĤ¬ëŀĮ ìĿ´ëĿ¼ë©´
Ġíķł ì§ĢëĿ¼ëıĦ
ĠìĦľ ê¸°
ìŀĶ ì¹ĺ
įĺ ì§Ģ
ìĭľë Ħ¤ìļĶ
ê³Ħ íļį
ĠìķĦëĭĪë įĶëĿ¼ëıĦ
íĨł ìļĶìĿ¼
ĠíĻĺ íĺ¸
ĠìĬ¤ íĶĦë
Ġìĸ¼êµ´ ìĹĲìĦľ
Ġì²ĺ ì°¸
ì§ĢëıĦ ë¡Ŀ
Ġë°ľë ıĻ
r un
íĴĪ ìĿĢ
ì¸µ ìĹĲìĦľ
Ġêµ¬ ìĨį
ģ Ħ
ìĺ ĩ
Ġìĭľë ¯¼ë
ĠìĦłëªħ íķĺê²Į
Ġì¹ µ
Ġê³łë ŀĺ
ĠìĤ° ëĭ¤
Ġë³´ ìĪĺ
ĠëįĶ ìĽĮìĦľ
ĠëĤľ ì²ĺ
ĠìĬ¤ ëĭĺìĿ´
Ġê·¸ëŁ¬ë įĶëĭĪ
ì²ł ìĿĦ
ë³ Ħë
Ġëĭ¬ë ¦¬ê³ł
ĠíĮĮ ê²¬
íĦ°ë ıĦ
Ġìĺ¬ëĿ¼ ìĻĶëĭ¤
Ġê±¸ìĿĮ ìľ¼ë¡ľ
ìĬ¤ íĭ´
ëħ¹ ì°¨
ĠëĳĲ ëĬĶ
ĠíĻĶë ĵ¤ì§Ŀ
ĠëĪĦë £½
ìĦ ¤ë¡ľ
ìĸ´ë ³¸
ìĸ´ë ĮĶëĭ¤
Ġë°ĶëĿ¼ë ´¤ëĭ¤
Ġê±±ìłķ ìĿĢ
Ġ9 9
Ġë³´ìĿ´ ê¸°
ëįķ íĽĦ
Ġë§İ ìĿ´ëĵ¤
Ġë³Ģ íķĺì§Ģ
Ġìĸ´ë¦¬ ìĦĿ
ìłģ ìĿ´ë©°
Ġìľł ìĤ¬
Ġë¿Ĳ ìĿ´ìķ¼
Ġë³µ ìĪĺë¥¼
ĠëĿ¼ ìĿ´íĬ¸
ìĿ¸ ìĿ¸
ĠìĿ´ë ¥´ê¸°
ħ¸ ìļ°
¨¹ ìĿĮ
ar m
Ġëįĺ ìł¸ë
ìĦ± ìķł
Ġw ith
ĠìĿ´ëŁ¬ ëĬĶ
Ġ"âĢ¦âĢ¦ !"
ĠìŀĺìĥĿ ê¸´
Ġê²½ ì£¼
ĠìĿ´ê³³ ìĿ´
Ġì¹ľêµ¬ë ĵ¤ìĿĢ
ĠìĪĺ ì¹ĺ
ĠìĨĮë ¦¼
ë¬¼ ìĿĢ
ĠìĺĨ ìĹĲëĬĶ
ì§ ļ
ĠëĴ ¹êµ´
Ġ( @
íı¬ êµ¬
ĠëĨĢë Ŀ¼ë©°
Ġìĸ´ì§Ģë Ł¬
íİĺ ìĸ´
íĨłë ĦĪ
ê¶Į ìĹĲ
ĠëĴ¤ë Ķ°ë
ĠíĽĹ ëĤł
ìĸ´ ëĬĲ
Ġê±° ìĦ¸
Ġë¨¹ëĬĶ ëĭ¤
íĮĮë ¡ľ
Ġìĸ´ì°Į íķł
íĶ¼ ê³¤
ì¦Ī ëĬĶ
Ġìŀ¥ êµ°ìĿ´
Ŀ¼ë¯¸ ìĪĺ
ĵľë ŀĳ
ìĤ° ìĨĮ
ìĹĨ ìĿĦ
ìŀĦ ìŀĲ
Ġëĭ¨ ê³Ħ
ĠíĮĲ ë§¤ë
Ġë¬» ëĬĶëĭ¤
ê»ĺìĦľ ëıĦ
Ì £
ĠìķĮ ê¸°
Ġìĸĳ ë³µ
Ġíĥĵ ìĿ¸ì§Ģ
ì§Ģ ìĽĲ
ìĿ¸ ìĽĲ
ĠìĿ¼ ìĹĪëĭ¤
ĠëħĦ ìĿĦ
ë§ŀíĮĶ íĻĺìĺģ
ĠS F
Ġãħĭãħĭãħĭãħĭãħĭãħĭãħĭãħĭ ãħĭãħĭãħĭãħĭ
£¨ ìĿĺ
ëļ ľë
ëĿł ë§ĺ
ìĭł ìľ¼ë¡ľ
ĠëĤ¨ ìķĺ
íķĺë ¦¬ëĿ¼
Ġìĭł ìĨį
ĠìĺĪ ìĻ¸
ë¨¹ ëĬĶ
ë¹Ħ ëĬĶ
Ġìĺ¤ëŀĺ ëıĦë¡Ŀ
Ġëį® ê³ł
ĠëĤĺëĪ Į
ìĤ° íķľ
ĠìĿ´ìĥģ ìĿĦ
ĠìļĶë ŀĢíķľ
Ġê³łë¯¼ ìĿ´
ìĿ´ë ĨĪ
Ġêµ°ë ĮĢë¥¼
Ġë ·°íĭ°
ê³ł ìĥĿ
ĠëıĮë ©©
Ġë¸Įë Ł°ì¹ĺ
Ġíŀĺëĵ¤ ê³ł
ë°Ķë ĤĺëĤĺ
Ġëĸ¼ ìĸ´
Ġìĸ´ì©Į ì§Ģ
å¿ ĥ
S T
Ġê°Ģ ì§Ģê°Ģ
ĠìĹ¬ ìľłë¥¼
ĠìºĲë¦ŃíĦ° ê°Ģ
ĠìĹĲíĶ¼ ìĨĮë
ĠìĹħ ë¬´
c ol
ìĸ´ë ĳĲ
Ġëį ¤
íĥĢ ìĿĺ
³´ë ĵľ
ĠëĤĺëŃĩ ê°Ģì§Ģ
ĠìĿĺ ìĤ¬ê°Ģ
Ġëħ¹ ìķĦ
ì£¼ ìĿ¼
íĬ ľ
ĠìĨĮë ¦´
Ġíķ´ë ¥¼
íĤ¤ë ¥¼
¯ Ģë
ìĿ´ ìĹ¬
ìĽ Įë¥¼
Ġê°Ģ ê²Įë
ĠëĤ´ ìĹĲìĦľ
Ġê¸° ìĦ¸
Ġê¸° ìĪłìĿĦ
ĠíĽĦ ìŀĳìĿĢ
Ġìĸ´ëĶĶ ìĹĲìĦľ
ê°Īë ķĮ
follow me
ê² ĭê²Į
ĠìŀĪ ê±°ëĵłìļĶ
ĮĢ ìļ©
Ġìĺ¬ë ¦¬ë¸Į
íĥĦ ìĿĺ
Ġëĸłìĺ¬ë ¦¬ë©°
cy c
ĠëĴ¤ ìĦŀ
ìĹĩ ëĬĶëį°
ìĭ¶ ìĸ´
ëŁī ìĿ´
ì¿łë¦¬ë ıĻìĥĿ
ĠìĽħ ìĦ±
ðŁĺĨ ðŁĺĨ
( @
ĠìĪĺ ìĽĶ
Ġìĺ¤ íĭ°
ĠëĪĪ ê¸¸ë¡ľ
Ġê·¸ëħ ĢëıĦ
s un
ìķĦ ëĭĪëĿ¼
ë³ĳ ìĿĦ
ĠìķĦë¹ł ìĿĺ
ìĺ¤ëĬĺìĿĺ ìĭĿëĭ¨
êµŃ ë¯¼
ł¥ ê³¼
ĠíĴį ìĦ±
ĠìĿ´ìļ© íķł
ê·ł ìĿ´
ĠìĻ ĵ
Ġìĸ´ ì²ĺ
ì°½ ìĹĲ
ĦĪë Ŀ¼
Ġëĵľëŀĺê³¤ ìĿĺ
Ġìŀħë§Ľ ìĹĲ
Ġìĺ¤ëĿ¼ë ²Ħ
Ġìĸ´ë ¬µ
ê¸Ģë ³´
ĠíĶ¼ê³¤ íķľ
Ġíķ¨ ìłķ
ìķĦë¬´ë ŀĺëıĦ
je ju
ĠìŀĲë Ŀ¼ë
Ġìłĳ ìĨį
Ġì§ľì¦Ŀ ìĿ´
Ġë¬¼ëŁ¬ë Ĥ¬ëĭ¤
Ġìŀ ĬìĿĢ
ìĦľ ë¹Ħ
ì¸µ ìĿĢ
ìļķ ìĿ´
ì³¤ ìĬµëĭĪëĭ¤
ì£¼ ìĭľë©´
Ġë°± íĻĶìłĲ
Ġëª° ìŀħ
§ī ìĿĦ
Ġìłľ ìĿ´
Ġê¶Įë ł¥ìĿĦ
Ġë§ĮëĤ¬ ìĿĦ
ĠëĤĺëŃĩ ìŀİ
ðŁ §¡
Ġìĺ¤ ìĿ´
ĠëģĿëĤ ¸
ìĥī ê³łìĸĳìĿ´
ê·¼ ìĿ´
Ġê³µê²© ìĿ´
ĠìķĦëĭĪ ê²łì§Ģ
íģ¬ë¦¼ ì¹ĺì¦Ī
ĠíĭĢë¦¼ ìĹĨìĹĪëĭ¤
ê±´ ìĿĢ
ê±°ê°Ļ ìķĦ
ĠìĹ¬ ê¸¸
Ġë¶Ī ìĹĲ
Ġë°ĽìķĦëĵ¤ ìĿ¼
Ġê³łë§Ļ ìĬµëĭĪëĭ¤
f il
ıĦ ë¥¼
Ġíķĺ ê¸°ìĹĲ
íħ Ŀ
Ġê²° ìłľ
Ġìļ°ë¦¬ë ĵ¤ìĿĢ
Ġìŀ¥ë©´ ìĿĢ
Ġíķľ ê°Ģì§Ģ
ĠëĮĢë ıĻ
Ġì¥Ĳ ìĹĪëĭ¤
Ġê·¸ ê±¸ë¡ľ
Ġìĭ¶ ìĹĪìĸ´ìļĶ
¸Įë ¥¼
Ġìĺ¤ëĬĺë ¶ĢíĦ°
Ġë¬ ĺë
Ġìŀ¬ë ¹łë
cat stagram
Ġê´Ģê´ĳ ê°Ŀ
Ġìĸĳ ë°°ì¶Ķ
ĠìĿ½ ê¸°
ĠëĤĺë¬´ ê°Ģ
ìª Ħ
ìª½ ìĿĢ
ĠíĳľíĺĦ ìĿ´
Ġìŀ¬ë°Į ëĬĶ
ìĺģ ê³¼
ì½Ķ íĥĢ
ðŁı ĥ
Ġìĸ¸ìłľë ĵłì§Ģ
Ġìĸ´ëĶĶë ¥¼
Ġê±¸ ì¹ĺê³ł
ĠëĨĵ ì§Ģ
íĳ¸ë ĵ¤
ìłķ ì¹ĺ
ìĭľê°Ħ ìĿĢ
s u
êµŃ ìłľ
Ġê±¸ ìĦ¸
ĠìĹ´ ì§Ģ
Ġë©Ķ ê³ł
ëª¨ ìŀĦ
Ġë¬¼ê±´ ìĿ´
Ġíķĺ ìĺµëĭĪëĭ¤
ìĨĮ ê³łê¸°
Ġíģ Ĳ
Ġìľł íĬľë¸Į
íķ© ìĿ´
Ġê·¹ ìŀ¥
ĠìľĦíķ´ìĦľ ìĺĢëĭ¤
ĠìĤ¬ëŀĮëĵ¤ ë¡ľ
Ġì¢ĭ ìķĺìĬµëĭĪëĭ¤
ëĭ¤ë ħ¸
ĠìŀĪìĹĪ ìľ¼ëĭĪ
ĠìĿ¼ë³¸ ìĹĲìĦľ
ĠìķĪëıĦ ìĿĺ
êµŃ ê³¼
ĠëĤ¨ ì§ĵ
Ġìŀ¥ ìķł
Ġìĭľìŀĳ íķ©ëĭĪëĭ¤
ë¹ ĪìĿ´
ìĽĶ ìļĶìĿ¼
at e
ìķĦëĭĪ ìĹĲìļĶ
g asm
íķĺ ëĭ¨
Ġê°Ļ ìľ¼ëĭĪ
ĠíĤ ¥
Ġê³µê²© íķ´
Ġë¶Ħëħ¸ ê°Ģ
Ġë§Īìĭľë ©°
Ġë§Ī ìĭľë©´
ĠìĬ¤ ì¹´
Ġìĭł íĺ¸
Ġì¹¨ëĮĢ ìĹĲìĦľ
ĠìĤ¬ ìĺ¨
ìĬ¤ë ¶ģ
ĠíĹ Įëį°
Ġìĺ¨ ìłĦíŀĪ
ðŁĴ ¦
ìĭĿëĭ¨ ê´Ģë¦¬
ä¸ į
Ġë³¸ê²© ìłģìĿ¸
c al
¯¸ ìĻĢ
ĠìķĮ ìķĺìĸ´ìļĶ
Ġë¯¸ ìĦ¸ë¨¼
ĠíķĻ ë¬¸
l and
ìłľ ê³µ
íĥĢ ìļ´
Ġë©´ ìĹĲìĦľ
ĠìĿ´ëį° ìĺ¬ë¡ľ
ĠìĥĿ ê¹Ģ
ĠëĶ°ë ¥´
ë¶Ħ ìĿĺ
ãĥ ķ
Ġë§ĺë ĮĢë¡ľ
ĠìłĦë¬¸ ìłĲ
ìĿ įëĭĪëĭ¤
Ħ ¹
ê±° ëĬĺ
ĠëĪĦ êµ´
ĠíĤ¤ ìļ°ëĬĶ
ĠP C
ìķĺë Ĥĺ
ìĺ¤ ì§ķìĸ´
Ġìłľ ëıĦ
ĠëĪĦë ¥´ê³ł
ê±°ëĭĪ ìĻĢ
ì¤Ģ ìĿĦ
Ġëĵ£ ëįĺ
¬ë ıĦ
ĠëĤ¨ ê¸°
ĠìĤ¬ ì´Į
Ġë¸Ķë łĪ
Ġì£¼ë¨¹ ìľ¼ë¡ľ
v i
Ġ k
Ġìĸ´ëĶĶ ìĹĲëıĦ
ĠìĹĺë ¦¬
Ġëľ¬ ê¸Ī
T V
ĵ¤ ëģ¼ë¦¬
Ġíķĺë Ŀ¼ëĬĶ
Ġê¸Ģ ìĿĢ
Ġì§Ī ì§Ī
Ġb e
Ġì£¼ìĿ¸ ìĿĦ
ĠìĦ±ê³µ íķľ
Ġë§¹ ìĦ¸
Ġíıī ìĺ¨
ĠìĦ¸ê³Ħ ìĹĲìĦľ
Ġëĵľë ¦¬ê³ł
ìħ¨ ìĬµëĭĪê¹Į
Ġë¹ł ì¡Įëĭ¤
íķ© ìĿĦ
ĠëĶ¸ ìĿĺ
ì« ĢëĵĿ
Ġì§ĢëıĦ ë¥¼
ĠíĽĦ íĽĦ
in k
łĪìĿ´ ëĭĿ
íŀĮ ëĭ¤
ë§Ľì§ĳ íĥĲë°©
Ġê¸¸ë ĵľ
ìĹ¬ê¸° ìĦľ
ĠëĶĶìŀĲ ìĿ¸ìĿ´
ì»¤ ëĭĪ
Ġë°ĶëŀĮ ìĿĢ
. >
Ġ |
Ġìļ¸ íĥĢë
Ġìŀ ½
ìĽĲ íĶ¼ìĬ¤
Ġê±¸ íĦ°
ëł¥ ìľ¼ë¡ľ
ĠìĦ¤ ìĤ¬
Ġê´Ģë ¦¬ë
Ġë ŀĺ
ĠìĿ¼ìĿ´ ì§Ģë§Į
Ġìĺ¤ë¹ł ìĿĺ
ê°ķìķĦì§Ģ ìĿ¼ìĥģ
Ġ is
Ġëĭ¤ë ¦¬ìĹĲ
ĠíĨµ ìĭł
Ġë©Ķë ¦¬
Ġë©´ ìĿĦ
Ġë§ģ íģ¬
Ġìľ Ļ
Ġìĭľìŀĳ íķĺë©´
ĠìĦľë ¯¼
Ġíı¬ ìľĦ
ëĭ¤ëĭĪë ©´ìĦľ
Ġê³ł ìļ©
Ġê³łë ¬¸
ì¹ĺë ħ¸
ĠêµĲ ì²´
ĠëĮĢëĭµ ìĹĲ
ĠìĥģíĻ© ìĿ´ìĹĪëĭ¤
ĠìĤ¬ê³ł ë¥¼
ë¸Įë Ł°ì¹ĺ
Ġë°Ķë ¥´ëĬĶ
Ġìŀĺë Ĥĺ
ĠìĿ¼ ìĿ´ëĿ¼ê³ł
Ġì§Ģê¸Ī ìĿ´
ĠìĪ¨ ìĿĢ
ĠëıĦì°© íķł
ì·¨ íĸ¥
Ġí Ĳģ
ëħ ¼
Ġëĵ¯ íķ©ëĭĪëĭ¤
Ġë©Ī ì¹«
Ġì§Ħë ¦¬
ĠìľĦì¹ĺ ìĹĲ
ë°ĺë ł¤ë
í ĩ´ë
ìĸ´ ì°Į
ĠìĦľë ©´
Ġíı¬íķ¨ íķľ
Ĥ Ħ
ĠìĦ £
ìĭľ ëĭĪ
ëĭ¨ íķľ
Ġíİ Ħë
ĠëĤĺìĺ¤ ëĭĪ
ìĹ´ ìĿĺ
Ġëħ¸ë¦ĩ ìĿĦ
ĠíķĺëĬĶ ê±°
ĠíķĺëĤĺ ìĹĲ
ĠíĻĶ íķĻ
Ġê°Ĳëıħ ìĿĢ
ĠìĪĺ ìĪĺ
Ġë¶Ģ íķĺ
ĠìĺĨ ìĿĺ
Ġíķĺë£¨ íķĺë£¨
ĠíĮĶ ìķĦ
ê·¸ëŁ¬ë Ĥĺ
ł Ĳ
ĠìŀĲ ìľłë¥¼
ĠëĮĢ ì²ĺ
ĠíĨµ íĨµ
Ġìķħ ìĿĦ
ê· ¤
Ġê¼Ń ëĮĢ
ì£½ ìĿĢ
Ġìĭłë°ľ ìĿĦ
ìĬ¤íĨł ìĸ´
âĺħ âĺħ
ãħĭãħĭãħĭãħĭãħĭãħĭãħĭãħĭ ãħĭãħĭãħĭãħĭãħĭ
Ġíīģ ëªħ
Ġë°Ľ ê¸°
ìĤ¬ ìŀ¥
íĬ¸ë ¡¤
Ġì²ľ ë§ī
ìĿ¼ë §ģ
Ġëķħ ì½©
ì¥ Ķ
Ġì§Ģ ìĿĦ
Ġíķ´ë Ĩĵê³ł
¥´ë ħ¸
Ġêµ¬ë ĳĲ
food gasm
Ġëĭ¤ê°Ģ ìĺ¤ê³ł
ĠìŀĪë įĶëĿ¼ê³łìļĶ
ì¦Ī ìĿĺ
ĠíĿĶ ìłģìĿĦ
íķĺ ìŀĸìķĦ
Ġê³µ ê¸°ë¥¼
ì¦Ī ì¹¸
ëıĦë ĳĳ
Ġíķĺ ëıĦë¡Ŀ
Ġê³ °ë
Ġê·¸ ëĭ¥
Ġìŀ¥ ìĨĮë¡ľ
Ġë´ī íĪ¬
ĠëıĦë ł¨
Ġì¤ĳê°Ħ ì¤ĳê°Ħ
ãĤ¢ ãĥ³
.. ^^
Ġê²ĥ ìŀĦìĿĦ
ìĭľ ìĻĢ
ĠìķĪ ì¢ĭ
Ġë°° ì¶Ķ
ìĺĪ ê°Ģ
Ġìļ¸ ì»¥
ĠëĽ° ìĸ´ëĵ¤
Ġë¹łë ¥´ê³ł
ĠìĹħ ê·¸ëłĪ
ìĭĿ íĥģ
ĠìĺģíĻĶ ìŀħëĭĪëĭ¤
ĠëĵľëŁ¬ë Ĥ´ê³ł
ä¸ Ĭ
ĠìĥĿê°ģ íĸĪ
ĠìĿĢë ¹Ľ
ë°°ë ¥¼
ìĺ¤ë Ŀ¼
ĠëĤĺëĪ Ī
ĠìĭľìłĪ ìĿĺ
Ġì¢ĭ ìľ¼ë
ĠìĿ¸ ìŀĲ
ê±´ ìľ¼ë¡ľ
Ġë¬¼ ìĶ¬
Ġë²Ī ìĿĦ
Ġì²Ń ì¶ĺ
ĠíħĮ ìĿ´
ĠëĮĢëĭ¨ íŀĪ
Ġê²°ë¡ł ìĿĦ
Ġíķľ ë°©
Ġì§Ģë ¥´ê³ł
ĠìľĦ ìĹĦ
ĠëĨĢë Ŀ¼ê³ł
Ġë» Ĳ
Ġëģ¼ ìĸ´
ĠìĬĪ íį¼ë
ì£¼ìĿĺ ë¥¼
ìĸ´ ì¨
ĠìĿ´ë ¹
Ġê¹ ĢìĿ´
ĠëĤ¨ ìŀĲëĵ¤ìĿ´
Ġê³Ħ ìĭ¤
ĠìĿ½ ìĹĪëĭ¤
ł´ íĴĭ
ì£¼ë §Ī
Ġë°Ķ ê¾¸ë
ĠìĦł íģ¬ë¦¼
ì§Ģë Ŀ½
Ġë°ĶëĿ¼ë ³¸
Ġê°ĳ ìĺ·
Ġì°¾ìķĦ ìĺ¤ëĬĶ
ĠìĽĢì§ģ ìĿ´ê¸°
ìĭľíĤ¤ ì§Ģ
Ġëįĺ ì§Ģê³ł
łĪ ìĺ¤
íĿ¬ ìĻĢ
³´ ìĬµ
ĠëĮĢë ³Ģ
°ĺ ìĿĦ
Ġë³´ ìĮĪ
ëĭ¹ íķĺê³ł
ĠëģĮìĸ´ìķĪ ê³ł
íķĺ ìķĦ
Ġë°Ķ ëĬĺ
íĨł ìĬ¤íĬ¸
ª¨ë ¦¬
ĠëıĪ ê¹Į
ê¸°ë§Į ìĿĦ
ri p
ì§Ģ ìĿ¸
Ġë³´ íİ¸
ë¡ľ ê°Ģ
Ġë¶Ģ ì±Ħ
ì¦Ī ëĭĪ
Ġê²ĥ ê¹Įì§Ģ
ĠìĤ¬ë Ńĩ
ëĭĪë įĶ
ĠêµĲ ê³¼
3 2
ðŁĺ ī
ĠìĿ´ìķ¼ ê¸°ìĹĲ
Ġìļ© ê¸°ê°Ģ
ĠìĦ¤ëªħ íķ´
Ġê¹Ģë ıĻ
Ġë§Ĳ ìŀĲ
ì£¼ ëĭĺ
Ġëĵ¤ ìį©
Ġë¬¸ ìŀĲ
Ġê¹¨ë ¬¼
Ġëĵ¤ìĹ¬ ëĭ¤ë³´ìķĺëĭ¤
Ġê°Ĳìĭ¸ ê³ł
ê¸°ë °¥
Ġë¹Ħ ìĬ¤ë
¡Ń ëĭ¤
ê·ľ ìĿĺ
ìĤ´ë ıĦ
Ġìĸĳ ìĿĺ
ĠìĥĢ ëĭ¤
cyc ling
ìķ¼ ëĬĶ
ê°Ģë Ħ¤
ì§Ģë įĶëĭĪ
Ġìª½ ìĿĢ
ĠìĿ¸ê°Ħë ĵ¤ìĿ´
Ġê¸°ì¡´ ìĹĲ
ìºł íķĳ
ĠìĿ´ ê±¸ë¡ľ
ê°Ĳ ì¹ĺ
ĠëįĶ íķ´
Ġëª¨ ì§ĳ
Ġë¬¸ìłľ ìĿĺ
ãĥ©ãĥ ĭ
ĠìĹĨ ëıĦë¡Ŀ
Ġìĭ¶ ëįĶëĭĪ
ĠìĪ« ìŀĲê°Ģ
ãĥĿãĥ¡ ãĥ©ãĥĭ
Ġê°Ĳ ì¹ł
ĠëĤĺë Ŀ¼ë
Ġë°Ķ ê¾¼
Ġìŀĺë Ŀ¼ìĦľ
Ġíŀ Ļ
ĠìħĶ ì¸ł
vie w
ĠëĮĢëĭµ íķĺì§Ģ
gra ph
íĺģ ìĿĦ
Ġëĵ±ìŀ¥ íķľ
ĠíĹ¤ë ĵľ
Ġë¦½ ìĬ¤íĭ±
ĠìĤ¬ ìĸĳ
¬ĺ íķĺê²Į
ìĺ¤ë Ħ¤
Ġë°Ķëĭ¥ ìľ¼ë¡ľ
ìļĶ ìłķ
Ġì¢ Įë
Ġì¡° ì¹´
Ġë§ŀ ìķĦìļĶ
Ġìĸ¼êµ´ ìĿĺ
Ġêµ¬ë ³Ħ
Ġë§ĪìĿĦ ìĹĲìĦľ
Ġë§Ī ìļĶ
ĠìłĦ ê³¼
Ġëĵ¤ìĸ´ ìĺ¤ê³ł
ĠìĨĮë ©¸
êµ° ìĹĲê²Į
Ġì§ģ íĽĦ
ĠìķĬìķĺ ìĿĦê¹Į
ĠìĦłíĥĿ ìĿĦ
íı¼ íĶ¼ì¸ł
~ ?
ĠëĤ ±
Ġë°Ľ ìķĺìĬµëĭĪëĭ¤
Ġê°Ħ ëĭ¤ëĬĶ
ĠíĻĶ ìĹ¼
ĠìĤ¬ìłķ ìĹĨìĿ´
Ġìĭľê°Ħ ê³¼
ĠëĤ³ ê³ł
Ġë ·Ķíİĺ
Ġìĺ¤ ìĦ¸ìļĶ
Ġíĸ¥ ëıĦ
Ġëĭ¬ ìĹĲ
Ĳĺë ©´ìĦľ
ĠëĦĭ ìĿĦ
Ġì ĮĢë
Ġìĭľ ê¸°ìĹĲ
ĠìłĦ ìĹĲëıĦ
ì²ľ ìĤ¬
Ġìļķ ìĭ¬ìĿ´
ĠëĬĲëĤĢ ëĭ¤
ĠìĦł ìĿĦ
ĠìĿĢ íĺľë¥¼
ĠìĿ¸ìĥĿ ìĿ´
ĠëĽ°ìĸ´ë Ĥ´ë
Ġë³´ ì¡°
Ġë© ķ
¨¸ ìĬ¤
ĠëķĮ ì¯¤
ê²ģ ëĭĪëĭ¤
åľ °
ãĥĿãĥ¡ãĥ©ãĥĭ ãĤ¢ãĥ³
Ġë§Īë §Ī
ëł¥ ëıĦ
Ġê¶ ¤
ì¹´ë©Ķë Ŀ¼
Ġìłķ íķľ
Ġíģ ´ë¡ľ
Ġ3 6
ëª¨ë ¥´
Ġë®¤ ì§Ģì»¬
` .
Ġê¹ Ĳ
Ġëį° ìĬ¤
ìĹ°ë ĮĢ
Ġê°Ģë°© ìĹĲ
w atch
ĩ ½
Ġìļ°ë łģ
ì£¼ë įĺ
e e
ĠìĺĪë¯¼ íķľ
íĤ¤ ì¹ľ
Ġë²ł ìĿ´ë¹Ħ
Ġë¡Ŀ ë§¨
ç ķ
ĠìĤ´ ìķĺëįĺ
cli mb
ëĭ ¼
ĠëĤĺ ìĿ´ëĬĶ
Ġë§Ĳ ìĿ´ì§ĢìļĶ
ĠìĪ ±
ĠìĮ ¤
Ġìĸ´ë¦° ìķĦìĿ´
ëŁī ìĿĦ
Ġê³¼ê±° ìĹĲ
m ar
íķľíħĮ ìĦľ
ê°ĦìĭĿ ìĬ¤íĥĢê·¸ëŀ¨
Ġë ŀį
Ġê¸° ìĤ¬ë¥¼
Ġë§İ ëĭ¤ê³ł
Ķ ķ
ĠìŀĪ ìľ¼
íĺ ĪìĿĦ
ĠëıĮë ¦¬ë©°
´ī ìĿĦ
ĠìĽĶë Ĥ¨
Ġì«Ģ ì«Ģ
Ġëĵ¤ ìľ¼ë©´ìĦľ
ĠìķĦëĭĪë ŀĢ
ê´ĳ ìĿĢ
Ġ19 6
ĠíĿĶëĵ¤ë ł¸ëĭ¤
ìĻĢ ìķ¼
íĶ¼ë ĵľ
Ġë°Ŀ ê²Į
ê³ł ë¯¼
ĠìĨ Ķë¡ľ
Ġìĺ¤ ì§ķ
íĻĶ ìĿ´íĮħ
Ġë¶Ģë ¥´ë©°
íĴį ìĿĦ
íķ´ì£¼ ìĹĪëĭ¤
Ġê¹¨ëĭ« ê²Į
Ġë¶Ħë ¦¬ë
Ģë ¸Ķë
Ġë¨¹ ìĸ´ìļĶ
ìķĦë ıĻ
ì¹ĺë Ĳľ
Ġìĭłë ¬¸ìĿĦ
ĠìķĮë ª¸
Ġëĭ´ ìŀĦ
Ġëª¨ìĸĳ ìĿĦ
ĠíĹ· ê°Īë
Ĳë ¹Ħ
ìĿ´ë ĵ¤ìĿĢ
Ġê°Ģ ìĭľëĬĶ
ìļ° ëĭĪê¹Į
įķ íĽĦ
Ġë³Ħ ìĿ´
íĥĪë ¡ľ
ë ¿
ë ŀŃ
Ġë¬´ ëĬ¬
ëı Īë
ĠëıĦìĭľ ìĿĺ
ĠìĿ¼ ê³¼
ì¡° íĬ¸
æĹ ¥
ĠìĿ´ íĥľ
ŀĳ ìĿĺ
Ġëªħ ìłĪ
ĠíĨµ ì¦Ŀ
Ġíı¬ ìĬ¤íĦ°
ĵ¤ ìĿ´ëŀĳ
ìłķ ëıĻ
Ġë¹Ħ ëĬĶ
ìĺĪ ìķ½
ĠíĥĦ ìĤ°
ĠíķĻìĥĿ ëĵ¤ìĿ´
¦¬ë ·°
íĹĪ ê³ł
ê²½ ì£¼
Ġë°ĺ ê°ĳê²Į
íķĺìŀĲ ê³ł
Ġë²Į ìĸ´ì§Ģê³ł
ĠëĬĲê¼ Īëįĺ
. ãĢı
Ġì§Ģë ¶Ī
Ġëªħ ìĹĲ
ìŀĩ íģ´ë¦°
Ġíķĺ ìĭľìĺ¤
Ġìŀ¥ ìĸ´
ĠìĤ° ìĿ´
Ġì§Īë Ł¬ë
Ġê¹Įë §£ê²Į
ìĦ± ìĿ´ê°Ģ
ì½Ķ ìĿĺ
Ġê´ĳ íĻĶë¬¸
Ġê·¸ë ¦¼ë
Ġìĭ¶ ê¸°ëıĦ
ë§Įíģ¼ ìĿ´ëĤĺ
or y
ëĮĢë ¹Ħ
ë°Ķ ì§Ģ
Ġë§Īë ¸Ķ
íı¬ ìĹĲ
Ġì ©Ķ
Ġíķľ ê³Ħ
Ġìĸ´ë ł´íĴĭ
¶Ħë ĵ¤ëıĦ
Ġìĥī ëĭ¤ë¥¸
Ġê³ģëĵ¤ ìĹ¬
íģ¬ë¡ľ ìĬ¤
ìĸ´ë ³´ê³ł
Ġë¨¹ ëĭ¤
Ġìĥģ ì¾Į
ĠìłĢë ĵ¤ìĿ´
ë°ķ ì§Ģ
ĠëĦĺìĸ´ ê°Ī
ıĻ ëĦ¤
Ġìĺ¤ë ¥¼
ìĹŃ ìľ¼ë¡ľ
Ġê·¸ëłĩ ëĵ¯
Ġê»į ëį°
Ġìĸ ķ
ĠëıĦ ì¤ĳìĹĲ
ĠìĨĮ ìĬ¤ë¥¼
ĠíħĮë Ŀ¼
ì§Ģê¸Ī ìĿĢ
Ġê±°ì¹¨ ìĹĨìĿ´
ĠìĦľ ê¸Ģ
ê²¨ë ³´ê¸°
Ġìĥ¤ë¸Į ìĥ¤ë¸Į
ĠìĿ¼ ì¹ĺ
ê·Ģ ìĹ½
ĠìĿ´ë£¨ ëĬĶ
Ġìĥģ ìĥģìĿĦ
Ġê²½ ê³Ħë¥¼
¯¸ë Ĥĺ
Ġêµ¬ê²½ íķĺê³ł
ìĺģ íĻĶë
¸Įë ¦¬
Ġì¢Į ìĦĿ
ê¸Ģë³´ ê¸Ģ
Ġê°Ģ ê¸°ë¡ľ
ĠíĶ¼ ëĬĶ
Ġìĸ´ëł¤ ìĽłëĭ¤
ìĪĺìļķ ìŀ¥
ìĺ¤ íĽĦ
Ġìĭ¤ë ¦¬
Ġë¬¸íķĻ ìłģ
Ġâĸ ¼
Ġíķ¨ë °ķ
ìª ¼
Ġìŀ¬ íĺĦ
Ġëľ¯ ìĸ´
ĠìĿĢìĿĢ íķĺê²Į
ŀ ĢëıĦ
ë¡ľ ìļ´
Ġì§ĳ ìļĶ
íĶ¼ë ¡ľ
ĠíĿĲë ł¤
ĠìĥģëĮĢ ìłģìľ¼ë¡ľ
Ġë§ŀìĿĢ íİ¸
ĠëķĮ ìĹĲëıĦ
ĦĪ ìĬ¤
ĠìķĦë²Ħ ëĭĺ
Ġë¬¸ìłľ ìĺĢëĭ¤
ĠìĥĿê°ģ íķ´ë³´
ê³³ ìĿĦ
ìį ¬
Ġëħ¹ ìķĦë
Ġê¸°ëıĦ ë¥¼
ĠìĹ¬ ëĬĶ
ìļ´ ëĭ¤
Ġë¯¸ ìħĺ
ì¢ Ģë
ĠìĭĿ ë¹µ
ĠìŀĪê³ł ìļĶ
E N
ìĦľ ê·Ģíı¬
Ġìļ°ë ¥´ë¥´
ë¹ ħ
Ġìĺ¬ëĿ¼ ê°Ī
íĥ± ê¸Ģ
íķĻ ìĬµ
Ġëª© ìĤ¬
Ġë¬´ë °©
Ġë¿ ľë¿ľ
íħĮë ©´
ìĭłíĺ¼ë ¶Ģë¶Ģ
Ġìĺ¤ íĶĦ
ĠìĹ¬ìŀĲ ìĺĢëĭ¤
Ġê·ĢìĹ¬ ìĽĮìĦľ
ìĶ¨ë ¡ľ
ĠëıĻ ëıĻ
Ġìŀ¥ ìĿĺ
ê±¸ ê¹Į
Ġìłģ íŀĮ
łģ íķľ
Ġíķłë ¨¸ëĭĪë
Ġë§¡ ê²¨
ë¯¸ë ¥¼
Ġë°ĶëĢĮ ìĹĪëĭ¤
ĠìľĦ ìĽĲ
ĠìĨĮë §Ŀ
ìĨĮë ¬¸
ĵĿ íķľ
Ġíģ¬ë ¦¬
ìĬ¬ ìķĦ
Ġì¹Ńê¸° ì¦Īì¹¸
íļ Ł
ĠìĿĺ ì§Ģê°Ģ
¥´ë łģ
ìĭ¸ ê²Į
ìķĦìĿ´ ìĬ¤
ĠíĨµ íķĺìĹ¬
ĠìĿ´ìķ¼ ê¸°ë¡ľ
ĠìĪ¨ ê¸°ê³ł
ëıĪ ê¹ĮìĬ¤
ĠìĿ´ ê²¨
ĠìĿĺ ìĭĿìĿ´
Ġìĭľìŀĳ íķĺìĺĢëĭ¤
Ġê²¨ìļ¸ ìĹĲ
ê²ģì§Ģ ê²ģ
climb ing
Ġíķľ ê¸Ģ
ĠìłĦ íĻĺ
Ġë§ĮëĤĺ ê¸°
ëĵ¯ íķľ
ĠìĬ¤íİĺ ìĿ¸
ìĬ¤ íĳ¼
ĠëĲĺ ëĬĶì§Ģ
Ġë§ŀ ì¶ĺ
ĠíĽ ħ
ëĭĪë ıĦ
ģ ĵ
Ġíķľ ìĪľê°Ħ
ĠëĲĺ ê²łì§Ģ
ê±°ë ıĦ
Ġë°ĶëĿ¼ë ³¸ëĭ¤
ë ½Ģ
ĠìķĪ ê°Ħ
ìļ° ìĦł
Ġì¡° ìĥģ
Ġìĭł íķĺë
Ġì¡´ ì¤ĳ
ĠëıĦë ¦¬ê°Ģ
Ġë³ĳìĤ¬ë ĵ¤ìĿĦ
ĠëĪĦêµ¬ë ³´ëĭ¤ëıĦ
Ġì²ŃëħĦ ìĿĢ
you tu
ìĩ¼íķĳ ëª°
## ##
ĠìķĬ ìĿĮ
ĠëĶ ľë
ĠìłĲ ëıĦ
Ġìį ¼ë
???? ?
Ġëĭ¬ ìĦ±
Ġë¬µ ì§ģíķľ
) >
ìĽł ìĿĦ
ìĦŃ ìĿ´
Ġëĭ¤ëħĢ ìĻĶ
ìľ¨ ìĿĢ
ĠíĽĪë ł¨ìĿĦ
¬¼ íĭ°ìĬĪ
êµĲ ëıĦ
ì¦Ī ê°Ģ
Ġì§Ģ ìłķ
er e
Ġìŀ ¿
łĪ ìĭľíĶ¼
Ġíĥľ êµŃ
ê³ł ìĹĲ
ìĤ¬ ìĥģ
Ġëĭ¹ íĺ¹
ĠìĿ´íĥĪë ¦¬ìķĦ
ãħ Ķ
Ġê°Ĳ ìķĪ
Ġìļ© ìĿ´
Ĥ «
ðŁĺ Į
ĠíĴ ĢìĿ´
er y
ìŀ¡ ìĿĢ
ì¡°ë ĺĲ
ĠêµĲìľ¡ ìĿĦ
k i
ëĭ Ľ
ìĹĪ ê±°ëĵłìļĶ
Ġìĥģ ì²´ë¥¼
Ġêµ¬ ìĽĮìĦľ
ëĭ¨ë °±
Ġ******** ****
~ )
íĮĮ ìĹĲ
ê°Ģë ł¤ê³ł
Ġëĭ¬ëł¤ ìĺ¨
íļĮë ³µ
Ġë¨¹ ìľ¼ëĭĪê¹Į
Ġê±´ë ĦĪë
ê³łë ŀĺ
ĺë ¦¬
Ġê°Ģ ìĦ¸ìļĶ
Ġë» Ķë»Ķ
ĠëıĻìĥĿ ìĿĦ
Ġë²Ĺìĸ´ëĤĺ ì§Ģ
ĠìĪĺ ì¤ĢìĿ´
ðŁĺ ³
ì¿ł ìĺ¤ì¹´
ĠìŀĪ ëĭĪ
ĠìĤ¬ëŀĳ ê³¼
¹µ ì§ĳ
ĠìĨĲ ìĥģ
ĠìŀĲìĭł ìĹĲ
Ġë§Ĳë ŀĳ
ĠëģĿëĤĺ ì§Ģ
Ġë¬´ìĸ¸ ê°Ģê°Ģ
Ġë§Ī ì°¨
ĠëĨĴ ê³ł
Ġê·¸ëŀ¬ ìĸ´
Ġê·¼ì²ĺ ìĹĲìĦľ
ë¯¸ ìĦ¸ë¨¼ì§Ģ
ë¶Ģë ĮĢ
Ġìĸ´ëł¤ ìĦľ
ĠëĤ¨ë ¶Ģ
Ġëı¼ì§Ģê³ł ê¸°
Ġë¬´ ìĪĺíķľ
ì¼ ł
ìĭłë °ľ
ì°Į ê°Ĳì¹ĺ
Ġëĳ¥ ê·¼
ê· Ħ
Ġëĵ¤ìĸ´ ê°Ħëĭ¤
Ġê¸Ī ì§Ģ
ê³¨ë ĵľ
? ]
ĠíĹĺ íķľ
ìĹĲ ëĭ¤ê°Ģ
ĠìĤ¬ë ©´
ë³ ĢìĿĦ
Ġë¬¼ ì§Ī
Ġì°¸ ìķĦ
ĠëĴ¤ ìĿĺ
Ġë²ķ ì¹Ļ
Ġê³µ ë£¡
Ġìĭľìŀĳ íķĺê³ł
ì§Ģë ĵ¤ìĿ´
Ġë²Į ìĿĦ
ĠìĪĻ ìĿ¸
ìĿ´ë ĦĪë
ê½ Ĥ
ĠìĿ´ ìĸ´ì§Ħ
ĠìķĪ ìķĺëĭ¤
²Ħë ł¤
Ġê¸°ëĭ¤ë ł¤ìķ¼
ĠìĿĺë ¯¸ë¡ľ
íĸĪëĬĶëį° ìļĶ
Ġëį ¸
ĠìĭĿ ìĤ¬ë
Ġê±´ë ¬¼ìĿ´
ëĦĪ íĿ¬ë
íķ ¸
ìĿ´ë ł¤ê³ł
ĠìĥĿ íģ¬ë¦¼
ìĸ´ìĦľ ëĬĶ
Ġë¹Ħë ĪĦ
ĠìĦľë¡ľ ê°Ģ
ĠëĤĻ ì§Ģ
ë¦¬ë ·°
íħ Ĳë
°Ķ ìĬ¤
Ġê³µ ë¬´
ê°Ļ ëĭ¤
Ġíľĺ ê°Ĳ
²łë ¥´
ĠëĵľëĤĺ ëĵ¤
ĠìķĦë ħĢ
B C
Ġì¤ Į
Ġì¤Ħ ì¤Ħ
ĠíĹĪ ê²ģì§Ģê²ģ
Ġë¨¸ë¬¼ë Ł¬
ìĻ ľë
Ġë§İ ì§Ģë§Į
³ ĢìĿ´
ĠìĤ¬ íĥľ
ì¹ĺë Ĥĺ
Ġì§Ģì¼ľë ³´ëĬĶ
Ġëª» ëĲľ
ĠìĨĮ ìļĶ
Ġë¶Ģ íĴĢìĸ´
ê·¸ ê°Ģ
Ġì£¼ë¬¸ íĸĪëĭ¤
ìĸ´ë²Ħë ¦¬ê³ł
Ġë¶Ħëĵ¤ ê»ĺ
ëĭ¤ìĿ´ìĸ´íĬ¸ë §ŀíĮĶ
Ġìļ© ëĤ©
Ġëķħ ìĿĺ
ca ke
ĠìħĢ ì¹´
Ġê°Ļ ìķĺìĬµëĭĪëĭ¤
Ġê³µ ìĽĲ
Ġê°Ĳ ì´ī
ìŀ¬ ìĿ¸
¶Ī ê³łê¸°
ĠìĿ¸ë Ĥ´
ĠìĦ¸ë ł¥ìĿ´
íĥĪ ì¶ľ
Ġìĸ´ëĶĶê¹Įì§Ģ ëĤĺ
Ġëį °ëıĦ
Ġê¸° ìłģ
ê²ł ê³ł
Ġì£¼ ìĿ¸ìĿĺ
Ġëħ¸ë ŀĳ
ĠìķĮ íĭ°
íĶĦ íĮħ
Ġìī °
ĠìķĬ ê²łëĭ¤ëĬĶ
íĻĶ ëıĦ
Ġë¶Ħ ìĿĺ
Ġê¸¸ ìĸ´
Ġì°¾ìķĦ ìķ¼
íķĦë ¦Ħ
è Ļ
Ġêº¼ë Ĥ¸
ĠìĦ¤ëªħ íĸĪëĭ¤
Ġë¶Īê½ĥ ìĿ´
Ġëª¨ ì¹ľ
ĠëıĻ ì²ľìĿĢ
ĠíĽĦ ëĭ¤ëĭ¥
Ġíİ¸ ìĿ´ëĭ¤
ìĪĺ ìŀĪëĬĶ
Ġëĵ¤ë ¦´
ì°¬ ìĿĢ
Ġì´Īë ¥´ë
Ġë¨¹ìĸ´ë ´¤ëĬĶëį°
Ġê°ķ ìķĦ
Ġë°¤ ìĿĺ
ĠìŀĶ ìĹĲ
ì² ľëıĻ
ĠìĿ¼ ìĭľ
ĠíĬ¹ ìĦ±
Ġë¶Ģëĭ´ ìĹĨìĿ´
ĠìĿ´ë¥´ë łĢëĭ¤
Ġìłģ ë§ī
ê³Ħ ìĨį
Ġê¸´ ìŀ¥ìĿĦ
c i
íĸī ìĿ´
ĠìĿ´ëłĩê²Į ê¹Įì§Ģ
ëĤ´ ìĥĪëģ¼
ĠíĿĲë ¥¸
Ġëľ¨ ê²ģê²Į
âĺ ķï¸ı
Ġê²¨ë ĪĦ
ĠëįĶ ìĹĨìĿ´
ìĺĪ ìĹĲ
ëĪ Įë
ìķĦì§ģ ëıĦ
Ġíķ¸ëĵľíı° ìĿĦ
ĠìķĬ ê²łìĬµëĭĪê¹Į
íŀĪ ê¸°
Ġì£¼ì°¨ ìŀ¥
Ġë°ĺì§Ŀ ìĿ´ëĬĶ
ĠìĿ´ë £°
ĠìŀĲë ĵ¤
ª¨ ì°¨
Ġì¹¼ ì¹¼
ĠëĤłìķĦ ê°Ķëĭ¤
ĠíħĮë ¬´
Ġë²łìĿ´ ì»¨
ĠìķĬ ëĬĲëĥĲ
íĮ ľ
ìĽĮ íģ¬
ê·¼ ì²ĺ
Ġì²Ń ëŁī
Ġë³´ìĹ¬ ìļĶ
Ġë§ĪìĿĦ ë¡ľ
Ġë¹¼ìķĹ ìķĦ
ìĤ¬ë Ŀ¼ëĬĶ
Ġê·¸ëł¤ ì§Ħ
Ġì§ ¸
Ġëª» ëĤľ
¯¸ë ħ¸
íį¼ë ¥¼
ŀĢë ĵľ
Ġë©įì²Ń íķľ
ĠëĪĦ ìĽłëĭ¤
Ġíıī ê·ł
íĨłë ģ¼
ĠëįĶë ¸Ķ
ĠëĤłë ł¤ë
ĠìĬ¤íİĺ ìħľ
ĠíĿłë »ĳ
Ġê³µ ê°ĦìĹĲ
íĨł ëĬĶ
Ġìĭ¹ ìĭ¹
Ġíķľ ìŀ¥
Ġíķ´ ì¤ĺ
ê´Ģ ê³Ħ
Ġë°ķ ìĪĺë¥¼
ê²¬ ìĿĦ
©Ķë ī
Ġìĭ¤ë ¦°
I A
íķ į
Ġê²ĥ ìĿ´ëĦ¤
Ġì°¨ ìĿ´ë¥¼
Ġë¿Ĳ ìĿ¸ëį°
ĠëĲĲ ìĸ´ìļĶ
Ġíľĺë ĳ¥
è «
ĠìĿ´ë £¬
Ġê²½ ì°°ë
Ġë¡ľ ëĵľ
Ġìħ ĪìĿ´
ĠìĿ´ë¥´ë łĢ
r u
ìłķ ìĽĲ
ĠìĨĲ ìĹĲëĬĶ
Ġë¶Ī ê³łê¸°
ì¹´ë Ŀ¼
Ġì¡´ìŀ¬ ëĬĶ
ĠìłĦì²´ ìłģìĿ¸
ê¸°ë ¶Ģ
ìĺģ ìĿ´ëĬĶ
ê³Ħ íĥķ
Ġê°Ī ì¹ĺ
Ġì²ł ìĪĺ
Ġê°Ģìł¸ ê°Ģ
Ġëª¸ë¶Ģë ¦¼
ĠìĥĿ ìĦ±
Ġë¬¼ ê³łê¸°
ĠëĵľëŁ¬ë ĤĺëĬĶ
Ġê·¸ë ĮĢê°Ģ
Ġìĭ¬ íĺ¸íĿ¡
ĠíĿĺë ¦¬ëĬĶ
Ġë¨¹ê³łìĭ¶ ëĭ¤
Ġíķľ ê·¸ë¦ĩ
Ġë¶Ģë ¶ĦëıĦ
Ġì§ĢëĤĺ ëĬĶ
Ġê¸°ëĬ¥ ìĿ´
ĠëĤĺ ì²ĺëŁ¼
Ġë°Ķë ŀĦ
ĠíķĺëĤĺ ëĭĺìĿĺ
ìłĢë ŁŃ
Ġê¸°ë¶Ħ ìĿĢ
ìĿ´ ê²ĥ
ĠìĦ¸ íĬ¸ë
ĠëĮĢë Ĩĵê³ł
Ġì§ĢëĤĺ ìŀĲ
ri st
§ Ģ
íĺ¸ ìĪĺ
Ġ( âĤ©
ĠìłĦìŁģ ìĿĺ
Ġëĭ® ìķĦ
ĠëŁ¬ ëĭĿ
Ġë¨¹ ìľ¼ë©°
ë°© ìĿĺ
Ġì¢ħ ìĿ´ë¥¼
Ġíĺ¸ë ĳĲ
Ġë§ĽìŀĪëĬĶ ê±°
ĠëĨĢëŀį ê²ĮëıĦ
Ġíĺķ ìĿĦ
Ġì£¼ë¬¸ íķĺë©´
Ġëľ» ëĮĢë¡ľ
ĠðŁĺ Ĭ
Ġê¼¬ë §¹
ĠìķĮìķĺ ì§Ģë§Į
Ġì°¬ ì°¬
ê³łìĭ¶ ìĸ´
Ġìĺ¤ëĬĺë Ķ°ëĿ¼
íķĺ íĬ¸
ĠëĲĺ ìĤ´
Ġì£¼ ìĹ°
Ġë© ľ
ĠìĺĪìģ ĺë
íĬ¸ë ³¼
Ġìļ¸ ì§Ģ
ê°Īë ¹Ħë
åŃ ¸
ìĦľ íģ´
ìŀ¥ ìĸ´
Ġë§Ĳ íķĺê¸°
Ġíĺ¹ ìĭľëĿ¼ëıĦ
Ġë½ ķ
ĠìĿ´ë£¨ ìĸ´ìł¸
Ġíİ´ ê³ł
Ġëĭ¤ ê°ĻìĿ´
ĠìĹħ ê³ł
ĠëĲĺ ê²łëĭ¤
ëĿ¼ ìĿ´
Ġìķŀìľ¼ë¡ľ ëĬĶ
ĠëĤĻ ìĹ½
Ġìĭľ ìĿ¸ìĿĺ
ê°Ģë Ŀ¼ê³ł
ĠìļĶ ìĭľëĭ¤
Ġë¬¼ë ĵ¤
ĠëĦ¤ ê²Į
Ġê°ģê°ģ ìĿĺ
íķĺ íĬ¼
ìĿ¼ ìĸ´ëĤĺ
Ġê¸° ìłĢê·Ģ
ìļ° ìĹĲê²Į
Ġëª¨ëĳĲ ìĹĲê²Į
Ġì´Ī ì½Ķë
ì¸µ ìĿ´
Ġê²¨ìļ¸ ìĿ´
ì¤¬ ëĬĶëį°
² ĶìĿĦ
æ Ķ
ĠìĨĲ ì§Ī
ĠìĨį ëıĦê°Ģ
íı¬ ëĬĶ
¶ īìĿĢ
Ġë°ľ ë§¤
Ġì°¾ìķĦ ìĺ¤
ĠìĤ¬ ìĭ¤ë
ĠíĽĶ ì³Ĳ
7 0
ĠëĤĺ ê²Į
©Ķ ê°Ģ
¡ľ ëĵľ
ê±° ìļ¸
ìľ¼ ëĭ¤
ìĽĮ ì§ĢëĬĶ
ëł¥ ê³¼
ĠíĻ© íĥľ
Ġìļ¸ë ¨¹
ĠìĨĮ íĻĢ
ĠìķĦëĭĲ ê¹ĮìļĶ
Ġìĸ´ì©Į ê³ł
ĠìĬµ ê²©
Ġê³łê¸ī ìĬ¤ëŁ¬ìļ´
Ġíķĺ ìĺĢìĬµëĭĪëĭ¤
ìĤ¬ ìŀ¥ëĭĺ
ĠëĿĦ ëĬĶ
ĠëĴ¤íĨµ ìĪĺë¥¼
Ġì¶Ķ ì§Ħ
ĠìĿĢ ìĪĺëĬĶ
ĠìĦ¤ëªħ íķł
äº ĭ
8 8
ìĸ´ë ¥¸
Ġì°¾ ìľ¼ëŁ¬
Ġë§ĮëĤĺ ë³´
Ġê¹ ¬
ðŁĺ Ģ
ĠìŀĪ ê¸°ëıĦ
íİ ´
Ġë¹łë ¥´
Ġì¹¼ ìĿ´
ĠëģĮìĸ´ìķĪ ìķĺëĭ¤
Ġìĺ¤ëŀĺ ìĺ¤ëŀĺ
Ġì§Ģì¼ľ ìķ¼
æŃ ¦
ĠëĤ¨ ìĿ´
Ġìķł ìĽĲ
Ġë¨¼ ì§Ģê°Ģ
ê°Ķ ìĸ´ìļĶ
Ġì¹´íİĺ ìĹĲìĦľ
Ġê¸°ì¤Ģ ìľ¼ë¡ľ
Ġê·¼ ê±°
ì£ Ħë¥¼
ìľł ëĭĪ
ĠíĥĢê³ł ëĤľ
Ġê³Ħë ŀĢë
Ġìłķ ìĭĿìľ¼ë¡ľ
íı¬ ìĿĺ
Ġìĭľë ĮĢë¥¼
ĠìķĦíĶĦ ê³ł
ëĭ¤ë³¸ ëĭ¤
Ġê·¸ ìĹĲê²ĮëĬĶ
Ġíķľ ëĭ¨
ìłľì£¼ ìĹ¬íĸī
Ġë¬´ ìĭł
íĶ¼ ëĬĶ
²Ħ íĦ°
Ġëĭ¬ëł¤ ìĻĢ
ĠìĺĪ ìłĦìĿĺ
Ġëĸ¨ìĸ´ ìł¸ìĦľ
ĠìĺĪë §¤
ĠðŁĳį ðŁı»
ìŀĲ ìľł
ĠìĥĿê°ģ ëĤĺìĦľ
Ġìķŀ ìĹĲìĦľëĬĶ
Ġìĭ¤ ìĸ´
ĠíĻĶ ìŀ¥ìĿĦ
Ġëĭ¿ ìĿĦ
b le
i f
Ġì¹ «
Ġê²¹ ì³Ĳ
è ¦
Ġë°Ľ ì³Ĳ
Ġê²Į ìľ¼ë
íĥĢë ¡ľ
Ġë³Ģ íķ¨
Ġëĭ¹ìŀ¥ ìĿ´ëĿ¼ëıĦ
ëĭī ìĬ¤
Ġë¶Ģíĥģëĵľë ¦½ëĭĪëĭ¤
ĠìłĦíĺķ ìłģìĿ¸
Ġìĺ¤íĽĦ ìĹĲ
ê°Ģ ëĤĺ
Ġëª¨ ìĪľ
Ġëĥī íģ¼
ì¶Ķë ©°
ê¸Ī ìĿĺ
ìľł íķĺê³ł
Ġìĭ¤ íĺĦ
Ġë§Ĳë ĵ¤ìĿ´
ìĪĺë¶Ħ íģ¬ë¦¼
c ut
Ġì¢ĭ ëįĶëĿ¼ê³łìļĶ
ê¸Ī ìľ¼ë¡ľ
ĠëıĦ íĨ°
°ĺ ìĿ´
Ġì¹ĺë £Įë¥¼
Ġêº¼ëĤ´ ìĦľ
Ĳĺ ìĹĪê³ł
ĠëĪĪ ìĤ´ìĿĦ
Ġê³łìĥĿ ìĿĦ
ĠìĹ¬ë ³´
ĠíĹĪ ìļ©
ĠëĤĺíĥĢë Ĥł
Ġì²ĺë ²Į
Ġë©Ģ ìĸ´
íķĺìĭľ ê¸¸
ĠìĥĿê°ģíķ´ë ³´ëĭĪ
ì£½ ìĿ´
ê¸° ìĹħ
ĠìĥĿ ê¸°ê³ł
Ġë°ĺ ì§Ģ
Ġë¹Ħë °Ģë
ĠìĮ ©
ìĬĪ íĥĢ
ìĽ¨ ìĸ´
ë ¡¯ëį°
Ġê°Ģ ëĭ¤ê°Ģ
ìĹĪ ìĿĦê¹Į
ìĿ´ëĿ¼ êµ¬
Ġìłģ ê³ł
Ġë²ķ ìĿ´ëĭ¤
s ofinstagram
ĠíķĺëĬĶ ê²Į
íĮĶ ìĿĦ
Ġë§ī ìķĺëĭ¤
Ġê³¼ ìłķìĿ´
Ġê°Ģì§Ģ ê²Į
ĠìĬ¬ íĶĶìĿĦ
ĠìŀĳìĦ± íķľ
Ġíķĺ ìĭľê³ł
°± ìĿĺ
wor k
Ġëĵľë Ŀ¼ë
Ġë¹Ħë ¹Ķë°¥
ne w
Ġ o
ê±°ë ¦¼
ìŀħ êµ¬
ĠìĿ¼ ìĿ¸ëį°
ĠëĤ® ìŀł
ìŀĲ ê¾¸
ìĪĺ ì§Ģ
ìĸ¸ ëĭĪê°Ģ
Ġëĵľ ìĭ¤
Ġë¹Ľ ê¹Ķ
ĠëĤĺê°Ģ ìķ¼
ap py
Ġê±° íĴĪìĿ´
ĠëĬ ª
įĶë Ŀ¼ëĬĶ
°© ì§Ģ
Ġìĭľìŀĳ íķ´
ì© Į
ëł¥ ìĿĺ
Ġê²°ë §Ĳ
Ġë¶ĪëŁ¬ë ĵ¤
ĠìĬ¤íģ¬ë ¦°
Ġê·¸ ìª½ìľ¼ë¡ľ
ĵľë ĵĿ
ĠíĭĪ ìĹĲ
Ġëª© ìłģìĿĦ
Ġë§Ĳê³ł ëıĦ
ì©į ìĿĢ
ĠëĳĲëĵ¤ ê²¨
Ġíķĺ ìĿ´ë
ra n
Ġë°ľê²¬ íķł
Ġìłķ íķ´ì§Ħ
ĠëĮĢ ëĬĶ
ì§ľ ê³ł
ãħłãħłãħłãħł ãħłãħłãħł
Ġì§ĵ ìĿ´
Ġëĵ¤ìĸ´ ìĻĶ
Ġì¼Ģ ìĿ´ë¸Ķ
ĠìĪ« ìŀĲ
ĠíŀĲë ģĶ
ìĨĶì§ģ íŀĪ
Ġì§Ģê¸Ī ì²ĺëŁ¼
Ġì²ľ íĥľ
ìĪł ìĹĲ
Ġìĭľë Ĥĺ
ĠëıĻìĥĿ ìĿĢ
Ġëĸ¨ë ¦¬ê³ł
ĠëıĮìķĦê°Ģ ìĭł
ëĭ¹ íķĺëĬĶ
íķĻ ìĿ´
ê°Ģ ë§Į
ĠìŀĲì²´ ëĬĶ
fa shion
ìĿ´ ì§±
ìŀħ ìĿĢ
ĠìĽĥ ê¸°
Ġë°ľë ª©
Ġë°©ë¬¸ íķľ
ĺ ĺ
ĠìĹĨ ì§ĢìļĶ
Ġê°Ģì¡± ìĿĺ
¡ľ ìĹĲ
ìķĺ ëĬĶì§Ģ
ĠëĮĢ ì§Ģ
ĠìķĦìĿ´ ëıĦ
ĠâĻ¥ ï¸ı
ìłĦ ì£¼ë
ìŀĳ ìĹħ
Ġë© ľë¡ľ
ĠíĥĦ íķµ
ĠìŀĲ ìłľ
ìĿ¼ ìĪĺë¡Ŀ
ìĺ¤ íĶĪ
¬´ ëĭĪ
Ġë§Į ìĽĲ
Ġìļ° ìĻĢ
ĠíĹĪ íĹĪ
Ġì¹¨ë ŀµ
ìĹĦ ì²Ń
ĠìĤ¬ íĥľë¥¼
ĠíĶ Ħ
íĮĮ ìĿ´ìĸ´
ê°ķ ë¦ī
Ġê·¸ê³³ ìľ¼ë¡ľ
p ro
Ġê°Ģ íķ´
ł¥ ëıĦ
Ġìŀĺ íķĺê³ł
Ġãħ ı
Ġëĭ¨ë°± ì§Ī
ĠëĵŃ ëĭĪëĭ¤
Ġê°Ĳì¶Ķ ì§Ģ
ìłĢ ìĿĺ
íĸī ìĤ¬
Ġë°¤ ë§Īëĭ¤
Ġë©Ī ì¶ľ
ĠëıĮë ¦¬ëĬĶ
Ġíķĺë£¨ ëĬĶ
ĠëĤ´ ìī¬ë©°
ĠìĦł ì°©
ë¯¸ êµŃ
ĠìĤ° ìľ¼ë¡ľ
Ġìį¨ ëıĦ
Ġë¶Ļëĵ¤ ê³ł
ĠìķĦ ìĭľëĬĶ
ĠìĹ° ìĪĺëĬĶ
íķ´ë ²Ħë¦°
Ġë¸Ķë Ŀ¼
ë¹Ļ ìĪĺ
Ġì§ Ĭ
Ġìłľ íĺķ
Ġì§Ģê¸Ī ì¯¤
Ġë¿ ħ
Ġìĺ· ìĿĢ
ĠìķĦë¦Ħ ëĭµê²Į
Ġëĸ¼ ì§Ģ
Ġëĵłëĵł íķľ
Ġíķ´ìĤ°ë ¬¼
> >
Ġë§İ ëĭ¤ëĬĶ
ìĪĻ ìĿĦ
Ġíķĺ ìĹ¼
ĠìĤ¬ ê³¼ë¥¼
Ġì²ľ ì£¼
Ġì¢ĭìķĦ íķľëĭ¤
Ġë§ĽìŀĪ ëĬĶëį°
íĨł ìĿĺ
Ġìłķìĭł ìłģ
?! ?!
Ġê³¤ë ĳĲ
ĠìĿį ëĤ´
Ġì¢ĭ ê²łìĬµëĭĪëĭ¤
Ġë¨¸ë¦¬ì¹´ëĿ½ ìĿ´
Ġê¼¼ì§Ŀ ëıĦ
ĠìĿ´ìĥģ íķĺê²ĮëıĦ
ĠìĤ´ë ¦¼
Ġì¹ľìłĪ íķľ
Ġë¯¼ ê°Ħ
Ġê´ľ íķľ
ĠíĻķìĿ¸ íķ´
¨¹ ìĸ´
ĠëĬĲëĤĮ ìĹĲ
§ ĳ
ĠëıĻ ë¬´
ĠëĲĺ ê¸°ëıĦ
Ġë¹Ħ ì¹ľ
ë§Ī ìłĢëıĦ
³ĳ ìĿĢ
ĠìķĦìļ¸ë Ł¬
íķĺ ìļ°
©´ ìĹĲìĦľ
Ġë¨¹ êµ¬
Ġê°Ģë ł¹
O U
ëĤĺ ê°Ģ
ëĲĺ ê²Į
Ġë³ĳ ìĽĲìĹĲìĦľ
Ġíĺ¸ ì¹Ń
ĠìĿ´ê³³ ìłĢ
n er
ĠíķĺìĹ¬ íĬ¼
ìĿ´ìĹĪëĭ¤ ëĬĶ
ĠëıĦ ìĽĢ
st u
ĠìĤ¬ ìĬ´
Ġë°Ľ ìķĺëįĺ
Ġëĵľë ¦¼
Ġê·¸ëłĩ ê¸°
ĠìŀĲ ê¸°ëĬĶ
Ġìłľ ìŀĲ
ĠìĦ¸ ìļ°
¶Ħë §Į
ì¢ĭìķĦ íķĺëĬĶ
ĠëĦĪíĿ¬ë ĵ¤
¯¹ ìĬ¤
ĠìĬ¤íĥ łë
Ġì¨ į
ë¦¬ëĭ¨ ê¸¸
Ġìłķ ì°©
íĶĮë łī
Ġë ŀĢ
ĠìĪĺ ìļĶìĿ¼
Ġëĭ¤ ëĭĪëįĺ
Ġíģ ´
łĪ ìĿ¸
Ġì§ĳ ìĸ´ë
Ġíĺ¸ ìĨĮ
~! ~!
Ġê° ¯
ĠíĤ¤ ìĬ¤ë¥¼
ë¹µ ìĨĮë¦¬
Ġëĭ¤ê¸ī íķĺê²Į
Ġì°¬ì°¬ íŀĪ
h u
Įë ¦¬
Ġìĸĺ ê¸¸
Ġâĸ ł
ì£¼ ìĭľëĬĶ
ŀĳ ìĿĦ
Ġíķĺë įĶëĿ¼ê³łìļĶ
Ġì°¾ìķĦ ê°Ħ
Ġìķłë ĵ¤ìĿĢ
Ġë§Įëĵ¤ìĸ´ë Ĥ¸
ìĤ¬ëŀĮë ĵ¤ìĿ´
Ġì§Ģë ĥĪ
ĠìĿ¸ë į°
Ġíĺ¸íĿ¡ ìĿĦ
Ġë§Ĳ ìĹ¬
Ġë¶Ģë ģĦëŁ¬ìļ´
ĠìĿ¸ë ĶĶ
íķ´ ì§Ģë©´
ĠíĻ Īë
ĠíķĺëĤĺ ëĭĺ
ĠëĮĢë Ĥ®
Ġë³Ģ íķĺëĬĶ
Ġëĵ¤ìĿ´ ëĭ¥
m an
ĠíĿ °ë
Ġë¯¸ ì³
Ġëĸł ëĬĶ
Ġìķ¼ êµ¬
ìĤ¼ ìķĦ
ĠìŀĲë¦¬ ìŀ¡ê³ł
Ġíį½ íį½
ì§Ģë Ŀ¼ëĬĶ
Ġëį°ë ¯¸
ìķĦìķĦ ìķħ
Ġì£¼ë ĳĶ
ĠìłķëıĦ ë¥¼
ĠìĦłë °°ë
ĠìķĦìĿ´ë ıĮ
Ġìļ¸ë ©´ìĦľ
Ġì¶Ķì²ľ íķĺëĬĶ
Ġë¹ł ì§Ģê³ł
ĠëģĪ ì§Ī
Ġíĥľ ëıĦìĹĲ
ĠíĹ¤ ìĹĦ
Ġíĺķ ìĤ¬
Ġê³µê²© ìĹĲ
ìĹĺ ìĿĺ
? `
ĠìĥĿê°ģ ì§Ģ
íĻ© ìĿĺ
Ġë¦¬ ìĸ¼ë¦¬
Ġì¹ĺë ©´
Ġìłľ ê°ģ
Ġìĺ¬ëĿ¼ ê°ĢìĦľ
Ġê²°ë¡ł ìĿĢ
Ġëĭ´ë°± íķľ
Ġë§Įì§Ģ ìŀĳ
T he
ĠìķĬ ìľ¼ë©°
ëĭ¨ íĺ¸ë°ķ
ë§Ľ ìĿĦ
Ġìŀ¬ë ¯¸ëıĦ
ĠëĪĪë¹Ľ ìĿĢ
íĭ° ìĿĺ
ĠìĹ´ ìĿ¼
ĠíĨłë ¡ľ
Ġìŀ ¼
Ġê°Ģ ëĬĲ
ìĪ ©
Ġëħ¸ ìĺĪë
ıĻ ë¬¼
Ġê¸° ìĽĥ
Ġìŀħ ìŀ¥ìĿĦ
ĠíĦ° ì§Ħ
Ġë¶ģ ìª½
ëħĦë §ĮìĹĲ
Ġì£½ ëĬĶëĭ¤
ìĿ´ìĹĪ ìĿĦê¹Į
Ġê°ĢëĬ¥ íķĺê³ł
ĠìĬ¹ ë¦¬ë¥¼
âĹĭâĹĭ âĹĭâĹĭ
Ġë©¤ë ²Ħ
ìĺ¤ ìĬ¤
Ġì£¼ ìĹĪìĬµëĭĪëĭ¤
Ġê²½ì°° ìĦľ
3 6
Ġë§Ĳ ìĹĲìĦľ
ĠíĻ© ê¸Īë
ĠëĮĢíĨµëł¹ ìĿ´
Ġíĺ¸ë¡ľ ë¡Ŀ
ĠíĻķ ìĿ¸ë
Ġë³Ħ ê±°
Ġì¶Ķì²ľ íķ´ìļĶ
ë¯¸ë °±
Ġë°Ķëĭ¤ ë¡ľ
Ġíı¬íķ¨ë Ĳĺìĸ´
Ġìĺ¤ë İħ
ıĮ ê³ł
Ġê°ĢëĬ¥ ìĦ±ìĿĦ
ĠìĤ¬ ê±´ë
³´ë Ł¬
Ġëª°ë ĳĲ
Ġê´Ģë ¦¬ë¥¼
ĠëĿ¼ë ĶĶìĺ¤
ĠëĪĪëıĻ ìŀĲ
Ġë§Ĳ ìĿ¸ì§Ģ
Ġëĭ¹ ì²¨ë
ĠëħĢìĦĿ ëĵ¤
Ġë§¡ ê¸°ê³ł
Ġíķĺ íĬ¸
ĠëĮĢë ¬¸ìĿĦ
Ġì¡´ìŀ¬ ìĿĺ
Ġê²ī ìľ¼ë¡ľ
ĠëĪĪìķŀ ìĿ´
ĠìĺĽëĤł ìĹĲ
ĠëĤłìĶ¨ ìĹĲ
4 8
ë ľ¨ë
Ġëª» ìĥĿ
ë¹ ¡
Ġë°ķ ìĪĺ
ĠìĿĺë ¬¸ìĿ´
Ġë¶ģ ëĳĲ
Ġë©ĭ ì§Ģê²Į
ìĦľ ë
Ġë° °ëıĦ
ĠìĪĺ ëĬ¥
íĥĢë ¥´
ìŀĲìłĦ ê±°
ìĺĢ ìľ¼ëĭĪ
Ġì·¨ ìĨĮ
Ġë³´ê¸° ìĹĶ
ĸ ¼ë
Ġê·¸ë ĵ¤ëıĦ
ìĭľ ì¦Į
Ġìĺ¤ ê°ĢëĬĶ
Ġë°Ľ ëĬĶëĭ¤
Ġê·¸ëŀĺìĦľ ìĿ¸ì§Ģ
Ġëĵ£ ê²Į
Ġìı ´
Ġê²ĢìĿĢ ìĥī
Ġë¬ĺ íķĺê²Į
ë¹ łë
Ġì²ľ íķĺìĿĺ
Ġë¹ł ìł¸ìĦľ
Ġíĥ± íĥ±
O M
Ġê°Ģ ì§ĢëŁ°
ëĮĢ ìĭł
ĠìĿĺë ¬´
ĠíĻĺ ìŀĲ
Ġëĭ¬ëł¤ ìĻĶëĭ¤
Ġê²ĮìŀĦ ìĿĢ
ĠíĻľ ìĿĦ
ĠìĹĨëĬĶ ì§Ģ
Ġì¹´ë ĵľë¥¼
Ġìĸ´ëķĮ ìļĶ
ë ģĦë
ĠìĪĺ ë¦¬
ĠëĤĺëĪ łë
Ġíı¬ê¸° íķł
ìŀĲë ª½
Ġìľł íķĻ
ìĦŃ ìĿĺ
ê¾¼ ìĿ´
Ġê²ĥ ë³´ëĭ¤ëĬĶ
ìľ¼ ìĭľëĬĶ
ĠëĪĦêµ¬ ìĿ¸ì§Ģ
Ġê·¸ë ĮĢëĬĶ
Ġì¡° ìķĦë
ĠìłĢ ê±´
ê·¸ ê²ĥ
Ġëħ¸ ìĿ¸ë
ĠìĤ¼ ê³ł
Ġë³µ ëıĦ
Ġëĭ¦ ê³ł
ĠìķĦë¦Ħëĭµ ê³ł
Ġë°°ë¶Ģë ¥´ê²Į
¦¬ë ¹Ħ
ìĿ´ìĹĪëĭ¤ ê³ł
łĪ ëĭĪ
ĠìĻľ ìĿ´ëłĩê²Į
ĠìĹ¬ë¦Ħ ìĿ´
Ġíĭ° ìħĶì¸ł
©ĭ ëĮĢë¡ľ
h an
ĠíĹĪ ìłĦ
Ġë¶ģ ìłģ
ì¶© ìĿ´
ìĸ´ ì°¨íĶ¼
ŀĺ ìĿĺ
ĠëĲĺ ìĹĪì§Ģë§Į
Ġíĥ Ķëĭ¤
ĠìľĦ ì£¼ë¡ľ
Ġì°¾ìķĦ ê°ĢëĬĶ
ë³ĳ ìĿ´
Ġëģĵ ìĸ´
Ġìĭ¬ë ¶Ģë
q u
Ġíķ´ ìļ´ëĮĢ
Ġìķŀ ëĴ¤
Ġë²Ī íĺ¸
ëĭ¬ ìĿĢ
ìĥĪ ëĬĶ
ĠìĹĦë§Ī íķľíħĮ
Ġë° Ģë¦¬
ĠìŀĪ ìľ¼ìĭł
ĠìķĦë²Ħì§Ģ ìĹĲê²Į
ŀŃ ìĿ´
ĠëıĦ ì¤ĳ
Ġìĭľìŀĳ íķĺìŀĲ
Ġê±°ë ĵ¤
Ġ ãĦ¹ãħĩ
ëĭ¹ ìĹĲìĦľ
ëĬĲë ģ¼
åŁ İ
íķ Ħë¡ľ
Ġí Ĥ¬
Ĥĺ ìĿ´
ĠëķĮë¬¸ ìĿ¼
ê·¸ëŁ¬ ê²Į
ì§Ģ ê¸°ëıĦ
Ġë§Ŀ íķł
ĠëħĢìĦĿ ëĵ¤ìĿ´
åĬ į
ìĤ ´ë¡ľ
ĠìĨĮë ¦¬ë§Į
êµĲ ìĹĲ
ĠìĤ¬ëŀĮìĿ´ ìķ¼
ĠëıĻìķĪ ìĿĺ
Ġìĭ¬ê°ģ íķĺê²Į
³´ ìĿ´
Ġìŀħ ê°Ģ
Ġìĸ´ìłľ ëĬĶ
ĠëĳĺëŁ¬ ìĭ¼
Ĳë įĶëŁ¬
ìĿ´ë Ķ©
ì¹´ë ¡ľ
¦ĩ íķľ
ìĬ¬ìķĦ ìĬ¬
ĶĶ ëĬĶ
ëĤł ìĿĦ
ìĹ´ ìĹĲ
Ġê¿Ī ìĿĢ
Ġê²ĥ ìĿ´ëĿ¼ë©´
Ġê²ĥ ê³¼ëĬĶ
Ġë°ľ ì§Ŀ
Ġì½ ľ
Ġë¹Ħë ¦°ë
Ġì±ħ ìĹĲ
Ġëķħ ìľ¼ë¡ľ
Ġë¿Įë ¦¬ë¥¼
ĠìĨĲë°Ķëĭ¥ ìľ¼ë¡ľ
Į Ī
Ġì ¬
Ġìłķ ëĭµ
ìľł ê¸°ëĨį
ë¿Ĳ ë§Į
O S
ĠìĿ´ ê¸°ì§Ģ
ĠíĤ¤ ìĹĲ
ĠëĤłë Ľ°
ĠìĿĮìķħ ìĿ´
ĠìĤ´íİ´ë ³´ìķĺëĭ¤
ìĪĺ ìłľë
ĠìŀĪëĬĶ ê±°
ê³³ ìĿĢ
íķ© ìłķ
ìĬĪ íį¼
Ġêº¼ ìł¸
ĠìĬ¤ ëĭĺìĿĢ
ĠëıĮë ¦¬
ìŀ¡ ìķĦ
Ġíĥ Ķ
íķĻ ìĽĲ
ĠìĦľë Ł¬
ìĸ¼ë §Ī
Ġë°ĺì§Ŀ ë°ĺì§Ŀ
Ġêµ¬ì²´ ìłģìľ¼ë¡ľ
b ull
ĠëĮĢ ê¾¸ë
ĠíĴį ê²½ìĿĦ
ĠíĮĮê³łëĵ¤ ìĹĪëĭ¤
§Ī ì¼ĵ
Ġëª© ìĪ¨ìĿ´
Ġë°ķ ìĤ´ë
Ġìĭłë Ĥĺ
ĠìºĲ ìĬ¤íĮħ
Ġëĭ¤ ì¹ľ
Ġìłģ ê²Į
Ġê¹¨ ê³ł
Ġë¯¼ì¡± ìĿĺ
ĠíĥģìĽĶ íķľ
ëĭ¬ ìĹĲ
ĵ¤ìĹĲ ê²Ĳ
ĠëĤĺíĥĢëĤľ ëĭ¤
å ¦
Ġë§Ī ìĭľìĺ¤
ìĦł ê³¼
æĽ ¸
ãĢ °ï¸ı
ì¡° ê°ľ
ëĤ¨ íİ¸
ĠëĮĢìĭł ìĹĲ
Ġ12 0
Ġëĭ¬ëł¤ë ĵ¤ìĸ´
ĠíĺĲ ìĺ¤
ĠìĭĿë¯¼ ì§Ģ
æ ®
Ġì ¾Įë
Ġê°Ļ ëĦ¤
Ġê³ł ìŀ¥
¹Ħ ìĬ¤
Ġë°© ìĿĢ
ë¹Ī ìĿĢ
ìľ¼ë £¨
ĠìŀĲ ìķĦ
Ġê°ķ ìłľ
Ġìľł íķ´
Ġìĭłë ©Ķëī´
Ġê¹¨ë ¬¼ìĹĪëĭ¤
Ħ¤ ìĿĺ
íĻĶ ê³¼
ĠëķĮë¬¸ ìĿ´ëĿ¼ê³ł
ĠíĺĦ ê¸°
Ġë§¤ë ł¥ìĿĦ
Ġë©´ ìłĳ
Ġì£¼ìĿ¸ê³µ ìĿĺ
ìŀĲ ë§¤
ĠìĨį ìĺ·
ĠëĪĪìķŀ ìĿĺ
ĠëıĦë¦¬ ìĸ´
Ġë Ł°ëįĺ
Ġë°Ķë¡ľ ë°Ķë¡ľ
Ġë§Ĳë ł¤
£Įë ıĦ
ĠìĹīëį© ìĿ´
3 7
¢ ¨
Ġíķľ ê³Ħë¥¼
ĠìĹ¬ ìĻķ
íĬ¸ë ¨¼íĬ¸
Ġì°¨ ìĿ´ëĬĶ
ĠìĹĲ ìĽĮ
ĠìĿ´íķ´ íķĺì§Ģ
Ġê±¸ìĸ´ ê°ĢëĬĶ
ĠìĤ¬ê±´ ìĿĢ
ìħ¨ë Ĥĺ
ĠíĿĲ íĿĲ
Ġì«Ħê¹ĥ íķľ
© ¸ë
Ġë¶Ģ ì°©
©Ķë ī´ë
ëĲĺë ©´ìĦľ
ìĿ´ë ĵľë¥¼
Ġìĭľ ëĬĶ
Ġë§Įë Ĥ¬ëįĺ
Ġë¨¸ë ¬´ë
ĠëıĦì°© íķ´ìĦľ
ĠëĮĢë¥Ļ ìĿĺ
Ġë Ļ
Ġê°Ģ ëĭ¥
įĶë ¥¼
ëĭ¬ ìĿĺ
ê¶ģ ìĿĢ
íĿ¬ë ıĦ
ł¸ ëĬĶì§Ģ
Ġì¶ľë łģ
Ġê³° ê³°
ì¹´ ì¸ł
ìļ°ë Ĥĺ
ê¸°ë Ħ¤
íķ´ë Ĩĵê³ł
Ġìĭ¤ ê°Ĳ
Ġëħ¸ ì¶ľë
ĠìĻĶëĭ¤ ê°Ķëĭ¤
íķĻ ê¸°
ĠìĿĢ ìĦľëĬĶ
Ġíķľ ìĭĿ
ìĻĢ ìĿ¸
Ġíķĺë įĶêµ°ìļĶ
ĠíķłìķĦë²Ħ ì§ĢìĿĺ
ê¸ Ģë¦¬
Ġê·¸ëŁ Ń
Ġë¬´ìĹĩ ìĿ´ëĵł
ĠëĿ ¤
Ġíĥľìĸ´ëĤĺ ìĦľ
Ġë§Ĳ íĸĪì§Ģë§Į
Ġê´Ģ ê³Ħë
Ġíıī íĻĶ
Ġë°Ķê¿ Ķë
Ġëĸłìĺ¬ë ŀĲ
Ġê°ĲëıĻ ìĿĦ
Ġê¸°ìĸ´ ìĿ´
Ġìĸ´ì§Ģë Ł½
n o
ìĪĺ ëıĻ
ĠìĥĿ ë¬¼
Ġë§ĪìĿĮ ìĨįìľ¼ë¡ľ
íķľëį° ìļĶ
Ġê³łëĵ± ìĸ´
ìĽĮ ìł¸
Ġíĸī ëł¬
ĠëıĻìķĪ ìĹĲ
íıī ìĿĦ
ì¹´íİĺ íĪ¬ìĸ´
ĠíĿĶëĵ¤ ë¦¬
ĠëĤļ ìĭľ
ĠìĿ¸ì¦Ŀ ìĥ·
ĠìŀĪ ê±°ëĤĺ
Ġë°ķ ê·¼
ëĭ¤ìĿ´ìĸ´íĬ¸ ìĨĮíĨµ
Ġì¡° ì¡°ëĬĶ
ĠìŀĪìĸ´ìĦľ ëĬĶ
ĠíĻĶë ģĪ
Ġê¹Ĭ ìĸ´
Ġë¦¬ë ĵ¬
è Ĭ
ķ ¡
ìĸ´ë Ĥ¬
ìķĺ ìľ¼ëĤĺ
Ġê°Ļ êµ°
Ġì§Ħ ìĿĦ
ĠëķĮë Ĥĺ
ê³³ ìĹĲìĦľ
Ġì³Ĳ ìĦľ
Ġì¡° ì¡°
ĠìłĢë ĵ¤ìĿĺ
Ġì°¨ë ¦°
Ġì¿ ¡
Ġ201 5
Ġëį°ëł¤ ê°Ģ
Ġë°ĺ ìľ¼ë¡ľ
Ġìłķë¦¬ íķĺê³ł
ìĬ¤ íĤ¨ë
ëĭ¹ ìľ¼ë¡ľ
Ġì£¼ìłĢìķī ìķĦ
Ġì«Ħê¹ĥ ì«Ħê¹ĥ
Ġì£¼ ìĤ¬
Ġëĵ¤ìĸ´ ìķ¼
Ġìĭł ëıĦ
ìķĺ ìľ¼ëĭĪ
Ġë§Ī ì§Ģëª»
ãĥ ĸ
Ġê°Ļ ëįĶëĿ¼êµ¬ìļĶ
Ġê°ĻìĿĢëį° ìļĶ
Ġìĺ¬ëĿ¼ê°Ģ ë©´
Ġìĸĩ ê²Į
Ġë® ¤ë
ĠëĤĺ ëĤĺ
Ġê¹¨ ìĸ´
Ġë¬¶ ìĸ´
Ġê±°ìļ¸ ìĿĦ
Ġìĺ¬íķ´ ëĬĶ
ìķ¼ ì±Ħ
ìĺģ ìķĦ
Ġìŀĳ ìłĦìĿĦ
ìĹ¬ë ¥¼
ĠìĭľíĤ¤ë ©´
ê°Ģë Ŀ¼ëĬĶ
Ġì§ĢëĤĺ ì¹ľ
ĠìķĦ ìĬ¬ìķĦìĬ¬
Ġê¿Ī ìĹĲ
íĿĲ ìĿĮ
Ġì¤ Ħë¡ľ
ìłľ ì£¼ë
ìĺģ ìĿ´ê°Ģ
ĠìĻľ ê³¡
ĠëĨĵ ëĬĶ
ĠíĿ¥ ë¯¸
ìŀ ĪëĤĺ
Ġìĭľ ìłĦ
ìķĦ ì°Į
ë¬¼ íĭ°ìĬĪ
ĠíķĦìļĶ ë¡ľ
Ġë©Ķë ª¨
ĠìķĬìķĺëįĺ ê°Ģ
A C
ħ ľ
ĠìĿ¼ ìĿĺ
ĠìĹ¬ ì§Ģ
Ġë³´ë Ĥĺ
ĮĢ ê¸°
Ġíİĺë ¥´
ì£¼ ìĭŃìĭľìĺ¤
Ġëª¨ ìĹ¬ìĦľ
ĠëıĻ ìª½
ìĺģ ìĹĲê²Į
ĠìķĪë Ĳľëĭ¤
Ġê¸°ëĭ¤ë ¦¬ë©°
Ġìĸ´ìļ¸ë ¦´
Ġê·¸ë¦ĩ ìĿĦ
íİ« ìĬ¤íĥĢê·¸ëŀ¨
ì£¼ ìĹĲê²Į
Ġì°¨ ê°ĳ
ìĿ´ëŀĢ ëĭ¤
ĠìĬ¬ ìĿ´ì§±
Ġì¡°ë ¦½
ĠìķĪ ìĸĳ
ìķĦë ª¬ëĵľ
ìĭłë į°
at ure
ĠíĶĦë ŀĢ
ĠëĵľëŁ¬ë Ĥ¸
Ġìŀ¥ ìĤ¬ë¥¼
ª¨ ëĭĪ
ĠíĶ¼ ê³ł
Ġìļ© ìĿĺ
Ġì²ĺìĿĮ ìĿ´ìĹĪëĭ¤
Ġê¹ĢëĳĲ íķľìĿĢ
g s
Ġë¹Ħ ê²ģ
ëĭ¤ë Ħ¤ìļĶ
Ġìļ° ìĪĺ
ë ¡Ģë¥¼
ĠëįĶ íķľ
ĠíĹĽ ê¸°
Ġë¿ Ķ
Ġê¹Ģë ªħ
ĠìľĦì¹ĺ ê°Ģ
ë²Ħë ł¸ëĭ¤
³´ ìĿĺ
ìĽł ìĸ´
ĠìĿ´íĽĦ ìĿĺ
Ġê·¸ëł¤ ìł¸
Ġê·¸ë ĨĪìĿĺ
ĠìĤ¬ ìĭŃ
Ŀ¼ë ©´ìĦľ
ĠìĤ¬ëŀĮ ìĹĲ
Ġë¶Ī íĺĦë
ëħĦ ì§¸
ì¸ Ħë
Ġê·¹ ëĭ¨
ê±°ë¦¬ ê¸°
Ġìĭľì¼° ëĬĶëį°
Ġëĭ¤ ìłķ
Ġì¶Ķì²ľ íķ©ëĭĪëĭ¤
Ġìĸ¸ìłľë ĵł
¨ ëĭ¤
âĢ¦âĢ¦ !
ĠíĮĮ ìļ°ë
Ġê¿ °
ĠíĹĪë ¦¬ê°Ģ
Ġì´Ŀ ì´Ŀ
ĠíĶĦë ¦°
Ġë§¤ë ħĦ
ĠìķĦìłĢ ìĶ¨ë
Ġê³ł ìĿĦ
Ġê±° ì§ĢìļĶ
ìĦł ìĹĲìĦľ
ìĺ¨ ìĿ´ê°Ģ
ĠíĮĮ ìĿ´
Ġë¬¶ ìĹ¬
Ġëĭ ³
Ġíļ ¨ë
ë·°íĭ° ìĿ¸íĶĮë£¨ìĸ¸ìĦľ
êµŃ ëĤ´
°ķ ìĿĦ
ĠìĿ´íķ´ íķĺê³ł
Ġë¬¼ëŁ¬ ìĦ°ëĭ¤
ĠìļĶê±° íĬ¸
A M
Ġê°Ļ ìķł
Ġê¸° ìĿ´íķľ
ìĥ¤ ìĽĮ
ĠìŀĪ ìĹĪë
ĠíĽĦ ìĭĿ
ĠêµŃ ë°©
ĠëĤ´ëł¤ ëĭ¤ë³´ê³ł
ìķĬ ê³ł
Ġì£¼ë¨¹ ìĿ´
ìĹī ìĹī
ĠêµŃë¯¼ ìĿĺ
ĠëĤ¨ ìķĦìĦľ
įĶ ìĬ¤
Ġê³³ ìĿ¸ëį°
ĠìŀĲëĦ¤ ìĿĺ
Ġê°Ģ ìĭł
ĠìĿ¸ íķĺìĹ¬
Ġìŀ¥ ìĨĮë¥¼
ìľł ìķĦë
Ġëª© ìłģìĿ´
ĠìĿ¸ìĥĿ ìĿĢ
Ġë§Įì¡± ìĬ¤ëŁ¬ìļ´
ĠíĳľíĺĦ ìĿĦ
ĠìĺĪìłĦ ìĹĲëĬĶ
Ġì£¼ ìłľ
ĠíķĺëĤĺ ë¿Ĳ
Ġëįľ ìĸ´
ĠìĺĪìķ½ ìĿĦ
Ġë° §
ĠìŀĪ ìľ¼ë¦¬ëĿ¼
ìłĳ ìĭľ
Ġê°ĢëĬ¥ íķł
Ġê³§ ìĿ´ìĸ´
ì¤¬ ìľ¼ë©´
ĠìķĪë ĵ¤
ĠíĺĦ ê´Ģ
ĠìķĬìķĺëĭ¤ ê³ł
Ġê°ĸ ì§Ģ
ìĬ¤íĬ¸ë łĪ
Ġíĥĳ ìĬ¹
ìĹ¬ëŁ¬ë ¶Ħ
ìŀĲë Ŀ½ìĿĦ
Ġëħ¹ ìĿĮ
ĠìķĦìī½ ëĭ¤
ĠìĹ¬ ìŀĲë¡ľ
ê·¼ ìĿĢ
ĠìĤ´ë ł¤ë
ĠìķĦëŀĺ ìĦľ
ëĨ Īë
Ĳ Ĳë
Ġê²ĥë§Į ìĿĢ
ĠëĤ¯ ìĿµìĿĢ
Ĥ ³
Ġì£½ ìĸ´ìĦľ
ĠíĨµ ì¦ĿìĿ´
Ġìŀ¡ ê¸°
ĠëĲĺë įĶëĿ¼êµ¬ìļĶ
Ġê¸´ìŀ¥ íķľ
ĠìŀĪ ê¸¸ëŀĺ
Ġë¬¸ ì§Ģë
Ġëĭ¬ ìĿĦ
ìĦ¬ ìľł
ìĸ´ëĤĺ ëĬĶ
Ġìłĳ ìĪĺ
Ġìĵ´ ëĭ¤
Ġë§Įìķ½ ìĹĲ
Ġêµ°ìĤ¬ë ĵ¤ìĿĦ
ê² ħ
Ġì°¨ ê·¼
ĠìĤ¬ëŀĳ íķł
ì¶ľ íĮĲ
Ġë¶Ļ ìĹ¬ë
ĠìĹĨ ìķłë
Ġì¤ĳ êµŃìĿĺ
ĠëĪĪë §Į
Ġê±´ëĦ Īëĭ¤
ĠìķĦíĮł ëĭ¤
ìĤ¬ íĥķ
Ĳĺ ìĹĪìĬµëĭĪëĭ¤
ë¹ ¨ë
Ġì³Ĳëĭ¤ë ´¤ëĭ¤
ê¸Ģë Ŀ¼
ëĴ ¤ë¡ľ
ĠëĦīëĦī íķĺê²Į
ì§Ģ íķľ
ë² Īë
ł¨ ìĿ´
Ġë©Ķëī ´ëıĦ
ĠíĽĦ ê³Ħ
Ġê¸°ëĮĢ ìĸ´
Ġë± ħ
ĠìĥĿê°ģ ëĤ¬ëĭ¤
Ġë¹Ħë ¹Ķ
ìĺģìĸĳ ìĤ¬
é £
ĠìĦľë ¥ĺë¥¼
ìŀ¡ ìķĺëĭ¤
ĠìĸĢ ìĿĺ
Ġ âłĢâłĢ
Ġë¨¹ ê¸°ëıĦ
ë°°ê³ł íĮĮ
ĠëĲł ê¹ĮìļĶ
Ġë¸Įë ¦¬
ê²Ģ ìĿĺ
ê°ľ ìĹĲ
³µ ìĿĢ
ĠìĦ¤ë ł¹
Ġâľ ħ
ìĹĲê²Įë §Į
Ġê²ĥ ìŀħëĭĪê¹Į
ĠìĿ´ë ªħ
Ġê°Ģ ê¾¸
Ħ¤ ìĿ´
êµ° ê²ĥì§Ī
Ġìļ°ë¦¬ ìĻĢ
Ġëª¸ë §¤
§ ĺë
æ ¯
íĦ ¸ë
Ġì¢ĭ ìķĦëĿ¼
Ġë§Ľ ìĿĺ
Ġìĺ¤ë ²Ħ
ĠìĦł ìĦł
Ġì²ľ íķĺë¥¼
ë´ Ħë
Ġë©¤ë ²Ħë
Ġê°ĢìĬ´ ìĿĢ
íķĺíķĺ íķĺíķĺ
Ġìĸ´ë§Īìĸ´ë §Īíķľ
Ġê²ĥ ìĿĺ
ĠìĪĺ íķĺë
ĠìŀĪëĬĶ ì§ĢëıĦ
ĠëĶ° ìľĦë¥¼
ĠëĤĺëĿ¼ ìĹĲìĦľ
ë²Ħ ìĬ¤
Ġê·¸ë¦ĩ ìĹĲ
ĠìĻľë ĥĲë©´
ìĭľ ìĹ¬
íķ´ë ³Ģ
ì¿ł íı°
ĠìĿ´ë¥´ê¸° ê¹Įì§Ģ
ĠìĿ´ ìĬ¬
ĠìľĦ ê¸°
Ġëĵ¤ìĸ´ ìŀĪìĸ´ìļĶ
Ġíĸī ìłķ
Ġíĸ¥ ìĿĦ
Ġìŀ¬ë £Įë¥¼
Ġêº¼ëĤ´ ìĸ´
c on
Ġë ¥´
ĠìĿ¸ ìĹ°ìĿ´
ĠìĨĮë §¤
ì²Ń ìĸĳ
Ġëªħ ë°±
íĨ¡ ìĬ¤
íĶĮëłĪìĿ´ íĮħ
Ġë¸Ķë£¨ íĪ¬ìĬ¤
è¡ Į
ĠìĿ´ ì¯¤
Ġëĭ¤ë ¥´ë
ì¤Ħ ê¸°ê°Ģ
ĠìĪ¨ ê²¨
Ġëįĺ ì§ĢëĬĶ
Ġëª»íķĺ ëıĦë¡Ŀ
ë§Ĳë ŀĳ
ãħ¤ ãħ¤
ìłĢ ê±°
Ġê°Ĳ ìłķìĿĺ
ķĮ ê¹Įì§Ģ
Ġëĵľ ìĭľëĬĶ
Ġë¶Ģ ëĬĶ
íĨµ ìĿĢ
ìī¬ ëĬĶ
ĵ¤ ì²ĺëŁ¼
ë§ ĪëıĦ
ìĿ¸ ìĤ¬
Ġíķľ ìĿ´
ĠìĨĮë ª¨
ĠìĿĺ ìŀĲë¥¼
Ġëĭ¨ë ¬´
ðŁĳįðŁı» ðŁĳįðŁı»
Ġê·¸ë ¶Ħ
ê¸°ë ŀĳ
ĠëĮĢ íĻĶê°Ģ
ë§Ĳ ëıĦ
Ġë¬´ë ¦¬ë
æ³ ķ
ĠìķĦ ì¹´ë
ĠëĮĢ ìĭłë
ì¹´ ì¹´ìĺ¤
Ġë¶ĪëŁ¬ ìĦľ
ĠìŀĲëıĻ ìľ¼ë¡ľ
ĠìĥĿê°ģíķ´ë ³´ë©´
korean food
ìłľ ìŀĳ
ĠëıĦ ë°ķ
ĠìĨĲ ëıĦ
ë¹ ¼
ìĤ°ë ĮĢ
ë°ĺ ì°¬ë
ĠëĿ¼ íĺ¼
Ġë¨¸ê¸Ī ê³ł
Ġëª» ì§Ģ
Ġìŀł ê²¼ëĭ¤
ĠìĤ¬ìļ© íķ´ëıĦ
Ġê´ĳ ìŀ¥
ìĿ´ ê±°ëĤĺ
Ġê³µ ê°ľë
ĠìłĢ ì£¼
ĠìĤ¬ìļ© íķĺìĹ¬
Ġìŀ¬ ì°¨
°± ìĿĢ
ë°Ľ ìĿĦ
Ġíĺ¸ë ¶Ī
ĠëĮĢ ê²Į
Ġìĭľë ģĦëŁ¬
Ġíıī ìĨĮë
łĪë ¸Ĳ
ĠëĲĺë Ħ¤ìļĶ
Ġì°¾ìķĦ ê°Ķëĭ¤
Ġìĭ« ëĭ¤ê³ł
į© ìĿ´
ëª°ë Ŀ¼
Ġìĸ´ë ¯¸
ĠìĦľ ìª½
ëıĦ ì¿Ħ
ĠìĿ´ ìłĦìĿĺ
Ġë¦¬ ê·¸ëŀ¨
Ġë¬´ìĹĩ ìĿ¼ê¹Į
Ġì§ĢëĤľë ²ĪìĹĲ
Ġë§Ĳ ê¹Į
ì£¼ ì¶¤
ĵľë Ĥĺ
ĠëĤ¨ë ĵ¤ìĿ´
ĠìķĦìī¬ ìĽĮ
Ġë¶ĪíĺĦë ĵ¯
ĠìĨ ¥
Ġë°Ķë Ŀ¼ê³ł
ĠìľĦ ê¸°ë¥¼
êµ¬ë §Ľì§ĳ
Ġì¤Ħ ê²Į
ĠëĵľëŁ¬ë Ĥ´ëĬĶ
ĠëĿ łë
i me
ê²ĥ ëĵ¤
Ġê¸°ìĸµ ìĿĢ
ì· Ħ
ê¹ ĢìĿĦ
ĠìłĲ ê²Ģ
ëĵ± ìĿĦ
Ġê·¸ê³³ ìĹĲëĬĶ
ìĿ´ìĺ¤ íĭ±
ìĥģ íĴĪ
¥´ë ¦ī
ĠíĶ¼ë ¶Ģë¡ľ
ĠëĤĺìĻĶ ìĿĦ
ê³¨ë ¡ľ
ĠëĤĺ ìļĶ
ìķī ìķĺëĭ¤
ĠëĤ´ê²Į ëĬĶ
ë¸Ķë £¨
ĠëıĦ ëª¨
Ġë§Īë ¦¬ë
Ġë¶Ħ ìķ¼
ĠíĿĲë ¦ĦìĿĦ
Ġë¬´ìĦľ ìĽĮìĦľ
Ġíĭ ´
Ġíģ¬ ì§Ģ
ĠíĸĦë ²Ħê±°
Ġ ãĦ·
Ġë¹Ħë ĶĶìĺ¤
Ġì¶ľ ìĤ°
Ġìĸ» ê²Į
ĠìĶ¹ íŀĪëĬĶ
ĠíĹ ¹
ĠëĶ ¥
Ġë¶Ģ ìĿ¸ìĿĢ
Ġì¶ķ êµ¬
Ġë³´ ê¸Ģë³´ê¸Ģ
ê°Ģë ģĶ
Ġë¨¹ìĿĦ ëķĮ
ĠíķĺëĬĺ ê³¼
Ġëĭµ ë³Ģ
Ġê°ĢëģĶ ìĿĢ
ĠëĤľë ¦¬ë
ë ¥´ë
ë ĳĳ
Ġë§Ĳ íĸĪ
Ġë¶Ī ìĿĺ
Ġëª© ê±¸
Ġìļ© ë§¹
n ing
è ³
Ġ ]
íķľ ë³µ
Ġìĥģ íĺ¸
Ġê³³ ìĿ´ìĹĲìļĶ
Ġíĭ ĪìĿ´
Ġë©Ķëī´ íĮĲìĿĦ
ĠìħĢ íĶĦë
Ġê¸°ìģ ¨ìĿĦ
¼ë §Į
ì²Ń ìĿĺ
Ġìĥģíĥľ ìĹĲ
ë¯¸ ìĪł
ĠìĻ¸ ìĭĿ
Ġê» Ħ
Ġìĺ¤ë¹łë ¥¼
Ġê¸ī ê¸°ìķ¼
ì»¤íĶ¼ ìĬ¤íĥĢê·¸ëŀ¨
ĠìĤ´ìķĦëĤ¨ ìĿĢ
ìķ ¨ë
Ġê¸° ê²ģ
Ġíŀĺë Ĥ´
ĠìĿĳ ê¸ī
ê¹Į ì§ĵ
ê°Ģë ¬¼
Ġë°ķ ìĺģ
ĠìĻ¸ ê³Ħ
ä ¾
Ġê°Ģ ìĿ´
ĠìķĬ ê²łëĭ¤ê³ł
ìĺ¨ ìĿĦ
Ġëª¨ìĸĳ ìŀħëĭĪëĭ¤
Ġë¹ĦìĬ· íķĺê²Į
ĠìĤ¬ë°© ìĿĦ
íİ¸ë ıĦ
i es
´ ħìĭľëĭ¤
ĠìĹĨ ìĿĮìĿĦ
Ġëĭ¹ìĭł ëıĦ
bo y
Ġì¡° ìĤ¬ë¥¼
ĠìĤ° ëĭ¤ëĬĶ
ê±°ë¦¬ ìĹĲìĦľ
Ġê°Ļ ì§ĢëĬĶ
ê²© ìľ¼ë¡ľ
ëĵ¤ìĿ´ ìĹĪëĭ¤
Ġë³µ ë©´
Ġë°Ģ ìĸ´ë¶Ļ
Ġë©Ģ ìĸ´ìł¸
Ġíľ´ ìĭĿìĿĦ
ĠëĤ© ìŀĳ
ìĹĪ êµ¬ëĤĺ
ê·Ģ ìĹĲ
ìĹĦ íķľ
Ġê³łê¸° ìĻĢ
Ġëģĵ ëĬĶ
ãĥ» ãĥ»
ĠìĿ´ ìĦ±ìĿĦ
Ġìŀłê¹Ĳ ë§Į
ĠâĿ £
ìĥ ´
ĠìĥĿ ê²¼ë
Ġìĥģ ê¸ī
íķĺë ¦¬
ĠìĻ¸ ì¹ĺëĬĶ
Ġê½ģ ê½ģ
ĠíĨµ ìĹĲ
Ġì²´ ìľ¡
ĵ¤ê³¼ ëĬĶ
Ġë°Ķê¾¸ ê³ł
ŀ ´ë
Ġíķ´ ëĭ¬ëĿ¼ê³ł
ĠëĤ´ë °Ģë
Ġêµ¬ë ¦ĦìĿ´
Ġë¶Ģëª¨ ê°Ģ
ëĮĵ ê¸Ģ
Ġê¸°ë¶Ħ ìľ¼ë¡ľ
ģĿ ìĹĲ
ĠëĲĺìĹĪ ìľ¼ëĭĪ
ĠìłĦíĪ¬ ê°Ģ
ĠìŃī ìŃī
ìķĦë³´ ì¹´ëıĦ
ĠU S
ķ ·
Ġëĭ¤ ìļ´
ĠëĴ¤ ì«ĵ
ĠíĻĶ ìĤ¬
£¡ ìĿĢ
æ Ħ
Ġ **
ìŀ Ń
ë§Į ìķ½
ìļ´ë į°ë
Ġëªĩ ê°ľ
ë§Ŀ ê³ł
ĠìĶ¨ ìĿµ
ĠìķĦê°Ģ ìĶ¨ê°Ģ
Ġì¤ĳìķĻ ìĹĲ
ĠíķĺìĹ¼ ìĹĨìĿ´
ĠëĤ´ ê³µìĿĦ
ìŀĪ ìĹĪëĬĶëį°
Ġëª¨ìĬµ ê³¼
³ĳ ìĿĺ
ëĵ± ê¸ī
ĠíĨłë ĵľëª¨
ĠíĬĢìĸ´ëĤĺ ìĺ¨
ĠìĿ´ ìĿĺ
Ġê·¸ê²ĥ ìĿĺ
Ġë°Ŀ ê³ł
Ġíľ´ ìĭĿ
Ġëª¨ ëĭĿ
Ġì« ĳ
Ġìī½ ìĤ¬ë¦¬
ë°° ê°Ģ
ĠìķĦíĶĦ ì§Ģ
ĠìļĶêµ¬ íķĺëĬĶ
3 00
ĠëĿł ê³ł
. `
ìŀĲ ìĤ´
Ġê¸° ì§Ģ
ì¦Ī ìĿĮ
ĮĢ ìĦľ
Ġìĥ Įë
Ġìķł ìį
ĠìĨĮê°ľ íķ´ë
Ġê²¬ ê³¼ë
Ġë°Ķê¾¸ ìĸ´
> (
ĠìĤ¬ íĥķ
Ġíļ ĥ
ë°© ê¸Ī
Ġì½ĺ ìĦľíĬ¸
Ġë¿ľ ìĸ´ìł¸
Ġì¶ ĺë
Ĳĺ ìĹĪëįĺ
Ġìĭł ìłľíĴĪ
ëħĦ ìłĦ
ĠëĶ°ëĿ¼ ê°Ģ
Ġìĭ¸ ìĽĮ
fil m
íĥľ ê·¸
ĠðŁ ı
Ġì°½ ê°Ģ
ë ŀĮ
ĠìłĦ êµĲ
Ġìľłë ¹ĦëĬĶ
Ġë°°ë ¡ľ
ĠìĿ¼ìľ¼ íĤ¤ë©°
æ ¼
ê±° ê¸°
ĠìĤ¬ì§Ħ ìĹĲ
°¥ ìĿĦ
ë§¤ ìĿ¼
Ġìĵ¸ë ª¨
ĠìĿ´ íķ´ë¥¼
Ġë¨¹ ê¸°ë¡ľ
ìļ´ ì§Ģ
ì½ §
ĠìĺĨ ìĿĦ
ĠíĶĮë ŀ«
Ġì°¾ìķĦë ³´
Ġëĵ¤ ìĹĪê³ł
êµŃ ìĸ´
Ġìłľë ¡ľ
ë§ŀ ìķĦìļĶ
ê¶ģ ìľ¼ë¡ľ
ì³¤ ìĿĦ
ĠìĹ¬ëŁ¬ë ª¨ë¡ľ
Ġê·¸ëŁŃ ìłĢëŁŃ
Ġíķľ ìĭľê°Ħ
ëĦ ĪëıĦ
íı¬ë ıĻ
Ġê³µíı¬ ìĹĲ
I P
i v
ĠìĹĨ ìĿĦê¹Į
ìĨĮ ì£¼
Ġê²Į ìŀĦë
Ġì´Ī ìĥģ
ĠìĿ¼ë³¸ ìĹĲ
Ħ¤ë ¥¼
Ġë§İ ìķĺìĸ´ìļĶ
Ġë³µ ìĪŃìķĦ
Ġì²´ ìĿ¸
Ġì¹ĺë Ł¬
ĠìĿ´ íĥľìĽĲ
¥´ ëĭĪ
ìĦ¸ íĥģ
Ġëĭ¹ ë©´
Ġë¶Ģë ¥¸ëĭ¤
ĠìĤ¬ëĿ¼ ì§Ī
ìĿ´ë ŀĺìļĶ
Ġì§ĳ ëıĦ
ì¤ĳ ëıħ
Ġê³³ ìĿĺ
ĠíĻĶ ìĤ´ìĿ´
ë§Īë Ĥĺ
ķĮë ¡ľ
ĠìĿ´ìļ© íķĺëĬĶ
ĠíĺĦìĭ¤ ìĿĢ
Ġì¦ī ìĦĿ
ĠìķĦë¥´ íĭ°ìĸ´
íķĺ ê¸°ìĹĲëıĦ
ĠëıĦ ìłģ
íĬ¸ë ¦¬ìĬ¤
¥´ë ³´ë
Ġíĺķ íĥľìĿĺ
ĠðŁĴ Ľ
Ġì°¸ê³ł íķĺìĦ¸ìļĶ
n y
¬´ë Ŀ¼
Ġíı¬ ì¼ĵ
ĠëıĻ ìĺģ
Ġë¬´ë ª¨
Ġíİ¸ ìĹĲ
ĠíļĮ ìĿĺë¥¼
ì¯¤ ìĹĲ
re am
Ġëį§ë¶Ļ ìĺĢëĭ¤
3 4
ìĦľ ìļ´
~~ !
Ġì²ľ êµŃ
°ľ ìĿĺ
ĠëĨĵ ìķĦë
Ġì½Ķë ¯¸ëĶĶ
Ġëĭ¤íĸī ìĿ´ëĭ¤
Ġêµ¬ìĦĿ êµ¬ìĦĿ
êµ¬ ì²Ń
íĴį ìĿĺ
ĠðŁĺ ĭ
ì°ľ ëĭŃ
ĠìĿ¼ì£¼ ìĿ¼ìĹĲ
ĠëĪĪë¶Ģ ìĭł
ĠìĨĲ ìī½ê²Į
ê²° íķľ
Ġê¹Ķë ¦°
Ġì§ĢìĹŃ ìĿĺ
Ġìĭ¸ìĽĢ ìĿĢ
Ġì£¼ ìĭľëĬĶ
ĠíĽĦ ìĽĲ
Ġì°¨ë ¡ľ
íĽĦë Ŀ¼ìĿ´
Ġìĸ´ëĶĺ ê°ĢìĹĲ
Ġëĭĺ ìĿ´
ĵľë ¸Įë
ĠíĽĦë °ĺë
Ġê¹Įë §Ī
ê°Ģ ìŀ¥
ĠìĹĨ êµ¬ëĤĺ
Ġë¶Īë ģĪ
ĠëĤ¨ìŀĲë ĵ¤ìĿĢ
¬ ìĦ±
Ġ me
Ġìļ°ë ĳĲ
íĭ ĢìĿĦ
Ġëĸ¨ êµ¬
íĥĦ ìĿĢ
Ġê¾¸ ì§ĸ
ĠíĸĪ ì§ĢìļĶ
Ġë§Įëĵ¤ ìĸ´ìķ¼
ĠëĬĲëĤ Įë
ìŃ Īë
Ġëª» íĸĪëĬĶëį°
ĠìĹ´ ì¤ĳ
ë°© ìĹĲìĦľ
ĠëĤĺë¦Ħ ìĿĺ
Ġê°Ĳì¶Ķ ê³ł
. -
ĠìĪĺ ëł¹
ĠëĤ´ë ¦¬ë
ĠìĬ¤ íĤ¤
ìĭłë ¶Ħ
ĠíĴĢ ìĹĪëĭ¤
Ġê·Ģì°® ìķĦìĦľ
ir l
ìłĲ ëıĦ
ìļ´ëıĻ íķĺëĬĶ
ê·¸ëłĩ ëĭ¤
ĠíĮĮìĿ¸ ìķłíĶĮ
Ġê°Ģ ìĪĺ
Ġìĸ´ë ķ
Ġ3 8
ë¬¼ë ¡ľ
ĠìķĦëĭĪ ìŀĸìķĦ
Ġê³łë Ĥľ
Ġì¡°ë ¡±
°Ķë ¥¼
Ġë´¤ ìĸ´
Ġê²°ìłķ ìłģìĿ¸
Ġíķľë² Īë§Į
Ġìŀ¥ êµ°ìĿĺ
oo m
ĪëĤĺ ëĿ¼
Ġê°Ģë ³¸
Ġì§Īë ģĪ
ìľ¡ìķĦ ìĿ¼ìĥģ
ĠìĿ´ë£¨ ì§Ģ
Ġì¢ĭìĿĦ ëĵ¯
ë¹Ľ ìĿ´
Ġì£¼ë¨¹ ë°¥
ìĺĩ ê²Į
Ġ or
ëĭ¨ ì²´
ìĨĮë ¦¬ë
ĠíĽ ¤íŀĪ
ì¶ľ ìĿ´
ìľ¤ ìĿĺ
Ġê¸°ìĤ¬ ëĭ¨
Ġì¹´ë©Ķë Ŀ¼ë¥¼
ìĬ¤íĬ¸ ëĬĶ
ĠìŀĦ ìĭľ
Ġëĵ¤ ìŀĲ
ë¡ľ ìĿĺ
Ġìĺ¤ë ¸Ĳ
Ġíĸ¥ íķĺìĹ¬
ëĲ ¨
Ġë ¡¯ëį°ë
Ġë° ¸ëŁ°
Ġì¤ĳ ìĿ´ëĭ¤
Ġê±°ë Ĥĺ
íģ¬ë ¦¿
ĠêµŃ ìĸ´
Ġëĭ¹ìĭł ê³¼
ê¸°ë įĺ
Ġë§Į ìł¸
Ġê·¸ëķĮ ìĦľìķ¼
Ġë¿Įë ¦¬ê³ł
ĠìĿ´ìĸ´ ìł¸
ĠíĿ¥ë¯¸ë ¥¼
. ^
íĮ ¬ë
ëĵ¤ ê³ł
Ŀ½ ìĿĺ
Ġìĸĳ ìĭĿ
Ġì½Ķ íĮħ
ĠíĶĮë ¡ľ
ĠìĦ¸ê³Ħ ëĬĶ
ìĬ Ĳë¦¬
Ġê°Ģ ì§Ģë§Į
ĠìłĢ íķľíħĮ
Ġë¬¸ ìĸ´
Ġíķ´ë ¨¹
Ġë¹ł ì§Ģì§Ģ
Ġë³µ íķ©
Ġê°Ģ ìĬ¤
ĠëĮĢ ê°Ĳ
Ġì§Ħ ì£¼
ĠìĥĪ ê°Ģ
Ġê¾¸ë ¯¸
Ġë²Īë ľ©
ĠìĥĢ ëĬĶëį°
ëĭĺ ìĿ´ëŀĳ
ĠìĹ° ìĿ¸
íģ¬ë¦¼ ìĥīê³łìĸĳìĿ´
ĠíĦ° ì¹ĺ
Ġì¢Į ìłĪ
ĠìĥĿíĻľ ìĿ´
Ġìĸ¹ ìĸ´
ãħĭãħĭãħĭãħĭãħĭãħĭãħĭãħĭ ãħĭãħĭãħĭãħĭãħĭãħĭ
ĠìĹ´ ìĿĦ
Ĥ¨ ìĿĢ
íķĺ ìħ¨ëĭ¤
ĠìĪĺ ìĹħìĿĦ
ĵľ ëĭĪ
Ġìĭ¬ ìłķìľ¼ë¡ľ
ĠëĶĶ ì§ĢíĦ¸
íĺ¼ë °¥
ch o
Ġíķĺ ì§ĢëĬĶ
Ġìĥģ ê¸°
ĠíĽĦ ìĿĺ
Ġìľłë ł¹
ĠìķĦìĿ´ë Ł¬
ĠìĦľë¡ľ ìĹĲê²Į
Ġë¹ĦìĬ¤ë ĵ¬
Ġì§Ģ ìĥģ
ìĻ¸ ìĭĿ
¤ ¼
é ķ·
ĠìĨĲ ëĭĺìĿĦ
ëĬĲ ëĭĪëĿ¼
Ġì½Ķë ĦĪ
ìĹ¬ ì§Ħ
Ġì¹ łë¦¬
Ġìŀ¥ ì°¨
Ġì§Ģë Ĥ¼
ĠìĨĲ ìķĦ
ĠëĤł ìĿ´ìĹĪëĭ¤
§Īë ¬´
Ġì¹ĺ ìķ½
ĠëĦĪ ê°Ģ
Ĳë ¯¸
Ġì§Ģ ìĽĲë
ìĦ± ë£¡
ĠëıĦ ìŀħ
ëıĻ ìĹĲ
ĠìĤ° ê³¨
Ġê°ľë Ĥĺ
Ġë§Īëł¨ ìĿ´ëĭ¤
ìŀĲë ¦¬ë¡ľ
Ġìļ° ì¸¡
ĠëŃĲ ëĭĪ
ĠëŃī ì³Ĳ
ìļ© ìĿĺ
ì§Ģë įĶëĿ¼êµ¬ìļĶ
ĠëıĮìķĦ ìĻĢìĦľ
Ġë°ķ ì°¨ê³ł
ĠìĪł ìĿĢ
íĮĮë Ŀ¼
ë²Ħ ê±°
ê°Ģ ë³¼ë§Įíķľê³³
Ġê°Ģë ¬¸
w a
Ġíķĺ ìĭľë©´
ĠëĳĲ ê·¼ëĳĲê·¼
Ġë§Īë²ķ ìĿĺ
Ġë§¥ ì£¼ë
íĻĪ ìĩ¼íķĳ
ìĤ° íĻĶ
ì°¨ ëĭ¨
Ġë²Ħ íĭ¸
ĠíĹĪë §Ŀ
Ġë²ł ìĿ´ìĬ¤
Ġë§Īì£¼ ì³¤ëĭ¤
ĠëĤ´ ìĦľ
Ġì¤ĺ ìĦľ
ëĭĪëĭ¤ ê°Ģ
Ġìļ© ê¸°
Ġì¶ķ ìłľ
ĠíķĺíķĦ ìĿ´ë©´
Ġë°¤ë Ĥ®
ëł¥ ìĹĲ
íĥķ ìĪĺìľ¡
Ġë¬´ìĭľë¬´ ìĭľíķľ
ĠìĨĮ ìĨĮ
ĠëĳĲ ìĹĪëĭ¤
Ġê²Ģ íĨł
ĠìĹ´ë ©´
Ġìłĳ ìĭľìĹĲ
ìīĲ ìĿ´íģ¬
Ġëĭ¤ê¸ī íķľ
3 9
ê¸° ìłģ
Ġë¬´ë ¦¬ë¥¼
Ġìµľ ìķħìĿĺ
Ġíŀĺ ëıĦ
ìĹ¬ë ³´ìĦ¸ìļĶ
Ġëªħëł¹ ìĹĲ
ĠìĿ¸ ìĽĲ
Ġìĸ¼ ìĸ´
ĠâĢ ĭ
Ġë§ī ëĬĶ
ĠìĿĺë ¬¸ìĿĦ
ðŁĳ ©
Ġë¬´ìĹĩìĿ¸ê°Ģ ë¥¼
ĠìķĦ ê»´
ìłķ ìĹĲìĦľ
ê¸Ī ìļĶìĿ¼
Ġê³µ ìĹ°íŀĪ
Ġë³¸ëĬ¥ ìłģìľ¼ë¡ľ
ê°Ļ ìķĦ
ĠêµŃ ë°¥
ĠìĿ´ë ĵĿ
ì±Ħ ìĿĺ
Ġê´ľì°® ëĭ¤
Ġê²ĮìŀĦ ìĿĺ
ĠìĹ¼ë ĳĲìĹĲ
Ŀ¼ ì§Ģ
ľë ĵľ
ìĬ¤ë ¬´ëĶĶ
Ġë¶Ģ ìŀ¥
Ġë¶Ħë ĵ¤ìĹĲê²Į
Ġë³ĳ ëł¥ìĿ´
Ġë¸Ķë Ł¬ë
ĠìĶģìĵ¸ íķľ
Ġê³ł ìĿ´
êµĲ íļĮ
ĠíĶ¼ íķĺê³ł
ĠìłĦë ©¸
Ġì¶ľ ìĥĿ
Ġì¹ľêµ¬ë ıĦ
ìķī ìĿĢ
Ġë¹Ħë¡¯ íķĺìĹ¬
Ġë°±ìĦ± ëĵ¤ìĿ´
Ġíķľê²° ê°ĻìĿ´
Ġëĭ¨íĺ¸ íķĺê²Į
ìłķ ìĥģ
ĠêµĲ ìĭ¤
Ġíľĺë ĳĺëŁ¬
ëĭ¤ëħ Ķ
ĠìĤ´íĶ¼ë ©°
ê¹ Ĭ
ĠìĥĪ ìļ°ë
ĠìĿ¸ê°Ħ ê³¼
Ġì¤ĳ ìĭ¬ìĿĦ
ìħ °
Ġë°Ķë¹ł ìĦľ
Ġ3 2
Ġêµ³ ìĸ´ì¡Įëĭ¤
ĠíĹĲë ĸ¡
¹ ĪìĿĦ
Ŀ µ
ĠëĤ¨ ë§¤
Ġë¬´ë ĦĪë
Ġì°¨ë ıĮë
Ġì¶ĺ íĺ¸ëĬĶ
ĠìĿ´ë °±
íĨłë ¡ľ
ìĭľë ¦¬ì¦Ī
ĠëĮĢë ł¹
íĦ°ë ©´
Ġë¸ĮëĿ¼ ìļ´
Ġìĺ¤ ìħĶìĦľ
Ġíķĺë ł¤ë©´
Ġê²Į ëĭ¤
ĠìŀĪìĹĪ ìľ¼ë©°
ĠìĭĿ ëĭ¨
ĠìĤ¬ëŀĳ ìĬ¤ëŁ¬ìļ´
Ġë§Ľì§ĳ ìĿĦ
ëĭ¤ìĿ´ìĸ´íĦ° ìĨĮíĨµ
Ġë¬´ìĭ¬ ì½Ķ
íķĺ ìħĶìķ¼
ìĭľ ëĬĶëį°
íķł ìķĦë²Ħì§Ģ
Ġë§Īë ¦¬ë¥¼
ĠìĽĲ íļ¨
Ġê¹¨ëģĹ íķĺê³ł
m er
ì¹´ ìĬ¤
Ġíĺ¸ íħ
Ġê´Ģëł¨ ìĿ´
Ġíķĺ ê²łëĭ¤ê³ł
ĠëĤ´ ìĿĺ
ê±° ëĭ¤
Ġìŀ¥ ê°ĳ
Ġìĸ´ë¨¸ëĭĪ ìĹĲê²Į
ĠëĤĺìĺ¤ ê²Į
Ġê³¨ë ŀĲ
Ġëĭµ íĸĪëĭ¤
ìŀĲë ĵľ
ĠíĸĪ ëĭµëĭĪëĭ¤
Ġê³łë ¥¼
Ġê³¼ ê°Ĳ
Ġìłĳ ìĸ´ëĵ¤
Ġê¹Ģì¹ĺ ì°Įê°ľ
ìĿ´ë²Ħ ìĦ¯
ĠìŁģ ë°ĺ
ĠëĮĢ íķĻêµĲ
ì§Ħ ìĹĲ
ĠìĦ¸ë ²Īì§¸
ĠìłĦìŁģ ìĹĲ
Ġìļ´ìĺģ íķĺëĬĶ
Ġë¶Ī ê¸¸ìĿ´
Ġê°ľìĿ¸ìłģìľ¼ë¡ľ ëĬĶ
ĠëĤļ ìķĦ
ĠìĽ ¨ëĶ©
íĨ ¨
Ġë°© íĻ©
ĠìĻĢ ìĤ¬ë¹Ħ
Ġì§Ģ íĥ±
§Īë §Ī
ë°© ìĿ´
ĠìĤ¬ëŀĳ íķ´ìļĶ
Ġíĥľ ìŀĲ
ë³ĳ ìĽĲ
Ġíķłë ķĮ
ëī´ ìĬ¤íĤ¨
ĠìķĦ ìļ°ë
ĠìĹ¬ ìłĦ
ĠëĤł ìĹĲ
Ġê³³ ê¹Įì§Ģ
Ġìŀ¥ ëĭ´
ì¥ Ĳë
ĠìĿ´ë¥¼ íħĮë©´
íĺĦë ĮĢë
Ġìĭ¤ ì¢ħ
Ġê²ģ ìĹĲ
ë¨¸ë ¦¬ë¥¼
Ġíľ© ìĵ¸ë
ĠìĦ¹ ìĬ¤
Ķ Ķëĭ¤
ì½ľëĿ¼ ê²Ĳ
bre ad
ë§Ľ ìŀĪ
Ġê±´ë ¬¼ìĿĦ
ĠìŀĲìĹ° ìĬ¤ëłĪ
ãĤ °
Ġì° Ŀ
ĠíĮ Ł
ĠíĿ¬ë§Ŀ ìĿ´
ĠëĶ°ìĬ¤ íķľ
ì¹ĺ ë§Ī
ê±° ê°ĻìĿĢëį°
íļĮ ìŀ¥
Ġê¸Ģ ìĶ¨
ĠëĴ· ê±¸ìĿĮ
ë§Ľ ìĿĢ
²Ħë ¦°ëĭ¤
Ġê´Ģ íĨµ
ìĨĲ ìĿĢ
ĠíĬ¸ë ŀĻ
íŀĺë ĵ¤
ãħ ĳ
ĠìŀĲ ê²©ìĿ´
ĠìłĦ ìŀĳ
ĠìĿ¸ ì¹ľ
ĵľë Ł¬
Ġì£½ ìĹ¬ë
ĠìļĶ ìķ½
ĠêµŃ ê°ĢìĿĺ
Ġë¦¬ë·°ë ³´ê¸°
ĠìĥĿê°ģ íķĺê²Į
Ġë°ĺ íķ´
ê¸´ íķľëį°
ĠëĪĦêµ¬ ìķ¼
ĠìĪĺë ł¨ìĿĦ
Ġíį¼ë ¶ĵ
ĠíĹĪë²ħ ì§Ģ
Ġì·¨ íķĺê³ł
íķĦë §ģ
Ġìĭł ìĥĿ
Ġê°ĸ ê°Ģì§Ģ
ĠìĨĶì§ģ íķľ
íļ ¨ë
Ġëĭ¹ ê²¨
Ġë´ Ĳë
íķŃ ê³µ
ĠíķĦë ¦Ħ
ĠíĿ¥ë¯¸ë ¡ľìļ´
Ġìıł ìıł
ìĦ ¹
ĠëıĦ ë¥¼
Ġì»¤ íĶĮë
Ġê¼¬ë ¦¬
ìĹ¬ë ¦Ħë
Ġë°ľë °Ķëĭ¥
ģĿ ê¹Įì§Ģ
Ġìľłì§Ģ íķĺê³ł
ãĥ« ãĥ
´ £
íķľ ìĭĿ
Ġë°© íĮ¨
Ġì°¾ ê²Į
ĠëĮĢë ©´
ĠðŁĳ Ģ
£ °ë
Ġë³´ ìĺĢê³ł
êµ¬ ìĦ±
Ġëª¨ ìħĶ
ìĬ¤íĬ¸ ìĿĺ
ê³¡ ìĿ´
ëĶ°ë Ŀ¼
ëĬĶ ì§Ģë¥¼
íķł ì§ĢëıĦ
ëĮĢ íķĻìĥĿ
Ġìŀł ìŀł
Ġì²´ë ħĲ
Ġê· ¤
ìŀĲë ĵ¤ê³¼
Ġë¬¼ ê³¼
Ġìĺ¬ëł¤ë Ĩĵê³ł
ĠìĹ´ ìĩłë¥¼
Ġë²Į ìĿ´ëĬĶ
ĠìĥĪ íĮĮë
ĠìŀĪë ĵ¯ìĿ´
Ġê°Ļ ìĨĮ
ì§Ĳ ìĿ´
Ġíľ´ ê²Į
ìĮĢ êµŃìĪĺ
graph y
.. (
Ġíķĺ ìŀĲê³ł
ĠìĥĿê°ģ ì§ĢëıĦ
Ġì¹ľ íĻĺê²½
Ġìľłë ª½
ìŀ¡ ìĿ´
Ġë°¤ ìĿĢ
ĠëıĦìĻĢ ì£¼ëĬĶ
Ġì§ĢíĤ¤ ê¸°
Ġì£¼ ìĭľìĺ¤
ìľĦ íķľ
© Ī
íķ´ ìļ´ëĮĢ
ĠëĬĺ ìĸ´ëľ¨ë
ê½ Ŀ
ìĺĽ ëĤł
ì´Ī ì½Ķë
Ġì²ľë ĳ¥
vel y
Ġëĵłëĵł íķĺê²Į
ìĸĺ ê¸°
Ġíĸ¥ ê¸°
Ġ: :
Ġìŀĩ ì§Ģ
Ġê³łê°ľ ë§Į
Ġíķ´ ìĭľ
íķĻ ìĿĢ
ìĿ¼ë §Į
Ġëľ» ìĿĢ
Ġëª¨ë¥´ê²ł ëĬĶëį°
íĶĮëĿ¼ ìĽĮ
æµ ·
O O
ĠìĤ¬ë Ĥ©
Ġì£¼ë ł¤ê³ł
Ġìį ¬
ä¸ »
ìĬ Ń
íĤ¤ ê°Ģ
ë¹ ½
Ġíģ¬ë £¨
²Įë łĪ
ìĿ´ë ŀĦ
ĠìķĦë¬´ë Ĥĺ
Ġë³ĳìĤ¬ë ĵ¤ìĿĺ
ì§ľ ìŀ¥
Ġë¡ľ ë§Ī
ìĮ Įëĭ¤
ðŁ¤ ¤
ĠìĭľìłĪ ìĹĲ
Ġê³µìŀĳ ìĿ´
Ĥ ©ëĭĪëĭ¤
íķĺ ìĺĢëįĺ
Ġê°Ħ ìłĪíķľ
Ġíĳľ ìĭľë
Ġì¹´ ìĿ´
ĠìĨĲê°ĢëĿ½ ìĿ´
Ġë§ĲìĶĢë ĵľë¦¬
ì°¨ ê·¼
ĠC G
Ġë°ĶëĢĮ ìĸ´
n n
ëĭ¤ ìĺ¤
Ġë¼Ī ê°Ģ
Ġíĥ±ê¸Ģ íĥ±ê¸Ģ
ë§ ¡
Ġì§Ģ ê¸ĭ
ĠìķĮ ì§Ģë§Į
Ġê°ľ ìĦ±
Ġì²ľ ìľł
Ġìĭ¬íĺ¸íĿ¡ ìĿĦ
ĠìķĪ ê°ľê°Ģ
ĠëıĻ ì°¸
Ġë°° íĦ°
Ġê¹¨ ìļ°
for follow
ĠìĨĮë¬¸ë Ĥľ
íķ´ ìķ¼ë
Ġë°ĶëĿ¼ë ³´ë©´ìĦľ
ëĭ¥ íĦ°
íį¼ ìĬ¤
7 7
ĠìķĦ íĶĮ
ìĸ´ë Ĥł
ĠëĤĺë Ĵ
Ġíķĺë ĵľ
ĠìķĪë ıĻ
Ġì¶ľ ìĭłìĿĺ
ìĸ´ë²Ħë ¦´
ĠìķĦëĭĪ ì£ł
ê°Ģë ´Ĳ
Ġë³´ìĹ¬ ì¤Ħ
ìĭľì¼ľ ìķ¼
you ng
ì§ĳ ìĤ¬
Ġê²½ìļ° ìĹĲ
Ġë¶Ģ ê°ģ
ĠìĦ± ìĿĢ
Ġê±¸ ìĿĦ
Ġê°Ħ íĮĲ
ê·Ģ ìļĶë¯¸
íķĺëĬĶëį° ìļĶ
íķĺë ĵł
ìłĢë ŀĺ
ìĺ¬ë ¦°
Ġê¸ī ê²©
Ġë¸Įë łĪìĿ´íģ¬
Ġãħĭãħĭãħĭãħĭãħĭãħĭãħĭãħĭ ãħĭãħĭãħĭãħĭãħĭ
íĸĪë ĵ¯ìĿ´
ĥĦ ìĥĪ
f l
Ġë°© ì¹ĺ
ì°¨ë ³Ħ
b a
Ġ l
ìĿ¸ë ĵ¤ëıĦ
ĠëıĮ íĮĮ
ĠíĮĮ ìĿ´ìĸ´
ĠìķĦë¬´ëłĩ ê²ĮëĤĺ
Ġë¬´ë ¡Ģ
ĠëŃĲ ìĺĪìļĶ
ĠëĮĢëĭµ ëıĦ
ë§Įë ĵ¤ê¸°
Ġê°Ģë¦¬ íĤ¤ëĬĶ
Ġì¢ĭ ìĿĦê¹Į
Ġë¹Ħ ì¶°
ãĦ ²
ĠìĭľëĬī ìĿĦ
~ !!!
ìľ¼ë Ŀ¼
íģ °ë
ĠìłĢ ê²©
Ġê²½ ì§ĢìĹĲ
Ġëª© ìĤ´
Ġìŀł ìŀ¬
Ġë°ķ ìĿĢ
ĠìĹĨ ê²łì§Ģ
Ġìľ ¨ë
Ġë³´ ìĺĢëįĺ
íĬ¸ ìľĦ
íķ´ë ĳĲ
Ġë°ľ íĨ±
st ra
ìħ¨ ìĿĦ
ê°Ħë §ĮìĹĲ
ĠìĿ¼ìľ¼ íĤ¤
ê°Ĵ ìĿĦ
ĠìĬ¤íĥĢë ²ħìĬ¤
Ġ re
ĠìŀĪ ìĤ¬ìĺµëĭĪëĭ¤
Ġê²ĥìĿ´ ì£ł
Ġìĭľìŀĳ ëĲĺëĬĶ
êº¼ ìķ¼
ìķĦ ìĿ´ëĵ¤
Ġì¢ ĩ
ìĪĺ íĻĶë
ì¹´ ìķ¼
Ġë³ĳ ìĽĲìľ¼ë¡ľ
ëĭ¬ë ¦¬
ìĻĢ ìļĶ
ĠìĿ¼ ìĪľ
Ġíı¬ íķŃ
Ġëĵ¤ë łĢ
Ġë°ĺë ¬¸
ì§ĳë°¥ ìĬ¤íĥĢê·¸ëŀ¨
Ġíķľ ìĸĳ
ĠìłĦ íĽĦ
Ġìĸ´ëĸ¤ ê°Ģ
ìŀĪë Ħ¤
ì²´íĹĺ ëĭ¨
Ġê³¨ë Ŀ¼ìĦľ
Ĥĺ ê°ĢëĬĶ
Ġíķĺ ê²łëĭ¤ëĬĶ
Ġì¹ĺ ìļ°
íĹĪíĹĪ íĹĪ
Ġë¶ĢëģĦëŁ¬ ìĽĮ
Ġì¹ĺìĹ´ íķľ
Ġ ,,,
ĠëĤ´ ì§Ģë
ĠíıĲ íķĺìĿĺ
Ġìĺ¤ë įĺ
ĠëĨĵ ì¹ł
ĠíĮ¨ íĤ¤ì§Ģ
ìĹ °ëıĦ
ìłľ êµŃ
ìķĺë Ħ¤ìļĶ
íĥ ĪìĿĦ
³ĳ ìĹĲ
Ġì½Ķ ì½Ķ
sh op
ĠìłĦ íķĺìĿĺ
Ġì¢ĭ ìľ¼ëĭĪ
ìĿ¸ë ¬¼
ì¿ ¼
Ġì£½ìĿĮ ìĿĢ
ĠëĶĶ ìĹł
ìĤ¬ ìŀĲ
Ġìĭł ìļ©
íĹ ¨
Įģ ìĿ´
ãģĦãģ ¬
Ġìĥģ ìĭĿ
íģ¬ë ŀĺ
Ġì§ĢëĤĺ ì³Ĳ
Ġë§ĺ ìĿ´
Ġë¹Ħë° ĢìĿ´
Ġíĭ ĪëıĦ
Ġì»¤ ëĭ¤ë
ĠìĬ¤íĥĢ ìĿ¼ìĿĺ
b it
Ĥĺ ëĵ¤ìĿ´
ëĪ ĪìĿ´
en s
Ġê°Ģê¹Ŀ ê²Į
ìĿ¸ ìĿ´ìĹĪëĭ¤
Ġì§Ħ íķĺê²Į
Ġëĵ¤ìĸ´ ìĺ¤ë©´
Ġëħ¸ë ¦¬ëĬĶ
ë°Ķ ìĿ´
ìĿ´ëĵľ ê°Ģ
Ġìĭ¶ìĸ´ íķĺëĬĶ
Ġê°Ĳëĭ¹ íķł
Ġë²łë ¥´
§Ī ì¹¨
ĠíĶ¼ íĸĪëĭ¤
Ġìŀ¡ ìķĦìĦľ
ĠìłĦë ł¥ìĿĦ
ĠìĻĢ ìļ°
ĠìĹ°ë Ĥ¨ëıĻ
Ġëª¨ë ŀĺë
Ġëª» íķ©ëĭĪëĭ¤
Ġëĭ¤ë ıħ
Ġë¹Ħë ¹Ħë
Ġì¶Ķë Ŀ½
ĠìĦ ¹ìĭľ
Ġìŀ¥ ìłĲìĿ´
Ġìķ½ íĺ¼
ĠëĲĺë ıĮ
ìĿ´íĬ¸ ëĬĶ
Ġëĭ¤ ì¼Ģ
Ġë°ľ ìĸ¸
Ġì§ģ ê°Ĳ
ĠìĿ¸ë ¬¼ìĿĦ
ĠìĿ´ë¦Ħ ìĿĺ
Ġì£¼ë¬¸ íĸĪëĬĶëį°
ĠìĿĳ ëª¨
ĠìŀĲìľłë ¡ľìļ´
Ġíĳľë ©´
Ġíķĺ ìŀĲëĬĶ
ĠìĻ¸ ìĤ¼ì´Į
Ġê°Ģ ìĥģ
Ġíı¬ ìľĦë
Ġìķł íĶĮ
Ġìłľë ©ĭëĮĢë¡ľ
Ġê°Ģì¡± ê³¼
Ġë¶ĢëıĻ ìĤ°
ê±°ë ¦°
ĠëıĻ ì°½
ĠëĤĺë ¥¸
ĠìĿĺ ì¡´
ê¸ī ìĭĿ
Ġëĭ¬ë¦¬ ê¸°
íģ¬ë Ŀ¼
ĠëĮĢë Ĥĺë¬´
Ġê¸°ëĭ¤ë ¦°
Ġë°ĶëŀĮ ìĿĺ
å »
íķĺ ê²łì§Ģ
ëıĦ ëĿ¼
Ġë°© ìĭĿìĿ´
ìŀ¬ ìĥĿ
²ķ ìĿĢ
íķĺ ê²ł
ĠìķĬ ìľ¼ëł¤
ìĺĪ ìłķ
Ġê²Ģ ìĹĲ
íĶ¼ë ¶Ģë
ĠëĤ® ì¶Ķ
ĠìĪĺ êµ°
ĠìŀĲ ì²´ë¡ľ
ìļ°ë ©´ìĦľëıĦ
Ġì²Ń ìĨĮëħĦ
Ġì¶© ì¡±
Ġì²´ ê³Ħ
ħĦ ìĹĲ
as s
ĠìŀĲë³¸ ì£¼ìĿĺ
Ĥ łë¡ľ
ĠìĨĮ ìŀ¬ë¡ľ
Ġìĺ¤ë ¥´ê³ł
Ġë¶Īë §ĮìĿĦ
ĠëĤłë Ŀ¼
łĪìĬ¤ íĨłëŀĳ
Ġì¼ľ ê³ł
ĠìĹ ·
ĠìķĪ ê²½ìĿĦ
ëıĻ ìĥĿ
°ľ íķľ
ê°Ģì§Ģ ê°Ģ
Ġê·¸ëŀ¬ ëĬĶëį°
§Įíģ¼ ìĿ´ëĤĺ
â ĸ¼
ìĻ ģ
ĠìĻ¸ ê³½
Ġë¯¼ ì¤ĳ
ĠíĿĳ ë§Īë²ķ
ĠìŀĲì¡´ ìĭ¬ìĿ´
ê³¼ ìĹ°
Ġë°° ëĭ¬ë
ì±ħ ìĿĢ
Ġì¤Ģ ìĺģìĿĢ
Ġê¹Įë §Īë
ĠíĳľíĺĦ íķł
ĠìĹ¬ íķĺíĬ¼
Ġìĵ´ ìĽĥìĿĮìĿĦ
Ġê´Ģê³Ħ ëĬĶ
ë¡ľ ë¶ĢíĦ°
ĠìĽĥ ê¸´
........ ...
Ġë¨¸ê¸Ī ìĿĢ
ĠìĿ´ë²¤ íĬ¸ëıĦ
Ġë ŀľë
Ġìŀĳ ë³Ħ
ĠíĻĺ ìŀ¥
ëĮĢë ıĦ
ë°¥ ìĥģ
ĠìĿĮìĭĿ ëıĦ
ĠëıĻìĥĿ ìĿĺ
ëħĦë ¶ĢíĦ°
ĠìłĢë§Į ì¹ĺ
ìŀĲë ©°
Ġëª© íĳľë¥¼
ĠëĴ¤ ìĺĢëĭ¤
ic h
Ġë§Īì°¬ê°Ģì§Ģ ëĭ¤
ìĸ´ë ¬µ
Ġíİ¸ ìĿĢ
ìłĢëħģ ìĹĲ
Ġë¶Ģëĭ´ ìĿ´
ĠìĨĲë°Ķëĭ¥ ìĿĦ
íĥĦë ł¥
ìķĦ ëĭĪëĭ¤
Ġìĸĳ ì¹ĺ
Ġìļ° ìľłë
§Ĳ ê³ł
Ġìķ½ê°Ħ ìĿĢ
ĠëģĦëįķ ìĹ¬
Ġíĳ¸ ìĦĿ
ĠëĦĪíĿ¬ë ĵ¤ìĿ´
íĥ ĲëĿ¼
ĵ± ìĿ´
ĠìĿĢ íĺľ
ìĤ¬ëŀĮ ìĿĢ
ĠíİĦë ŁŃ
ìĭł ìĹĲ
Ġê³ł ìľĦ
ìĤ´ ìķĦ
Ġìļ¸ ìĸ´
ĠëĶĶ ìĬ¤
Ġìħĭ íĮħ
ĠìķĦ íĭ°
ĠìĪĺ ìĥī
Ġìĺģ ëĵ±
Ġëĭ¹ íķ´
ĠêµŃ ê²½
Ġë²Į ìĸ´ì§Ī
ĠëıĮë ¦´
ĠíĹ¤ ìĸ´ì§Ħ
ł¤ ëĭĪ
Ġë³´ë ĵ¤
íĺ¸ ìĦł
ĠëĮĢë ıĦ
Ġê¸°ìĸµ ëĤĺ
ëħ¸ë ¦ĩ
Ġëļ± ëļ±
ĠìĤ´ ê¸°ë¥¼
ê·¸ ìķ¼
ìĻķ ìŀĲ
ĠìĦłë ¬¼ë
Ġëľ» ìĿ´ëĭ¤
ĠìĤ¬ ê³¼ë
Ġìĭľ ìĦ¤
Ġìłľ ìłķ
Ġíķ´ ìŀ¥
Ġì¤ĳ ìĽĲ
Ġë°ľ ìĹĲ
Ġê°Ħ ê°ĦìĿ´
ĠëĦĺ ì³Ĳ
Ġíĥľ ëıĦëĬĶ
ĠíļĮ ìŀ¥ìĿ´
~~~~ ~~~~
Ġë©Ķìĭľ ì§Ģë¥¼
ìĿ´ë Ł´
ĠìŀĲ ìķĦë
Ġê°Ģë ´Ĳìķ¼
ìŀĳ íĴĪ
ëĭ¤ë ª»
Ġíķĺê³ł ìĭ¶
Łī ìľ¼ë¡ľ
Ġê¸´ ìŀ¥ìĿ´
ĠëĳĲ ìĦ¸
ë³´ë ĵľ
Ġë¯¿ ìĹĪëĭ¤
ĠìĻĶ ìľ¼ëĭĪ
Ġìĺģíĺ¼ ìĿ´
éĩ ĳ
ĠìĤ¬ íĥľê°Ģ
ĠìĤ¬ëŀĮë §Į
ĠìķĮìķĦë ĵ¤ìĿĦ
Ġê±°ê¸° ìĹĲëĬĶ
Ġìŀħêµ¬ ìĹĲìĦľ
ê·¸ ê±¸
ĠìķĬìĿĦ ê¹ĮìļĶ
ìħĢ íĶĦ
Ġë©´ ìĹŃ
Ġë©Ģ íĭ°
Ġì¢ħë¥ĺ ëıĦ
f t
íķ´ ìĪĺìļķìŀ¥
Ġê²½ ë©¸
ìĽĮë ³´
íĸĩ ëĬĶëį°
T E
¬ë Ŀ¼
ìĬ¤ íĶ¼
ĠìķĬ ê²łëĬĶê°Ģ
íķĻ êµĲë¥¼
¥´ë ĵ¯
Ġë¦¬ë įĶ
ëĦĪë ¬´ë
Ġíģ´ëŀĺ ìĭĿ
p er
ìĹ° íľ´
Ġë¬¼ íĭ°ìĬĪ
Ġëª© ë§Į
°© íķĻ
ëĿ¼ë ĸ¼
ĠíĽĦìĹĲ ìķ¼
Ġëĭ ·
ĠìĿ´ ìĤ¬ë¥¼
ĠëĤĺ ìĺ¬ë
Ġë³´ê³ł ìĭ¶ëĭ¤
Ġë©Ķë °Ģ
ì¸ł ëĬĶ
Ġì§Ħìłķ ìľ¼ë¡ľ
Ġì§ĢëĤľë Ĥł
ë ¦¬ë¡ľ
ìĭľ ì²Ń
ìĪĺ ìĹ¼
ĠêµĲ ì°¨
Ġëħ¹ ìĥī
Ġë¬¸ë ªħ
ê¸°ë Ŀ¼ëĬĶ
ê°Ħ ëĭ¤ëĬĶ
Ġìĺ¤ ì£½
ĠíĮ Ķëĭ¤
Ĩĵ ëĬĶ
Ġë° ´ë
Ġì¢ĭ ìķĺëĬĶëį°
ĠëĤł ìĿĺ
¶Ģ ìĿ¸
ì¤ ĺë
R T
Ġíķĺ ê²łì§Ģë§Į
ĠìķĦ ëĬĶëį°
Ġê±° íĴĪ
íħ ģ
íĮĮ ìĿ¸
Ġëª»íķľ ëĭ¤ëĬĶ
Ġëĸ¼ ê³ł
Ġì¶Ķìĸµ ìĿĦ
Ġë§īê±¸ë ¦¬
ĠìĬ¤ ì½ĺ
Ġë¶Īë ł¤
Ġì§Ī ì£¼
íĻĶìŀ¥íĴĪ ìĬ¤íĥĢê·¸ëŀ¨
Ġìĺģíĺ¼ ìĿĺ
Ġì¤ĳ ëĮĢ
Ġë§İ ëįĶëĿ¼êµ¬ìļĶ
ĠíĶ¼ ìļ°ê³ł
Ġê¸°ëıħ êµĲ
Ġê² ł
Ġê·¸ë ĨĪ
ìķĪ ê³ł
ĠëĴ¤ ìłģ
Ġë³µ ê·Ģ
Ġì¹¨ íĪ¬
ħ¸ë Ŀ¼ê³ł
Ġì»¤íĶ¼ ìĪį
ĠìĹ Ĭ
ìĥ ¹
Ġìĭľ ì¢ħ
Ġë§ĪìĿĮ ìĨį
ĠìĿ´ìľł ìĭĿ
ë³¶ ìĿĮë°¥
ĠëŃĲ ê³ł
ĠëĨį ì´Į
Ġë³´ìĿ´ ê²Į
åħ ¬
ĠìŀĲì¡´ ìĭ¬
ĠëĲ ©
Ġê°Ħ ìĦŃ
ĠìĽĥ ëĬĶëĭ¤
ëĬĶì§Ģ ìļĶ
ì´Īë ¡Ŀ
Ġë¯¸ëŀĺ ìĿĺ
ìĤ¬ ê¸°
Ġíķ´ ì²´
íİ¸ ìĿĢ
Ġíı¬ ì°©
Ġë§Įëĵ¤ ì§Ģ
íıī ìĿĢ
ĠëĲĺ ê¸°ë¥¼
íĻĶ íķĺëĬĶ
ĠëĦĪë ŀĳ
ë²Ī ê¸¸
ìŀł ìĭ¤
ĠíĶĦë¡ľ íķĦ
ĠëĨĢëĿ¼ ì§Ģ
ĠëĪĪì¹ĺ ìĺĢëĭ¤
Ġ é
âĢ¦ ?"
Ġê¸°ë ¬ĺíķľ
ê²° ìłľ
ëĭ¤ ëĭ¤
ĠìŀĪ ê¸°ë¥¼
ĠìķĦ ìĭľìķĦ
ëĤ ´ë¡ľ
ĠëĤĺë ³´ê³ł
ĠíķĺëĤĺ ëĳĺ
Ġìĺ¬ë ¦¬ë¸Įìĺģ
Ġíļ¨ ìľ¨
e x
w h
Ġìŀĺ íķľ
íĿ¬ ìĹĲê²Į
Ġë¡ľ ë¹Ħ
íĻį ìĤ¼
Ġêµ°ëį° êµ°ëį°
ãĥ ĥ
Ġê½Ĥ íĺĢ
ĠìŀĲìłĦ ê±°ë¥¼
Ġìĭľ ì¼°ëĭ¤
Ġëĵ¤ ìĹĪìĸ´
ĠëĤ¨ ìĹĲê²Į
ìĦĿ ìľ¼ë¡ľ
Ġê·¸ê²ĥ ëĵ¤ìĿĦ
ĠëĦĺ ê¸´
Ġì§Ĳ ìĿ´
ìĬ¤íĬ¸ë Ŀ¼
Ġê·Ģì°® ìĿĢ
Ġì±Ħë ĦĲ
ĠìĤ¬ ê°ģ
ìĸ´ë ĵľëĬĶ
Ġë¨¹ ìľ¼ëĿ¼ê³ł
ìĺĢëĭ¤ ë©´
ĠìĦ¸ íĭ°
Ġìľł ì¾Į
ĠíĮĮ íĬ¸ë
íı¬ ìĿ¸íĬ¸
Ġì£¼ë¬¸ íķ´ìĦľ
Ġê°Īë ¹Ħë
ĠëĸłëĤĺ ê¸°
Ġë³´ ìĿ´ëįĺ
Ġìłķ ìĿĦ
Ġíĸī ìľĦë¥¼
°ĺ ì°¬
ìłĦë ³µ
Ġê²ª ê³ł
.. !!
Ĥ´ë ©´
ðŁĴ Ĺ
ðŁĳ Ī
Ġì¶©ë¶Ħ íĸĪëĭ¤
ĠìıŁìķĦ ì¡Įëĭ¤
ĠëĶ±ëĶ± íķľ
Ì¥ Ì¥
ĠìĿ¼ë łģ
Ġì£¼ë¨¸ëĭĪ ìĹĲìĦľ
ĠìĿĢë°Ģ íŀĪ
ìĬ¤ ìĹĲê²Į
ĠìĥĿê°ģ ê³¼
Ġë°© ìĭĿìĿĦ
ĠìĦľ ìĬ´
ìĹ¬ë įŁ
ĠëĤ´ë¶Ģ ìĹĲ
ĠìķĦìĿ´íħľ ìĿĦ
ĠìĬ¤ ì¹ĺê³ł
Ġêµ¬ ìĹŃ
Ġíĺķ ìĤ¬ëĬĶ
ĵ± ë¡Ŀ
Ġë°ĶëĿ¼ë ©°
²¤ ìł¸
Ġëĭ¤ëĭĪë ©°
³ Ģë
Ġíķĺ ëĬĲëĥĲ
íĤ ¨ìĿĦ
ĠëĶ°ë Ŀ¼ëĤĺ
ë¯¸ë ¬ĺ
ĠìĿ¸ë¬¼ ìĿĢ
ıĪ ê¹ĮìĬ¤
ĠìĦłë°° ê°Ģ
ĠðŁ¤ £
Ġì°Įíĳ¸ë ¦¬ë©°
ĠìĤ¬ ìĿ´ëĭ¤
ìĭł ì²Ń
ĠëĤ´ ìķ¼
ĠìķĦë Ĥ´ë
ĠìķĪ ìĭ¬ìĿ´
ĠìĺĪ ê°ĲìĿ´
ë§¤ ìļ´
ë¬´ë ¡ľ
Ġë¨¹ê³łìĭ¶ ìĿĢ
ĠìłĦ ê¹Įì§ĢëĬĶ
ĠíĨ °
ĠìĦ¸ë ĮĢ
Ġìĸ´ëĶ ¨
Ġë§Ĳ íĪ¬ë¡ľ
ëĭ¤ë įĺëį°
íĨµ ëĭŃ
Ġë§Ĳë ¬¸ìĿĦ
Ġ**************** ****
Ġìĸ´ë¨¸ ëĭĺ
Ġìĸ¼êµ´ë §Į
ĠëıĻê·¸ëŀ Ģ
Ġë¦¬ë·°ë ¥¼
ìĿ¸ ì¡±
ĠìłĦ ìĭłìĿĦ
ĠìĦ¸ ì²Ļ
¹ł ì§Ħ
ĠíļĮ ìŀ¥ìĿĺ
ê·¸ëŁ¬ ê³ł
Ľ °ë
Ġë¬´ ìĥģ
ĠíĥĢ ìĿ¸ìĿĺ
Ġíķľë²Ī ìĿĢ
Ġì´Īë ³´
I n
Ġë§İ ìķĺëĬĶëį°
ĠìŀĲë Ŀ¼ê³ł
ĠìĦľ êµ¬
ĠìĺĪë °°
ìĽĮë Ŀ¼
ĠìķĦìī¬ ìĽĢìĿ´
ë¶Ħë ĵ¤ìĿ´
Ġf or
ìĽĲ ìĹĲê²Į
íĭ ĢìĿ´
Ġìĭł íĺ¸ë¥¼
ìķĪ ê²½
Ġëª¨ìĸĳ ìĿ¸ëį°
Ġëĥī ìłķ
¡Ģ ê°Ģ
Ġêµ¬ íķĺê¸°
ĠíĶ¼ íķĺëĬĶ
Ġë²Į ìĿ´ê³ł
ĠíķŃ ìĿĺ
ĠìŀĪ ìľ¼ë©´ìĦľëıĦ
ĠíĮĮ ìļ´ëį°ìĿ´ìħĺ
ë¯¼ ìĿĦ
ĠëıĻìķĪ ìĿ´ëĤĺ
Ġìĸ´ë¦° ìķł
ĠìĹĺë £¨
ĠëĤ« ì§Ģ
Ġêµ°ìĤ¬ë ĵ¤ìĿĢ
ëĥī ë©´
Ġê²ĥ ìĿ¸ì§ĢëıĦ
ìŀ¥ ê¾¸
Ŀ¼ë Ŀ¼ë
ê±´ ìĿĺ
ì³ ĩ
íĶĦë Ŀ¼ìĿ´
ìĻľ ìļĶ
ĠìıĻ ìıĻ
ĮĢ ìŀ¥
Ġë§İ ìķĺëįĺ
Ġëĭ¹ ë¶Ģ
Ġë¶Ħë ĵ¤ìĿĦ
Ġìĭ¬ ìłķìĿĦ
íĨ¤ ìĹħ
å ĸ
ìķĦ ìĤŃ
§Īë ¡ľ
ĠìĤ¬ìļ© ìĿĦ
Ġìŀ¬ íĮĲ
Ġì£¼ë³Ģ ìĹĲìĦľ
éĸ Ģ
j i
Ķ §
ĠìĺģíĻĶ ëıĦ
Ġì§ľ ìŀ¥ë©´
ĠëĪĦêµ°ê°Ģ ìĹĲê²Į
Ġëľ»ë°ĸ ìĹĲëıĦ
e g
Ġìłķ ìĿĢ
Ġë°± ë¦¬
Ġ= _=
ê¸° êµ¬
Ġêµ ī
Ġëĵ± ê³¼
Ġê±°ë ¦¬ë
ëª¨ ê°Ģ
Ġìĸ¼ë§Ī ìłĦ
Ġì²łìłĢ íķľ
ìĬ¤ íĢĺ
íĥ ĵ
ĠìĹĨ ê²łì§Ģë§Į
ĠìĤ¬ ì£¼
ì¹ĺ ìķĦ
Ġìŀĺ ëıĦ
ĠëĴ¤ íĭĢë
Ġìĺ¨ ëıĦ
ĠìĦłë ´ī
Ġë½ Ĳë
ĠíĹĪê³µ ìľ¼ë¡ľ
Ġë´Ħë Ĥł
ĠìķĦë¹łë ¥¼
ìĤ´ ìĿĺ
ĠìĿ¼ë°ĺ ìłģìľ¼ë¡ľ
ĠìĹ¬ìľłë ¡Ńê²Į
Ġë³´ ìĺĢìĬµëĭĪëĭ¤
ĠìĥĿê°ģ íķĺë©´ìĦľ
²Ħë ¦¼
ê·¸ ìłľ
Ġë¹Ħë ªħìĿ´
ë¯¸ ëĬĶ
ĠëĪĦë ĤĺëĬĶ
Ġë§¤ëĭ¬ë ¦°
æĺ İ
ìļ° ìłķ
ìª½ ìĿ´
Ġë´ī íĪ¬ë¥¼
Ġëį© ëĭ¬ìķĦ
ĠìĿ´ ì¢ħ
ĠìĤ´ ëĭ¤
ĠìĹŃ ëĮĢ
ĠíĤ¤ ìļ°
éŃ Ķ
~ ``
ģ ½
Ġíķľ ê³Ħê°Ģ
ĠëĤ´ ìĿ¼ë¶ĢíĦ°
íı °ë
Ġë³´ë Ŀ¼ê³ł
Ġìĭłë ¶ĦìĿĦ
Ġíıī ë¡ł
ĠíĿĺë ł¤ë
ĠëĳĲëł¤ ìĽĢìĿĦ
ìĦ¤ë ªħ
Ġê°ĩ íŀĮ
ĵ¤ ê¹Įì§Ģ
ĠìĹ¬ ê¸°ëıĦ
Ġìĺģ ìĸ´ë¡ľ
ĠìĬ¤ íĭ±
Ġë³´ë Ķ°ë
ĠíĮĮ íĹ¤
ĠëĤ´ë°Ģ ìĸ´
Ġë§Ĳ ê³łëĬĶ
ĠìĿĺ íĺ¹
ê·¸ ê²ĥìĿĢ
ĠìĤ¬ê³ł ê°Ģ
ì¡¸ë Ŀ¼
ĠìĥĲëŁ¬ë ĵľë
ĠìĪł ëıĦ
ĠíĴį ê²½ìĿ´
ĠíıŃ íĥĦ
Ġê°Ģë¡ľ ì§ĪëŁ¬
Ġ .....
§Į ìľ¼ë¡ľ
Ġëª© ìļĶìĿ¼
Ġëªħ ëıĦ
Ġíĸ¥ íķĺê³ł
ĠìĤ¬ëĥ¥ ìĿĦ
Ġì¶Ķêµ¬ íķĺëĬĶ
ìĸĺë ĵ¤ìķĦ
ìĿ´ ìĦľ
ëĭ¤ ë³¼
Ġëĵ± ê¸ī
ĠíĺĦ ìĭ¤ë¡ľ
Ġíľ´ëĮĢíı° ìĿĦ
ĠíĽ ¤
Ġìŀ¬ ìĤ°ìĿĦ
ìŀ¬ë ¯¸
Ġì§Ħíĸī ì¤ĳ
íĥĪë ª¨
ĠìĮ Īë
Ġì§ļ ê³ł
ĠìĿ¸ë¬¼ë ĵ¤ìĿ´
la y
ĠíħĶëłĪë¹Ħ ìłĦ
íķ´ ì¤ĺìĦľ
Ġëĵ¤ìĸ´ ìĺ¤ë
ĠìĽĲ íĶ¼
Ġëĵ¤ë Ł¬ë
ĠíĨłë ¡ł
Ġíı¬ê¸° íķĺì§Ģ
Ġë¯¿ìĸ´ ì§Ģì§Ģ
ĠìĸĮ ìłĦíŀĪ
ì° ¼ëĭ¤
Ġë¬¼ ê²°
Ġìĭľê°Ħ ìĿ´ìĹĪëĭ¤
ê¿ Ģë
Ġì¡°ê±´ ìĿĦ
´ ¤ëįĶëĭĪ
ĠìĦ¸ë Ł¼
Ġìķŀìľ¼ë¡ľ ìĿĺ
ĠìĿ¼ìľ¼ íĤ¤ëĬĶ
ĠP S
s o
ç µ
íķĺ ê²łì§Ģë§Į
Ġëĭ¤ ìłķíķľ
ĠëĮĢ íļĮ
Ġë°Ķë ¥´ë©´
ìĬ¤ë Ŀ¼ëĬĶ
Ġë¬¼ë ĨĢìĿ´
ĳĲë ¡ľ
Ġê°ĢëĬ¥ íķĺëĭ¤ê³ł
ì´Īë ¶ĢíĦ°
ĠìŀĲìĭłë ĵ¤ìĿĦ
ĠëĦīëĦī íķľ
ìŀħ ë§Ľ
ĠíĬ ľë
ìħĺ ìĿ´
ĠìĤ¬íļĮ ìĹĲ
ĠìĦľëĬĺ íķľ
Ġíķľ ëĤĺ
Ġíķľ ìĪ¨ìĿ´
ìĦ± íģ¼
ĠìĨĮ ì£¼ë¥¼
Ġìŀħ ìŀ¥ìĿ´
ĠëķĮë §Īì¹¨
ê²½ ê¸°
Ġê·¹ íŀĪ
ĠíķĺìĹ¬ ê°Ħ
Ġë°±ìĦ± ëĵ¤ìĿĺ
Ġëĺĳëĺĳ íŀĪ
Ġê¾¹ ê¾¹
ìĿ´ ëĬĶëį°
Ġìĵ° ìĿ´ëĬĶ
íĳ¸ë ¥¸
ìĮ Īë
ìŀĪë įĶëĿ¼êµ¬ìļĶ
ĠíĮĲíĥĢ ì§Ģ
ĠìĪĺ íıī
ĠìĿ´ë Ł°ë
ìĤ° ìĹħ
Ġìŀł ê¸´
ĠíĻ© ëĭ¹íķľ
Ġê¶ģ ê¶Ĳ
íĶĦ ìĹĲ
Ġìĺ· ìĹĲ
ĠëĶ°ëľ» íķĺê³ł
Ġìŀ½ ìĭ¸ê²Į
Ġìĥģ ê¸°ë
Ġìĺ¤ë °±
Ġë°ľ ëĭ¬
ĪĦë ¦¬
ĠëĪĪëıĻ ìŀĲë¥¼
? âĢĻ
Ġì£¼ ìĿĺë¥¼
ĠìķĪë §ŀ
ĠëĤłìķĦ ê°ĢëĬĶ
ĠìĬ¬ë ¦¬
ĠìķĦíĶĦ ëĭ¤
ë¯¸ìķĪ íķ´
Ġë¯¸ ì¹ĺì§Ģ
Ġì»¤ ì¡Įëĭ¤
ĠìĻķ ë¹Ħ
ĠìĬ¤íĶ¼ ì»¤
Ġìĺ¬ë°Ķë ¥¸
ìĸ´ë Ĥ¼
Ġìĭľ ìĭľ
Ġë© §
ë§ī ìĿ´
Ġë³´ëĤ´ ìĦ¸ìļĶ
¦¬ëĿ¼ê³ł ëĬĶ
Ġíĺ¸ê¸° ìĭ¬
ë ķĮëıĦ
ĥ ĩ
Ġíĥľ ìļ°ê³ł
¸Ķë ¦¬
Ġì§ĳìķĪ ìĹĲ
Ġê²½ì°° ìĿ´
Ġìĭľì»¤ë ¨¼
f low
Ġë¹Ħ íĭĢë
ĠìĿĮìĭĿ ìłĲ
ĠìĨĮ ìĦ¤ë
ĠëĴ¤ ì²Ļ
ĠíĮĮ ê³łë
°Ķ ê°Ģ
ĠìĦłë ªħíķľ
ëĵ± ìĿ´
ìĬ ĺ
Ġëģ Ļ
I C
ìĿ´ë ³´
ĠìĹ¬ìŀĲ ëıĦ
¹Ħë ¹Ķë°¥
ĠìŀĶìŀĶ íķľ
ìĦ± ë¡ľ
íĭ ĪìĿ´
Ġëĭ¨ ìĸ´ë¥¼
ĠëĤĺê°Ģ ê¸°
ë²Ħë ¦°
ĠëĤłìĶ¨ ëıĦ
Ġê°Ģ ê²Įë¥¼
Ġì§Ģ ìĽĲìĿĦ
Ġì£¼ ìĭľê³ł
Ġëª© ìłģìľ¼ë¡ľ
Ġìŀł ëıĦ
íĨłë ¥´
Ġì«ĵ ìķĦë
Ġëĥīìŀ¥ê³ł ìĹĲ
Ġë° ī
ĠìĿ¼ ê¹¨
Ġì§Ħ ì¶ľ
ëĭ¹ ìĹ°
Ġë°Ķë ĳĳ
Ġëĭ¹ ëĭ¹íķľ
Ġê¸°ë ¶ĦëıĦ
ìĿ´ë¡ľ êµ°
ĠìľĦíĹĺ ìĿĦ
Ġìº¡ ìĬĲ
ìĿ´ë įĶëĭĪ
ìĹ¬íĸī ìĿĦ
ë© ĺ
ëĤĺ ìĿ´
Ĳĺ ìĸ´ìķ¼
Ġì±Ħ ìĨĮ
19 9
ĺ Ĳë
ĠìķĦ ìĿ´ëĿ¼
ìĭł ê¸°
ìĦ± ëĮĢ
ë¦¬ ìĹĲ
Ġìĭ¤ íĻĶ
Ġì§ģ ìłĦìĹĲ
Ġì§ĢëĤĺ ê°Ģê³ł
Ġê±¸ë ¦¬ì§Ģ
ĠìłľìĻ¸ íķĺê³łëĬĶ
ĠíĮĶë¡ľ ìļ°
ìĿ´ë ĵ¤ìĿĦ
ĠìķĦ ìĦ¸ìļĶ
ìĹ¬ ìļĶ
ĠíĸĪ ìŀĸìķĦ
ĠìłĲ ìĹĲ
ĠíĺĦ ìŀ¥ìĹĲìĦľ
Ġìŀ¬ì´ī íĸĪëĭ¤
ĮĢ íķĻêµĲ
Ġë°¤ ìĹĲëĬĶ
ĠíĴĪ ìĿĢ
ĠëĤĺ ëĬĶëį°
Ġìĥ Į
Ġëĭ¬ë ŀĳ
Ġíİ¸ ìĿĦ
Ġê¸°ëĮĢ ê³ł
Ġë¶ĢëŁ¬ ìĽĮ
ĠìĤ¬ëł¹ ê´Ģ
ĠìĹĨìĹĪëĭ¤ ëĬĶ
Ġìĭłë ĤĺëĬĶ
ëĮĢë §Į
Ġì¤ĺ ìļĶ
ìĹĲê²Įë Ĥĺ
ìĸ Ħ
ĠìĦ± ë¦½
Ġë°° ìĽħ
ĠëĬĲë ¦¿
íĹĪ ëĭĪ
ĠìŁ ¤
Ġëª¨ìľ¼ ê³ł
Ġê¹į ëĳĲ
ĠìŀĪ ê²łìĸ´ìļĶ
ĠìĥĿê°ģ ëĤľ
Ġì²« ìĤ¬ëŀĳ
Ġìĩ ³
Ġê´´ë¡ľ ìļ´
ç¾ ©
æĢ §
ĠëĤĺ íķĺê³ł
ĠìĹĨ ìľ¼ë©°
ìĤ¬ë §Ī
Ġë§ī ê¸°
ìŀ¡ íķľ
ìĤ¬ ìĺĢëĭ¤
Ġìĺ¤ ìļ°
ê´ĳ ìĿĺ
Ġëĭµ ê²Į
Ġêµ¬ìĦ± ëĲľ
¶Ģë ¥´
Ġíģ´ë Ŀ¼
ĠíĴĪ ìĹĲìĦľ
ĠìĤ´íĶ¼ ê³ł
ĠëĬĲê¸ĭ íķĺê²Į
ĠìĥĿ íĻľë
ê±°ë Ŀ¼ëĬĶ
Ĳĺ ìĸ´ìĦľ
ë¨¹ ìĿĦ
ĠëģĿ ëıĦ
íĻĪ ìĬ¤íĥĢê·¸ëŀ¨
ê°Īë¹Ħ ì°ľ
ĠìĦŀ ìĸ´ìĦľ
íĮ¨ë Ķ©
Ġíĩ´ê·¼ íķĺê³ł
ì¡ ĭ
íļĮ ìļ©
Ġìļ°ìļ¸ íķľ
ĠðŁĵ Į
Ġì¶Ķ ìłķ
ìĪł ìĿĺ
Ġ> .<
ë» £
ĠìķĦ ì£¼ë
Ġì¢ĭ ê²łëĭ¤ëĬĶ
ĠìłĦë Ŀ¼ëıĦ
Ġì±ħ ìĥģìĹĲ
ĠìłľíĴĪ ìĿ´ëĿ¼
ìĮ Ķ
Ġìĭ¬ì§Ģìĸ´ ëĬĶ
Ġê°Ķë įĶëĭĪ
Ġìŀ¬ë¹łë ¥´ê²Į
ìķĦ íĻī
Ġëĭ¤ ìĹ½
Ġì§Ħ ê²©
ëĦ ¹
ĠëģĬ ìĹĪëĭ¤
Ġëĭ¬ëł¤ë ĵľëĬĶ
ĠìĦ±íģ¼ ìĦ±íģ¼
Ġë²ł íĴĢ
Ġê°Īë ¦Ń
b s
Ġëĭ¤ ì§ľê³ł
Ġìĺģ ëĿ½
ì¦Ŀ ìĹĲ
ì¤ĺ ëıĦ
Ġì§ĢìĹŃ ìĿĦ
Ġíķ´ê²° íķł
Ġì¶Ķìĸµ ìĿ´
ê² »
íķ´ ìĹĲ
Ġê¸° ìĦ¸ë¡ľ
ĠìĽĲ ìĪĺ
Ġë¹µ ìĿ´
æŃ £
Ġì°¨ê·¼ ì°¨ê·¼
Ġë³´ ìĭł
²Ħë ĳ¥
ĠìĭĿ ê°ĲëıĦ
¹Ħë ĪĦ
Ġê²© ëł¤
ĠëĤłìķĦ ìĺ¤ëĬĶ
íķľ ëģ¼
Ġë¶Ģë ¶Ģê°Ģ
ĠìĹ¬ëŁ¬ë ²Ī
ĠìĽħíģ¬ë ¦¬ê³ł
Ġë¶Ģ ì©į
ê²½ ê³¼
Ĳľ ëĭ¤ê³ł
ĠíļĮ ìŀ¥ìĿĢ
ìĹĩ ëĭ¤
' (
ĠìĨĮë ¬¸ìĿĢ
ĠëĳĲë ª©
Ġëĵ¤ìĸ´ê°Ģ ìķ¼
ìĹ´ ìĿĢ
ĠìķĦ ìĬĪ
ĠìĿĢë°Ģ íķľ
Ġìŀħ ì§Ģ
Ġë¨¸ë ¦¬ëıĦ
Ġì§ģ ìĽĲìĿ´
ĠìĹ¬ê¸° ê³ł
ë¯¼ ì¡±
ê¸°ëĬĶ ì»¤ëħķ
ìĬ¤íĤ¨ ì¼Ģìĸ´
Ġ www
ìķ ľ
ê·¸ë ¡ľ
ìĸĳ ìĸĳ
Ġê°ķ ëıĦ
ĠëĤł ìĹĲëĬĶ
Ġê¸Ī ìĨį
ĠìĦĿ ì£¼
Ġê±° ì£¼
íĨµ ìĿĺ
ì¹ĺë £Į
Ġíĥľ ëıĦë¡ľ
Ġì±ħ ëıĦ
ĠëĶĶìŀĲ ìĿ¸ëıĦ
Ġìĥ Ľ
ĠìĿ´ë ¥´
ìĪ ı
Ġëĵľë ¬¸
Ġê²Ģ ì°°
ìĶ© ìĿ´ëĤĺ
ĠìĺĪë °©
ĠìĨĲ ê¸¸ìĿ´
Ġíķĺë ĵł
ŀĮ ìĿ´
ĠìĿ½ ìĸ´ë³´
ĠâĹ ĭ
ĠëĤĺ ìĹĲê²ĮëĬĶ
ŀĺ ê°Ģ
ĠìķĦë ¢°
Ġìŀ¥ êµ°ìĿĢ
Ġì£¼ë ©´ìĦľ
Ġìľł ìĿ¸
ìĹŃ ìĤ¬
Ġíģ¬ë łĪ
ĠëĤ¨ë ħĢë
ĠëģĦ ëĬĶ
Ġë¬´ìĿĺ ë¯¸
+ +
Ġìĭľ ê·¸ëĭĪ
Ġì¡° ê·¸ë§Īíķľ
ĠìĦ¸ ìłķ
Ġë§ŀ ì¶¤
Ġìĺ¨ ëĭ¤ê³ł
Ġëĵ±ìŀ¥ íķľëĭ¤
ĠëĦĪíĿ¬ë ĵ¤ìĿĢ
ĠìĿĳìĭľ íĸĪëĭ¤
k im
ĠìķĦ ì°Ķ
íĭ °ëıĦ
Ġë°° ìĽĮ
ĠìĹĦë§Ī ìĹĲê²Į
Ġë» £
Ġë©± ìĤ´ìĿĦ
Ġíķĺë§Ī íĦ°ë©´
Ġì²ĺ ì§Ģ
Ġë°ĺë °ķ
Ġì¡´ ìŀ¬ë¡ľ
ĠìķĦê¹Į ìļ´
ê¾¸ëŁ¬ ê¸°
Ġìĥģ ìĹħ
ìŀĦ ìĭł
ì²ŃìĨĮ ê¸°
Ķ Ľ
ĠìĨĮ ìĨĮíķľ
ëĬ¥ ëł¥
Ġëĭ¤ê°Ģ ìĦľ
°Ķë ³´
Ġë²Įë łĪ
Ġë°ĶëĢĮ ëĬĶ
åį Ĺ
ĠëĤ´ ê³µ
Ġê°Ģë Ĥĺ
íĬ¸ë ŀĳ
ìĿ´ê³ł ìļĶ
ãĤ ĵ
Ġì¥Ĳ ìĸ´ë
Ġë³´íĨµ ìĿĺ
Ġë°Ľ ìķĺìĸ´ìļĶ
Ġíļ¨ ëĬ¥
ĠíĨłë ĦĪ
Ġë¹łìł¸ëĤĺ ê°Ķëĭ¤
ìĨĮ ê¸Ī
Ġì§ĳ ìĹĲìĦľëıĦ
Ġê³Ħíļį ìĿ´
Ġìĸ´ì©Į êµ¬
íģ´ëłĮ ìłĢ
Ġë¬¼ ìĿĺ
ĠëĬĲëĤĮ ìĿ´ëĿ¼
ðŁį ĵ
ĠìķĮ ì°¨ê²Į
ĠìĹ¬ê¸° ìłĢ
Ġë³¼ë ¥¨
ìĪĺ íķĺê³ł
Ġì§Ģë Ĥ¬ëĭ¤
ê·¸ ìĿĺ
Ġìķ½ìĨį ìĿ´
ĠëĤ´ë°Ģ ê³ł
íķ« íĶĮ
íı¬íĦ° ì¦Ī
¦¬ ëĬĶëį°
Ġìĥģ ë¯¼ìĿĢ
Ġê°Ģë ¬¼
Ġìłģ ë¦½
Ġê±¸ ìĸ´ëĤĺ
Ġê°ĸ ì¶°
Ġì§Īë ¬¸ìĿ´
ĠìĤ¬ìĿ´ ìĹĲëĬĶ
ìł ĪëıĦ
ĠìĹ¬ ê¸°ë¡ľ
ê±°ë ¦¬ë¡ľ
Ġìŀ¥ ìĿ´
ë°© ìľ¼ë¡ľ
Ġ4 00
Ġíģ¬ ê¸°ìĿĺ
Ġ> <
¹ ¤
ëĬ Ħ
Ġìŀ Ħë§Ī
¯¼ ì£¼
ì·¨ ê°Ģ
ìĦ± ìĿ¸
ĠìĤ´ ê¸°ê°Ģ
ĠíĥĢ íĺĳ
ìµľ ê°ķ
ĠìĽĥìĿĮ ìĨĮë¦¬ê°Ģ
ĠíĬĢìĸ´ëĤĺ ìĻĶëĭ¤
ìŀĺë ª»
íķ´ ìĻĶëĭ¤
ìĪĺ ìĦł
ĠíĶ¼ ì§Ģ
Ġíĥľ ê²½ìĿĢ
Ġì·¨íĸ¥ ìĹĲ
Ġìļ°ëĳĲ ì»¤ëĭĪ
ëĭĪ ëĭ·
Ġíķľ ë°ĺ
ĠìĿ¸ ê¸°ë¥¼
ê°Ĳ ê¸°
Ġì°¸ ìĿ´ìĹĪëĭ¤
ê¸¸ ìĹĲìĦľ
Ġëª¸ë ¬´ê²Į
i st
Ġíķľ íĮĲ
Ġê³µ ê¸°ë°¥
Ġì¶© ìĭ¤
b er
ĠìĨĮ ìĬ¤ëıĦ
ĠíĽĦ ìŀĳìĿĺ
ì°½ ìĿĺ
ìķ¼ë ĵ¤
Ġì§Īë łĢ
Ġìľ¡ ìĪĺ
Ġìĸ´ëĬĲë Ĥł
ìĥģ íĻ©
ĠëĪĪ ìĹ¬
Ġìłģ ëĮĢ
ĠíĨµ íķĺì§Ģ
Ġíĸī ìļ´
Ġê³¼ ìłľ
Ġë¯¸ë ¦¬ë
Ġì¹ľêµ¬ ìĹĲê²Į
Ġì¤ĳìļĶ íķĺëĭ¤
ðŁĲ ½
ìĥĿíĻľ ìĬµê´Ģ
Ġê°Ĳ ìłķìĿĢ
ìĬ¤íħĮ ìĿ´
Ġëª¨ ìļķ
ĠëıĻ ëĤ¨
è ²
Ġë¶Īë Łī
ë¸Ķë ŀĳ
íĶĪë į°
ê² ľ
ì§ĳ ëĵ¤ìĿ´
ĠëĶ°ë ¥¼
Ġì¢ĭìĿĢ ì§Ģ
íĨł íĶ¼
ĠìĿ¸ìĥĿ ìĹĲ
ê²ĥ ìĿ´ëĭ¤
ë§Ī ìĿ¼
ìĭľë °ĺ
Ġíľĺëĳ¥ ê·¸ëłĪ
Ġìłķ ë¥ĺ
ĠìķĦë ¹Ħ
Ġì£¼ ìĭĿ
Ġìĺģ ì£¼
ĠìĿ¸ë ¥ĺ
ìĺ¥ ìĪĺìĪĺ
ì¿łë¡±ìĿ´ ë§Īë¡±ìĿ´
Ġìĥ ¹
ì° ¡
ĠìĤ¬ëŀĮ ìĿ¸
ĠìļĶ ìĨĮë
ìļ°ë ¯¸
Ġë²Ħë ¦°ëĭ¤
Ġíķ© ìĦ±
Ġìľ¤ ê³½
ìĺĪë ¹Ħë
ãħħ ãħĩ
ĠìĨľ ìĶ¨
ĠìķĦëŀĳê³³ íķĺì§Ģ
ĠìĤ¬ ìĹħìĿĦ
íĻľ íķľ
Ġê·¸ë§Į íķľ
Ġê¸° ìĪĻ
ë¶Ħ ìľĦê¸°
Ġê³¼ ìĸ¸ìĿ´
ìĭłë ©Ķëī´
ĠL ED
ë ĵłì§Ģ
ĠìĿ´ë ¹¨
íŀ Ŀ
ê·Ģ ìĿĺ
ĠìĻ¸ë¡ľ ìļ´
cut e
íķĺ ëĭ¤ë³´ëĭĪ
ìĸ´ ì§¸
ê·¸ë §Ī
ĠíĴį ìļĶ
ê¸°ë ĵ¤ìĿĦ
ĠìķĦë ıĻ
êµ° ìľ¼ë¡ľ
ìļ¸ íķľ
ĠìĿĺ ê¸°
Ġêµ¬ë ıĦ
ì±ħ ìľ¼ë¡ľ
Ġë¡ľ ì¦Ī
ĠìķĬìķĺ ìľ¼ë©´
ë¶Ģë ¡ľ
ĠìĿ´ë ıĦ
Ġë§Ĳ ìķĺìĬµëĭĪëĭ¤
ë° ĳ
Ġìĺ¤ ëĭĪ
ĶĶ ìķĦ
Ġìľł ìľł
ë¬¸ ìľ¼ë¡ľ
Ġìķł ëĬĶ
ìĬ¤ëŁ¬ ìĽĮìĦľ
Ġìĸ´ëĳ ĳ
ìĭľëĭ¤ ìĭľíĶ¼
Ġ201 4
íĮ¨ë ¡ľ
Ġë ŁŃ
ĠìĿ´ë ĵ¤ìĹĲê²Į
Ġìĺ¤ íĶ¼ìĬ¤
Ġìłľ ê¸°
íĤ¤ ìĬ¤
Ġë³´ê³ł ëıĦ
ĠìłĦë Ĥ¨
ĠìĿ´ë²Ī ì£¼
íĺģ ëªħ
5 5
Ġ de
Ġíķĺ ëĭ¨
Ġë³´ ìķĺì§Ģë§Į
¦¬ë ŀĢ
Ġê°Ļ ìķĺëĬĶëį°
Ġë§İ ìľ¼
Ġì°¨ ìĽĲìĹĲìĦľ
Ġíĺķ ëĭĺìĿ´
ëŁī ìĿĢ
Ġê·ľë ª¨ê°Ģ
ìĨĮ íĴĪ
įĶ ê¸°
Ġíķ´ë ıħ
ĠìĿ´ìłľ ìĦľìķ¼
ëł¹ ìĿĦ
Ġë°Ķëĭ¥ ìĿ´
íľĺ ëĬĶ
ĠëıĦë§Ŀ ì³Ĳ
ĠìŁ Ī
Ġìļ©ìĦľ íķł
ìĿĺ ìĹĲ
ĠìĤ¬ íļĮë¥¼
ĠìŀĲë ĵ¤ìĿĦ
ĠíĶ¼ íģ´
ìĺ¥ ìĿĦ
Ġì¢Į ì¸¡
ĠìĺĪìĥģ ì¹ĺ
ĠíĶĮëłĪ ìĿ´ìĸ´
Ġë§Ĳ ìĺĪìļĶ
ë§Ī íģ¬
ĠëĤ´ëł¤ ëĭ¤ë³´
Ġë°ľë ²Ħëĳ¥
Ġìĺ· ëıĦ
Ġë¨¸ë¦¿ ìĨįìĿĦ
Ġíģ¬ë¦¬ìĬ¤ ëĬĶ
ìĬ¤ ì¼Ģ
Ġìłķ ëħķ
ì§ģ íķĺê³ł
Ġëĭ¨ ìĸ´ê°Ģ
ë§ŀ ìĿĢ
§ī ìĿ´
ì³¤ ê³ł
ĠìłĦì²´ ìĹĲ
ĠìĤ¬ìŀ¥ëĭĺ ê»ĺìĦľ
Ġê¼ ´ë
íĪ¬ ìĦ±ìĿ´
æ ĥ
Ġë³´ íĺ¸ë
ê²½ ìłľ
Ġì°¸ ìķĺëĭ¤
ĠìķĦì¹¨ ìĿ´
Ġë°Ģ ê°Ģë£¨
201 80
ê³łë ¦¬ë¥¼
ł ĪëıĦ
ĠìĿ¼ ì²´
ĠìķĦë ŀĺë¥¼
ê²¬ ìĿ´
Ġëĵ¤ìĹĪ ëĬĶì§Ģ
ìºĲë ¦Ń
ìĤ¬ë ıĻ
ìŀł ìĭľ
Ġìļ©ìĦľ íķ´
íķľ ìļ°
Ġë¸Ķë ¡Ŀ
Ġë°°ë °ĺ
ĠëĳĲëł¤ ìĽĢ
Ġíķ´ëĭ¹ íķĺëĬĶ
èĢ Į
ìĿĺ ë¡ľ
ĠìĤ¬ëŀĮ ìĿ´ëĿ¼ê³ł
Ġìĺ¤ë ıĻ
íĬ¸ë §¨
ìĿ¼ë ¦°
Ġìĭ¤ ì¡´
Ġê°ĢìĬ´ ìľ¼ë¡ľ
ĠëŃĲë ŀĦê¹Į
Ġìĭ± ê¸Ģ
Ġêµ¬ìŀħ íķľ
ĠíĿ© ìĸ´
· Ĩ
ĠìĹĨ ìŀĸìķĦìļĶ
Ġìłľ ìķĪìĿĦ
ìĸ´ë¨¹ ê³ł
Ġì§Ģì¼ľë ³´ìķĺëĭ¤
Ġë§ŀìĿĢ íİ¸ìĹĲ
ĠìĿ´ë²¤ íĬ¸ë¥¼
Ġìłķ ìĦ±ìĿĦ
Ġìĺģ ìĺģ
Ġëĭ¬ë ŀĲ
ĠëĮĢë ¥¼
Ġíı¬ ê·¼
ìĦ¸ë Ŀ¼
Ġê¸°ìļ¸ ìĺĢëĭ¤
ê¶Įë ıĦ
m om
Ġì£¼ ìĸ´ìķ¼
ħĦ ìĿĺ
Ġê»į ì§Ī
íģĲë ¸Į
Ġìķ ¤ë
Ġë§ Ļ
ĠìĦ± ìĿ´
ĠëĬĲëĤĮ ìĿ´ëĭ¤
ìŀĶ ìĹĲ
ë°° ê¸°
¨¸ë ¦¬ê°Ģ
Ġë¹¨ ê°Ľê²Į
ìĭ± íĦ´
ìĹ ¾
íķľ ìłķ
Ġëª» íĸĪê³ł
íĺ¸ ìĹĲê²Į
ĠìĿ´ìłľ ê»ı
Ġë¹ł ì§Ĳ
Ġìıĺ ëĬĶ
ìĸ´ëĶĶ ìĦľ
ê°ģ ì§Ī
íĸĪ ìĿĦê¹Į
Ġë¬´ë ªħ
ëĤ´ë ĪĪ
çĻ ½
ìķĦ ìĿ´ë¥¼
Ġìĺ ħ
ĠìĤ¬ ìŀ¥ìĿĺ
ìĦ¸ ìĿ¼
Ġì§Ģë ª©
ìĭľë Ł¬
Ġì²Ń ìĨĮë
Ġìĸĺ ê¸°ëıĦ
âĻ ¤
ĠëĶ° ìľĦê°Ģ
Ĳ ĺëĤĺ
¶Ģ ìĹĲìĦľ
ìłģ ìĿ¼
Ġìĺ¤ ìĺ¤
íĸĪ ì£ł
Ġë¯¸ ê°ĦìĿĦ
Ġëªħ ìĺĪ
ëĶ Ķëĭ¤
ĠëĨĢëĿ¼ ê²Į
ìķĦë ¨¹
ĠìłĢ ì§Ģ
ì½ľë łĽ
ä ¼
Ġê±°ë ¯¸
ëĿ¼ ìĺ¨ìĿ´
Ġê°Ģì¡± ëĵ¤ìĿ´
à ·Ĩ
ĠìĿ´ë £¨ë
Ġì£¼ ê²Į
ê²ĥ ì²ĺëŁ¼
ĠìĬ¤ìĬ¤ë¡ľ ê°Ģ
¹ ¨ë
Ġìĭ¶ ì§ĢëĬĶ
ĠëĤĺë ¦¬
Ġìĸ» ê¸°
ĦĪë ¥¼
Ġì§± ë§Ľ
Ġíģ¬ë¦¼ ì¹ĺì¦Ī
Ġë§ĪëĿ¼ íĥķ
Ġëĵ¤ìĿ´ ì¼°ëĭ¤
Ġë©Ģì©¡ íķľ
ĠìłĦ íķĺëĬĶ
Ġê¸° ìĻķ
ìķĦë ¯¸
ĠìļĶ êµ¬ë
ĠíĶ¼ ìĹĲ
Ġìĭľë »ĺ
Ġê°Ģê²© ìľ¼ë¡ľ
ĠëĦ¤ë ĨĪìĿ´
Ġíķ´ ì¤ĺìķ¼
ìĤ´ ìĹĲ
Ġì½ĺ íħĲì¸ł
3 8
Ġë° ´ëĵľ
ĠìĦ¸ íĬ¸ë¡ľ
Ġì²Ń ìĻĢë
Ġê¸¸ë Ł¬
Ĥĺë ´ĲìļĶ
Ġíķĺ ìħ¨ëĭ¤
ìĺĢ ìľ¼ë©´
Ġë°© ìĸ´ë
Ġì²Ń ìĸĳ
ĠëĿ¼ ìĿ´ë¸Į
Ġì¹¨ ê³µ
ĠëĪĦêµ¬ë ĥĲ
Ġìŀ £
ìĤ°ë ¬¼
Ġì¹ľêµ¬ë ĵ¤ìĿĦ
ìŀĺ ìĥĿ
Ġë³´ ìķĦìķ¼
Ġì§Ħ íķĺê³ł
Ġëª¨ë¥´ ëĭĪ
Ġì¢ĭìĿĢ ê±°
ìĸ¸ ìĬ¤
Ġíŀĺëĵ¤ ìĸ´ìĦľ
Ġë°©ë²ķ ëıĦ
ĠíħĲëį° ìļĶ
Ġë§Īëł¨ë Ĳĺìĸ´
ê³ł ìŀĲ
Ġë¬´ ê²Įë¥¼
Ġë²Ī ìĿ´ê³ł
ĠíĹ¤ ìĿ´
ì»¤ë ¥¼
ĠíĴĢë ¦°
ĠìĿ¸ë¬¼ ìĿĺ
íĮĮíĭ° íı¬ë©Ķ
Ġì§Ģ ìĪĺëĬĶ
ĠìĹ¬ ê´Ģ
Ġëª¨ íīģ
ĠìŀĪìĹĪ ëĭµëĭĪëĭ¤
ĠëĴ¤ ìĿ´ìĸ´
Ġëĸ¨ë ł¤
c ro
ëĭ¤ êµ¬
ĠìŀĲë Ŀ¼ëĬĶ
ĠíĽĦë ©´
ĲĺìĹĪëĭ¤ ëĬĶ
Ġì§ģìĽĲë ¶ĦìĿ´
ĠìĹ¿ ë³´
Ġê±°ìĬ¬ë Ł¬
Ġë° ´
ĠìĿ´ ìĺģ
ĠìĪĺ ê¸į
¹Ħ ì¹ĺ
Ġìļ°ë ¹ĪìĿĢ
ìĨĮë ¦¬ëıĦ
Ġê°ľ ëĬĶ
Ġë¶Īê³¼ íĸĪëĭ¤
Ġë»£ ë»£
Ġì£¼ ìħ¨
Ġê±¸ë ł¤ìĦľ
Ġë§Ľì§ĳ ìĿ´
Ġê²ª ëĬĶ
Ġìľ¼ë ¥´ëłģ
ĠìĿ´ë °©
ìŀ¥ ìĨĮë¡ľ
ĠìĦ¸ ìĿ¼
Ġãħİãħİ ãħİãħİãħİ
ëĭ¬ë ¡Ŀ
ìķŀ ìĹĲìĦľ
ĠíŀĪ ì£½
Ġë°° ê¼½
ĠìķĮê³ł ë³´ëĭĪ
ĠëĤ¨ìŀĲë ĵ¤
ĠìĥģëĮĢë °©ìĿĺ
ìľł ìĹ°
ĠìĿĺ ìĤ¬ëĬĶ
Ġê³µê²© íķĺëĬĶ
ĠìĦľìļ¸ ìĿĺ
Ġë¨¹ìĸ´ë ´Ĳìķ¼
êµ¬ ìĦĿìĹĲ
ĠìļĶ ê²Į
ĠìķĦê¹Įë ¶ĢíĦ°
ìĿ¼ë ĵľ
ĠìłķëıĦ ë§Į
ĠíķĦìļĶ íĸĪëĭ¤
Ġë§Ī ìĿ´íģ¬
Ġë¨¹ ìĿ´ê³ł
Ġìŀ¥ ìłķ
Ġìĭł ìŀĳ
ĠìĬ¤ë ¦´ë
Ġëĵ¯ìĭ¶ ìĹĪëĭ¤
Ġê¿Īê¾¸ ëĬĶ
¦¬ë ł¤ëĬĶ
Ġê¸Ģ ìŀĲ
Ġëľ¨ ê²ģ
ĠíĺĦìĭ¤ ê³¼
Ġê·¼ì²ĺ ìĿĺ
ìĿ´ë ĵ¤ìĿĺ
ĠìĿ´ ìĿĢ
ìĤ¬ ì½Ķ
ĠìķĦë ¯¸
Ŀ¼ë ħ¸
Ġìĺ¤ ìłĦìĹĲ
¶Ħ íķľ
ìļ°ë ¦°
Ġë°Ŀ íŀĪê³ł
ìĭ¤ë ¶Ħ
ĠìĤ¬ë¬´ ìĭ¤ë¡ľ
Ġíİ¼ì³Ĳ ìł¸
Ġìĭľì¼° ìĸ´ìļĶ
ĠìĬ¤ íİĻ
¦¼ íĶĦ
Ġê°ľ ì²Ļ
ĠìłĲìĭ¬ ìĿĢ
ĠìĮĢ ìĮĢ
ĠìŀĦê¸Ī ìĿ´
ĠìĥĿìĥĿ íķĺê²Į
ĠëĲĺ ìĥĪ
ìļ° ìĬ¤ìĿĺ
ĠëıĦ ìĭľë¥¼
ĠíĻĶ ìļĶìĿ¼
Ġëħ¼ ìŁģ
ĠíİĺìĿ´ ìĬ¤ë¶ģ
f arm
ĸ ¨ë
ì§Ģ ìĪĺ
ìĸ´ ìĹĲ
íķĺê³ł ìĭ¶
ĠìĨĮ ê°Ģ
ìĿ´ìĹĪ ìĿĮ
Ġê°ģ ë³¸
ĠíĴĢë ¦¬ëĬĶ
Ġ"âĢ¦âĢ¦ ?"
ĠìĪĺ ë¡ľ
ìķĦë °Ķ
Ġë°° íĦ°ë¦¬
ĠìķĦëĤ´ ìĹĲê²Į
Ġëį¥ ìĦĿ
Ġì§Ħ íĿĻ
¡Ŀ ëĭ¬ë¡Ŀ
ìĭłë ¬¸
ĠëĦĲë ł¤
ìķ¼ êµ¬
ĠëĮĢ íĳľë
ĠìľĦ ê¸°ìĹĲ
ĠìĤ¬ëŀĮ ìĿ´ëĿ¼
Ġë¬¼ ìĹĪìĬµëĭĪëĭ¤
ĠìĹŃ ìĦ¤
íĨł ìĬ¤
ĠëĶ° ê°Ģ
ck s
ĠìĺĨêµ¬ë ¦¬ë¥¼
¤ë Ħ¤
Ġê·¸ ì²ĺëŁ¼
ĠìĤ¬ íļĮë
íĮĮ ìĻĢ
ì£¼ìĿĺ ìŀĲ
Ġê·¸ë¦¼ ìŀĲë¥¼
ĠìŀĳíĴĪ ìĹĲ
ĮĢë §Ľì§ĳ
Ġë§Įë ¥ĺ
ìŀĪ ìĹĪìĸ´ìļĶ
íĹ ·
Ġì²ĺ ì§Ģê°Ģ
¶Ī ìĿĦ
ìĹ¬ë ĮĢ
ĠìłĦë¬¸ ê°Ģ
¸ë ıĦ
Ġì£½ ìĿ´ì§Ģ
ë¯¸ ëĭĪë
Ġê±±ìłķ íķł
Ġìĵ°ë Ł¬ëľ¨ë
Ġë¶Ħëªħ íķĺëĭ¤
Ġìĸµ ëĪĦë
ĤĮ ìĹĨìĿ´
ĠíĿĺëŁ¬ëĤĺ ìĺ¤ëĬĶ
ĠíĿĺëŁ¬ëĤ´ë ¦¬ëĬĶ
æĪ °
ĠìĥĪíķĺ ìĸĢ
ĠìŀĲ ë§¤
ìĬ¤ë ª¨
ĠëĴ¤ ìĹĲëıĦ
Ġê²°íĺ¼ íķľ
Ġë¸Ķë£¨ë ²łë¦¬
ĠëĮĢ ì¹ĺ
ĠëĤ´ ëĭ¬ë
Ġë¶Ģë ª¨ë
Ġì²Ń ìĨĮë¥¼
ë ¡¤
íķ´ë ³´ë©´
Ġë¹Ħë ĳĺ
ĠìĥĪ ìĸ´
ë¶ĢíĦ° ëĬĶ
Ġê³µê²© ìĿĢ
Ġê³łêµ¬ëł¤ ìĿĺ
ĠìķĦë ¡ľ
įķ ìĹĲ
Ġëĭ¹íĻ© íĸĪëĭ¤
Ġêµ½ ëĬĶ
íı¼ ìĬ¤íĥĢê·¸ëŀ¨
ĠìĹ¬ ì§Ģê°Ģ
ë§Īë ĥ¥
°° ìĨ¡
Ġê°Ģì§Ģ ë¡ľ
ĠìłĦìŁģ ìĿĢ
Ġëº Ģ
ĠìĨĲëĵ± ìĹĲ
ĠëĤ ©ëĭĪëĭ¤
ĠìĿ´ ê¸°ëĬĶ
Ġìĭľ íį¼ë
Ġìĭ± ê¸ĭ
ĠëıĻëĦ¤ ìĹĲ
æľ ī
Ġê²½ ë¹Ħë
Ġê°ķ ëł¬
íĪ ´
ĠìĥĪ ê²¨ì§Ħ
ĠíĮĶ ìŀĲ
Ġìļķë§Ŀ ìĿĺ
Ġì¡°íķ© ìĿ´
ìĸ´ë¦°ìĿ´ ì§ĳ
Ġê³Ħ ìĭŃëĭĪëĭ¤
Ġëĭ¬ë ŀĺë
Ġâ ŀ
ĠëĤłì¹´ë ¡ľ
ìŀħ ìĿĦ
Ġìĭ¸ ìļ´
Ġëģ¼ ìĸ´ëĵ¤
ëĿ¼ë ¡ľ
Ġëĳ¥ ê¸Ģ
ìĥ Į
ìĤ¬ë Ŀ¼ê³ł
ìĹĨ ìĸ´ìļĶ
Ġíķ´ë ´Ĳìķ¼
ĠìĹŃ ìĤ¬ê°Ģ
Ġë¯¸ë ¥µ
Ġìĺ¨ëª¸ ìľ¼ë¡ľ
Ġìŀħë§Ľ ìĿ´
ħ ¸ë¡ľ
ìŀĲ ìķĦ
ìĿ´ëĭ¤ ë³´ëĭĪ
Ġë°Ķë ŀĺ
Ġìŀ¬ ìĤ°
Ġìĵ°ë ©°
ĠëŃĺ ê¹Į
Ġìķ½ìĨį íķľ
Ġíķĺ ëĬĲëĿ¼
ĠìĤ¬ ìĭł
Ġìĭľë ĮĢê°Ģ
Ġê³ĦìĨį íĸĪëĭ¤
Ĥ¨ ìĿ´
Ġê°Īë §¤
Ġêµ¬ê²½ ìĿĦ
Ġìķ¼ë ĵ¤
s a
ìĿ´ ìĺµëĭĪëĭ¤
íķĺëĬĶ ê°Ģ
Ġë¹Ħ íķ´ìĦľ
ĠìĬ¤ íĨł
ìĹ¼ ìĥī
ëĭ¤ ë¥¼
Ġê³µ ì¡´
Ġê³µ íı¬ë¥¼
Ĳľ ëĭ¤ëĬĶ
Ġì¶Ķ ìĽĮìĦľ
Ġíŀĺ ìĿĺ
ĠìĹ´ë §¤
¦¬ìĬ¤ ìĿĺ
ĠíĻķìĿ¸ íĸĪëĭ¤
ĠëĳĲëł¤ ìĽĢìĿ´
Ġ !!!!
ìķĦ ì§Ħ
ĠìĤ¬ëŀĮ ìŀħëĭĪëĭ¤
Ġì¹ĺ íĤ¨ë
ìľłë ŀĺ
ĠíĨł ëĭ¥
ĠìĦ¸ë ł¨ëĲľ
Ġê°Ģ ëĭĪ
Ġìŀ¥ ìĭľ
Ġê¸°ë »
ë¬¸ ìĿĢ
Ġë¹Ľ ëĤĺê³ł
ĠëıĻ ëĦ¤ë
Ġíĺķ ìĤ¬ê°Ģ
¦Ń ìĬ¤
Ġëĭ¬ëł¤ ìĺ¤ëĬĶ
ìķĦìĿ´ íħľ
æľ ¬
ìĥ ĲëŁ¬ë
Ġì¶ķíķĺ íķ´
ëĤ¨ë§¤ ìĬ¤íĥĢê·¸ëŀ¨
ca m
ĠíĮĲë§¤ íķĺê³ł
Ġìĺ¤ë¹łë ŀĳ
ìĭľ ìĸ´
.... ?
ħ¸ íĬ¸
ĳĲë ¦¬
ĠëĬĺ ìĸ´ì§Ħ
ê°Ŀ ìĿ´
ê°ľë ´ī
ðŁİ ī
ĠìĤ¬ìĿ´ì¦Ī ê°Ģ
Ġë§Īì§Ģëª» íķ´
íķĺ ìħ¨ìĸ´ìļĶ
Ġë¨ ¼ë
ĠìĹ° íľ´
ë¬´ íķľ
Ġì°½ ìĿĺ
ê¿ Ķ
Ġãħ Ĥ
ĠìĪĺë łĪ
ìĸ´ì¨ Įëĵł
´ ĩ
Ġëĳ ¬
íĽ ĪìĿĦ
Ġìĸµ ìłľ
ìĬ¬ë ¦¼
ĠëĲĺìĹĪ ëĬĶì§Ģ
ĠìĻ¸êµŃ ìĿ¸
ìł łë
ĠìĹ¬ ìĭł
ë© Ģ
ëª¨ë į¸
Ġê°¸ ìļ°ëļ±
ëĮĢ ìĻķ
Ġë³ĳ ìĹĲ
ĠíķĦë ¦½
ìķĦ íĶĦ
ĠìĿ´ ê¸´
ĠìĿĺ ìłķë¶Ģ
ë¹ Į
ĠëģĿ ìĹĲìĦľ
Ġë£¨ ìĭľ
ëģ Ļ
Ġê°Ģ ìĭ¤
êµ¬ íķľ
ĠìĹ¬ ìĦ±ìĿ´
Ġíķ´ ì£¼ë©´
Ġë°Ķ ì³Ĳ
Ġê¹Ģ ìľł
ĠìĪĻ ë°ķ
Ġíĥģ ë°ľ
Ġìŀ¬ë° ĭ
ĳ £
ì¶ §
ĠëıĻ ê¸°
ìĸĳ ìĭĿ
Ġë°ľ ê¸¸
Ġë°ľ íĳľë
Ġëį° ëĭ¤ê°Ģ
Ġìĭ¸ ìļ°ë
Ġë£¨ ìĿ´
Ġê³łì¶Ķ ìŀ¥
é »
êµŃ ê°Ģ
Ġì²ľ ìŀ¥
Ġê¶Į ì´ĿìĿĦ
ĠëģĦ ê³ł
íķĦìĪĺ íħľ
< <
ì© Ķ
Ġë¿Ĳ ìĿ´ì§Ģ
ê½ĥ ìĿĦ
ĠíĿĳ ëı¼ì§Ģ
ĠëıĦë§Ŀ ìĿĦ
Ġëĵ¤ìĹ¬ ëĭ¤ë³´
ê±¸ë ¦¬
g o
ìĸ´ë ĮĢëĬĶ
Ġê°Īë ŀĺ
Ġë¨¸ë¬¼ ê³ł
íķ´ ì£¼ë©´
ĠíķĺëĤĺ ìĺĢëĭ¤
Ġê³Ħ ê¸°ê°Ģ
Ġë²Ī ì§¸ë¡ľ
ì²ĺ ê°Ģ
ìķĪë ı¼
ĠëĮĢë¶Ģë¶Ħ ìĿĢ
Ġê°ĢìĿĦ ìĿ´
ĠìĤ¬ì§Ħë §Į
ĠìłĢë ĵ¤ìĿĢ
Ġìĭ¸ ê²Į
íķĺ ìŀĸìķĦìļĶ
ĠìŀĪ ê²ł
ĠìŀĪ ê²łì£ł
ìĸ´ë ³¼
Ġëĵľë Ħ¤ìļĶ
Ġëį° ìĿ¼ë¦¬
ê¸Ģë ¹Ļ
Ġëĭ¿ ìķĺëĭ¤
Ġê²½ìłľ ìłģ
Ġì°¨ë¶Ħ íķľ
° ´ëĵľ
ĠìķĦ ì§Ģ
ê¸°ë ¶ĢíĦ°
¹Ħ íķľ
ĠìłĢ ê²ĥ
íĬ¸ë Ĥĺ
Ġìĺ¬ë ¦¼íĶ½
ĠíĶĦë¡ľ ìłĿíĬ¸
Ġìĸ´ì©Įë Ĥĺ
Ġë³´ ìĭ¤
ĠëıĮ ìĹ°
ĠìĿĺê²¬ ìĿ´
ìĦľ ìļĶ
ĠìĪĺ ìľ¡
Ġì²ľ ìĹ°ë
ĠíķĦ ìĤ¬ìłģìľ¼ë¡ľ
ĠíĶĦë¡ľ ìłĿ
íħĶë Ŀ¼
Ġë§Ĳ íķ´ìķ¼
ĠìŀĲìĭł ë§ĮìĿĺ
ê³Ħ ìłĪ
ëĭ´ ìĿĺ
ìĹĺ ìĿ´
Ġìļķë§Ŀ ìĿ´
ìĸ´ì© Į
ìĬ¤ íĦ°ë¥¼
ĠëĤ´ ìĻ¸
Ġíķł ìĿ¸ë
ĠìĽĲ ìłķ
ëĭĺë ĵ¤ëıĦ
[...]
