{"<|endoftext|>":0,"!":1,"\"":2,"#":3,"$":4,"%":5,"&":6,"'":7,"(":8,")":9,"*":10,"+":11,",":12,"-":13,".":14,"/":15,"0":16,"1":17,"2":18,"3":19,"4":20,"5":21,"6":22,"7":23,"8":24,"9":25,":":26,";":27,"<":28,"=":29,">":30,"?":31,"@":32,"A":33,"B":34,"C":35,"D":36,"E":37,"F":38,"G":39,"H":40,"I":41,"J":42,"K":43,"L":44,"M":45,"N":46,"O":47,"P":48,"Q":49,"R":50,"S":51,"T":52,"U":53,"V":54,"W":55,"X":56,"Y":57,"Z":58,"[":59,"\\":60,"]":61,"^":62,"_":63,"`":64,"a":65,"b":66,"c":67,"d":68,"e":69,"f":70,"g":71,"h":72,"i":73,"j":74,"k":75,"l":76,"m":77,"n":78,"o":79,"p":80,"q":81,"r":82,"s":83,"t":84,"u":85,"v":86,"w":87,"x":88,"y":89,"z":90,"{":91,"|":92,"}":93,"~":94,"¡":95,"¢":96,"£":97,"¤":98,"¥":99,"¦":100,"§":101,"¨":102,"©":103,"ª":104,"«":105,"¬":106,"®":107,"¯":108,"°":109,"±":110,"²":111,"³":112,"´":113,"µ":114,"¶":115,"·":116,"¸":117,"¹":118,"º":119,"»":120,"¼":121,"½":122,"¾":123,"¿":124,"À":125,"Á":126,"Â":127,"Ã":128,"Ä":129,"Å":130,"Æ":131,"Ç":132,"È":133,"É":134,"Ê":135,"Ë":136,"Ì":137,"Í":138,"Î":139,"Ï":140,"Ð":141,"Ñ":142,"Ò":143,"Ó":144,"Ô":145,"Õ":146,"Ö":147,"×":148,"Ø":149,"Ù":150,"Ú":151,"Û":152,"Ü":153,"Ý":154,"Þ":155,"ß":156,"à":157,"á":158,"â":159,"ã":160,"ä":161,"å":162,"æ":163,"ç":164,"è":165,"é":166,"ê":167,"ë":168,"ì":169,"í":170,"î":171,"ï":172,"ð":173,"ñ":174,"ò":175,"ó":176,"ô":177,"õ":178,"ö":179,"÷":180,"ø":181,"ù":182,"ú":183,"û":184,"ü":185,"ý":186,"þ":187,"ÿ":188,"Ā":189,"ā":190,"Ă":191,"ă":192,"Ą":193,"ą":194,"Ć":195,"ć":196,"Ĉ":197,"ĉ":198,"Ċ":199,"ċ":200,"Č":201,"č":202,"Ď":203,"ď":204,"Đ":205,"đ":206,"Ē":207,"ē":208,"Ĕ":209,"ĕ":210,"Ė":211,"ė":212,"Ę":213,"ę":214,"Ě":215,"ě":216,"Ĝ":217,"ĝ":218,"Ğ":219,"ğ":220,"Ġ":221,"ġ":222,"Ģ":223,"ģ":224,"Ĥ":225,"ĥ":226,"Ħ":227,"ħ":228,"Ĩ":229,"ĩ":230,"Ī":231,"ī":232,"Ĭ":233,"ĭ":234,"Į":235,"į":236,"İ":237,"ı":238,"Ĳ":239,"ĳ":240,"Ĵ":241,"ĵ":242,"Ķ":243,"ķ":244,"ĸ":245,"Ĺ":246,"ĺ":247,"Ļ":248,"ļ":249,"Ľ":250,"ľ":251,"Ŀ":252,"ŀ":253,"Ł":254,"ł":255,"Ń":256,"Ġì":257,"Ġë":258,"ìĿ":259,"Ġê":260,"ëĭ":261,"íķ":262,"ìĹ":263,"ìĿ´":264,"ëĭ¤":265,"ëĬ":266,"ëĬĶ":267,"ê³":268,"ê°":269,"Ġí":270,"ì§":271,"ìĹĲ":272,"ìĿĦ":273,"ê³ł":274,"ìķ":275,"ìĦ":276,"íķĺ":277,"Ġìŀ":278,"¸ë":279,"´ë":280,"ê°Ģ":281,"Ġìķ":282,"ì§Ģ":283,"ê²":284,"ìŀ":285,"¼ë":286,"ĠìĿ":287,"ìĸ":288,"¬ë":289,"ìļ":290,"Ġê·":291,"ìĭ":292,"ìĿĺ":293,"ìł":294,"ìĿĢ":295,"ıĦ":296,"ê¸":297,"Īëĭ¤":298,"¡ľ":299,"Ġë§":300,"Ĥĺ":301,"Ġ#":302,"ìĦľ":303,"íķľ":304,"°ë":305,"Ġê°":306,"Ħë":307,"Īë":308,"ìľ":309,"ãħ":310,"ìĬ":311,"ìĸ´":312,"Ġìł":313,"ĵ¤":314,"Ģë":315,"¦¬":316,"¥¼":317,"Įë":318,"ĠìĹ":319,"ë§":320,"ê²Į":321,"Ġê²":322,"Ġë°":323,"Ġê·¸ë":324,"ìļĶ":325,"ĠìĤ":326,"ìĺ":327,"Ġëĭ":328,"Ŀ¼":329,"ëıĦ":330,"ê¸°":331,"Ġìĭ":332,"êµ":333,"ìķĦ":334,"Ġëª":335,"ĠìŀĪ":336,"¤ë":337,"Ġì§":338,"ľë":339,"ãħĭ":340,"ìľ¼ë":341,"Ġìĸ":342,"Īĺ":343,"Ġìĺ":344,"ĠëĤ":345,"Ĳë":346,"..":347,"íķ´":348,"©´":349,"Ķë":350,"ìĤ":351,"Ġíķĺ":352,"Ġë³":353,"Ġê³":354,"ìĿ´ë":355,"Ġ\"":356,"ëĭĪ":357,"ìĥ":358,"ãħĭãħĭ":359,"ĠìĿ´":360,"ìĹĪëĭ¤":361,"Ġê·¸":362,"¨ë":363,"Ġê²ĥ":364,"ì¹":365,"ìĬ¤":366,"ĠìĦ":367,"ĺë":368,"ĠëĤĺ":369,"ĮĢ":370,"ìĭľ":371,"íĸ":372,"ìľ¼ë¡ľ":373,"ìĿ¸":374,"ĠìķĦ":375,"Ġë¬":376,"ìĽ":377,"Ġìĥ":378,"į°":379,"łë":380,"ê·":381,"Ġë¶":382,"ì£":383,"ê±":384,"ìŀĲ":385,"ê¹":386,"ĠìĨ":387,"íĥ":388,"Ġê±":389,"ìĻ":390,"ì²":391,"ë§Į":392,"ĠìĪĺ":393,"Ġê¸":394,"ëĭĪëĭ¤":395,"ìĹĲìĦľ":396,"ìĨ":397,"Ġíķľ":398,"Ġíķ":399,"âĢ":400,"ìķ¼":401,"Ġìļ":402,"ê¹Į":403,"ĠìĿ´ë":404,"ìŀ¥":405,"Ġê°Ģ":406,".\"":407,"íĻ":408,"Ġë§Ĳ":409,"íĺ":410,"ĠìĹĨ":411,"Ġì°":412,"ıĻ":413,"Ġì£":414,"ì°":415,"Ġìľ":416,"ł¤":417,"Ġë¹":418,"ê³¼":419,"ì£¼":420,"ĠëĦ":421,"ĠìĤ¬ë":422,"ĠëĲ":423,"Ġì¢":424,"íŀ":425,"Ġë³´":426,"ìĥģ":427,"Ġëĭ¤":428,"ĠìĤ¬":429,"ĠìķĬ":430,"³´":431,"¨¹":432,"ëį°":433,"ê·¸ë":434,"¦¬ë":435,"íĬ":436,"ìłķ":437,"ìĸ´ë":438,"įĺ":439,"ĠìŀĲ":440,"ìĭł":441,"ìĤ¬":442,"ìĿ¼":443,"âĢ¦":444,"Ġêµ":445,"ìĿĮ":446,"ì¡":447,"ìķĺ":448,"ìĬµ":449,"ĠìĻ":450,"ìĪĺ":451,"ìĻĢ":452,"Ġìĭľ":453,"Ł¬":454,"ìĹĪ":455,"Ġìłķ":456,"ë°":457,"¯¸":458,"Ġ.":459,"Ġë²":460,"Ġëĵ¤":461,"ŀĺ":462,"ê¸°ë":463,"íĮ":464,"íŀĪ":465,"ðŁ":466,"Ġíĸ":467,"ê°Ħ":468,"ĠëĮĢ":469,"Ġëĵ":470,"©°":471,"íĶ":472,"ĠìĿ¼":473,"ì§Ģë§Į":474,"Ġë§Ī":475,"íķĺê³ł":476,"Ġì§Ģ":477,"Ġíĺ":478,"ë©´":479,"ëĬĶëį°":480,"¶Ģ":481,"Ġëķ":482,"Ġì²":483,"êµ¬":484,"Ġëį":485,"ĠìĥĿ":486,"Ġìĸ´ë":487,"ìĹ¬":488,"ĠëĪ":489,"ĠëĤ´":490,"Ġì¤":491,"Ġì¹":492,"ìłľ":493,"ì¤":494,"íĥĢ":495,"ìłģ":496,"¬¸":497,"ĠíĻ":498,"ì¹ĺ":499,"ĠìķĦë":500,"ìĺ¤":501,"ì§Ħ":502,"ĠìĤ¬ëŀ":503,"ëĤĺ":504,"íķĺëĬĶ":505,"Ŀ¼ë":506,"Ġì¡":507,"íģ":508,"ĳĲ":509,"¬´":510,"íĸĪëĭ¤":511,"ê°ģ":512,"Ġê°Ļ":513,"ìĦ±":514,"íĦ":515,"ìĭĿ":516,"Ġê·¸ëŁ":517,"¥´":518,"ĠìŀĪëĬĶ":519,"ãħĭãħĭãħĭãħĭ":520,"ĠìłĦ":521,"ĠìĹ¬":522,"ĠìķĪ":523,"ĠìĽ":524,"Ġì¢ĭ":525,"ìĿ´ëĭ¤":526,"Ġëı":527,"!!":528,"Ġë¬´":529,"Ġê¸°":530,"ĮĢë":531,"ìłĦ":532,"Ħ¤":533,"Ġë¨¹":534,"ìķĦë":535,"Ġê³ł":536,"ìĬµëĭĪëĭ¤":537,"ãħł":538,"íĬ¸":539,"ìĽĲ":540,"Ġê±°":541,"ĠìĬ":542,"íķł":543,"ìķĺëĭ¤":544,"Ġê¹":545,"ë¥¼":546,"ìļ´":547,"Ġìĺ¤":548,"ĵ¤ìĿ´":549,"ê²ł":550,"ìĺĢ":551,"ìĬ¤íĥĢ":552,"íķĺê²Į":553,"ê·¸ëŀ":554,"ìļ©":555,"íĨ":556,"ëĤ":557,"ì¶":558,"łĩ":559,"Ġìĸ´":560,"ĠëĲĺ":561,"Ġëª¨ë":562,"ê±°":563,"ìĨĮ":564,"ê¸Ī":565,"Ġíĥ":566,"ìĹĲê²Į":567,"ê·¸ëŀ¨":568,"Ġìłľ":569,"ìĸ´ìļĶ":570,"ìļ°":571,"§Į":572,"ĵľ":573,"...":574,"Ġì£¼":575,"?\"":576,"íĦ°":577,"ĠíĮ":578,"ĠëĶ":579,"ĠìĪ":580,"¦¬ê³ł":581,"Ġìĥģ":582,"íĻĶ":583,"ĠìĥĿê°ģ":584,"ĠëĬ":585,"ħĢ":586,"ìĦ¸":587,"ìĭ¤":588,"ãĢ":589,"Ġ1":590,"¶Ħ":591,"Ġì¶":592,"ĠëįĶ":593,"ìĪ":594,"ĠíĿ":595,"êµŃ":596,"Ġë°Ķë":597,"Ġì¡°":598,"ĠëĨ":599,"ìĿ´ëĿ¼":600,"ê±°ë":601,"ëĭ¨":602,"Ġíķ´":603,"ìķĪ":604,"ĠìŀĪìĹĪëĭ¤":605,"¬¼":606,"Ķëĭ¤":607,"ì§ĳ":608,"Ġëª»":609,"ĠíĶ":610,"íİ":611,"¥¸":612,"ìĦł":613,"ì¦":614,"ĠìĿ¸":615,"ìĬ¤íĥĢê·¸ëŀ¨":616,"ìĥĿ":617,"ªħ":618,"ĠìľĦ":619,"Ġê°Ģë":620,"ê¹Įì§Ģ":621,"ê»":622,"Ġëģ":623,"¹Ħ":624,"íĤ":625,"ìĬ¤ë":626,"ë³":627,"ìŀĳ":628,"Ġëĭ¤ë":629,"Ġê´":630,"Ġíı":631,"Ġì¤ĳ":632,"Ġëª¨":633,"ìħ":634,"¦°":635,"ĠëıĻ":636,"ìĿ´ìĹĪëĭ¤":637,"ĠëıĦ":638,"Ġë§Ľ":639,"ĠìķĮ":640,"ìĭ¬":641,"íı":642,"ŀĳ":643,"ëĭĺ":644,"ê´":645,"ê²ĥ":646,"Ġë§İ":647,"Ġìļ°ë":648,"Ġë§Įë":649,"ëĭ¤ëĬĶ":650,"ìŀĪ":651,"Ġì§Ħ":652,"ìĤ¬ë":653,"ĠëĤ¨":654,"ìŀħ":655,"**":656,"Ġëĸ":657,"íķĺë":658,"íĸĪ":659,"ĵł":660,"Ġê³µ":661,"Īëįĺ":662,"§Ī":663,"Ĳĺ":664,"Ġìĺģ":665,"ĽĦ":666,"Ġëħ":667,"ĠìĨĮ":668,"ë²":669,"ĠìłĢ":670,"ëĭ¹":671,"Ġëĵ¤ìĸ´":672,"ìĶ":673,"ìŀĲë":674,"Ĥ´":675,"íħ":676,"ìłĢ":677,"íĭ":678,"Ġë©":679,"ë¡ľ":680,"ãħİ":681,"Ġìŀħ":682,"ìĺĢëĭ¤":683,"Ġìŀ¥":684,"êµ¬ë":685,"ĠìŀĪëĭ¤":686,"ĠìĤ¬ëŀĮ":687,"Ġë¹Ħ":688,"ĠìĨĮë":689,"ĠìĦ¸":690,"łĩê²Į":691,"ĠìķĦëĭ":692,"íĴ":693,"ë§Ī":694,"Ġíģ":695,"ĶĶ":696,"Ġë¶Ģ":697,"ĠëĦĪë":698,"ĠëķĮë":699,"ìĹ°":700,"ãħłãħł":701,"ëĭ¤ë":702,"łĪ":703,"íĸī":704,"ì½":705,"ìľ¼":706,"ĠëĪĪ":707,"ëĭĪê¹Į":708,"ìĽĮ":709,"âĢ¦âĢ¦":710,"êµ°":711,"ł¸":712,"Ł¼":713,"ëĭ¤ê³ł":714,"ì¼":715,"ĠëĤ´ë":716,"íļ":717,"Ġìĺ¤ë":718,"ìĺģ":719,"ì§ģ":720,"Ġì±":721,"ĠìĤ´":722,"Ġëĺ":723,"ŀĢ":724,"ê±´":725,"ëħ":726,"ĵ¤ìĿĢ":727,"Ŀ¼ê³ł":728,"¯¼":729,"Ġë°©":730,"íķ´ìĦľ":731,"Ġë¯¸":732,"ĠëĳĲ":733,"ĠìĬ¤":734,"Ġëĭ¹":735,"íĿ":736,"ëĬĺ":737,"ł¥":738,"ìĹĲëĬĶ":739,"ìĸĳ":740,"ĠíĹ":741,"Ġë¨":742,"ì²ĺë":743,"Ġ2":744,"Ġë¶Ģë":745,"¦Ħ":746,"ê²½":747,"Ġìŀĺ":748,"ìĿ¸ë":749,"Ġíķł":750,"Ġì§Ģë":751,"Ġì§ĳ":752,"ì¤ĳ":753,"Ġìĭł":754,"ĠìĨĲ":755,"£¨":756,"¦¬ëĬĶ":757,"ê³µ":758,"¦¼":759,"Ġë³´ë":760,"ìľł":761,"ìĸ´ìĦľ":762,"Ġê¸°ë":763,"ëĮĢ":764,"¬´ë":765,"ĠëķĮ":766,"ìĭľë":767,"ìł¸":768,"íĹ":769,"ĵľë":770,"Ł°":771,"ìĤ°":772,"ª½":773,"ĠìŀĲë":774,"ĠíĨ":775,"Ġê·¸ë¦¬ê³ł":776,"Ġìĭ¶":777,"ĠëĴ":778,"ìĨĮë":779,"ĠìŀĲìĭł":780,"ì¢":781,"ê»ĺ":782,"íĨµ":783,"ì²ľ":784,"Ġë¬¸":785,"ĠëŃ":786,"Ġì´":787,"ì²ĺëŁ¼":788,"ì¡°":789,"Ġê²½":790,"ê°Ĳ":791,"ìľĦ":792,"ê°ľ":793,"ìĨį":794,"Ġíİ":795,"ìľ¼ë©´":796,"Ġê²ĥìĿ´":797,"Ġë¶Ī":798,"Ġì£¼ë":799,"Ġë¬¼":800,"ëĵ¤":801,"ë§Ĳ":802,"¦¬ë¥¼":803,"íķĻ":804,"ĠìĨį":805,"Ġê°Ĳ":806,"ì´":807,"łĢ":808,"ì§ĢëĬĶ":809,"ĠìĦľ":810,"įĶ":811,"ĠìķĦëĭĪ":812,"ĠëĺĲ":813,"ì°¨":814,"ĠëĤĺë":815,"Ł¬ë":816,"ĠìĹ°":817,"¦¬ê°Ģ":818,"Ġê°ķ":819,"ĠëĤĺëĬĶ":820,"Ġë°Ľ":821,"Ġëĳ":822,"¡Ŀ":823,"¶ĢíĦ°":824,"Ġìĸ´ëĸ":825,"íģ¬":826,"ĠíķĺëĬĶ":827,"Ġêµ¬":828,"ĮĢë¡ľ":829,"ì£¼ë":830,"ĠíĬ":831,"ĠíķĺëĤĺ":832,"ĠìĦ±":833,"ìĹĨ":834,"Ġìĸ¼":835,"¯¸ë":836,"¶Ģë":837,"Ġê·¸ëŁ°":838,"ìŀĦ":839,"Ġìĵ":840,"íĬ¸ë":841,"Ġê²ĥìĿ´ëĭ¤":842,"Ġìŀĳ":843,"Ġíķĺë":844,"ë³´":845,"įĶë":846,"Ġëª©":847,"Ġê²Į":848,"ì³":849,"....":850,"Ġë°Ķ":851,"ĠëĦĪë¬´":852,"Ġíķĺê³ł":853,"íĶ¼":854,"Ġìľł":855,"Ġìłģ":856,"°©":857,"ĠëĤł":858,"íĺ¸":859,"ìĺ¨":860,"Ġìķŀ":861,"ĠëıĮ":862,"ĥĲ":863,"Ġê·¸ëŀĺ":864,"Ġì£½":865,"ê²©":866,"íķ´ë":867,"ì²´":868,"Ġ`":869,"ĠëķĮë¬¸":870,"ìĦĿ":871,"ì§Ī":872,"ª¨":873,"ê¸°ë¥¼":874,"Ġê³Ħ":875,"ł¸ëĭ¤":876,"Ġë§Īë":877,"ĠìĦł":878,"ĢìĿ´":879,"Ġê·¸ëħĢ":880,"ìłĲ":881,"íķĺì§Ģ":882,"ĠëĤ´ê°Ģ":883,"Ġíĳ":884,"Ġ'":885,"ìļ¸":886,"ìŀħëĭĪëĭ¤":887,"íķĺë©´":888,"Ġëĭ¤ìĭľ":889,"ĠìĿĺ":890,"Ġëĵ¯":891,"íĴĪ":892,"íĮĮ":893,"00":894,"ê³Ħ":895,"ì¡Į":896,"Ĳľ":897,"ĠãĢ":898,"Ġê±¸":899,"©ëĭĪëĭ¤":900,"ĠëĶ°ë":901,"ĠíĸĪ":902,"ĠìłĢë":903,"ë§Ľ":904,"Ġë§Į":905,"Ġê°ĻìĿĢ":906,"ĠìĺĪ":907,"íļĮ":908,"Ġë´":909,"íĳ":910,"ðŁĺ":911,"Ġê²°":912,"²Ħ":913,"ĠíĽĦ":914,"Ħë¡ľ":915,"¨¸":916,"Ġ-":917,"Ŀ¼ëĬĶ":918,"ìĺ¤ë":919,"ê°ķ":920,"Ġìĺ¬ë":921,"ì¡±":922,"Ġìĸ¼êµ":923,"ìĿ´ëĤĺ":924,"~~":925,"ëıĻ":926,"Ġë°ľ":927,"ê°Ģë":928,"ì¹´":929,"Ġ3":930,"!\"":931,"Ġíķ¨":932,"ë¶Ħ":933,"ĠìĤ¬ëŀĮë":934,"Ġê±´":935,"Ġë°°":936,"ëĭµ":937,"Ġê·¸ëŁ¬ë":938,"ì§ľ":939,"Ġì°¾":940,"Ġëĭ¨":941,"ê´Ģ":942,"ì¶Ķ":943,"ĠìļĶ":944,"ìĿ´ëĬĶ":945,"ĠëĬĲë":946,"ì±":947,"Ŀ½":948,"Ġìĸĳ":949,"ĠíĸĪëĭ¤":950,"ëĭ¤ê°Ģ":951,"íķ¨":952,"ì²Ń":953,"Ġëĭ¬ë":954,"êµĲ":955,"ĠìĿ¼ë":956,"Ġëĵ±":957,"©´ìĦľ":958,"ì»":959,"ĠëĪĦ":960,"Ġëª¸":961,"Ġëªħ":962,"ľë¥¼":963,"¶ģ":964,"ĠìĹĨëĬĶ":965,"Ġì°¸":966,"ìķĦìļĶ":967,"ëħĦ":968,"Ġê°Ħ":969,"Ġìĭľìŀĳ":970,"ķĮ":971,"Ġê²ĥìĿĢ":972,"âłĢ":973,"Ġíķ´ë":974,"ì£ł":975,"ĠíĶ¼":976,"ĠíĴ":977,"íĤ¤":978,"ì§Ģë":979,"Ġë°ĺ":980,"ìĺĪ":981,"²Ī":982,"ãħİãħİ":983,"ł¤ë":984,"ìļ°ë":985,"ĠìĹŃ":986,"íĭ°":987,"ìłģìĿ¸":988,"Ŀ¼ëıĦ":989,"ĵ¤ìĿĦ":990,"ìª½":991,"Ġë§ĪìĿĮ":992,"Ġê¼":993,"¥´ë":994,"Ġíļ":995,"Ġê±°ë":996,"ĵ¤ìĿĺ":997,"Ġë§¤":998,"Ġì»":999,"íģ¬ë":1000,"ê¸¸":1001,"ĠìķĦëĭĪë":1002,"íħĮ":1003,"Ġì§Ģê¸Ī":1004,"ë¹":1005,"Ġë§ŀ":1006,"ê¸°ê°Ģ":1007,"Ġíķĺì§Ģë§Į":1008,"Ĥľ":1009,",,":1010,"ĠëĲľ":1011,"Ġê³³":1012,"Ġìļ°ë¦¬":1013,"ê¸°ìĹĲ":1014,"íİ¸":1015,"ĠìĪľ":1016,"ê¸°ëıĦ":1017,"Ġë¨¸ë":1018,"ãħĭãħĭãħĭãħĭãħĭãħĭãħĭãħĭ":1019,"Ġê°ľ":1020,"ìĤ´":1021,"ĠìŀĪìĹĪ":1022,"ë¨¹":1023,"Ġë¬´ë":1024,"ĥ¥":1025,"Ġìŀł":1026,"ĠìĹ´":1027,"ĠëģĿ":1028,"Ġìµ":1029,"ìĥī":1030,"ìĿ¼ë":1031,"ì¦Ī":1032,"ê²¨":1033,"Ġëĭ¤ë¥¸":1034,"ê¸´":1035,"ĠìĽĲ":1036,"ĠâĢ":1037,"ìŀ¬":1038,"íĻĶë":1039,"ìĽĶ":1040,"ĵ¯":1041,"Ġìĸ¼êµ´":1042,"Ġê·¸ê²ĥ":1043,"Ġì½":1044,"Ġë²Ī":1045,"Ġì¢Ģ":1046,"¡ł":1047,"ëĦ¤":1048,"Ġëĵľë":1049,"ĠíĨµ":1050,"³¸":1051,"Ġê·¸ëĬĶ":1052,"Ġì°¨":1053,"Ġìŀ¡":1054,"ëĬ¥":1055,"Ġê²ĥìĿĦ":1056,"ìĹħ":1057,"íĽĦ":1058,"Ġìļ°":1059,"Ġìłķë§Ĳ":1060,"ãĢį":1061,"§Īë":1062,"Ġì¶Ķ":1063,"ì¸":1064,"ë¦¬":1065,"Ġì¦":1066,"ĠëĦĺ":1067,"ĠìłķëıĦ":1068,"ĠìĹĨìĹĪëĭ¤":1069,"ìĦ¸ìļĶ":1070,"ì¹ľ":1071,"ìķĦìĦľ":1072,"Ġê·¸ìĿĺ":1073,"ìłģìľ¼ë¡ľ":1074,"Ġìĭ¤":1075,"ì§Ģê³ł":1076,"ĠìĽĥ":1077,"²Ħë":1078,"ĠëĮĢë":1079,"Ġë¶Ħ":1080,"ĠìĻľ":1081,"ŀĺë":1082,"ĠìĦľë":1083,"ìģ":1084,"Ġì¹ľ":1085,"Ł½":1086,"ĠëĴ¤":1087,"ëĲĺ":1088,"âłĢâłĢ":1089,"ĠãĢĮ":1090,"Ġíķ¨ê»ĺ":1091,"Ġíĸī":1092,"ĠìķĪë":1093,"ê·¸":1094,"Ġê³łë":1095,"Ġì²ĺ":1096,"íķľëĭ¤":1097,"ê°Ļ":1098,"Ġì²ľ":1099,"ìĹĲëıĦ":1100,"ìłĪ":1101,"ê¸°ëĬĶ":1102,"Ġë¿":1103,"ĠìĿ´ëłĩê²Į":1104,"ìĪł":1105,"ĠìĭĿ":1106,"ëĤ´":1107,"Ġ(":1108,"ìĹŃ":1109,"Ġìĭľê°Ħ":1110,"ĠíĮĮ":1111,"ĠíĽ":1112,"Ġìĸ¸":1113,"ë¡Ŀ":1114,"Ġíı¬":1115,"ĠìłĲ":1116,"ê·¼":1117,"Ġê·¸ëŁ¬ëĤĺ":1118,"Ġëª¨ë¥´":1119,"ĠíĻĶ":1120,"Ġíħ":1121,"íĥľ":1122,"in":1123,"íĶĦ":1124,"Ġìĺ¤ëĬĺ":1125,"Ħë¥¼":1126,"ĠëıĮìķĦ":1127,"Ġëħ¸ë":1128,"ĠíĺĦ":1129,"Ġíİ¸":1130,"Ġê´Ģ":1131,"ĠìĿ´ìłľ":1132,"ë¶Ģ":1133,"ìĬ¨":1134,"ĠìŀĪìĿĦ":1135,"Ġë¬¼ë":1136,"Ġëľ":1137,"ìĹĪëįĺ":1138,"Ġê·¸ëŁ¬":1139,"Ġê·¸ëłĩê²Į":1140,"Ġì¢ĭìķĦ":1141,"ĠëĤľ":1142,"Ġë§ĽìŀĪ":1143,"Ġë§Įëĵ¤":1144,"Ġë§İìĿ´":1145,"Ĥł":1146,"Ġì¤Ħ":1147,"Ġíĸ¥":1148,"Ġë§ĲìĿĦ":1149,"****":1150,"st":1151,"ì¹ĺë":1152,"êµ¬ìļĶ":1153,"ìĿ´ê°Ģ":1154,"ì©":1155,"íĪ":1156,"ìĶ¨":1157,"Ġë°Ķë¡ľ":1158,"Ġìµľ":1159,"ìĦ¤":1160,"Ġíĳľ":1161,"ĠìķĬìķĺëĭ¤":1162,"ĠìĹ¬ë":1163,"Ġê¹Ģ":1164,"ĠìĿ´ëŁ°":1165,"íĺĦ":1166,"Ġëª¨ìĬµ":1167,"íİĺ":1168,"íĺķ":1169,"íķĺìĹ¬":1170,"ë¬¸":1171,"ê²Įë":1172,"Ġìĸ¼ë":1173,"³´ë":1174,"Ġì¹ĺ":1175,"Ġë¶Ħë":1176,"ìľ¡":1177,"Ġì§Ħì§ľ":1178,"ìĿ¸ëį°":1179,"Ġìĭ¬":1180,"ì¹¨":1181,"ì½Ķ":1182,"ĵĿ":1183,"Ġë§ī":1184,"ì¤Ģ":1185,"ŀĮ":1186,"Ġìķ½":1187,"Ġíĺķ":1188,"Ġê¸¸":1189,"ìĿ´ê³ł":1190,"Ġì±Ħ":1191,"íĻ©":1192,"Ġë¹Ħë":1193,"Ġê·Ģ":1194,"ĠêµŃ":1195,"ê¾":1196,"Ġìľłë":1197,"°ľ":1198,"ì¡Įëĭ¤":1199,"ë°©":1200,"ê°ĢëĬĶ":1201,"ìĿ´ì§Ģ":1202,"ìłľë":1203,"Ġë³´ê³ł":1204,"ì¢ħ":1205,"ëĭ¬":1206,"oo":1207,"íĸ¥":1208,"ê³³":1209,"ĠìĤ¬ìļ©":1210,"ĠðŁ":1211,"ĠëĬĲëĤ":1212,"ĠìĤ¬ëŀĳ":1213,"íı¬":1214,"ìĻĶëĭ¤":1215,"ĠìĶ":1216,"ìĹĶ":1217,"ĠìĤ¬ìĭ¤":1218,"ë²Ī":1219,"ì¿":1220,"ìķ½":1221,"ìľ¼ëĭĪ":1222,"Ġê³¼":1223,"ì§ĢëıĦ":1224,"íĺĢ":1225,"Ġë³¸":1226,"ìĿ´ëĿ¼ê³ł":1227,"Ġíĥľ":1228,"ìķł":1229,"Ġìī":1230,"ĵ±":1231,"ìį":1232,"ĠìĿ´ìĥģ":1233,"ĠíĦ":1234,"ë³µ":1235,"ìĿ´ìĸ´":1236,"ãħľ":1237,"ĠíĬ¹":1238,"ë¬´":1239,"ª©":1240,"Ġìĭľë":1241,"ł¹":1242,"íĮĲ":1243,"íĥĢë":1244,"Ġì¢ĭìĿĢ":1245,"ìļ´ë":1246,"ëªħ":1247,"Ġë°ķ":1248,"ĠíĥĢ":1249,"ĠíĻķ":1250,"ê¸ī":1251,"ê±¸":1252,"¦´":1253,"ìľ¼ë©°":1254,"ëł¥":1255,"Ġì§ģ":1256,"Ġë§ĲìĿ´":1257,"ìĸ´ëĤĺ":1258,"Ġê½":1259,"ëĬĲ":1260,"Ġê·¸ëłĩ":1261,"Ġë°±":1262,"ĠíķĦ":1263,"ĠëķĮë¬¸ìĹĲ":1264,"ĠìĥĪë":1265,"Ġ:":1266,"ĠìłĦë":1267,"Ĩĵ":1268,"Ħ¤ìļĶ":1269,"ĢìĿĦ":1270,"įķ":1271,"ĠìĿĮ":1272,"ìĿ´ëĿ¼ëĬĶ":1273,"ĠìķĬëĬĶ":1274,"ì³Ĳ":1275,"Ġìĭłë":1276,"íĿ¬":1277,"Ġâ":1278,"ê°Ķëĭ¤":1279,"ìĿ´ìĹĪ":1280,"??":1281,"ëĭ¤ë©´":1282,"ĠëĮĢíķľ":1283,"ĦĪ":1284,"Ġì¢ħ":1285,"ĠìĹ¬ìŀĲ":1286,"Ġìĺ¨":1287,"Ġëĭ¬":1288,"Ġëª¨ëĳĲ":1289,"íķĺê¸°":1290,"¨¸ëĭĪ":1291,"ıħ":1292,"Ġíıī":1293,"ìħ¨":1294,"ĠëĪĪë":1295,"ĠìĿ´ìķ¼":1296,"Ġìķī":1297,"ë¬¼":1298,"Ġë¯¸ë":1299,"ìĹĨìĿ´":1300,"ê°ľë¥¼":1301,"ìĺ¤ëĬĶ":1302,"Ġë³ĳ":1303,"Ġë¶Īë":1304,"įĶëĭĪ":1305,"Ġíŀĺ":1306,"íģ¼":1307,"°Ķ":1308,"Ġìĸ´ëĸ»":1309,"Ġìķł":1310,"Ġìłľë":1311,"įĶëĿ¼":1312,"Ġ5":1313,"Ġíģ°":1314,"ĠëŃĲ":1315,"Ġíľ":1316,"ìĿ´ìĹĲ":1317,"ë§ī":1318,"ëĭĪë":1319,"ìĸ¸":1320,"Ġìŀ¬ë":1321,"ãħĭãħĭãħĭ":1322,"Ġì±ħ":1323,"ì§Ŀ":1324,"Ġë²Ħë":1325,"ŀĲ":1326,"Ġì²Ń":1327,"ĠìķĦë¬´ë":1328,"ĠíĶ¼ë":1329,"Ġëªĩ":1330,"ĠìŀĲìĭłìĿĺ":1331,"ë¯¸":1332,"ĠëĨĵ":1333,"âĢĿ":1334,"ĠìķĬê³ł":1335,"ìī":1336,"Ħë§Ī":1337,"ĠâĢľ":1338,"Ġëħ¸":1339,"Ġì°¨ë":1340,"ĠìĻ¸":1341,"íĮĶ":1342,"°ëį°":1343,"ìĿ¸ê°Ģ":1344,"Ġê·¸ëĥ¥":1345,"ĠëĦ¤":1346,"ĠìĤ°":1347,"Ġíĺ¸":1348,"Ġê·¸ëŀĺìĦľ":1349,"ģ¼":1350,"ëĤľ":1351,"Ġìŀ¬":1352,"ìĥĪ":1353,"íķ©ëĭĪëĭ¤":1354,"âĢ¦âĢ¦.\"":1355,"ĠêµĲ":1356,"ĠìĻĢ":1357,"¸Įë":1358,"ĠëĨĢë":1359,"¶Į":1360,"ëĬĲë":1361,"Ġ4":1362,"ł¤ê³ł":1363,"ìķħ":1364,"Ġëĸ¨":1365,"¹ł":1366,"ì§Ģë¥¼":1367,"Ġë¬´ìĬ¨":1368,"íķĺëĭ¤":1369,"¶Ī":1370,"ĪëıĦ":1371,"íĨł":1372,"Ġìĵ°":1373,"ê¼":1374,"ĠëĶ°ëĿ¼":1375,"°ķ":1376,"Ġëĥ":1377,"Ġíĭ":1378,"ĠëĦĪ":1379,"ìĸµ":1380,"íĹĺ":1381,"ĠìĻĦ":1382,"·¨":1383,"^^":1384,"ìħĺ":1385,"ì¤Ħ":1386,"ĠìĹĨìĿ´":1387,"ĠíĻ©":1388,"ĠìľĦíķ´":1389,"ĠëĲł":1390,"Ġë²Į":1391,"ìĻķ":1392,"Ĥ´ë":1393,"¸ë¡ľ":1394,"ìĬ´":1395,"¸Ķë":1396,"į¼":1397,"ra":1398,"ì¹´ë":1399,"Ġìĸ´ëĸ»ê²Į":1400,"ï¸":1401,"ĠíļĮ":1402,"Ġë§ĲíĸĪëĭ¤":1403,"Ġì¡°ê¸Ī":1404,"Ġëª¨ëĵł":1405,"ëĵ¤ìĿ´":1406,"Ġê¿":1407,"²ķ":1408,"ìĿ´ë¥¼":1409,"°ĺ":1410,"ëĬĶì§Ģ":1411,"Ġë°ĶëĿ¼ë":1412,"ĠìķĮë":1413,"¬¼ë":1414,"!!!!":1415,"Ŀ¼ë©´":1416,"§Ľ":1417,"ĠìĿĢ":1418,"Ġëª°ë":1419,"ìĭŃ":1420,"ï¸ı":1421,"Ġë§İìĿĢ":1422,"¦¬ìĹĲ":1423,"ì¢ĭ":1424,"ê°Ī":1425,"ìĽł":1426,"ĠìĥĪ":1427,"Ġìļ©":1428,"ĠìķĦì§ģ":1429,"ë§Īë":1430,"Ġëį°":1431,"ĠìĺģíĻĶ":1432,"Ġë¨¼":1433,"Ġìĸ´ëĸ¤":1434,"ĠìŀĪìĸ´":1435,"Ġêµ¬ë":1436,"ĠìĹ¬ê¸°":1437,"ìĹĩ":1438,"ĠìĿ¼ìĿ´":1439,"ĠëĳĲë":1440,"ê²°":1441,"sta":1442,"ìĪľ":1443,"ìĿĮìĿĦ":1444,"Ġë§Ĳë":1445,"ĠëĬĲëĤĮ":1446,"Ġëĵ¤ë":1447,"ì°½":1448,"ĠíķĻ":1449,"ĠìĿ´ë¯¸":1450,"êµ¬ëĤĺ":1451,"Ġì²ĺìĿĮ":1452,"ĠëıĮë":1453,"ĠëĬĲ":1454,"ìłĢë":1455,"Ġê³łê°ľë¥¼":1456,"ĠìķĦëĭĪëĿ¼":1457,"ìĻĶ":1458,"Ġì¶©":1459,"Ġëĸłë":1460,"ì°¬":1461,"íĺ¼":1462,"³´ëĭ¤":1463,"Ġì»¤":1464,"Ġê²Ģ":1465,"íĦ°ë":1466,"Ĥ¬":1467,"ì£¼ëĬĶ":1468,"ì²ĺ":1469,"Ġê±´ë":1470,"ł¨":1471,"Ġë¯¼":1472,"łĪë":1473,"ëĭ¤ìĿ´ìĸ´":1474,"ìŀĸ":1475,"Ġëĭ´":1476,"ì¶ľ":1477,"ëĭ´":1478,"ĠìĹĦ":1479,"ëĭ¥":1480,"ìľłë":1481,"ìĤ¬ë¥¼":1482,"ĠìĤ¼":1483,"ĠìĤ¬ëŀĮìĿ´":1484,"Ġë¨¹ê³ł":1485,"Ġíķľëĭ¤":1486,"Ġë³Ģ":1487,"``":1488,"ìŀĲê°Ģ":1489,"ëĲľ":1490,"Ġê¸°ëĭ¤ë":1491,"ĠìĹŃìĭľ":1492,"¦½":1493,"ìĺ¬ë":1494,"ë§Ŀ":1495,"ìĸ´ëıĦ":1496,"Ġì§ĢëĤĺ":1497,"Ġì´Ī":1498,"ĠìĿ´ë²Ī":1499,"ê¸°ë¡ľ":1500,"Ġë¹ł":1501,"ëĿ¼":1502,"ì§¸":1503,"Ġê°ĳ":1504,"ood":1505,"Ġìĸ´ëĬĲ":1506,"ìĿ¼ìĥģ":1507,"ĠìķĦëĭĮ":1508,"ĠìķĦë²Ħ":1509,"ë¶ĢíĦ°":1510,"Ġê°Ģìŀ¥":1511,"Ġë³¼":1512,"ìĶ©":1513,"Ġì¶ľ":1514,"Ġë¯":1515,"ĠìŀĪëįĺ":1516,"Ġê°ĻìĿ´":1517,"Ġì¹´":1518,"ë¹Ħ":1519,"ìħĶ":1520,"´Ĳ":1521,"íķ©":1522,"Ġì°½":1523,"ª¨ë":1524,"ī´":1525,"íĸĪëįĺ":1526,"ìĹ¬ë":1527,"Ġìŀĺë":1528,"ĠëĤ´ëł¤":1529,"ìĿ¸ì§Ģ":1530,"ê°Ģì§Ģ":1531,"ĠìĹĲ":1532,"Ġíģ¬":1533,"ĠìķĬìĿĢ":1534,"¥ĺ":1535,"ĠìĦłë":1536,"ĠìĻķ":1537,"ìĿĮë":1538,"ĠìĺĨ":1539,"ê³¤":1540,"Ġë°ĺë":1541,"íĪ¬":1542,"Ġê°Ī":1543,"er":1544,"Ġì°į":1545,"ĸìĹĲ":1546,"Ġìĭ¸":1547,"ĠëĲĺëĬĶ":1548,"ĠìķĮê³ł":1549,"ĠíķĦìļĶ":1550,"Ġíķĺë©´":1551,"³´ê³ł":1552,"Ġë¿Ĳ":1553,"Ġíķĺì§Ģ":1554,"ìĭłë":1555,"£Į":1556,"Ġ<":1557,"ãħłãħłãħłãħł":1558,"ì´Ī":1559,"ħ¸":1560,"ĠìĪł":1561,"ĠìĦ¸ìĥģ":1562,"ë¯¼":1563,"ì°©":1564,"ìĨ¡":1565,"ĠëĦ£":1566,"ê²¬":1567,"Ġëĭ¤ìĿĮ":1568,"Ķë¡ľ":1569,"ìļ±":1570,"ë³´ëĭ¤":1571,"Ġê¼Ń":1572,"íĽ":1573,"ì°®":1574,"ìĹĲìĦľëĬĶ":1575,"ĠìĪľê°Ħ":1576,"Ġê²ĥëıĦ":1577,"ìĭľëĬĶ":1578,"ì±ħ":1579,"Ġë¡ľ":1580,"Łī":1581,"Ġ``":1582,"Ġìłľê°Ģ":1583,"íķĺë©°":1584,"ì¦Ŀ":1585,"ê±°ëĤĺ":1586,"íķ´ìķ¼":1587,"ìĿ´ìķ¼":1588,"Ġíĳľìłķ":1589,"ìĸ¼":1590,"Ġìĸ´ëĶĶ":1591,"¤ëĭ¤":1592,"Ġê·¸ëŁ°ëį°":1593,"ê´ĳ":1594,"įĶëĿ¼êµ¬ìļĶ":1595,"Ġê³ĦìĨį":1596,"ì¼ľ":1597,"Ġíĺ¼":1598,"Ġê±°ìķ¼":1599,"ì§ĢìļĶ":1600,"¨ìĿĦ":1601,"ĠíĤ":1602,"íĶĦë":1603,"ì¦ĺ":1604,"ìŀ¡":1605,"Ġê°ģ":1606,"ĳĲë":1607,"ĠìķĦìĿ´":1608,"Ġê·¸ê°Ģ":1609,"Ġë¶Ļ":1610,"Ġêº":1611,"ì§Ģê°Ģ":1612,"Ġêµ°":1613,"Ġìĺ¬ëĿ¼":1614,"ì¼Ģ":1615,"ĠìķĦìĿ´ë":1616,"ĳ¥":1617,"ìŁ":1618,"³µ":1619,"ĠëĲĺìĸ´":1620,"ĠìķĬìķĺ":1621,"ìĬ¹":1622,"Ġì³":1623,"Ġìĸ´ì©":1624,"ìĭ¶":1625,"Ġë°¤":1626,"Ġë³µ":1627,"ĠìĤ¬ì§Ħ":1628,"³´ìķĺëĭ¤":1629,"Ġìļ¸":1630,"ìį¨":1631,"íķ´ìļĶ":1632,"âĢ¦âĢ¦.":1633,"íĤ¨":1634,"Ġëıħ":1635,"ĦëıĦ":1636,"Ġìº":1637,"ìłĳ":1638,"°¥":1639,"ĠíĪ":1640,"ĠëĶ±":1641,"ìĪĻ":1642,"¤ë¡ľ":1643,"°±":1644,"ĠìĽĢ":1645,"ħģ":1646,"ĠìķĦì£¼":1647,"¸Į":1648,"Ġë§ĮëĤĺ":1649,"ê¸Ģ":1650,"ĠëĲĺë":1651,"an":1652,"ìĬ¤ëŁ¬":1653,"ĠìĹĦë§Ī":1654,"ĠëıĪ":1655,"Ġëª©ìĨĮë":1656,"íķľíħĮ":1657,"Ģë¦¬":1658,"ĠìĿ¸ë":1659,"ðŁĴ":1660,"ìĵ":1661,"ĠíĹĪ":1662,"ê·Ģ":1663,"Ġì°¾ìķĦ":1664,"Ġê·¼ë":1665,"Ġë¦¬":1666,"Ġë¬´ìĹĩ":1667,"íĨłë":1668,"ıĮ":1669,"food":1670,"ìĿ¸ìĿ´":1671,"ì¹ł":1672,"ĠìĦ¤":1673,"Ġë©Ķë":1674,"Ġë°¥":1675,"´ī":1676,"Ġê·¸ëħĢìĿĺ":1677,"Ġëĵ£":1678,"ĠìķĦë¬´":1679,"¥´ëĬĶ":1680,"ë¶Ģë":1681,"Ġìĸĺ":1682,"Ġëĳĺ":1683,"ĠëĪĪìĿĦ":1684,"íķĺë©´ìĦľ":1685,"Ġãħİãħİ":1686,"ìĿ´ëŀĳ":1687,"ìķĺë":1688,"ë²ķ":1689,"Ġëª¸ìĿĦ":1690,"íĳľ":1691,"ìĹĪëĬĶëį°":1692,"ĠìĿĺë":1693,"Ġì¡´":1694,"Ġë²Ħ":1695,"ìŀĲëĬĶ":1696,"Ġë´Ĳ":1697,"ë³´ë":1698,"Ġë¯¿":1699,"ìĦľëĬĶ":1700,"ãĦ":1701,"Ġê·¸ëħĢëĬĶ":1702,"ĠíħĮ":1703,"Ġê°ĢìĬ´":1704,"ìŀĲê¸°":1705,"Ġì¦Ĳ":1706,"ĠíĻĺ":1707,"ģĶ":1708,"Ġëĸ¨ìĸ´":1709,"Ġëĸł":1710,"°ëĭ¤":1711,"ĠìĪĺê°Ģ":1712,"ìķ¼ë":1713,"ì°Į":1714,"Ġìķ¼":1715,"íĥĿ":1716,"ĠíĿĺë":1717,"Ľ°":1718,"ìĽĢ":1719,"ìŀĲë¥¼":1720,"Ġíŀĺë":1721,"ëĤł":1722,"ĠìĿ´ë¦Ħ":1723,"ë§¤":1724,"©Ķë":1725,"íĥķ":1726,"ìŀĪëĬĶ":1727,"§Ŀ":1728,"ê¹Ģ":1729,"ìĿ´íĬ¸":1730,"ðŁĳ":1731,"íĮħ":1732,"ĠìŀĪìĸ´ìĦľ":1733,"´ë¡ľ":1734,"°°":1735,"ê·¹":1736,"ĠìĹĨëĭ¤":1737,"íĻĺ":1738,"ï¼":1739,"Ġíķľë²Ī":1740,"ìĭľê°Ħ":1741,"¨ë¦¬":1742,"Ġê¶ģ":1743,"ĶìĿĦ":1744,"ëĦ":1745,"Ġê°ĢëĬ¥":1746,"©Ķ":1747,"ĪëĤĺ":1748,"ĠìĨĲìĿĦ":1749,"ìĽĲë":1750,"ê²łëĭ¤":1751,"¦¬ë©°":1752,"ĠìĨĮë¦¬":1753,"Ġê´ĳ":1754,"Ġê´ľ":1755,"!!!":1756,"Ġì¼":1757,"ëĤ¨":1758,"íĶ¼ë":1759,"ĠìĿ½":1760,"ìĦ¸ë":1761,"Ġ10":1762,"³ĳ":1763,"§Ĳ":1764,"Ġìį":1765,"Ġëĵ¤ìĸ´ê°Ģ":1766,"Ġê¸°ë¶Ħ":1767,"ìĸ´ìķ¼":1768,"ĠìłĪë":1769,"ĠìķĬìĿĦ":1770,"íĻĶë¥¼":1771,"Ġíģ¬ë":1772,"ëį":1773,"ìĬ¤ëŁ½":1774,"ĠíķŃ":1775,"ĠìŀĪìĬµëĭĪëĭ¤":1776,"ĵ¤ìĹĲê²Į":1777,"Ġê³§":1778,"ĪĦ":1779,"Ģë¥¼":1780,"Ġë¨¼ìłĢ":1781,"ĠëıĻìķĪ":1782,"ëĭ¬ë":1783,"ĠìĿ¸ê°Ħ":1784,"Ġëĭ¹ìĭł":1785,"íģ¬ë¦¼":1786,"ìŁģ":1787,"ìĹ¬íĸī":1788,"ì¡°ë":1789,"ëĭµëĭĪëĭ¤":1790,"ìŀ¥ìĿĦ":1791,"¨ë¥¼":1792,"§¤":1793,"ĠìĻĦìłĦ":1794,"íĳ¸ë":1795,"ĠìĦ¤ë":1796,"ĠìĹĦì²Ń":1797,"¦¬ë¡ľ":1798,"ðŁı":1799,"ìŀ¥ìĿ´":1800,"Ġê·¸ëķĮ":1801,"ì»¤":1802,"on":1803,"ìĿ´ëŀĢ":1804,"or":1805,"łĮ":1806,"Ġê¹¨":1807,"ì§Ģë§ī":1808,"ĠìłĢëĬĶ":1809,"ê·¸ëŀĺ":1810,"ĠìĭľìŀĳíĸĪëĭ¤":1811,"ìł¸ë":1812,"ìĤ¼":1813,"ĠëĬĺ":1814,"ëĮĢë":1815,"ĠëĽ°":1816,"ê¾¸":1817,"Ġì·¨":1818,"ĠìŀĪê³ł":1819,"ĠìŀĪìĸ´ìļĶ":1820,"ê¶Į":1821,"01":1822,"ĠìŀĪëĭ¤ëĬĶ":1823,"Ģë¡ľ":1824,"Ġê¸°ìĸµ":1825,"ª»":1826,"Ĩį":1827,"¸Ķ":1828,"ĠíĹĪë":1829,"Ġìª½":1830,"ì°¸":1831,"Ġìĸ¼ë§Īë":1832,"Ġë¬¼ë¡ł":1833,"Ġë¬¸ìłľ":1834,"±ìłķ":1835,"ìĻ¸":1836,"ë°ľ":1837,"Ġì¤Ģë":1838,"íľ":1839,"Ĥ¨":1840,"ĠìłĦìĹĲ":1841,"ìĺĪìļĶ":1842,"âĻ":1843,"ì¯":1844,"ĪìĿ´":1845,"ĠìĪĺëıĦ":1846,"ĠëĤĺë¥¼":1847,"ëĶ":1848,"°Ģ":1849,"ĠëŃĶ":1850,"ê²¼":1851,"Ġ6":1852,"íıī":1853,"Ġì²´":1854,"ë§Ľì§ĳ":1855,"Ġì£¼ë¬¸":1856,"ìº":1857,"ë°ĺ":1858,"ĠíĴį":1859,"ĠíĻĶë":1860,"Ġê·¼":1861,"ìĿĳ":1862,"·°":1863,"ħĦ":1864,"°ëıĦ":1865,"ìģĺ":1866,"ĬìĿĢ":1867,"ë¨¹ìĬ¤íĥĢê·¸ëŀ¨":1868,"íĥģ":1869,"ĵ¤ëıĦ":1870,"ìĤ¬ê°Ģ":1871,"ĠìĪ¨":1872,"ĠëĨĴ":1873,"ĠìŀĪëĬĶëį°":1874,"Ġê¸Ī":1875,"Ġê·¸ëŀĺëıĦ":1876,"ĠëĮĢëĭµ":1877,"ĵľëĬĶ":1878,"ëĭ¤ìĿ´ìĸ´íĬ¸":1879,"Ġëĭ¤ê°Ģ":1880,"Ġë©Ķ":1881,"ìī¬":1882,"Ġì¤Ģ":1883,"Ġìı":1884,"¹Ħë":1885,"ķĮë":1886,"ëĭĺìĿ´":1887,"ìķĮ":1888,"ìĨĮíĨµ":1889,"íĺ¸ë":1890,"íĥĦ":1891,"Ġãħĭãħĭãħĭãħĭ":1892,"łĪìĿ´":1893,"ê»´":1894,"ŀĲëĭ¤":1895,"ìļ¸ë":1896,"ìģľ":1897,"ĠëĿ¼":1898,"ë°ķ":1899,"ë§ŀ":1900,"Ġíķ´ìĦľ":1901,"Ġë¨¹ìĿĦ":1902,"Ġìŀłìĭľ":1903,"ëª¨":1904,"ĠíĻį":1905,"ĠíĮĲ":1906,"il":1907,"ĠìĥģíĻ©":1908,"Ġê°ĸ":1909,"ì¸µ":1910,"ìĹĪìĬµëĭĪëĭ¤":1911,"ìĭľê³ł":1912,"Ġê·¸ë¦¬":1913,"ìĨĲ":1914,"Ġíķ´ëıĦ":1915,"Ġë²ł":1916,"ì£¼ìĿĺ":1917,"Ġì´Ŀ":1918,"ŀľ":1919,"²½":1920,"Ġë°ľë":1921,"Ġë³´ë©´":1922,"ìĦ±ìĿĦ":1923,"ĠëĤĺìĻĢ":1924,"íĬ¼":1925,"Ġë³´ìĹ¬":1926,"Ġìĺ·":1927,"ìĺ¥":1928,"Ġ@":1929,"ĵ¤ê³¼":1930,"¡ľìļ´":1931,"Ġê±±ìłķ":1932,"ê°ĳ":1933,"íı¬ë":1934,"ĠìĥĿê°ģìĿ´":1935,"ìĸ´ì§Ħ":1936,"ì±Ħ":1937,"ìĿ´ëĿ¼ëıĦ":1938,"at":1939,"Ġê°ľë":1940,"ëıĦë¡Ŀ":1941,"ĸ¡":1942,"ĠìĽĢì§ģ":1943,"ê½":1944,"Ġë°ĶëŀĮ":1945,"Ġì§Īë":1946,"ìĺ¬":1947,"Ġê°ĳìŀĲê¸°":1948,"ĠëįĶìļ±":1949,"Ġì¹´ë":1950,"ì²ł":1951,"ĠìļĶì¦ĺ":1952,"ì¹ĺëĬĶ":1953,"âłĢâłĢâłĢâłĢ":1954,"Ġëį°ë":1955,"ìľ¼ëĤĺ":1956,"íŀĪë":1957,"¦Ń":1958,"íĶĮë":1959,"¹Ľ":1960,"ĠíĦ°":1961,"--":1962,"ìĽĥ":1963,"ë°Ķ":1964,"ĠìĤ¶":1965,"ãħľãħľ":1966,"Ġíķĺë£¨":1967,"íķŃ":1968,"ĠìĮ":1969,"ĠìķĦì¹¨":1970,"ëł¹":1971,"Ġê±¸ë":1972,"ìĭľìĺ¤":1973,"Ġëľ»":1974,"ì¹´íİĺ":1975,"ãĢı":1976,"ĠìĹ°ë":1977,"Ġìĸ´ë¨¸ëĭĪ":1978,"¥´ê³ł":1979,"ìĭĿìĿĦ":1980,"ìĬ¤ë¡ľ":1981,"ìĿ´ìĹĲìļĶ":1982,"ĠíĨł":1983,"Ġë¬»":1984,"ìŀ¬ë":1985,"¡Ń":1986,"ì§ķ":1987,"ĠìĬ¹":1988,"el":1989,"ìŀĪëĭ¤":1990,"ì¯¤":1991,"Ġë§Īì§Ģë§ī":1992,"ĠìĦ¸ë":1993,"ħĢìĦĿ":1994,"ĠìŀĲê¸°":1995,"Ġìĭ«":1996,"Ġìłķìĭł":1997,"ĠìļĶë":1998,"ìĿ¸ìĿĺ":1999,"Ġê¾":2000,"et":2001,"Ġì´Īë":2002,"Ġìĸ¼ë§ĪëĤĺ":2003,"Ġíĺ¹":2004,"Ġê²ĥìĿ´ìĹĪëĭ¤":2005,"ìĬ¤íĬ¸":2006,"íĻľ":2007,"ê²łìĬµëĭĪëĭ¤":2008,"Ġíĺ¼ìŀĲ":2009,"ì°į":2010,"gra":2011,"Ġëı¼":2012,"íķĺëĭĪ":2013,"ĠëĶĶ":2014,"Ġì«":2015,"ìŀĲìĿĺ":2016,"ìĦ±ìĿ´":2017,"¶Ħë":2018,"Ġíĸ¥íķ´":2019,".âĢĿ":2020,"ë°±":2021,"insta":2022,"ĠìĤ´ìķĦ":2023,"ĠìłĢëħģ":2024,"ìłķìĿĦ":2025,"ĠíĹ¤":2026,"ê¶ģ":2027,"¡±":2028,"ì£½":2029,"Ġê°ĢëĬĶ":2030,"ðŁı»":2031,"da":2032,"ĠíķľêµŃ":2033,"ĠìŀĲìĭłìĿ´":2034,"Ġë§Ŀ":2035,"êµ°ìļĶ":2036,"§Īëĭ¤":2037,"ê¿":2038,"Ġë³´ëĭĪ":2039,"ìĿ´ë©°":2040,"ĠíĤ¤":2041,"ĠìĽĲë":2042,"Ġëĵľ":2043,"ĠìĪĻ":2044,"íĹĪ":2045,"íĴį":2046,"Ġê°Ģì§Ģ":2047,"ê±°ëĵł":2048,"ĠíĶ¼ë¶Ģ":2049,"ëĵ¤ìĿĦ":2050,"ĠìĹ´ë":2051,"ĠìĶ¨":2052,"Ĳĺìĸ´":2053,"Ġëķħ":2054,"ë°¥":2055,"ĠíĮĮë":2056,"ĠëĬĲê»´":2057,"Ġíķ©ëĭĪëĭ¤":2058,"ìĹĪìĸ´ìļĶ":2059,"ĠìĤ¬ìĿ´":2060,"Ġìłĳ":2061,"Ġì¹ľêµ¬":2062,"¿Ĳ":2063,"ìĹĲìĦľëıĦ":2064,"ĠìŀĳìĿĢ":2065,"Ġìļ´ë":2066,"Ġë°ĸ":2067,"ìľ¡ìķĦ":2068,"ê°Īë":2069,"ĠìĿ¼ìĿĦ":2070,"Ġëļ":2071,"ĠìĬ¬":2072,"Ġë²Ĺ":2073,"ĠìĿ´ê²ĥ":2074,"ĠíıŃ":2075,"íĶĮ":2076,"Ġê²°êµŃ":2077,"ëŃ":2078,"ìĿ¸ìĿĢ":2079,"Ġë§ĲìĹĲ":2080,"Ġê°Ģì§Ģê³ł":2081,"Ġìĵ°ë":2082,"³¼":2083,"ì§ĵ":2084,"¦¿":2085,"ìĽłëĭ¤":2086,"ìĭľìĹĲ":2087,"ĠìĤ´ë":2088,"ĠìĹĨìĸ´":2089,"ê³łëĬĶ":2090,"Ġìĭ¶ìĿĢ":2091,"Ġëª¨ìĸĳ":2092,"ĠìĤ¬ëŀĮëĵ¤ìĿ´":2093,"Ġê°Īë":2094,"ĠìĿ´ìľł":2095,"íį¼":2096,"ãĥ":2097,"ìĪĺê°Ģ":2098,"Ġì²«":2099,"ĠëĤĺìĺ¤":2100,"Ġìķħ":2101,"Ġê±°ìĿĺ":2102,"Ġìľ¡":2103,"Ġì¹ĺë":2104,"Ġìķŀìľ¼ë¡ľ":2105,"ĠìĿµ":2106,"Įë¥¼":2107,"ë¹µ":2108,"ĪìĿĦ":2109,"Ġìī½":2110,"Ġë§Īì¹ĺ":2111,"Ġ7":2112,"Ġê´ľì°®":2113,"Ġì½Ķ":2114,"ĠëĦĪë¬´ë":2115,"Ġë¸Ķë":2116,"ì¤ĺ":2117,"ìķĦëĭĪ":2118,"Ġì§ĵ":2119,"íĭ°ë":2120,"ìļ°ëĬĶ":2121,"Ġãħ":2122,"ìĥģìĿĦ":2123,"Ġíĸīë³µ":2124,"ĠëĤĺíĥĢë":2125,"Ġê°ĢëĵĿ":2126,"ì²´ë":2127,"ĠìĺĪë":2128,"Ġíķ´ìķ¼":2129,"ìķĦëĵ¤":2130,"ĠëħĢìĦĿ":2131,"Ġê¸ī":2132,"ĠìĦľë¡ľ":2133,"Ġìĸ¼êµ´ìĿĦ":2134,"ê³¡":2135,"íķ´ì£¼":2136,"ì²Ļ":2137,"ì§Ĳ":2138,"ĠìĤ¬ëŀĮìĿĢ":2139,"ĠíķĺëĬĺ":2140,"ëįĺ":2141,"Ġë¨¸ë¦¬":2142,"ĠìĿ´ê³³":2143,"ĠìĻĶ":2144,"Ġê°Ĳë":2145,"ĠëĤĺìĺ¨":2146,"Ġê²¨":2147,"£¨ë":2148,"ĠìĤ¬ëĿ¼":2149,"Ġìĭ¤ë":2150,"íķĦ":2151,"Ġì²ł":2152,"êº":2153,"Ġê·¸ëĮĢë¡ľ":2154,"ĠìķŀìĹĲ":2155,"íĮ¨":2156,"Ġìļķ":2157,"ĠìŀħìĿĦ":2158,"ìľ¼ëĭĪê¹Į":2159,"Ġì³Ĳ":2160,"ê°ĻìĿĢ":2161,"ì¿ł":2162,"Ġë¹Ľ":2163,"gram":2164,"Ġìħ":2165,"ĠëĤĺê°Ģ":2166,"Ġ8":2167,"Ġêº¼ë":2168,"ĠëĤĺëıĦ":2169,"ìĤ°ë":2170,"Ġëĵ¤ê³ł":2171,"ĠìĦłìĥĿ":2172,"ì¤ĳìĹĲ":2173,"ì¡´":2174,"ì¶Ķì²ľ":2175,"ìŀĶ":2176,"ê²¨ë":2177,"Ġë»":2178,"ĠëĪĦë":2179,"íħĮë":2180,"ìĩ":2181,"ĠìľĦìĹĲ":2182,"Ġê·¸ë¥¼":2183,"Ġê°Ļìķĺëĭ¤":2184,"ĠíĿĲë":2185,"ĠëĲĺìĹĪëĭ¤":2186,"Ġë¶ģ":2187,"ĠíĶĦë":2188,"ëĵ±":2189,"ìłĦë":2190,"ìķĺëįĺ":2191,"Ġë§Ľì§ĳ":2192,"Ġë¶Ħëªħ":2193,"Ġê°Ģê¹Į":2194,"ìĭĿëĭ¨":2195,"ìłĦìĹĲ":2196,"ìĺ¤ëĬĺ":2197,"íı°":2198,"Ġë³Ħ":2199,"ł¤ëĬĶ":2200,"ì³¤ëĭ¤":2201,"ĠëŃĶê°Ģ":2202,"ĠëįĶë":2203,"ĠëĶ°":2204,"ê²łë":2205,"Ġãħĭãħĭ":2206,"Ġê·¸ëŁ¼":2207,"Ġê·¼ëį°":2208,"ìĬ¤ë¥¼":2209,"ĠãĢİ":2210,"ìĹ´":2211,"ë°°":2212,"Ġì¿":2213,"ĠíĴĢ":2214,"Ġì§ģìłĳ":2215,"Ġê¸´":2216,"ì¶©":2217,"ì½Ķë":2218,"¦¬ìĬ¤":2219,"ê¸°ë§Į":2220,"ĠìĿ¼ë³¸":2221,"Ĥ´ëĬĶ":2222,"Ġë¨¹ëĬĶ":2223,"Ġìļ´":2224,"ìĹĨëĬĶ":2225,"Ġë¬¼ìĹĪëĭ¤":2226,"Ġê°ĻìķĦìļĶ":2227,"ê³¨":2228,"ĠëĤĺìĦľ":2229,"ĠëĺĲíķľ":2230,"ĠíĽĦë":2231,"ìĹĪê³ł":2232,"Ġì¡°ë":2233,"íĸĪëĬĶëį°":2234,"ê³¼ë":2235,"ìĿµ":2236,"ìĦłë":2237,"Ġëįķ":2238,"ĠìĹ¬ëŁ¬":2239,"ìķĪë":2240,"Ġë§ĲìĶ":2241,"ìŀĸìķĦ":2242,"ĠíĮĶ":2243,"Ġê½ĥ":2244,"Ĥ¸":2245,"ìĺµ":2246,"ê°Ħë":2247,"ìĭ¸":2248,"Ġë°Ģ":2249,"Ġë°°ë":2250,"ìĦ¯":2251,"²ł":2252,"ĠìŀĦ":2253,"ĠìķīìķĦ":2254,"ì¸ł":2255,"al":2256,"ĠìĿ¼ìĸ´ëĤĺ":2257,"ģ¼ë":2258,"íĤ¤ë":2259,"Ġë¸Įë":2260,"ĠìłľíĴĪ":2261,"ìĤ¬ëĬĶ":2262,"ìĹĲìļĶ":2263,"ë°ĸìĹĲ":2264,"Ġìī¬":2265,"Ġ19":2266,"ëĪ":2267,"ëĳĲ":2268,"ìĪĺë¥¼":2269,"Ġìĸ»":2270,"Ġìļ¸ë":2271,"ìĸ´ë²Ħë":2272,"Ġíķ©":2273,"¦ĩ":2274,"ìĬµëĭĪê¹Į":2275,"ìķĻ":2276,"Ġê²ģ":2277,"000":2278,"ì°°":2279,"Ġë§¤ë":2280,"Ġíŀĺëĵ¤":2281,"ëĭ¤ëĭĪ":2282,"Ġìĺ¬":2283,"om":2284,"ĠëĪĪë¬¼":2285,"Ġë²ķ":2286,"ľë¡ľ":2287,"łĢëĭ¤":2288,"Ġê·¸ë§Į":2289,"ìĥĪë":2290,"³´ëĭĪ":2291,"³´ëĬĶ":2292,"Ĳë¡ľ":2293,"ìĿ¼ë¦¬":2294,"´¤":2295,"ê½ĥ":2296,"ìľ¼ë©´ìĦľ":2297,"ìĸ´ê°Ģ":2298,"Ġë¶ĦìľĦ":2299,"ê²ĮëıĦ":2300,"ëĭŃ":2301,"Ķëĵ¤":2302,"ĠìłķëıĦë¡ľ":2303,"ëĵ¤ìĿĢ":2304,"łµ":2305,"Ġìĸ´ë¦°":2306,"íķĳ":2307,"Ġê·¸ê²ĥìĿĢ":2308,"Ġê¸Ģ":2309,"ĠëĲľëĭ¤":2310,"ê°ĻìĿ´":2311,"ë³Ħ":2312,"Ġìĥī":2313,"Ġì§ĳìĹĲ":2314,"ëĲ":2315,"ĠìŀĶ":2316,"Ġë°Ŀ":2317,"ì´Īë":2318,"ìĬ¤ê°Ģ":2319,"ĠíĪ¬":2320,"łģ":2321,"¨¼":2322,"Ġê°Ģê²©":2323,"ìħĢ":2324,"ĠìĿ´ìķ¼ê¸°":2325,"Ġëĵ¤ìĹĪëĭ¤":2326,"íķĺìŀĲ":2327,"ĠëłĪ":2328,"ìĭľë©´":2329,"ì¶ķ":2330,"ìĮ":2331,"ĢëıĦ":2332,"ìļ´ëıĻ":2333,"ĠìĿ¼ëĭ¨":2334,"ãĨį":2335,"íķĺì§Ģë§Į":2336,"Ġì°©":2337,"ìĿ´ë©´":2338,"ic":2339,"ŀį":2340,"ê²łì§Ģ":2341,"Ġëª¨ìĬµìĿĦ":2342,"Ġê°ĢìĦľ":2343,"ì£¼ê³ł":2344,"Ġìĭľê°ĦìĿ´":2345,"Ġê³µê²©":2346,"Ĥ¬ëĭ¤":2347,"ìłł":2348,"°Ķë":2349,"re":2350,"Ġë§Įëĵ¤ìĸ´":2351,"ìļķ":2352,"ìĿĦê¹Į":2353,"Ġì¤ĳìļĶ":2354,"ëĬĶëĭ¤":2355,"Ġë³´ìĿ´ëĬĶ":2356,"ìĤ¬ìĿĺ":2357,"ìļĶìĿ¼":2358,"³Ģ":2359,"Ġì¥":2360,"Ġìŀĥ":2361,"Ġë¶Ģëĵľë":2362,"ì¥":2363,"Ġë³´ìĺĢëĭ¤":2364,"ĠìĭľìĦł":2365,"íģ´ë":2366,"ê²łì§Ģë§Į":2367,";;":2368,"ĠìŀĲë¦¬":2369,"ë©":2370,"Ġê·¸ëĵ¤ìĿĢ":2371,"ëı":2372,"ĠëĸłëĤĺ":2373,"Ġë°©ë²ķ":2374,"ì°¨ë":2375,"ĠëģĮ":2376,"ĠìĹ¬íĸī":2377,"ľ»":2378,"ê»ĺìĦľ":2379,"********":2380,"ë³ĳ":2381,"Ġãħĭãħĭãħĭ":2382,"ĠëĤĺìĿĺ":2383,"Ġë½":2384,"Ġë³´ëĬĶ":2385,"ìĽĮë":2386,"ĠìŀĪë":2387,"Ġê´Ģë":2388,"ĠìĨįìĹĲ":2389,"ìłķìĿ´":2390,"ĠìķĦëĭĪìĹĪëĭ¤":2391,"ì´ī":2392,"íĳ¸ëĵľ":2393,"ĠìĨ¡":2394,"lo":2395,"ë¶Ī":2396,"íķĺëįĺ":2397,"Ġì¡´ìŀ¬":2398,"ëĶĶ":2399,"íŀĮ":2400,"ìĭĿìĿ´":2401,"Ġë³´ëĤ´":2402,"Ġëĥī":2403,"Ġê³¨ë":2404,"Ġëª»íķľ":2405,"Ġë´ī":2406,"¦¬ëıĦ":2407,"Ġì¦Ŀ":2408,"¨¸ë":2409,"ĠìłľëĮĢë¡ľ":2410,"ĠìłĦíĺĢ":2411,"Ġêµ³":2412,"Ġë¹łë":2413,"ë°Ľ":2414,"Ġê·¹":2415,"Ġíŀ":2416,"íĶĪ":2417,"Ġì¹ľêµ¬ë":2418,"ìĬ¬":2419,"¥´ê²Į":2420,"ĠëĤ¨ìŀĲ":2421,"Ġëĭ¬ëł¤":2422,"ìŀ¥ìĿĢ":2423,"íħľ":2424,"ê¹Ĳ":2425,"ìĨĮë¥¼":2426,"íĻį":2427,"Ġëľ¨":2428,"íĮĮë":2429,"ĠëĮĢíķ´":2430,"ĦëĮĢ":2431,"ìķĦìĿ´":2432,"ĠëĪĪìĹĲ":2433,"ìĽĮìĦľ":2434,"ĠìĬ¤ë":2435,"Ġëª»íķĺê³ł":2436,"ĠìĿ´ê±°":2437,"¦¬ì§Ģ":2438,"Ġìĸ´ëĶ":2439,"Ġíķłë":2440,"Ġê°Ģì¡±":2441,"ĩ´":2442,"ĠìĥĿê°ģìĿĦ":2443,"Ġ9":2444,"Ġë©Ķëī´":2445,"ëĵ¯":2446,"ìĿ´íģ¬":2447,"Ġìľ¤":2448,"ìĹĪì§Ģë§Į":2449,"ĠðŁĺ":2450,"ĠìĦ¤ëªħ":2451,"Ġëĭ¤ìĸĳ":2452,"ĠìķĦë²Ħì§Ģ":2453,"Ġìļ°ë¦¬ëĬĶ":2454,"Âł":2455,"ĠìĿ´íķ´":2456,"ħĲ":2457,"Ġê·¸ëŀ":2458,"ëĬĲëĥĲ":2459,"íķ´ëıĦ":2460,"Ġì¤Ģë¹Ħ":2461,"ĠíĶĮë":2462,"ë©´ìĦľ":2463,"²¤":2464,"ê²ĥëıĦ":2465,"ĠìŀĬ":2466,"ĠìĿĳ":2467,"íĸĪìĸ´ìļĶ":2468,"Ġê°Ģìł¸":2469,"ģĦë":2470,"ìĭ¬íŀĪ":2471,"Ġì²ĺë":2472,"ĠëĴ¤ë":2473,"ĠíĿĳ":2474,"ì¦Īë":2475,"ìĪĺëĬĶ":2476,"Ġì§Ĳ":2477,"Ġê·¸ë¦¼":2478,"ìĬ¤ëŁ½ê²Į":2479,"ì½¤":2480,"ĠëĶ¸":2481,"Ġëģ¼":2482,"ĠíĨµíķ´":2483,"Ġê·¸ëħ":2484,"Ġë§Īë²ķ":2485,"Ġë©Ī":2486,"ìĦ¼":2487,"ĠìĦłíĥĿ":2488,"ë§ĽìĬ¤íĥĢê·¸ëŀ¨":2489,"ĠëĤ®":2490,"ìĭ¬ìĿĦ":2491,"ĠìķĶ":2492,"Ĩĵê³ł":2493,"Ġë¶Ģë¶Ħ":2494,"¡Ģ":2495,"ĠëĨį":2496,"Ġì¢ĭìķĦíķĺëĬĶ":2497,"ĠëķĮë¬¸ìĿ´ëĭ¤":2498,"Ġìµľê³ł":2499,"ĲĺëĬĶ":2500,"Ġë¹¨ë¦¬":2501,"ĠìķĪìĹĲ":2502,"Ġê¶Į":2503,"ĠìĹĨìĿĦ":2504,"ar":2505,"Ġê°Ļëĭ¤":2506,"ëĤĺëĬĶ":2507,"Ġìĺ¤ëŀľ":2508,"Ġê¹Ķë":2509,"ìĬ¤ëĬĶ":2510,"Ġì¹¨ë":2511,"ëª":2512,"°Ľ":2513,"ĠëĬĲëģ¼":2514,"ĠìŀĳíĴĪ":2515,"Ġìķ½ê°Ħ":2516,"ĠìłľìĿ¼":2517,"ĠìĨĮìĦ¤":2518,"ê²ģ":2519,"ðŁ¤":2520,"Ġìĸ´ëł¤":2521,"Ġê·¸ê²Į":2522,"ìĦŃ":2523,"ê°ĢëĿ½":2524,"Ġãħłãħł":2525,"ĠëĵľëŁ¬ë":2526,"ì¹ĺê³ł":2527,"ĠìĨĮë¦¬ê°Ģ":2528,"Ġíģ´ë":2529,"ĠíĻķìĿ¸":2530,"Ġë¿Įë":2531,"ìķī":2532,"ãħĭãħĭãħĭãħĭãħĭãħĭãħĭãħĭãħĭãħĭãħĭãħĭãħĭãħĭãħĭãħĭ":2533,"ëĿ¼ëĬĶ":2534,"Ġë°ĳ":2535,"Ġìļ°ë¦¬ê°Ģ":2536,"ĠìŀĲìĭłìĿĦ":2537,"Ġ!":2538,"Ġë§¡":2539,"en":2540,"Ġì£¼ìĿ¸":2541,"Ġì½Ķë":2542,"Ġìĺ¤ëŀĺ":2543,"íķĺëĬĶëį°":2544,"Ġíĺ¸ë":2545,"ĠíĮ¨":2546,"Ġë§Įëĵł":2547,"ĠìĨĲë":2548,"ìķĦê°Ģ":2549,"ĠëĮĢìĭł":2550,"ĠìŀĪëĭ¤ê³ł":2551,"Ġë§Įíģ¼":2552,"ily":2553,"ëį°ìĿ¼ë¦¬":2554,"ìķĦëıĦ":2555,"ê±´ë":2556,"ĠìľĦíķ´ìĦľ":2557,"ìĿ´ë¡ľ":2558,"ìłķëıĦ":2559,"it":2560,"ĠëĤ¨íİ¸":2561,"Ġíļ¨":2562,"Ġëĭµ":2563,"Ġê¿Ī":2564,"ĠìĦľìļ¸":2565,"ĠíĿĶëĵ¤":2566,"ĠëĬ¦":2567,"Ġê¸°ëĮĢ":2568,"ĠìĨĮë¦¬ë¥¼":2569,"ìķĦìķĦ":2570,"íĿ¬ë":2571,"Ġë¨¸ë¦¬ë¥¼":2572,"íĸĪìĬµëĭĪëĭ¤":2573,"Ġ/":2574,"Ġê²ĥì²ĺëŁ¼":2575,"Ķ©":2576,"ĠìĿ´ìļ©":2577,"ìĹĪë":2578,"ê°ĲìĿ´":2579,"ìĽĢìĿĦ":2580,"Ġìĸ´ê¹":2581,"ĠëħĦ":2582,"ĠìŀĲìĹ°":2583,"ĠëĤłë":2584,"Ġì¶ķ":2585,"ou":2586,"ĠëĴ·":2587,"ìĤŃ":2588,"ĠíĥĢê³ł":2589,"Ġë§¥":2590,"íķĺëĤĺ":2591,"Ġëĭ´ë":2592,"ĠìĿ´ëŁ¬":2593,"Ġê·¸ëħĢê°Ģ":2594,"Ġë©´":2595,"ë§ŀíĮĶ":2596,"daily":2597,"ĠëģĬ":2598,"ìĵ°":2599,"ĠìĨįìĹĲìĦľ":2600,"¬ëĭ¤":2601,"ì¼ľë":2602,"ĠìķĦëŀĺ":2603,"ìĿ´ëĵľ":2604,".ãĢį":2605,"ì§Ģì§Ģ":2606,"ĠíĨłë":2607,"ĠëıĦì°©":2608,"Ġíģ¬ê²Į":2609,"ĠìķĦë¦Ħ":2610,"ìĬ¤ëŁ¬ìļ´":2611,"Ġëĺĳ":2612,"ĠìŀĪìĹĪëįĺ":2613,"Ġê¹Ĭ":2614,"ê·ľ":2615,"ìĿ´ëĿ¼ë©´":2616,"Ġë§ĪìĿĮìĿĦ":2617,"ì¹ĺë¥¼":2618,"ìĽĲìĿ´":2619,"ê±°ëł¸ëĭ¤":2620,"Ŀ¼ìĦľ":2621,"Ġê²½ìļ°":2622,"âĿ":2623,"ëĵľë":2624,"ĠëĬ¥":2625,"ĠëŃĲë":2626,"ìĹ¼":2627,"Ġìķłë":2628,"Ġ20":2629,"Ġëĵ¯íķľ":2630,"ĠëĪĦê°Ģ":2631,"Ġìŀĺëª»":2632,"ĠíĿ¥":2633,"Ġê²°íĺ¼":2634,"Ġëħ¹":2635,"Ġê¶ģê¸Ī":2636,"Ġë§Ĳê³ł":2637,"Ġìĸ¸ìłľ":2638,"ì©į":2639,"§Ľì§ĳ":2640,"ê°Ŀ":2641,"ìķ¼ì§Ģ":2642,"¨ìĿ´":2643,"ĠìĿ´ìĸ´":2644,"ĥĪëĭ¤":2645,"Ġë§ĪìĿĮìĿ´":2646,"ĠíĬ¸ë":2647,"¬µ":2648,"ĠëĤ¨ë":2649,"Ġê²ĮìŀĦ":2650,"ĠëĤĺìĺ¤ëĬĶ":2651,"įĶëĿ¼ê³ł":2652,"Ġê°Ķëĭ¤":2653,"ĠìĿĮìĭĿ":2654,"ĠìłĪ":2655,"ìľĦë¥¼":2656,"ìļ´ëį°":2657,"ê°Ķ":2658,"ĠìķĮìķĦë":2659,"Ġì±Ļ":2660,"Ġì¹¼":2661,"ĠìĦ¸ê³Ħ":2662,"Ġëĭ¤ëħĢ":2663,"ìłĦíŀĪ":2664,"ĠìĤ´ì§Ŀ":2665,"ê¸°ê³ł":2666,"ê°ľë":2667,"Ġë§ĪìĿĦ":2668,".'":2669,"íķłë":2670,"Ġì§Ī":2671,"íŀĪëł¤":2672,"Ġë¦¬ë":2673,"ĠíĺĦìĭ¤":2674,"Ġê²ĥìŀħëĭĪëĭ¤":2675,"ë§ĪìŀĲ":2676,"ĦĪë":2677,"ëĦ¤ìļĶ":2678,"ĵ¬":2679,"ê²łìĸ´ìļĶ":2680,"ĠíĸĪëĬĶëį°":2681,"ëķĮ":2682,"íĬ¸ë¥¼":2683,".....":2684,"ĠíĥĦ":2685,"íĻķ":2686,"ì§Īë":2687,"Ġì¶Ķì²ľ":2688,"ìĦ°ëĭ¤":2689,"ĠëģĦë":2690,"ê¹ĮìļĶ":2691,"ĠìľĦíķľ":2692,"ĠìŀĪì§Ģ":2693,"Ġìĸ¼êµ´ìĿ´":2694,"ing":2695,"ìķĺìĸ´ìļĶ":2696,"ĠìĹĲë":2697,"ë¥ĺ":2698,"íķĺíķĺ":2699,"ë¯¸ë":2700,"ĠìĦĿ":2701,"ìĤ¬ëŀĳ":2702,"ìŀ¥ëĭĺ":2703,"íĺģ":2704,"Ġëª¨ë¥¸":2705,"ìĬĪ":2706,"Ġìĸ¸ìłľë":2707,"ĠìĥĪë¡ľìļ´":2708,"Ġë°©ë¬¸":2709,"ĠëĤ´ìļ©":2710,"ê³Ħë¥¼":2711,"Ġìĺ¤íŀĪëł¤":2712,"ìĭľíĤ¤":2713,"ì·¨":2714,"le":2715,"ê±°ë¦¬":2716,"íĭĢ":2717,"Ġìĸ¼ë§Ī":2718,"Ġìļ°ë¦¬ë":2719,"ìĿ´ë¸Ķ":2720,"ì¡°ì°¨":2721,"ìĺµëĭĪëĭ¤":2722,"ĠìĬ¤ìĬ¤ë¡ľ":2723,"ĠìķĦë¬´ë¦¬":2724,"ìĿ¸ìĿĦ":2725,"ìĽħ":2726,"ħķ":2727,"ìĥģìĿ´":2728,"ìļ°ê³ł":2729,"ìŀ¥ìĹĲ":2730,"ìķŀ":2731,"ìŀĩ":2732,"ìĿĮìĿ´":2733,"Ġê²ĥìľ¼ë¡ľ":2734,"ĠìĿ´ìķ¼ê¸°ë¥¼":2735,"Ġëĸłìĺ¬ë":2736,"ch":2737,"ĠS":2738,"Ġê³łë¯¼":2739,"ðŁĻ":2740,"ê¾¸ë":2741,"li":2742,"ëĤ´ê°Ģ":2743,"ë§Įë":2744,"Ġìĵ¸":2745,"£©":2746,"ðŁį":2747,"ĠíĸīëıĻ":2748,"ìĶ¬":2749,"ìķĹ":2750,"Ġëįĺ":2751,"ĠëĦĵ":2752,"ĨĪ":2753,"ìķĦë²Ħ":2754,"íķĺìĺĢëĭ¤":2755,"ìĹĪìĿĦ":2756,"Ġìĺ¤ëĬĺìĿĢ":2757,"Ġëĳĺë":2758,"ĠìĹ´ìĭ¬íŀĪ":2759,"Ġëĵ¤ëł¤":2760,"ëĬĶëį°ìļĶ":2761,"ê²łëĭ¤ëĬĶ":2762,"ĠíĬ¹íŀĪ":2763,"ìĿ´ì§Ģë§Į":2764,"ë¬¼ë":2765,"ĠëĪĪìĿ´":2766,"Ġë§ĽìŀĪëĬĶ":2767,"ìł¸ìĦľ":2768,"Ġëª»íĸĪëĭ¤":2769,"íĸĪê³ł":2770,"ĠìĹī":2771,"ëĭĺë":2772,"ĠíĻľ":2773,"ìķĬ":2774,"Ġìĭłê²½":2775,"ĠìºĲë":2776,"ìĹ°íŀĪ":2777,"ëĿ¼ê³ł":2778,"ê°ĦìĹĲ":2779,"ĠíĻķìĭ¤":2780,"ĠíĿ¬":2781,"ê¸Īë":2782,"ĠëĲĺê³ł":2783,"Ġë¬µ":2784,"Ġì§ľ":2785,"ĠíĸĪì§Ģë§Į":2786,"Ġê¹Į":2787,"¬¸ìĿĦ":2788,"£Įë":2789,"ĠìĤ¬ëŀĮìĿĦ":2790,"ŁŃ":2791,"ĠìĻĶëĭ¤":2792,"¼ë¡ľ":2793,"ľ¨ë":2794,"âĢĻ":2795,"Ġìĸ´ì°Į":2796,"Ġë¹¼":2797,"ìĭ¬ìĿ´":2798,"ë·°":2799,"ëŁī":2800,"íĪ¬ë":2801,"ëª¨ë":2802,"ĠìĤ¬ëŀĮëĵ¤":2803,"Ġë©ĭ":2804,"ĠìĿ´ë£¨":2805,"ĠìĿ´ê±´":2806,"ìĹ½":2807,"Ġë¬¸ë":2808,"ëıħ":2809,"ìĿ´ìĿĺ":2810,"íĺľ":2811,"?ãĢį":2812,"Ġë§ĽìĿ´":2813,"ĠëĴ¤ë¡ľ":2814,"ë§ĮìĹĲ":2815,"Ġì£Ħ":2816,"ĠìĹħ":2817,"ê²łëĭ¤ê³ł":2818,"ĠìłģìĿ´":2819,"ìĻľ":2820,"Ġê±°ê¸°":2821,"ìħĶìĦľ":2822,"ł¤ìĦľ":2823,"ê²Ģ":2824,"Ġë¨¹ìĸ´ë":2825,"stagram":2826,"ëĬĶê°Ģ":2827,"Ġê·¸ëŁ´":2828,"Ġëª°":2829,"Ġê¸Īë":2830,"Ġãħĭ":2831,"ıĻìķĪ":2832,"ìĺĢë":2833,"ł¥ìĿĦ":2834,"........":2835,"ĠìľĦë¡ľ":2836,"Ġìĩ":2837,"£¡":2838,"ĠìķĬìķĦ":2839,"ëĮĢë¡ľ":2840,"ŀĦ":2841,"Ġìĥģíĥľ":2842,"Ġëĵ£ê³ł":2843,"ê±°ëĵłìļĶ":2844,"ĠëĨĪ":2845,"íĺ¹":2846,"ĠëĪĦêµ°":2847,"Ġë²Įìį¨":2848,"Ġë²½":2849,"ľëıĻ":2850,"Ġìĺ¥":2851,"Ġê¹¨ë":2852,"íĸĪì§Ģë§Į":2853,"Ġì¦ī":2854,"Ġê·¸ê²ĥìĿĦ":2855,"ĠìķĦëĭĲ":2856,"th":2857,"ìķĦì§Ģ":2858,"Ġíį¼":2859,"ëĵ¤ìĿĺ":2860,"Ġ*":2861,"Ġ30":2862,"Ġê±´ê°ķ":2863,"ì¹¨ë":2864,"Ġìī½ê²Į":2865,"ĠëĿ":2866,"Ĳëį°":2867,"Ġì¡°ìļ©":2868,"ê²¼ëĭ¤":2869,"ëĭ¹íŀĪ":2870,"ìĸ´ëĤľ":2871,"ĠìĥģëĮĢ":2872,"Ġìŀ¬ë¯¸":2873,"Ġê·¸ëĵ¤ìĿĺ":2874,"ĠëģĦëįķ":2875,"ĠìĤ¬ëŀĮëĵ¤ìĿĢ":2876,"ìª½ìľ¼ë¡ľ":2877,"ì²´ê°Ģ":2878,"~~~":2879,"įĶëĿ¼ê³łìļĶ":2880,"Ġë°Ķëĭ¤":2881,"ðŁĳį":2882,"Ġìĸĺê¸°":2883,"ĠìĽĲëŀĺ":2884,"ìĬ¤íĦ°":2885,"ĠìĹĨê³ł":2886,"Ġë§ĪìĿĮìĹĲ":2887,"Ġê¼¬ë":2888,"Ġì¢Į":2889,"Ġìĺ®":2890,"ĠìĨĶ":2891,"Ġì§Ħë":2892,"ĠìĪĺëĬĶ":2893,"ĠìĿ´ê²Į":2894,"ĠíĴĪ":2895,"íĻĶê°Ģ":2896,"íĹ¤":2897,"Ġìļ´ëıĻ":2898,"Ġê·¸ê³³":2899,"ë³¶":2900,"ê»ı":2901,"Ġê¹Ģë":2902,"ì´Į":2903,"ĠìŀĲì£¼":2904,"ìĬ¤ìĿĺ":2905,"Ġìĺ¤ë¹ł":2906,"ĠëĲ©ëĭĪëĭ¤":2907,"ê·¸ëłĩ":2908,"Ġë¶ī":2909,"ëĲĺëĬĶ":2910,"êµ´":2911,"Ġê·¸ìłĢ":2912,"ê³łê¸°":2913,"Ġãħł":2914,"ëĭĿ":2915,"ê³¼ëĬĶ":2916,"ĠëĥĦ":2917,"Ġìĸµ":2918,"ĠëĭŃ":2919,"ê¸¸ë":2920,"¶Ļ":2921,"ê·¸ëŁ¼":2922,"íĻĪ":2923,"Ġ[":2924,"ĠíĬĢ":2925,"Ġê±·":2926,"êµŃìĿĺ":2927,"ĠìłĢíĿ¬":2928,"ìŀ¥ìĿĺ":2929,"ëĲĺìĸ´":2930,"įĶëĿ¼ëıĦ":2931,"Ł¬ìļ´":2932,"íĿĳ":2933,"ĥĲê³ł":2934,"ìĤ¬ì§Ħ":2935,"ëŃĲ":2936,"ĲëŁ¬ë":2937,"ĠëĪĦêµ¬":2938,"íķ¨ìĿĦ":2939,"ãħĩ":2940,"ĠìĤ¬íļĮ":2941,"ĠëĳĲê³ł":2942,"ĠìĪĺë°ĸìĹĲ":2943,"ĺëĤĺ":2944,"ĠìĪĺë":2945,"ìĪĺë¡Ŀ":2946,"Ġìĸ´ëĳ":2947,"į¼ë":2948,"ĠìĭľìĽĲ":2949,"Ġìį¨":2950,"Ġê°ĲìĤ¬":2951,"ĠëķĮëĬĶ":2952,"ĠìķĮìķĺ":2953,"ìłľë¡ľ":2954,"ë¬´ë":2955,"ìĤ´ë":2956,"ĠíŀĺìĿĦ":2957,"íĮ©":2958,"Ġíķĺë©´ìĦľ":2959,"ĠâĢĺ":2960,"ê±°ìļ´":2961,"ĶĶìĸ´":2962,"ê°Ģê³ł":2963,"ĠëĤĺìĻĶëĭ¤":2964,"ê±°ë¦¬ëĬĶ":2965,"ĠìķĦëĬĶ":2966,"ĵ¤ìĸ´":2967,"ìĭľëĭ¤":2968,"ĠìķĦëĭĪëĭ¤":2969,"Ķëįĺ":2970,"es":2971,"ĠíķŃìĥģ":2972,",,,":2973,"²ħ":2974,"ol":2975,"ĠìĤ¬ëĬĶ":2976,"ëĦĪ":2977,"ìĬ·":2978,"Ġì¶©ë¶Ħ":2979,"Ġì´ī":2980,"Ġê¸°ë³¸":2981,"ìĺ·":2982,"Ġëª¨ë¥´ëĬĶ":2983,"Ġë°Ķëĭ¥":2984,"Ġì¹¨":2985,"ìĸĳìĿ´":2986,"§ŀ":2987,"ìķĦìķ¼":2988,"Ġ12":2989,"Ġê·¸ê±´":2990,"Ġë´¤":2991,"ì¢ĭìķĦìļĶ":2992,"ìĻĢìĦľ":2993,"ĠìĺĨìĹĲ":2994,"Ġìĺ¤ë¥¸":2995,"¦°ëĭ¤":2996,"ĠëģĿëĤĺ":2997,"ĠëĿ¼ë":2998,"Ġì¢ĭìĿĦ":2999,"ê¸°ìĿĺ":3000,"¦¬ìķĦ":3001,"ĠëĦĪë¬´ëĤĺ":3002,"ì§ĢìĹĲ":3003,"Ġìĸ´ìłľ":3004,"ĠìĿĺë¯¸":3005,"§ī":3006,"ê°Ģë¥¼":3007,"Ŀ¼ìĿ´":3008,"),":3009,"Ġ+":3010,"Ġì¡°ìĦł":3011,"Ġê±¸ìĸ´":3012,"ìĽĲìĿĦ":3013,"ĠëĦ¤ê°Ģ":3014,"ìĿ¼ê¹Į":3015,"ĠìĻ¸ë":3016,"ĮĢë¥¼":3017,"Ġìľłëªħ":3018,"ĤĺëĬĶ":3019,"ìĦłíĮĶ":3020,"ê·¼ë":3021,"ĠìķĦëĭĪê³ł":3022,"Ġë¹µ":3023,"íļį":3024,"ĠìķĮëł¤":3025,"Ġì§Ħíĸī":3026,"ĠëĤĺëĿ¼":3027,"ë°Ķë":3028,"ĠìłĦìŁģ":3029,"Ġê·¸ëħĢë¥¼":3030,"ìĽĢìĿ´":3031,"ìĭ¤ë":3032,"ĠìĿ¼ìĿĢ":3033,"ðŁĴķ":3034,"ìŀĲë§ĪìŀĲ":3035,"ĮĢíķľ":3036,"Ġë©Ģ":3037,"ĠìĤ¬ëŀĮìĿĺ":3038,"íķĺìĦ¸ìļĶ":3039,"ĠíķĻêµĲ":3040,"ì¼ĢìĿ´":3041,"ìłľê°Ģ":3042,"ìŀł":3043,"Ġíĺľ":3044,"ê¹Įë":3045,"ĠëĨĢ":3046,"ĠëĲĲ":3047,"ëª©":3048,"ĠìĻĢìĦľ":3049,"¡¯":3050,"ìĿ´ëĭĪ":3051,"ê²¹":3052,"ë§ģ":3053,"ĠìŀħìĪł":3054,"¯¼ë":3055,"ê°ĢìĿĺ":3056,"ĠìĿ¸ìĥĿ":3057,"ĠìķĦëĭĮê°Ģ":3058,"ŀľë":3059,"íķĻêµĲ":3060,"ê°ĲìĿĦ":3061,"íĥĪ":3062,"Ġê·¸ê²ĥìĿ´":3063,"Ġë³Ħë¡ľ":3064,"Ġë²Įë":3065,"ëĬĺë":3066,"íĳ¸":3067,"ĠëıĦë":3068,"ĠìķĦë¹ł":3069,"Ġì£¼ëĬĶ":3070,"ëĭĺìĿĺ":3071,"Ġê¹ĶëģĶ":3072,"íķ´ì§Ħ":3073,"ë¨¹ë°©":3074,"ì²ľíŀĪ":3075,"ìłľë¥¼":3076,"ĠìĹ¬ìłĦíŀĪ":3077,"¦¬ìĿĺ":3078,"-****":3079,"ŀĺëıĦ":3080,"ìĿ¼ìĿ´":3081,"ĠíĿ¬ë":3082,"ĠëĶ°ë¡ľ":3083,"di":3084,"êº¼":3085,"íĸĪìĿĦ":3086,"ìĹĲê²ĮëĬĶ":3087,"ìŀĦìĿĦ":3088,"ìĭŃìĭľìĺ¤":3089,"ĠíķĺëĬĶëį°":3090,"ĠëıĻìĥĿ":3091,"§ģ":3092,"ĠëĤĺìĻĶ":3093,"do":3094,"íĭ±":3095,"ĠíĸĪëįĺ":3096,"»Ĳ":3097,"¯Ģë¡ľ":3098,"Ġë³´ìĿ´ì§Ģ":3099,"Ġëĵł":3100,"ìŀĸìķĦìļĶ":3101,"íķĺëĭ¤ëĬĶ":3102,"Ġê³łíĨµ":3103,"ìŀĺ":3104,"Ġì²ľì²ľíŀĪ":3105,"ë©°":3106,"¾Į":3107,"¶Ģë¶Ħ":3108,"ê²łìĸ´":3109,"ãģ":3110,"ĠíĻĶìŀ¥":3111,"ëĺ":3112,"ì¶ĺ":3113,"Ġê·ĢìĹ¬":3114,"ĠëĦĺìĸ´":3115,"ìłķíķľ":3116,"ĠìĤ°ë":3117,"Ġìĭ¶ìĸ´":3118,"ĠìĨĲìĹĲ":3119,"ê¸ĭ":3120,"ìĪ¨ìĿĦ":3121,"ĠìłĢëıĦ":3122,"¬¸ìĹĲ":3123,"ĠëĲĺì§Ģ":3124,"Ġë°ľê²¬":3125,"łë¦¬":3126,"ì³Ĳë":3127,"ìłĦìĿĦ":3128,"Ġê³ģ":3129,"ìĹĦ":3130,"ĠëĮĢë¡ľ":3131,"ìĶ¨ê°Ģ":3132,"Ġëĭ¤íĸī":3133,"Ġê²ĥë§Į":3134,"ht":3135,"ìĪĺìĿĺ":3136,"¬¸ë":3137,"ë§ĺ":3138,"íħĶ":3139,"Ġêµ°ë":3140,"¦¼ë":3141,"¹Ħë¥¼":3142,"Ġì§ĢëĤľ":3143,"Ġë°ĸìľ¼ë¡ľ":3144,"ĠìŀĪìľ¼ë©´":3145,"ĠìķĦëĭĪë©´":3146,"ĠëıĻìĭľìĹĲ":3147,"Ġ~":3148,"ì¶°":3149,"Ġì³Ĳëĭ¤ë":3150,"Ġì¡´ë":3151,"ĠìĻĦë":3152,"¶Īë":3153,"ĠìĿ¼ìľ¼":3154,"ê°Ģê°Ģ":3155,"ê¸Ģë":3156,"ĠìľĦì¹ĺ":3157,"ê·¸ëŁ¬":3158,"ê·ł":3159,"Ġë¬¸íķĻ":3160,"ì£¼ë¥¼":3161,"Ġëĭ¤ìĸĳíķľ":3162,"ìĬ¬ë":3163,"ĠìķĬëĬĶëĭ¤":3164,"Ġ201":3165,"ĠìķŀìĹĲìĦľ":3166,"ĠìłĬìĿĢ":3167,"Ġì£¼ê³ł":3168,"ìĭľëĤĺ":3169,"³Ħ":3170,"Ġê°ľìĿ¸":3171,"ģĿ":3172,"Ġê°ĻìķĦ":3173,"ĠìĤ¬ëĤ´":3174,"Ġë¨¸":3175,"ĠìŀĪìľ¼ëĭĪ":3176,"Ġìłĸ":3177,"Ġê°Ķ":3178,"ĠìķĦë¦Ħëĭ¤":3179,"Ġë§ĺ":3180,"ì²´ë¥¼":3181,"ìĹ°ë":3182,"ħ¸ë":3183,"Ġë¹ĦìĬ·":3184,"ŀµ":3185,"âĢ¦.":3186,"ĠíĶĦë¡ľ":3187,"Ġê¸¸ìĿĦ":3188,"¦¬ëĿ¼":3189,"Ġë§ĲìĿ´ìķ¼":3190,"ke":3191,"¦¬ìĸ´":3192,"ĠëĮ":3193,"of":3194,"Ķ°":3195,"ìĸ´ìł¸":3196,"ìĸ´ë³´":3197,"Ġë¹Ī":3198,"Ġëª¸ìĿ´":3199,"ŀ«":3200,"ì£¼ëıĦ":3201,"Ġìĸ´ìļ¸ë":3202,"Ġëĸ¡":3203,"ĠC":3204,"Ġíľ´":3205,"¦Ħë":3206,"ł´":3207,"ì§Ģê²Į":3208,"?âĢĿ":3209,"ĠëłĪë":3210,"Ġë±":3211,"ĠìĨįìľ¼ë¡ľ":3212,"Ġê½¤":3213,"ìłĪë":3214,"ĠëĨĢëĿ¼":3215,"Ġë°Ģë":3216,"ì´Ŀ":3217,"Ġë¹¨":3218,"ìľ¤":3219,"ĠìĹĨëĭ¤ëĬĶ":3220,"§Įë":3221,"êµĲë":3222,"ĠëĤ´ìĿ¼":3223,"ĠíĽ¨":3224,"¹Ī":3225,"Ġëĭ¨ë":3226,"ëıĻìķĪ":3227,"ë§İ":3228,"Ġíķ´ì£¼":3229,"ģĹ":3230,"ĠìķĦì§ģëıĦ":3231,"Ġë§Įì¡±":3232,"Ġ11":3233,"ĠëĬĲëĤĮìĿ´":3234,"°°ë":3235,"ì½ĺ":3236,"Ġíķ´ìļĶ":3237,"íĬ¸ë¡ľ":3238,"ĠìĹ¬ê¸°ìĦľ":3239,"Ġê°Ħëĭ¨":3240,"ë²ł":3241,"ìµ":3242,"Ġë°ĶëĿ¼ë³´ìķĺëĭ¤":3243,"Ġìĺ¬ëł¤":3244,"Ġë³´ìĿ´":3245,"ĠìŀĪì§Ģë§Į":3246,"Ġê·¸ëŁ¬ìŀĲ":3247,"íĬ¹":3248,"Ġëĭ¬ë¦¬":3249,"ìķłë":3250,"Ġì°¬":3251,"ê²ĮìļĶ":3252,"Ġì°¾ìķĦë":3253,"Ġë©°":3254,"íĤ¬":3255,"Ġë°ĽìķĦ":3256,"ê±°ë¦¬ë©°":3257,"ĠíķĺìĹ¬":3258,"201":3259,"ĠìĹĦë":3260,"Ġê¹Įë":3261,"ĠëĲĺë©´":3262,"ê³łë":3263,"Ġë¶Ģíĥģ":3264,"ĠìłĲìłĲ":3265,"²¤íĬ¸":3266,"ìķĦê¸°":3267,"ĠìĿ´ë¥¼":3268,"ìķĺìĬµëĭĪëĭ¤":3269,"ĠëĪĦêµ¬ë":3270,"//":3271,"Ġíľĺ":3272,"íľ´":3273,"ì§Ħë":3274,"Ġíİ¼":3275,"ĲëĿ¼":3276,"ĠìĹ¬ë¦Ħ":3277,"ëĭĺìĿĢ":3278,"ê°ĢìĹĲ":3279,"Ġíķĺë©°":3280,"Ġì²Ļ":3281,"ëįĶ":3282,"ìŀĲë¡ľ":3283,"ľ©":3284,"íķľëį°":3285,"ê³Ħë":3286,"íķ´ë³´":3287,"Ġëª¨ìĬµìĿ´":3288,"Ġë§ĲìĿĢ":3289,"ë¦½":3290,"ł¥ìĿ´":3291,"ì§Ģë¡ľ":3292,"ìĺĪë":3293,"Ġë¬¸ìĿĦ":3294,"ĠëĴ¤ìĹĲ":3295,"íļ¨":3296,"Ġê³µê°Ħ":3297,"Ġíķľì°¸":3298,"Ġê°Ģì§Ħ":3299,"ìł¸ëĤĺ":3300,"ì¼°ëĭ¤":3301,"íĺĳ":3302,"Ġë°ĽìĿĢ":3303,"Ġê²ĢìĿĢ":3304,"ĠìĽĶ":3305,"ìĤ¬ëŀĮ":3306,"ê´Ģë":3307,"ĠëĶ°ëľ»":3308,"ĠT":3309,"Ġëĵ¯ìĿ´":3310,"ĠìłĪëĮĢ":3311,"ãĦ±":3312,"ĠëĤ¨ìķĦ":3313,"ĠìķĪìľ¼ë¡ľ":3314,"ãĤ":3315,"Ġëĵ±ìŀ¥":3316,"----":3317,"ĠìķĦë§Ī":3318,"Ġë³´ìķĺëĭ¤":3319,"Ġëĭ¤ëĵ¤":3320,"Ġë¯¸ìķĪ":3321,"ì»¤ë":3322,"ê±´ê°ķ":3323,"ĠëķĮë§Īëĭ¤":3324,"ĠìĤ¬ê±´":3325,"ie":3326,"¬¼ìĿĦ":3327,"ìĦ±ìĿĺ":3328,"ŀįëĭĪëĭ¤":3329,"Ġì¡°ìĭ¬":3330,"ê³łìĭ¶":3331,"ĠìŀĪìĹĪê³ł":3332,"ëĭ¹íķľ":3333,"²Į":3334,"ĠëŃĺ":3335,"Ĥ¼":3336,"ĠìıŁ":3337,"ĠëĪĪë¹Ľ":3338,"ħëĭĪëĭ¤":3339,"íķ¨ìĿ´":3340,"íľĺ":3341,"ï¼Į":3342,"íķĺëĭ¤ê³ł":3343,"Ġ:)":3344,"ìĭľì¼ľ":3345,"ľ¨":3346,"Ġì§§":3347,"Ġê°Ĳëıħ":3348,"Ġíķĺìĸ":3349,"Ġë½ĳ":3350,"ëıĦë¥¼":3351,"ì¹ĺê°Ģ":3352,"ĠìŀĲê¾¸":3353,"Ġë²Ķ":3354,"Ġê±°ìĺĪìļĶ":3355,"ì¨":3356,"ĠìĺĽ":3357,"ĠëĤĺë¬´":3358,"ê°ĢìĦľ":3359,"ĠìĤ¬ìĭ¤ìĿĦ":3360,"ìłģìĿ´":3361,"Ġìĵ´":3362,"Ġê³Ħë":3363,"Ġëįľ":3364,"ĠíĿĶ":3365,"Ġë§ĽìŀĪê²Į":3366,"ìĿ´ëĦ¤":3367,"ģĪ":3368,"Ġë§ĲìĿ´ëĭ¤":3369,"Ġìĸ¼êµ´ë¡ľ":3370,"Ġíĸĩ":3371,"ì£¼ê°Ģ":3372,"ìļ°ë¦¬":3373,"ì§±":3374,"Ł´":3375,"²Ķ":3376,"´ëıĦ":3377,"Ġê·¸ëĵ¤ìĿ´":3378,"ðŁĮ":3379,"Ġíĳ¸":3380,"ĠíĽ¨ìĶ¬":3381,"ìľ¼ë¡ľëĬĶ":3382,"Ġê²©":3383,"ëł":3384,"ĠëıĦë§Ŀ":3385,"Ġë§Īì°¬":3386,"íĿĲ":3387,"ĠìĥĿíĻľ":3388,"íĢ":3389,"Ġëĸ¨ë":3390,"Ġë³´ë©°":3391,"ìŀĲê³ł":3392,"ë·°íĭ°":3393,"ĠìķĮìķĦ":3394,"ä¸":3395,"ĠìŀĪê²Į":3396,"Ġãħĭãħĭãħĭãħĭãħĭãħĭãħĭãħĭ":3397,"Ġêº¼ëĤ´":3398,"Ġë°Ľê³ł":3399,"Ġì¿ł":3400,"ĠìĮĵ":3401,"Ġë©į":3402,"Ġì¥Ĳ":3403,"âĿ¤":3404,"ìľ¼ë¡ľëıĦ":3405,"ĮĢìĿĺ":3406,"Ġë¯¸êµŃ":3407,"Ġê³łê¸°":3408,"³´ë©°":3409,"Ġìŀ¡ìķĦ":3410,"ĵ¤ìĹĪëĭ¤":3411,"Ġì»¤íĶ¼":3412,"Ġ15":3413,"ë¶ĦìĹĲ":3414,"ea":3415,"ìĿ´ëĥĲ":3416,"ì³¤":3417,"ľë¦¬":3418,"ĠìĿĮë":3419,"íģ´":3420,"ĠìĺĪìģĺ":3421,"ìĿ¸ëĭ¤":3422,"ìĹĺ":3423,"íķľëĭ¤ëĬĶ":3424,"Ġìµľë":3425,"ìĭ¬ë":3426,"Ġì§Ģê¸ĪìĿĢ":3427,"ĠëĤ´ê²Į":3428,"Ġëª»íķĺëĬĶ":3429,",,,,":3430,"Ġìĺ¤ëĬĶ":3431,"Ġìķ½ìĨį":3432,"ĠìĿ´íĽĦ":3433,"ĠíĥĪ":3434,"Ġê°Ģë³":3435,"__":3436,"ë²Ħ":3437,"ëĮĢì²´":3438,"Ġì¤ĳìļĶíķľ":3439,"ĳĺë":3440,"ëħ¸":3441,"ĠëĬĲê¼":3442,"Ġì¹´íİĺ":3443,"Ġì¸":3444,"ìĭ±":3445,"ìĭłìĿ´":3446,"ĠðŁĳ":3447,"ĠìĭŃ":3448,"ĠìĤ¬ìĿ´ìĹĲ":3449,"ĠìķĦëĤ´":3450,"ë§Īëĭ¤":3451,"Ġìĸ´ëĳł":3452,"ëĭĪëĭ¹":3453,"ì½©":3454,"ĠìĹĨìĸ´ìĦľ":3455,"ìĹĪìĸ´":3456,"Ġìĭľê°ĦìĿĦ":3457,"Ġê²Įëĭ¤ê°Ģ":3458,"ìĺģìĿĢ":3459,"Ġë¶Ģì¡±":3460,"ĠëĮĢíķ´ìĦľ":3461,"ê°Īë¹Ħ":3462,"ĠëĤłìķĦ":3463,"ĠìłĦíĻĶ":3464,"âĺ":3465,"ĠìŀĲë¦¬ë¥¼":3466,"Ġë§Īì£¼":3467,"ìĿĺë¥¼":3468,"¬¼ìĿ´":3469,"Ġìŀĩ":3470,"ĠëĤĻ":3471,"ë¦¬ë":3472,"Ġì¢ĭëĭ¤":3473,"ĠëĳĲëł¤":3474,"êµŃìĪĺ":3475,"Ġë§¤ìĿ¼":3476,"ĺëį°":3477,"Ġë¶ĪìķĪ":3478,"ĠëĭĪ":3479,"ëħĲ":3480,"Ġê¸°ë¶ĦìĿ´":3481,"ê¹ĥ":3482,"Ġ100":3483,"ĵ¯ìĿ´":3484,"Ġë£¨":3485,"ł¤ë©´":3486,"ìŀ¥ìĹĲìĦľ":3487,"ì§ĢìĿĺ":3488,"ìľ¼ëŁ¬":3489,"ìłķìĿĢ":3490,"ìĹĦë§Ī":3491,"Ġë¬´ìĦľ":3492,"Ħ¤ë":3493,"Ġì£¼ë³Ģ":3494,"Ġêµ¬ê²½":3495,"Ġìĸ´ì©Ķ":3496,"Ġìĸ´ì©Įë":3497,"ĠìĹ¬ìŀĲê°Ģ":3498,"ãħĭãħĭãħĭãħĭãħĭ":3499,"ĠìŀĲë¦¬ìĹĲ":3500,"ĠìĿ¼ë°ĺ":3501,"Ġíķĺê¸°":3502,"ë§¥":3503,"ìĦłë¬¼":3504,"¡Ńê²Į":3505,"ëıĮ":3506,"ĠíĿ¡":3507,"Ġë§ĲëıĦ":3508,"Ġê°ĻìĿĢëį°":3509,"ĠíĬ¹ë³Ħ":3510,"ĠìĦľìĦľ":3511,"ê²Ĳ":3512,"ëĭ¤ìĿ´ìĸ´íĦ°":3513,"ìĺ¤ê³ł":3514,"Ġì«ĵ":3515,"Ġìĸ¸ìłľëĤĺ":3516,"ëĭĮ":3517,"ĠìŀĲëĦ¤":3518,"Ġë§Ĳìķĺëĭ¤":3519,"Ġìĺ¤ëŀľë§ĮìĹĲ":3520,"ìĽĲìĿĺ":3521,"ĲëŁ¬ëĵľ":3522,"Ġíĩ´":3523,"Ġíİĺ":3524,"Ġê²½íĹĺ":3525,"Ġíĳ¸ë":3526,"Ġë§Īì°¬ê°Ģì§Ģ":3527,"Ġê¹ĬìĿĢ":3528,"íĤ¹":3529,"Ġíı¬ë":3530,"ê¼¬":3531,"ĠìķĦìī¬":3532,"ëĮ":3533,"Ġë¬ĺ":3534,"¯¸ë¥¼":3535,"ĠíĺĦìŀ¬":3536,"ìĺĢëįĺ":3537,"ĠB":3538,"ë¹Ľ":3539,"un":3540,"ĠíŀĺìĿ´":3541,"Ġê°Ģë³į":3542,"ŀĻ":3543,"ĤĻ":3544,"ĠíĴĢë":3545,"ĶĶë":3546,"ĠíĬ¸":3547,"ì§Ħì§ľ":3548,"¹µ":3549,"ëļ":3550,"ì¶Ķë":3551,"ë¹Ħë":3552,"ëĬĲëĿ¼":3553,"fe":3554,"Ġì¤ĳêµŃ":3555,"ĠìŃ":3556,"ĠëĮĢë¶Ģë¶Ħ":3557,"ĠìĻ¼":3558,"19":3559,"Ġë¨¹ìľ¼ë©´":3560,"ë¥":3561,"ì¼ĵ":3562,"ĠíĥĢë":3563,"ĠP":3564,"Ġìĺ¨ë":3565,"ĠíĦ°ë":3566,"ìĹ¬ìĦľ":3567,"Ġâĸ":3568,"ë¿Ĳ":3569,"íİĺë":3570,"ĠíĳľíĺĦ":3571,"Ġì¤ĳìĹĲ":3572,"ëįķ":3573,"ĠìĻĦìłĦíŀĪ":3574,"ĠëıĮìķĦê°Ģ":3575,"ĠìĨĲìľ¼ë¡ľ":3576,"ĠíĦ¸":3577,"ĠëıĮìķĦë":3578,"Ġìŀ¡ê³ł":3579,"Ġ..":3580,"Ġê»":3581,"ĠìĥĪë²½":3582,"ìĨĮë¦¬":3583,"ìĸ´ì£¼":3584,"ê¸¸ìĿĦ":3585,"Ġë³´íĨµ":3586,"Ġíľĺë":3587,"ĠìĦ±ê³µ":3588,"Ġë°ĶëĢ":3589,"Ġì§ĳìĹĲìĦľ":3590,"Ġíĺ¼ë":3591,"ìĸ´ë¨¹":3592,"ĠìķĬê²Į":3593,"Ġëĭ¤ëĭĪ":3594,"ìĺģìĿ´":3595,"ìĥģìĿĺ":3596,"ca":3597,"Ġê°Ģë§Į":3598,"ķħ":3599,"ĠìĦ¬":3600,"ĠA":3601,"ì§Ģìĸ´":3602,"ìĩ¼":3603,"¶Įë":3604,"Ġíĳľìłķìľ¼ë¡ľ":3605,"Ġê·¸ëĤł":3606,"¦¬ë©´":3607,"ĠìŀĲìĦ¸":3608,"Ĥ´ê³ł":3609,"¥¸ë":3610,"ëł¥ìĿĦ":3611,"ĠíĳľìłķìĿĦ":3612,"ĠìĬ¤íĥĢ":3613,"Ġëª½":3614,"Ġë¶ĪëŁ¬":3615,"ĠëĨĵê³ł":3616,"Ġìļ°ìĦł":3617,"íĻĶìŀ¥":3618,"ìĻĦ":3619,"ì»¤íĶ¼":3620,"íĴĪë":3621,"ĠíĥĿ":3622,"Ġëį®":3623,"10":3624,"low":3625,"ĠìĿ´ëģ":3626,"ë²Ķ":3627,"ëĤ´ë":3628,"ĠëĮĢíķĻ":3629,"ĠìķĦíĮĮ":3630,"ìĭĿìľ¼ë¡ľ":3631,"ĠìĹ¬ìŀĲë":3632,"Ġì¼ĢìĿ´":3633,"âĻ¡":3634,"§ĺ":3635,"íĽĦë":3636,"ê°ľìĽĶ":3637,"ĠìłĲìĭ¬":3638,"Ġíĥģ":3639,"ĠìĭľìĦłìĿĦ":3640,"ëįĶëĿ¼êµ¬ìļĶ":3641,"ĠìĿ¼ìĸ´ë":3642,"dog":3643,"?)":3644,"Ġìĸ´ëłµ":3645,"ĠëĵľëĶĶìĸ´":3646,"Ġê¾¸":3647,"Ġë¯¸ë¦¬":3648,"Ġê¸¸ë":3649,"ĠìŀĪëĭ¤ë©´":3650,"Ġ^^":3651,"Ġìª½ìľ¼ë¡ľ":3652,"§ĪëıĦ":3653,"ĠìķĦìłĢ":3654,"Ġë©Ģë¦¬":3655,"ë¶ģ":3656,"ĠìĿ´ëıĻ":3657,"Ġê¾¸ë":3658,"ï¼į":3659,"ĠëĦĺëĤĺ":3660,"ĠìŀĶë":3661,"Ġëħ¸ëŀĺ":3662,"ìª½ìĹĲ":3663,"Ġìĸ¸ëĭĪ":3664,"Ġêµ¬ë§¤":3665,"ĠíıĲ":3666,"ìŃ":3667,"Ġìĭ¶ëĭ¤":3668,"????":3669,"Ġíĭ°":3670,"ĠìĦŀ":3671,"ë°¤":3672,"Ġì¹Ń":3673,"ĠëĤ¨ìĿĢ":3674,"ìľĦìĹĲ":3675,"Ġë§¤ìļ°":3676,"ĠìŀĪìĹĪëĬĶëį°":3677,"¬¸ìĿ´":3678,"īìŀ¥":3679,"ëį°ëıĦ":3680,"Ġì´īì´ī":3681,"íĽĪ":3682,"ëĿ¼ë":3683,"Ġë¯¸ìĨĮë¥¼":3684,"Ġìĵ°ëŁ¬":3685,"ĠëĤ¯":3686,"ãħħ":3687,"ìŀī":3688,"íļĮë":3689,"Ġìĭłê¸°":3690,"ëĭ¤ë³´ë":3691,"Ġë¬´ìĸ¸":3692,"³´ëĭ¤ëĬĶ":3693,"íĶĦë¡ľ":3694,"¶Ģë¥¼":3695,"ĠìºĲë¦Ń":3696,"Ġê·¸ëŀ¬":3697,"Ġì£¼ìĿ¸ê³µ":3698,"ìĭłìĿĦ":3699,"~!":3700,"ĠìĹ´ìĹĪëĭ¤":3701,"ìĺĢìĬµëĭĪëĭ¤":3702,"ìĿ´ìĬ¤":3703,"ê°ĦìĭĿ":3704,"ĨĵìĿĢ":3705,"ĠëªħìĿĺ":3706,"Ġê°Ģê²Į":3707,"Ġê°ĢëģĶ":3708,"ì§ĪìĿĦ":3709,"ì²ľë":3710,"Ġìĸ¸ë":3711,"Ġë§ĲìĶĢ":3712,"Ġê·¼ì²ĺ":3713,"ĵłì§Ģ":3714,"ĠíĭĢë":3715,"©´ìĦľëıĦ":3716,"Ġê²¨ìļ°":3717,"ĠíĿĺëŁ¬ë":3718,"Ġê²¨ìļ¸":3719,"²ĪìĹĲ":3720,"Ġê°Ģë©´":3721,"Ġìĸ¼êµ´ìĹĲ":3722,"Ġì¢ĭê³ł":3723,"ĵľë¥¼":3724,"ì§Ģê¸°":3725,"ĠM":3726,"Ġëĵ±ìĿĦ":3727,"ì¡´ë":3728,"ëĭ¤ìĭľ":3729,"ĠìĥĿê°ģíĸĪëĭ¤":3730,"ĮĢëĬĶ":3731,"ëĭ¤ë©°":3732,"ª¸":3733,"íĺ¸ëĬĶ":3734,"ìķĶ":3735,"ĠìĽĥìĹĪëĭ¤":3736,"Ġëª»íķł":3737,"ìĭ¤ë¡ľ":3738,"Ġë¶Ģëª¨":3739,"ªħìĿĦ":3740,"Ġì£¼ë¨¹":3741,"ĠíħĮë":3742,"êµ¬ë¥¼":3743,"ĠëĥĦìĥĪ":3744,"Ġë©°ì¹ł":3745,"ĠìķĦëĵ¤":3746,"Ġìĵ°ê³ł":3747,"Ġëª¸ë":3748,"¬ĺ":3749,"ìĽĲìĹĲ":3750,"Ġìŀ¥ëĤľ":3751,"ĠìĹĨìĬµëĭĪëĭ¤":3752,"ì¹ĺì¦Ī":3753,"ðŁĺį":3754,"ì·":3755,"Ġëĸ¼":3756,"ìĦ±ìĿĢ":3757,"Ġíķłë¨¸ëĭĪ":3758,"ëıĦë¡ľ":3759,"ìĽĲìĿĢ":3760,"íĴĢ":3761,"Ĳł":3762,"ëıĦê°Ģ":3763,"ãħ¡":3764,"Ġëģĵ":3765,"Ġíķľëĭ¤ëĬĶ":3766,"ĠëĤĺëĪ":3767,"Ġãħİ":3768,"ĠðŁĴ":3769,"Ġê³³ìĿ´":3770,"ì¹¼":3771,"íļĮë¥¼":3772,"ê°ĢìļĶ":3773,"Ġê°Ģê³ł":3774,"âĢį":3775,"âĢ¦.\"":3776,"ĠìĿ´ìłľëĬĶ":3777,"íıŃ":3778,"ìĥģìĹĲ":3779,"ĠëĮĢëĭ¨":3780,"ĠíĪ¬ë":3781,"ìĬ¤íĮħ":3782,"Ġì§Ģì¼ľë":3783,"ê°Ģë¡ľ":3784,"ĠìĹ°ëĿ½":3785,"¹łë":3786,"ê°ĢëĬ¥":3787,"ëł¬":3788,"Ġê°Ģë¥´":3789,"ŀĺë¥¼":3790,"êµ¬ê°Ģ":3791,"ìħ¨ëĭ¤":3792,"ĠìĺĪìģľ":3793,"Ġì¢ĭìķĦìļĶ":3794,"ìĸ´ë¥¼":3795,"ëĪĪ":3796,"ë³¸":3797,"Ġìĭ¶ìĹĪëĭ¤":3798,"ìķ¡":3799,"ìĬ¤íĥĢë":3800,"ĠìķĦë¬´ëıĦ":3801,"Ġê±°ì§Ģ":3802,"Ġìŀłê¹Ĳ":3803,"Ġìĸ¼ë¥¸":3804,"Ġë§ĲíķĺëĬĶ":3805,"Ġìŀ¬ë°":3806,"ìĨĶ":3807,"ì¥¬":3808,"Ġëĭ¦":3809,"ìŀĪë":3810,"ëĭ¤ëŀĢ":3811,"ì¹Ń":3812,"Ġê·¸ìĹĲê²Į":3813,"ë°ĺë":3814,"ĠëĤĺì¤ĳìĹĲ":3815,"ĠìĿĮìķħ":3816,"Ġì§±":3817,"ĠìĨĲê°ĢëĿ½":3818,"ĠìĽĮë":3819,"ĠìķĦë¬´ê²ĥëıĦ":3820,"Ġê·¸ê±¸":3821,"ĠìŀĲë¦¬ìĹĲìĦľ":3822,"ĠìłķíĻķ":3823,"¥´ë¥´":3824,"ë§ĮìĿ´":3825,"Ġíĺ¹ìĭľ":3826,"ĠìĹĦë§Īê°Ģ":3827,"Ġìĵ°ëĬĶ":3828,"Ġë¹Įë":3829,"íķľëĭ¤ê³ł":3830,"ĠìĿ¼ìĿ´ìĹĪëĭ¤":3831,"Ġë°ĸìĹĲ":3832,"ê²½ìĿĦ":3833,"ìŀĲìĿ¸":3834,"ĠëĲĺìĹĪ":3835,"¦¬ê¸°":3836,"Ġì¶ľë":3837,"ìĹī":3838,"ĠìķĦê¹Į":3839,"ĠìķĦë¬´ëŀĺëıĦ":3840,"Ġì°¸ê³ł":3841,"Ġì§ĳìľ¼ë¡ľ":3842,"ì§Ħëĭ¤":3843,"ìķķ":3844,"ĠëķĮë¬¸ìĿ´ìĹĪëĭ¤":3845,"Ġìļ°ë¦¬ìĿĺ":3846,"ĠìĿ¸ìłķ":3847,"ìłĢëħģ":3848,"Ġëª°ëĿ¼":3849,"ot":3850,"ê´ĢìĿ´":3851,"30":3852,"íŀĪëĬĶ":3853,"Ġê°Ģìļ´ëį°":3854,"ĠëķĮê¹Įì§Ģ":3855,"ìĨĮíķľ":3856,"Ġê²°ìłķ":3857,"©į":3858,"Ĳĺê³ł":3859,"ë´ī":3860,"ĠìľĦíĹĺ":3861,"Ġìķķ":3862,"Ġìľ¼":3863,"ìĭľë¥¼":3864,"ĳĺ":3865,"Ġëª©ìĨĮë¦¬ê°Ģ":3866,"Ġëĭ¬ëĿ¼":3867,"ĠëĪĪìľ¼ë¡ľ":3868,"§Ĳë¡ľ":3869,"ĠëıĮëł¤":3870,"êµ°ìĿĺ":3871,"Ġì£½ìĿĢ":3872,"íĦ´":3873,"Ġê¹¨ëģĹ":3874,"ĠìĨĮê°ľ":3875,"ĠëĤĺëĪĦ":3876,"ìĪ¨":3877,"Ġì¡¸":3878,"ìĦ¸ë¥¼":3879,"ìĺģíĻĶ":3880,"å¤":3881,"ìµľ":3882,"ê°Ħëĭ¤":3883,"Ġë¶ĢëĵľëŁ½":3884,"Ġë¬´ë¦":3885,"ĮĢìĹĲ":3886,"tp":3887,"Ġê¸°ìļ´":3888,"Ġê¼¬":3889,"ĠìĪ²":3890,"ĠìĹ¬ìŀĲëĬĶ":3891,"ĠìĹ¬ëŁ¬ë":3892,"íĿ¥":3893,"Ġëĭ¹ìŀ¥":3894,"Ġìķ¡":3895,"ðŁĲ":3896,"ëĥ":3897,"ĠíŀĪ":3898,"ìĶ¨ë":3899,"²¼":3900,"Ġìıĺ":3901,"ë¶Ħë":3902,"Ġê¸Īë°©":3903,"Ġëį°ë¦¬ê³ł":3904,"ĠëĤĺìĺ¤ë":3905,"Ġê³³ìĹĲ":3906,"ì§ĢìķĬ":3907,"ŀĮë":3908,"Ġìĭ±":3909,"ĠìĹ¬ìĦ±":3910,"ĠìĥĪë¡ľ":3911,"ĠëıĪìĿĦ":3912,"ĠìĨĶì§ģ":3913,"Ġ...":3914,"Ġë§¹":3915,"ìĦľë¥¼":3916,"ĸ¼":3917,"ëĭĺìĿĦ":3918,"ĳĶ":3919,"ìŀĲìĹĲ":3920,"Ġìĥģëĭ¹íŀĪ":3921,"ĠìĻł":3922,"ĠìĬ¤íħĮ":3923,"ĠíķĺëĭĪ":3924,"Ġìĭ¬ë":3925,"Ġê²ģëĭĪëĭ¤":3926,"ìľłë¥¼":3927,"ì§Ģê¸Ī":3928,"Ġíĺĳ":3929,"ìłĢíĬ¸":3930,"Ġìĭ«ìĸ´":3931,"ĠíķĻìĥĿ":3932,"íĺĶëĭ¤":3933,"Ġë§Įíķľ":3934,"íĥ±":3935,"Ġì£¼ë§Ĳ":3936,"ì¢ĭìķĦ":3937,"íķĺìĭł":3938,"ëĭ¨ìĿĦ":3939,"ĠìĹ¼":3940,"ê³±":3941,"ìłķìĿĺ":3942,"ì£¼ë©´":3943,"ê°ķìķĦì§Ģ":3944,"Ġ\"âĢ¦âĢ¦.\"":3945,"http":3946,"ãĦ·":3947,"ŀľëĵľ":3948,"://":3949,"Ġê·¸ê²ĥëıĦ":3950,"ìĨįìĹĲ":3951,"Ġë´Ħ":3952,"íķĺëĭ¤ê°Ģ":3953,"ìĿ´ê¸°":3954,"ìĿ¼ìĿĦ":3955,"Ġê°ĸê³ł":3956,"ĠìĿ¼ì°į":3957,"³´ë©´":3958,"Ġëª¨ë¥´ê²Į":3959,"ìĿ¸ìĬ¤íĥĢ":3960,"ëĪĦ":3961,"ì½ľë":3962,"Ħ£":3963,"íĸĪë":3964,"ìĬ¤íģ¬":3965,"Ġë¨¹ìĿĢ":3966,"ìł¤":3967,"ĠìĿ´ë¦ĦìĿĦ":3968,"Ġêµīìŀ¥":3969,"ĠD":3970,"ë°Ķë¡ľ":3971,"ĤĺëĿ¼":3972,"ê¸¸ëŀĺ":3973,"ìĿĮìĭĿ":3974,"¨¸ëĭĪë":3975,"Ġá":3976,"ĠíıīìĨĮ":3977,"ĠìĿ¼íĸī":3978,"Ġê·¸ëłĩì§Ģ":3979,"êµ°ìĿ´":3980,"ĠíħĲëį°":3981,"ĠëĤĺìĿ´":3982,"ë§¨":3983,"ìķĺëĬĶëį°":3984,"¦ī":3985,"Ķ°ë":3986,"ĠíħĮìĿ´ë¸Ķ":3987,"ì¾Į":3988,"Ġëĭ¤ë§Į":3989,"Ġì§Ģê¸Īê¹Įì§Ģ":3990,"Ġê·¸ëŁ°ì§Ģ":3991,"Ġì£½ìĿĮ":3992,"!!!!!!!!":3993,"íĮĶë¡ľ":3994,"âłĢâłĢâłĢâłĢâłĢâłĢâłĢâłĢ":3995,"ìĬ¤ëŁ°":3996,"Ġëº":3997,"Ġëĵ¤ìĸ´ìĦľ":3998,"***":3999,"ëŀĳ":4000,"Ġíĥĵ":4001,"Ġìŀħê³ł":4002,"ĠìĹĺë":4003,"diet":4004,"ĠëĴ¤ë¥¼":4005,"Ġëĭ¹íĻ©":4006,"Ġë©Īì¶Ķ":4007,"ì«":4008,"Ġë³´ëĭ¤":4009,"ìĤ¬ìĹĲ":4010,"ìĬ¤íĬ¸ë":4011,"ĠíķłìķĦë²Ħ":4012,"íĹĮ":4013,"ìľĦë":4014,"ìĿ¼ê¸°":4015,"ìĿ´ë¹Ħ":4016,"ĮĢê°Ģ":4017,"ê²łìĨĮ":4018,"Ġê¹ľ":4019,"ìĦłìĿĦ":4020,"ĠëĤłìĿ´":4021,"ĠëĨĴìĿĢ":4022,"íŀĲ":4023,"ĠìķĦëĭĻ":4024,"Ġíı¬ê¸°":4025,"Ġì°¨ê°Ģ":4026,"ê³¼ìĿĺ":4027,"ĠìĥĿëªħ":4028,"sh":4029,"Ġëįķë¶ĦìĹĲ":4030,"ìĺĢê³ł":4031,"ì¶ľë":4032,"ª¬":4033,"ê¸ĪëıĦ":4034,"Ġê³Ħíļį":4035,"¥´ë©°":4036,"¨¹ê³ł":4037,"Ġíģ¬ë¦¼":4038,"Ġê³µë¶Ģ":4039,"§Įíģ¼":4040,"ĠìĤ´ê³ł":4041,"Ġì£¼ìĹĪëĭ¤":4042,"Ġëª©ìĨĮë¦¬ë¡ľ":4043,"ê³µìĿĦ":4044,"Ġë³¸ë":4045,"Ġê·¸ëıĻìķĪ":4046,"fol":4047,"ĠìĥĿê¸´":4048,"Ġë¶īìĿĢ":4049,"ı¼":4050,"Ńĩ":4051,"ê²Ł":4052,"Ġëĵ¤ìĸ´ê°Ķëĭ¤":4053,"Ġë¹¨ë":4054,"Ġíķĺëĭ¤":4055,"ëĭ¤ë¥¸":4056,"ê²½ìĿ´":4057,"ĠìŀĲìĭĿ":4058,"Ġìĥģìĥģ":4059,"ĠìĦłë¬¼":4060,"ì°ľ":4061,"Ġë³´ê¸°":4062,"ìĦľìĿĺ":4063,"ëĲĺìĹĪëĭ¤":4064,"ê¾¼":4065,"íĨ¡":4066,"Ġì±ħìĿĦ":4067,"ìĹ¬ìŀĲ":4068,"Ġë§ĮëĵľëĬĶ":4069,"íĿ¬ëĬĶ":4070,"ĻìĿĢ":4071,"ìŀİ":4072,"Ġê´Ģê³Ħ":4073,"Ġë§ĲìĿ¸ê°Ģ":4074,"Ġê²ī":4075,"Ġê°ĻìĬµëĭĪëĭ¤":4076,"Ġìŀ¥ë©´":4077,"Ġê³¨":4078,"Ġëĭ¿":4079,"Ġë¹Ļ":4080,"íĸ¥ìĿĦ":4081,"ĠìĿ´ëŁ¬íķľ":4082,"ĠëıĦìĻĢ":4083,"ìħ¨ë":4084,"Ġìķ¼ë":4085,"?!":4086,"ìĤ´ìĿ´":4087,"ì¸¡":4088,"ĠìķĦë¬´ëŁ°":4089,"ìī½":4090,"Ġê°Ģë¡ľ":4091,"me":4092,"ĠëģĮìĸ´":4093,"Ġê´´ë":4094,"Ġë¨¹ê¸°":4095,"ìĭľìķĦ":4096,"ĠëĪĪìķŀ":4097,"Ġìĸ´ìĦľ":4098,"Ġì¼Ģ":4099,"ìĤ´ìĿĦ":4100,"ĠìĹĦì²ŃëĤľ":4101,"ìĸ¼ë":4102,"ł¸ë":4103,"Ġëļ«":4104,"follow":4105,"ĠìłĦë¶Ģ":4106,"ĠìĪ¨ìĿĦ":4107,"Ġì§ĢìĹŃ":4108,"íķĺìĭľ":4109,"Ġê°ĢìĬ´ìĿ´":4110,"ãħłãħłãħłãħłãħłãħłãħłãħł":4111,"íĨ¤":4112,"ìĤ¬ë¡ľ":4113,"íķĺê¸°ëıĦ":4114,"Ġë§Įìķ½":4115,"Ġêµ¬ìĦ±":4116,"Ġíķĺê²Į":4117,"ìĬ¤ìĹĲ":4118,"Ĳĺë":4119,"ĠëģĿëĤ´":4120,"ìĥģìĿĢ":4121,"ĠìķĬìľ¼ë©´":4122,"ĠìĤ¬ê³ł":4123,"ìĹ°íķľ":4124,"ìŀ¥ìľ¼ë¡ľ":4125,"Ġíķľë§Īë":4126,"Ġêµ´ë":4127,"ê²łìĬµëĭĪê¹Į":4128,"Ġë§ĽìŀĪëĭ¤":4129,"Ġê°Ģë³įê²Į":4130,"ìľ½":4131,"ë§Įíģ¼":4132,"ê²©ìĿĦ":4133,"ĠìĤ´íİ":4134,"ëĭ·":4135,"ĠìĿ´ìĥģíķľ":4136,"Ġë¬´ë¦İ":4137,"ëĦĪë":4138,"ĠëĨĪë":4139,"ĳĳ":4140,"Ġíķ¨ë":4141,"ĠìĪľë":4142,"ìļ°ê°Ģ":4143,"íĤ¤ëĬĶ":4144,"?'":4145,"Ġíĺ¹ìĿĢ":4146,"ĠíĻķìĭ¤íŀĪ":4147,"Ġëħ¼":4148,"êµ¬íķĺê³ł":4149,"ëį©":4150,"ìŀĲë©´":4151,"Ġê²¬ë":4152,"íĦ°ë¥¼":4153,"Ġëį°ëł¤":4154,"¦ĦìĿ´":4155,"ĠL":4156,"ì§ĦìĿĢ":4157,"ë§Ļ":4158,"Ġì°Į":4159,"ŀŃ":4160,"ê±°ìķ¼":4161,"íķĺìĿĺ":4162,"ëħ¸ë":4163,"ìĪŃ":4164,"ĠìĹĨìĹĪ":4165,"Ġê²°ë":4166,"ĠìķĮê²Į":4167,"ê²łì£ł":4168,"Ġë»Ķ":4169,"Ġìĸ´ê¹¨":4170,"ìłľëĬĶ":4171,"Ġë°ı":4172,"Ġìĺ·ìĿĦ":4173,"ĠìĥĿê°ģë³´ëĭ¤":4174,"......":4175,"Ġìĸ´ì©Į":4176,"Ġê³łë§Ī":4177,"sel":4178,"ìķĮë":4179,"İĦ":4180,"Ġì§ĳìĿĦ":4181,"ì¿łë":4182,"âĻ¥":4183,"ëĨ":4184,"ìĻĢëĬĶ":4185,"ìľĦê°Ģ":4186,"Ġì¹ĺì¦Ī":4187,"Ġìĸ´ëĳĲ":4188,"ì§ĦìĿ´":4189,"Ġë¹łìł¸ëĤĺ":4190,"Ġì§ĳì¤ĳ":4191,"Ġì¡±":4192,"Ŀ¼ëĭĪ":4193,"Ġë³¶":4194,"íĻĶëĬĶ":4195,"Ġë§ĮëĤľ":4196,"Ġì½©":4197,"Ġìĸ´ì©Įë©´":4198,"ĠëĦ¤ë":4199,"ê°Ĳë":4200,"Ġì£½ìĿĦ":4201,"ĠìĽĥìĿĮìĿĦ":4202,"Ġê²°ì½Ķ":4203,"ê¼¬ë":4204,"ĠíĽĦìĹĲ":4205,"ëĿ¼ëıĦ":4206,"ìķ¼ë§Į":4207,"íĺĦë":4208,"Ġì¤ĳìĸ¼":4209,"ë¸Ķë":4210,"ĠìłĦì²´":4211,"íķĺìĭľëĬĶ":4212,"ìĨĮê°Ģ":4213,"ĠìłĦíĻĶë¥¼":4214,"ìłĲìĿĦ":4215,"łĪìĬ¤":4216,"ëł¥ìĿ´":4217,"ĠìĿ´ë¦¬":4218,"ĠìķĪìĹĲìĦľ":4219,"ìĿ´ìĺ¤":4220,"ë¬´ìĬ¨":4221,"ĠìĪłìĿĦ":4222,"ĠìĤ¬ëŀĮëĵ¤ìĿĺ":4223,"Ġëªħëł¹":4224,"ì¿¡":4225,"ì¹ĺíĤ¨":4226,"ĠìĻĦë²½":4227,"Ġì§ĳìķĪ":4228,"Ġìĺ¤íĽĦ":4229,"íķ´ì¡Įëĭ¤":4230,"Ġê°Ģë§ĮíŀĪ":4231,"Ġê³¡":4232,"¥´ì§Ģ":4233,"íķĻìĥĿ":4234,"Ġë§ĪìĿĮë":4235,"ìĥ·":4236,"ĠíķĺëĤĺê°Ģ":4237,"Ġìĥ¤":4238,"Ŀł":4239,"§ĮìĹĲ":4240,"ĵ¤ìĹĲ":4241,"ì¹ĺì§Ģ":4242,"ìĭ¤ìĿĦ":4243,"íĶ¼ë¶Ģ":4244,"íĻĶìŀ¥íĴĪ":4245,"ĵ¨":4246,"Ġê°ľìĿĺ":4247,"ë¨¸ë":4248,"ìĿ´ëıĦ":4249,"Ġìŀ¬ë°Į":4250,"©´ë":4251,"§Įíķľ":4252,"¶Ģë¡ľ":4253,"ê´Ģë¦¬":4254,"Ġëª¨ë¥´ê³ł":4255,"ĠìĹĨëĭ¤ê³ł":4256,"ìļĶë¦¬":4257,"ëŀĢ":4258,"Ġëĵ¤ìĿĢ":4259,"ì¢ĭìĿĢ":4260,"įĺëį°":4261,"Ġëª¨ë¥¸ëĭ¤":4262,"ĠíĿ°":4263,"ĠëĦĮ":4264,"ĠìĶ»":4265,"Ġì²ľë":4266,"Ġëĭ«":4267,"©Ķëī´":4268,"ĠìĦ¼":4269,"íĭ´":4270,"Ġì¶©ë¶ĦíŀĪ":4271,"Ġêµīìŀ¥íŀĪ":4272,"Ġëĸłìĺ¤ë":4273,"ìĿ´ëĿ¼ìĦľ":4274,"Įģ":4275,"ë§İìĿĢ":4276,"ê±°ëĿ¼":4277,"Ĥĺë¬´":4278,"ìĭĿìĿĢ":4279,"¦´ë":4280,"ĦĲ":4281,"ê³¨ë":4282,"Ġê±°ì§ĵ":4283,"Ġì»¤ëĭ¤ëŀĢ":4284,"ĠëķĮê°Ģ":4285,"ĠìĿĺíķ´":4286,"ëĸ¡":4287,"âĢįâĻ":4288,"ìĹħìĿĦ":4289,"ĠëıĦëĮĢì²´":4290,"ĠíķĦìļĶíķľ":4291,"Ġê³±":4292,"Ġë§Īë¬´ë":4293,"Ġê±´ëĦĪ":4294,"ĠìķĦë¦Ħëĭ¤ìļ´":4295,"íĩ´":4296,"Ġë²Ħëł¸ëĭ¤":4297,"Ġê·¸ëŁ¬ëĭĪ":4298,"Ġê·¸ëĵ¤ìĿĦ":4299,"ìĸ´ì§ĢëĬĶ":4300,"Ġhttp":4301,"ìķ¼ë§Ĳë¡ľ":4302,"ì¹Ļ":4303,"Ġëĭ¹ìĭľ":4304,"ĠìŀĪìĹĪì§Ģë§Į":4305,"Ġëħ¸ëł¥":4306,"Ġìĸ´ì¨":4307,"ī´ë":4308,"Ġëĭ¨ìĪľ":4309,"Ġê°Ģìķ¼":4310,"ì£Ħ":4311,"ìĸ´ì¡Įëĭ¤":4312,"Ġê·¸ëłĩëĭ¤ê³ł":4313,"Ġê°ĻìķĦìĦľ":4314,"Ġë²łë":4315,"Ġãħİãħİãħİ":4316,"ĠìĿ´ìłł":4317,"ĠëĳĺìĿ´":4318,"(?)":4319,"ìłĲìĿ´":4320,"Ġë°°ê°Ģ":4321,"Ġìĸ´ëĶĶìĦľ":4322,"ĠëĪĮë":4323,"íķĦë":4324,"Ġë¬¼ìĸ´ë":4325,"Ġê²ĥìĿ¸ê°Ģ":4326,"ĠìŀĲìĭłë":4327,"ĠëıĻëĦ¤":4328,"ĠìĬ¬ë":4329,"Ġë¬¼ìĿĦ":4330,"Ġìħĭ":4331,"íķľëĭ¤ë©´":4332,"ìľ¨":4333,"įľ":4334,"ì°Įë":4335,"íĸĪëĭ¤ëĬĶ":4336,"Ġì§ĢëıĦ":4337,"ĠìĦ¸ìĥģìĹĲ":4338,"Ġëĭ¤ìĦ¯":4339,"ìĺĢëĬĶëį°":4340,"like":4341,"¦½ëĭĪëĭ¤":4342,"Ġë¬¸ëĵĿ":4343,"ĠëĳĺëŁ¬ë":4344,"Ġë§Ĳíķ´":4345,"ìľĦëĬĶ":4346,"Ġê°Ģê¹ĮìĿ´":4347,"ãħĭãħĭãħĭãħĭãħĭãħĭ":4348,"Ġì¡°ìļ©íŀĪ":4349,"ì£¼ìĦ¸ìļĶ":4350,"ĠìŀĪìĹĪìĬµëĭĪëĭ¤":4351,"Ġê·ľ":4352,"Ġê²½ì°°":4353,"ĠìĭľìłĪ":4354,"ìķĺê³ł":4355,"ĠìıŁìķĦ":4356,"Ġìª":4357,"ìłľìĿĺ":4358,"ìĭłìĿĺ":4359,"ĠìĿ´ë²ĪìĹĲ":4360,"Ġ50":4361,"Ġë§Ĳíķł":4362,"ĠìĥĿê°ģíķ´":4363,"Ġãħĭãħĭãħĭãħĭãħĭ":4364,"äº":4365,"íĺ¸ë¥¼":4366,"ê³¼ë¥¼":4367,"ĠìĶ¹":4368,"Ġìłķë¦¬":4369,"ì§Ģë©´":4370,"íĺ¸ê°Ģ":4371,"Ġìłľê³µ":4372,"ĠìĬµ":4373,"ìĭ¬ìľ¼ë¡ľ":4374,"¹Ħê°Ģ":4375,"°¤":4376,"ë´":4377,"íĸĪìĸ´":4378,"ĠìĺĪìĥģ":4379,"Ġë°ĽìķĦë":4380,"ĠëĮĢëĭµíĸĪëĭ¤":4381,"12":4382,"Ġíľ´ë":4383,"ĠëĤĺë¨¸":4384,"Ġë¨¸ë¦¿":4385,"Ġê³¼ìĹ°":4386,"ìĥģìľ¼ë¡ľ":4387,"ĠëĮĢì²´":4388,"Ġâľ":4389,"®¤":4390,"ĠëĤĺê°Ķëĭ¤":4391,"Ġìĺ¤ëĬĺëıĦ":4392,"ìľ¼ëł¤ê³ł":4393,"ĠëĤ¨ìŀĲê°Ģ":4394,"ìĻĢìĿĺ":4395,"am":4396,"íį¼ë":4397,"Ġë¹ĦêµĲ":4398,"Ġê²ĢìĿĦ":4399,"ê¹Ķ":4400,"ìķĦëĬĶ":4401,"Ġìŀ¥ë":4402,"ëĭī":4403,"Ŀ¼ë¥¼":4404,"íĬ¸ëĬĶ":4405,"Ġìľłëªħíķľ":4406,"¦¬ë©´ìĦľ":4407,"Ħĺ":4408,"ìĸ´ëĵ¤":4409,"°ĸìĹĲ":4410,"ĠëĤĺìĹĲê²Į":4411,"Ġê·¸ëłĩëĭ¤ë©´":4412,"Ġë¶Īíİ¸":4413,"Ġê³¼ê±°":4414,"Ġë»Ĺ":4415,"Ġëª¨ë¥¼":4416,"¥´ë©´":4417,"Ġê°Ģë°©":4418,"ĠíĮ¨ë":4419,"ĠìŀĪëĤĺ":4420,"Ġíģ¬ë¦¬ìĬ¤":4421,"ww":4422,"ĠìĨĮëħĦ":4423,"į¸":4424,"Ġê²ĥìĹĲ":4425,"ìĶ¨ëĬĶ":4426,"Ġëĵľëŀĺ":4427,"ì¤Įë":4428,"ĠìĻłì§Ģ":4429,"Ġë¹Ħë¡Ŀ":4430,"ĠíķĺëĤĺìĿĺ":4431,"ĠìĭĿëĭ¹":4432,"Ġíķ¸ë":4433,"ĠëĤŃ":4434,"ì¼°":4435,"¥Ń":4436,"Ġìį¨ë":4437,"ìĤ¬ëĵ¤ìĿ´":4438,"ìĭľê°Ģ":4439,"Ġì§Ģíķĺ":4440,"ĠëĬĲëĤĦ":4441,"Ġê¸´ìŀ¥":4442,"ĠìĤ´íİ´ë":4443,"Ġíķľëĭ¤ê³ł":4444,"Ġê²¬":4445,"ìĨĮë¦¬ê°Ģ":4446,"Ġëĵ¤ìĹ¬":4447,"ë§ĮìĿĺ":4448,"Ġë²Īì§¸":4449,"Ġê¸°ëĭ¤ë¦¬ê³ł":4450,"ĠëĤ³":4451,"ëĳ¥":4452,"Ŀ¼ë©°":4453,"Ġë¿ĲìĿ´ìĹĪëĭ¤":4454,"ĠìĽĥìľ¼ë©°":4455,"Ġë¬¸ìłľê°Ģ":4456,"¡¤":4457,"ì¹¸":4458,"Ġìĥģê´Ģ":4459,"ì°¨íĶ¼":4460,"ĠìķĦìĿ´ê°Ģ":4461,"íĻĶìĿĺ":4462,"Ġì¡´ëĤĺ":4463,"ìĿ´ìłľ":4464,"Ġíķ´ê²°":4465,"ĠìŀħìĹĲ":4466,"ëĵł":4467,"Ġë¶ĢìĤ°":4468,"Ġìŀłë":4469,"´Ĳìķ¼":4470,"íĬ¸ê°Ģ":4471,"ri":4472,"Ġë°Ķê¿":4473,"ê·¼ëį°":4474,"Ġê·¸ëĤĺ":4475,"Ġê³łêµ¬ë":4476,"Ġë°ĺìĿĳ":4477,"íĨµëł¹":4478,"ĵľìĭľ":4479,"Ġìĸ´ê¹¨ë¥¼":4480,"ĠëĤĺíĥĢëĤĺ":4481,"ĠëĪĪë¬¼ìĿ´":4482,"Ġë¬¼ê±´":4483,"ãħı":4484,"ĠìłĦíĪ¬":4485,"ì¸łë":4486,"ìľ¼ë¡ľìį¨":4487,"ĠìĿ´ìľłê°Ģ":4488,"Ġìłķì¹ĺ":4489,"Ġê°ĢìĿĦ":4490,"ĠìĽĮëĤĻ":4491,"ĠëĪĪë¬¼ìĿĦ":4492,"Ġ,":4493,"ìĵ¸":4494,"ë³¶ìĿ´":4495,"Ġê¹¨ëĭ¬":4496,"Ġë¶ĦìľĦê¸°":4497,"ĠìĤ´ìķĦë":4498,"ìĹĪëĤĺ":4499,"ĠìĬĪ":4500,"ìĥīìĿ´":4501,"~~~~":4502,"ìĿ¸ëį°ìļĶ":4503,"ĠâĻ":4504,"ĠìķĬìķĦëıĦ":4505,"Ġê¶Įë":4506,"Ġì±Ļê²¨":4507,"íŀĪê³ł":4508,"ĠìŀĪìĿĦê¹Į":4509,"ĠìķĦíĶĦ":4510,"ìĸ´ë¡ľ":4511,"Ġê·¸ëŁ¬ëĭĪê¹Į":4512,"Ġë§ŀëĬĶ":4513,"ĠìĸĳëħĲ":4514,"©ĺ":4515,"ĠíĺĦë":4516,"Ġíı¬ìĬ¤íĮħ":4517,"ĠëĤ´ë¶Ģ":4518,"ĠíĭĢ":4519,"Ġë¹¼ë":4520,"ł¨ë":4521,"Ġê°ķíķľ":4522,"ë¸Įë":4523,"Ġì§ĢìĹĪëĭ¤":4524,"Ġì²´ë":4525,"ëĭ¤ë³´ëĭĪ":4526,"Ġìĺ¨ëª¸":4527,"ê´´":4528,"ĠìĥĿê°ģìĹĲ":4529,"ëĭ¨ë":4530,"Ġíķĳ":4531,"Ġë°ĶëŀĮìĹĲ":4532,"Ġêµ½":4533,"ìĭ¤ìĹĲ":4534,"Ġê°Ģê¹Įìļ´":4535,"ĠíĺĪ":4536,"ĠíķľìĪ¨ìĿĦ":4537,"ê°ľê°Ģ":4538,"cat":4539,"Ġë¨¹ìĸ´":4540,"ĠíķĺìĸĢ":4541,"ëı¼":4542,"ĠìķĦëĭĲê¹Į":4543,"ìħ¨ìĸ´ìļĶ":4544,"ĠìŀĶëľ©":4545,"ĠëĦ£ê³ł":4546,"ĠìĹĨìĸ´ìļĶ":4547,"com":4548,"ì¶¤":4549,"Ġë¶Ģëĭ´":4550,"²¨":4551,"íĸ¥ìĿ´":4552,"ìłĢê¸°":4553,"Ġëĵ¤ìĸ´ê°Ħ":4554,"ĠíķĺìŀĲ":4555,"íķĺë©´ìĦľëıĦ":4556,"instafood":4557,"Ġë¶Īêµ¬íķĺê³ł":4558,"íķĺëŁ¬":4559,"Ŀ¼ë¦¬":4560,"ĠëĶ°ëĿ¼ìĦľ":4561,"ìĻĢë":4562,"ĠíĿĲ":4563,"íĳ¸ëĵľìĬ¤íĥĢê·¸ëŀ¨":4564,"ìĿ´ìŀĲ":4565,"Ġë¹łìł¸":4566,"ê¸°ì§Ģ":4567,"se":4568,"Ġê³łìĥĿ":4569,"Ĺê²Į":4570,"êµ°ìĿĦ":4571,"Ġë§ĳ":4572,"į°ëıĦ":4573,"¬ìĺģ":4574,"Ġë§İìķĦìĦľ":4575,"Ġê¸°ëĬ¥":4576,"ê°Ģë©°":4577,"ĠìĿ¸ë¬¼":4578,"Ġê¼¼":4579,"ëĳĲë":4580,"ìķĺìĿĦ":4581,"Ġê²ª":4582,"ìŀĪìĸ´ìĦľ":4583,"ĠêµĲë":4584,"ĠìĨĲìĿ´":4585,"ĠìĹ¬ìŀĲìĿĺ":4586,"ĠìħĢ":4587,"ĠìŀĪê¸°":4588,"ĠìĽĲíķĺëĬĶ":4589,"ëĵľ":4590,"ê²łëĬĶê°Ģ":4591,"¦¬ê²Į":4592,"ìĹĲê²ĮìĦľ":4593,"¨¹ëĬĶ":4594,"Ġêµ¿":4595,"ìĿ´ëĵł":4596,"īģ":4597,"ëħĢ":4598,"ìĺģìĿĺ":4599,"Ġë³´ì§Ģ":4600,"Ġì¡°ê¸ĪìĶ©":4601,"ĲĺìĹĪëĭ¤":4602,"ĩĮ":4603,"Ġíİ¸ìķĪ":4604,"ĠI":4605,"Â·":4606,"ê³łìĸĳìĿ´":4607,"ê²°ë":4608,"łī":4609,"íĶĶ":4610,"ìĦľìķ¼":4611,"²Ħë¦°":4612,"ëħĦë":4613,"ĠëģĦëįķìĺĢëĭ¤":4614,"Ġë¹łë¥´ê²Į":4615,"ĠìķĦê¸°":4616,"ìłķë§Ĳ":4617,"ãħłãħłãħł":4618,"Ġì¶Ķê°Ģ":4619,"êµ°ìĿĢ":4620,"Ġê·¸ëĵ¤":4621,"ĠêµŃë¬¼":4622,"ĠìĥĿê°ģíķĺê³ł":4623,"Ġëª¸ìĹĲ":4624,"Ģï¸ı":4625,"ìłĦìĿĺ":4626,"Ġë¬´ìĹĩë³´ëĭ¤":4627,"ëĲĺê³ł":4628,"Ġëĭ¬ëł¤ë":4629,"Ġêµ¬ìŀħ":4630,"ĠíĦ±":4631,"Ġì£¼ì°¨":4632,"ĠíļĮë":4633,"Ġê·¸ëŁ¬ë©´":4634,"Ġì»¤ë":4635,"ĠìŀĲëŀĳ":4636,"ĠíĢ":4637,"Ġë²Ĺìĸ´ëĤĺ":4638,"ĠíķĺìĺĢëĭ¤":4639,"ĠíĥĲ":4640,"Ġë§Īëł¨":4641,"ê¹Ŀ":4642,"ĠìĹĦë§Īë":4643,"Ġëĭ¹ìĹ°íŀĪ":4644,"į°ë":4645,"íķĺëł¤ê³ł":4646,"íķ´ì§ĢëĬĶ":4647,"Ġíķľíİ¸":4648,"ĠìŀĲê·¹":4649,"ìĥĿíĻľ":4650,"ìŀĲëĵ¤ìĿ´":4651,"ĠìķĦê°Ģ":4652,"ĠíĮĶë":4653,"ĠíĸĪìĬµëĭĪëĭ¤":4654,"18":4655,"Ġê±°ëĮĢíķľ":4656,"ĠìłĢëłĩê²Į":4657,"Ġë¹Ĺ":4658,"ëĭĲ":4659,"ĠìĬ¤íĬ¸ë":4660,"ê·¸ëŁ°":4661,"Ġê°Ģë¦¬":4662,"íļĮê°Ģ":4663,"ĠëĿĦ":4664,"ìĥ¤":4665,"ìķĦì¹¨":4666,"Įëį°":4667,"Ġê³łê¸ī":4668,"¶ĦìĿ´":4669,"ĠìĨŁ":4670,"ìķĺì§Ģë§Į":4671,"íĬĢ":4672,"ĠëĪĪì¹ĺ":4673,"ıĮë":4674,"Ġìĸ´ëł¤ìļ´":4675,"Ġíı¬ìŀ¥":4676,"ê±°ê°Ļ":4677,"Ġë¨¹ìĸ´ëıĦ":4678,"ĠìĻĦìĦ±":4679,"ðŁĺŃ":4680,"ĠìĿ´ëģĮ":4681,"ĠìľĦë":4682,"ĠìĿ´ë²ĪìĹĲëĬĶ":4683,"ĠíĮĶìĿĦ":4684,"Ġìĸ´ëĬĲìĥĪ":4685,"co":4686,"ê±¸ë":4687,"ĠìĺĪìķ½":4688,"ìŀ¥ìĿ¸":4689,"ĠìĪĺë§İìĿĢ":4690,"ìĸ´ëĿ¼":4691,"ì¹ľêµ¬":4692,"ĠìķĦë²Ħì§Ģê°Ģ":4693,"ĠìłĢëł´":4694,"ĤĺìļĶ":4695,"ë£¡":4696,"ìĪĺëıĦ":4697,"Ĩŀ":4698,"ĠíķĦë":4699,"¦¬ëįĺ":4700,"Ġë³´ë©´ìĦľ":4701,"ĠìĿĢë":4702,"Ġë³Ħë":4703,"¦°ë":4704,"ì¢Į":4705,"ĠìķĦìĿ´ëĵ¤":4706,"ĠëŃĲê°Ģ":4707,"ĠìĤ¬ë¬´":4708,"Ġë§º":4709,"ìŀħëĭĪê¹Į":4710,"Ġë§¨":4711,"ë³¼":4712,"ìłķìĹĲ":4713,"ĠìĿ¸íķ´":4714,"ĠëĤĺìĺ¬":4715,"ĠìĤ¬ëŀĳíķĺëĬĶ":4716,"Ġì¹ł":4717,"ĠíĶ¼íķ´":4718,"ìĦ¤ë":4719,"Ġë§Ĳíķĺê³ł":4720,"Ġë°ĶëĢĮ":4721,"ĠìĿ´ìľłëĬĶ":4722,"ì¤¬":4723,"Ġê±´ë¬¼":4724,"Ġìĸĺê¸°ë¥¼":4725,"°Ķëĭ¥":4726,"ĳĺëŁ¬":4727,"ĠìķĦëĭĪìķ¼":4728,"ìłĢíŀĪ":4729,"ĠìĥĿê°ģíķĺëĬĶ":4730,"my":4731,"ìĿĮìĹĲ":4732,"Ġì°¢":4733,"²łë":4734,"ĠìłķëıĦìĿĺ":4735,"ĠëĦĪëĬĶ":4736,"ĠëĬĲê¼Īëĭ¤":4737,"ĠëĤ´ë°Ģ":4738,"ê¹Įì§ĢëĬĶ":4739,"ĠëĮĢë°ķ":4740,"âĿ¤ï¸ı":4741,"ĠìĦ±ê²©":4742,"ë©į":4743,"Ġêµ³ìĿ´":4744,"ìĤ°ìĿĦ":4745,"ŀĺë¡ľ":4746,"íĿ¡":4747,"Ġë¼":4748,"ðŁİ":4749,"ĠìłĦë¬¸":4750,"ĠìĹŃìĤ¬":4751,"ĠìĽħ":4752,"íĸĩ":4753,"ìĺĢìĸ´ìļĶ":4754,"°°ë¥¼":4755,"ķĮë¬¸ìĹĲ":4756,"ìĦ±ìĹĲ":4757,"íķ´ë¥¼":4758,"Ġê³µìŀĳ":4759,"ĠëıĮëł¸ëĭ¤":4760,"íĮĶë¡ľìļ°":4761,"ĠìķĦìĺĪ":4762,"ĠëģĮë":4763,"ìĭľëĿ½":4764,"ìľłìĿĺ":4765,"Ġ>":4766,"ì£¼ìĹĪëĭ¤":4767,"£¸":4768,"ëįĶëĭĪ":4769,"Ġìľłì§Ģ":4770,"£Įë¥¼":4771,"íħĲ":4772,"ì»·":4773,"Ġìłľë°ľ":4774,"ĠíĻľëıĻ":4775,"ĠìłķìĭłìĿĦ":4776,"ĠëķĮëıĦ":4777,"Ĥľë":4778,"ìĺĢì§Ģë§Į":4779,"ìĹ°ìĿ´":4780,"Ġíŀĺëĵł":4781,"ªħìĿ´":4782,"Ġë°ĽëĬĶ":4783,"ĠìŀĲëıĻ":4784,"Ġëĭ¤ë¥´":4785,"ëĥ¥":4786,"Ġëĳ¥":4787,"ëĶ¸":4788,"~^^":4789,"¬¼ë¡ľ":4790,"ë¹Ī":4791,"¹Ļ":4792,"ìĿ´íĦ°":4793,"Ġëĵ¤ìĸ´ìĻĶëĭ¤":4794,"ìľ¼ë¡ľë¶ĢíĦ°":4795,"íķĺëł¤":4796,"Ķª":4797,"ĥĪ":4798,"ìİĦ":4799,"íģĲ":4800,"ģĦëŁ¬":4801,"Ġê·ĢìĹ½":4802,"ëıĦëĬĶ":4803,"ë²Ħë":4804,"Ġ18":4805,"Ġê¹ľì§Ŀ":4806,"¥Ļ":4807,"Ġìĺ¬ëĿ¼ê°Ģ":4808,"ĠìĦ¸ìĽĶ":4809,"Ġë°ĽìĿĦ":4810,"Ġë¹Ħë¡¯":4811,"Ġì°¨ë¥¼":4812,"ĠíķĺëĤĺëıĦ":4813,"Ġë¬´ëĦĪ":4814,"ìĬ¤íħĮ":4815,"ĪëıĦë¡Ŀ":4816,"ph":4817,"ĵľê°Ģ":4818,"Ġì§Ħìłķ":4819,"ĠìŀħìĿĢ":4820,"ĠìĿ¸ê°ĦìĿĺ":4821,"ĠíĿī":4822,"ìľ¼ë¯Ģë¡ľ":4823,"ì¤Ģëĭ¤":4824,"Ġì¤ĺ":4825,"ëĭĪê°Ģ":4826,"Ġë¯¸ì¹ľ":4827,"Ġì¢Ģë":4828,"ad":4829,"ê²½ìĿĢ":4830,"ĠìĤ¬ëŀĳìĿĦ":4831,"íĥĪë":4832,"Ġë°ĺëĵľìĭľ":4833,"ĠìĦłìĥĿëĭĺ":4834,"Įëĵł":4835,"ì§ĢëĿ¼":4836,"Ġê·¸ê±°":4837,"ìĿ´ìĻĢ":4838,"Ġë§ĺìĹĲ":4839,"ëĶ±":4840,"Ġë¹ĦìĬ·íķľ":4841,"ìĿ´ê¸°ëıĦ":4842,"Ġëľ¯":4843,"ĠìĺģíĻĶëĬĶ":4844,"Ġê°Ħë":4845,"Ġì°¸ìĹ¬":4846,"Ġìĩ¼":4847,"ĠìķĬìķĦìĦľ":4848,"ĠìĽĥìĿĮ":4849,"âĢįâĻĢï¸ı":4850,"ĠìĿµìĪĻ":4851,"Ġëĭ¤ìĿĮë":4852,"ĠëĵľëĬĶ":4853,"Ġìį¼":4854,"ĠëĤľë":4855,"Ġìĭ¤ìłľë¡ľ":4856,"ĳĲê³ł":4857,"ĠëĨĢëŀĢ":4858,"ìĿ´ëĦ¤ìļĶ":4859,"ìļ°ìĿĺ":4860,"ĠìĿ´ëĤ´":4861,"Ġìľłë¦¬":4862,"-****-****":4863,"ìĿ´ëĿ¼ëĭĪ":4864,"Ġb":4865,"ĠëģĿëĤ":4866,"***-****-****":4867,"ĠëĪĦìĽĮ":4868,"Ġ0":4869,"ĠìĹĨìĹĪëįĺ":4870,"ìĿ¸ëĵ¤ìĿ´":4871,"ì¡°ê±´":4872,"ĠíĶ¼ê³¤":4873,"ĠêµĲìľ¡":4874,"Ġë³Ģë":4875,"ê°ĢìĬ´":4876,"ìķĪëħķ":4877,"Ġê·¸ìĻĢ":4878,"íķĺëĿ¼":4879,"Ġë¯¿ê³ł":4880,"íĮ¨ë":4881,"Ġì¶ľë°ľ":4882,"¤ëĤĺ":4883,"ìĪłìĿĦ":4884,"ĠíĻĶê°Ģ":4885,"ŀĢë":4886,"Ġíļ¨ê³¼":4887,"Ġë°Ľìķĺëĭ¤":4888,"ê¸°ìĻĢ":4889,"ĠíĹĽ":4890,"ĠìĺĽëĤł":4891,"¹ĦëĬĶ":4892,"Ġê°ĢìĬ´ìĿĦ":4893,"ãħĮ":4894,"ì§ĳë°¥":4895,"Ġê²°ê³¼":4896,"Ġê³¨ëª©":4897,"ìļ°ìĬ¤":4898,"ĠëĤĺë¬´ë":4899,"ĠëĤ¨ìŀĲëĬĶ":4900,"ĵľë¡ľ":4901,"ìŀĪìĸ´":4902,"ë°ĸ":4903,"ãħĤ":4904,"ĠáĨŀ":4905,"íĺĦìĿĢ":4906,"ë¬¸ìĿĦ":4907,"Ġë¬´ì²Ļ":4908,"ĠëĽ°ìĸ´":4909,"ë°°ë":4910,"ĠìŀĪìĸ´ìķ¼":4911,"ab":4912,"ìĽĮìļĶ":4913,"ì§ĳìĹĲ":4914,"Ġì¸¡":4915,"ìĸ´ëĸ":4916,"íĵ¨":4917,"ì¹«":4918,"Ĳľëĭ¤":4919,"ìłľì£¼":4920,"Ġìĸ´ì°¨íĶ¼":4921,"Ġë¶Ħëĵ¤":4922,"ĠìķĦìĿ´ëĵ¤ìĿ´":4923,"Ġë²Īë":4924,"Ġëħ¼ë":4925,"ver":4926,"Ġë¶ĢëĵľëŁ¬ìļ´":4927,"łëĥ":4928,"Ġíķĺëįĺ":4929,"ĠìĨĮëħĢ":4930,"ìĦ¬":4931,"ĠK":4932,"ìľ¼ëł¤":4933,"Ġê°ľë´ī":4934,"20":4935,"Ġëª©ìĿĦ":4936,"Ġì»¤íĶ¼ë":4937,"Ġìĭ¶ì§Ģ":4938,"Ġëĵľëŀĺê³¤":4939,"ĠëĮĢíĳľ":4940,"ìĽłë":4941,"ĠëĦ£ìĸ´":4942,"Ġíķľìª½":4943,"ĠìĺģíĻĶë":4944,"Ġê¸°ë¡Ŀ":4945,"Ġì¢ģ":4946,"ĠìķĦë²Ħì§ĢëĬĶ":4947,"ìĦĿìĿ´":4948,"ĠìĤ¬ìļ©íķł":4949,"íĥľë¡ľ":4950,"Ġë§Īìĭľê³ł":4951,"ìĸ´ëĨĵ":4952,"ĠëªħìĿ´":4953,"ëĲł":4954,"¥´ê¸°":4955,"íĮĲìĿĦ":4956,"ëĭĪê¹ĮìļĶ":4957,"ë§Ĳë¡ľ":4958,"Ġë¬¶":4959,"Ġë°Ķëĭ¥ìĹĲ":4960,"is":4961,"Ġë³´ìŀĲ":4962,"įëĭĪëĭ¤":4963,"ĠëĴ¤ì§ĳ":4964,"ne":4965,"ĠëĤ´ëĤ´":4966,"ì¼ĢìĿ´íģ¬":4967,"as":4968,"Ġíį¼ë":4969,"ìĿĮë°¥":4970,"ì½¤íķľ":4971,"ĠìĤ¶ìĿĦ":4972,"ut":4973,"íħĮë¦¬ìĸ´":4974,"Ġì¢ħë¥ĺ":4975,"Ġê±°ê¸°ìĹĲ":4976,"Ġëĭ¤ìĿĮìĹĲ":4977,"ro":4978,"Ġë¶Ļìĸ´":4979,"ĠìķĪìłĦ":4980,"ìľłë¡ľ":4981,"Ġê¸¸ìĿ´":4982,"ê·¸ë¦¬ê³ł":4983,"íĦ¸":4984,"ĠìŀĪëĬĶì§Ģ":4985,"ìĿ´ìĹĪê³ł":4986,"Ġëĭ¬ëĭ¬":4987,"ĺĲ":4988,"¦°ìĿ´":4989,"ĠëĤĺìĻĢìĦľ":4990,"åħ":4991,"ë²Į":4992,"¯¸ê°Ģ":4993,"íļĮìĿĺ":4994,"Ġê±°ëĿ¼ê³ł":4995,"Ġë´ĲëıĦ":4996,"Ġë§Ĳë¡ľ":4997,"ìĿ´ì£ł":4998,"ĠìĤ¬ì§ĦìĿĦ":4999,"ìĬ¤íģ¬ë¦¼":5000,"ĠíĹ¤ë":5001,"ĠíĸĪìĸ´ìļĶ":5002,"ìłģìĿĦ":5003,"Ġê³³ìĹĲìĦľ":5004,"ì¡´ë§Ľ":5005,"Ġë¶Īê³¼":5006,"ĠëĿ¼ê³ł":5007,"ìħĶë":5008,"ìŀĪìĸ´ìļĶ":5009,"íķĺë£¨":5010,"Ġì¹ľêµ¬ê°Ģ":5011,"Ġê°ĢëĿ¼":5012,"Ġë§¨ë":5013,"íĸĪëĭ¤ê³ł":5014,"ook":5015,"um":5016,"ĠëĽ°ìĸ´ë":5017,"Ġê²ĥìĿ´ëĿ¼ê³ł":5018,"ĠìŀĪìĹĪìĸ´ìļĶ":5019,"ìĬ¤ëłĪ":5020,"ĠíĮ¬":5021,"íıĲ":5022,"ĠìĿ´ë²¤íĬ¸":5023,"êµ¬ëĬĶ":5024,"Ġê·¸ìłľ":5025,"êµ°ë":5026,"ìŀ¬ë¥¼":5027,"ĠìĿ¼ëıĦ":5028,"Ġëª»íķ´":5029,"Ġê²ĥê³¼":5030,"°ľë":5031,"Ġëį©":5032,"ìĭĿëĭ¹":5033,"ì°¨ë¥¼":5034,"ĠìĿ¼ìĹĲ":5035,"ĠìłĢëŁ°":5036,"ĠëģĿìĹĲ":5037,"Ġìĥģì²ĺ":5038,"ĠíĸĪë":5039,"ĠìĹĨì§Ģ":5040,"ëĮĢë¥¼":5041,"¥ĺë":5042,"½ķ":5043,"Ġëĭ¹ìĭłìĿ´":5044,"Ĥĺê°Ģ":5045,"Ġê¹Ģì¹ĺ":5046,"Ġê´Ģë¦¬":5047,"ìĬ¤íĭ±":5048,"ìĺ¤ì§Ģ":5049,"Ġë¶ĢëĶª":5050,"Ġíĳ¹":5051,"ĠìĺģíĻĶë¥¼":5052,"ĠìĤ¬ëŀĮëĵ¤ìĿĦ":5053,"íķĺê±°ëĤĺ":5054,"ìķłìķł":5055,"ìĹĲìĦľìĿĺ":5056,"ìŀĪê³ł":5057,"Ġê·¸ëłĩì§Ģë§Į":5058,"ìłĦìĿ´":5059,"ì¤Įë§Ī":5060,"ĠëĮĢíĨµëł¹":5061,"ë§ĽìŀĪëĭ¤":5062,"Ġëĸ¨ìĸ´ìł¸":5063,"ĠëĤ´ë¦¬":5064,"¹ìĭľ":5065,"Ġê¸°ìĤ¬":5066,"Ġê³³ìĿĢ":5067,"ì¥Ĳ":5068,"ĠìĭłìĦł":5069,"ê±¸ë¡ľ":5070,"íĤ¤ê³ł":5071,"Ġê°ĲëıĻ":5072,"ì§ĦìĿĺ":5073,"ìĿ¼ìĿĢ":5074,"ĠìĹ¼ë":5075,"íģ¬ë¥¼":5076,"ìĦ±ìľ¼ë¡ľ":5077,"Ġì¹ľìłĪ":5078,"Ġëª°ëŀĲ":5079,"°į":5080,"íĺ¼ë":5081,"ìĭłìĿĢ":5082,"Ġê·¸ë§Įíģ¼":5083,"Ġê·Ģì°®":5084,"Ġê°ľìĿ¸ìłģìľ¼ë¡ľ":5085,"ĠìķĦìĿ´ë¥¼":5086,"Ġp":5087,"Ġìĭľì¼ľ":5088,"Ġëĭµëĭµ":5089,"ome":5090,"Ġê½ī":5091,"ĠìĽĮ":5092,"Ġì§Ĳìŀĳ":5093,"Ġë°ĽìķĦëĵ¤":5094,"ê´ĢìĿĦ":5095,"Ġìĸ´ë¥¸":5096,"ĠìķĬìĿĦê¹Į":5097,"Ġì¶¤":5098,"ĠìĿ´ëĬĶ":5099,"Ġ200":5100,"ê²¸":5101,"ĠìķĦë§ĪëıĦ":5102,"ĦĪë¬´":5103,"11":5104,"ìĿ´ìĹĪëĬĶëį°":5105,"ĠëģĿê¹Įì§Ģ":5106,"ìĥĿê°ģ":5107,"Ġì¹¨ë¬µ":5108,"Ġëĭ®":5109,"Ġíĺ¸íħĶ":5110,"Ġê°Ģë²¼":5111,"ìĦłìĥĿ":5112,"???":5113,"ì§ĳìĿĦ":5114,"ê¸°ë¡Ŀ":5115,"´¤ëĬĶëį°":5116,"ì¢Ģ":5117,"íĶ½":5118,"Ġì²ŃëħĦ":5119,"ëĿ¼ë©´":5120,"ĠëĳĶ":5121,"ëĭ«":5122,"ĠìķĦëĥĲ":5123,"Ġë³´ìĿ¸ëĭ¤":5124,"ê²łëĦ¤":5125,"ìĭ¹":5126,"ĠìŀĪìĿĮ":5127,"ìĭĿìĿĺ":5128,"âĢ¦,":5129,"Ġë¬´ìĦŃ":5130,"Ġëª¬":5131,"ĨĪë":5132,"ìĿ´ìĹĪì§Ģë§Į":5133,"ħ¼":5134,"Ġë§Īì¹¨ë":5135,"Ġì¶ĺ":5136,"!'":5137,"Ġëª»íķĺ":5138,"ê¹¨":5139,"ê¸¸ìĿ´":5140,"ëĤĺëıĦ":5141,"Ġë§¤ëł¥":5142,"ĠìĭĿìĤ¬":5143,"¬ëŁ¬":5144,"ĠìĮĢ":5145,"Ġë¨¹ìĸ´ìķ¼":5146,"§¥":5147,"ĠìķĦì¹¨ìĹĲ":5148,"ĠíķľëıĻìķĪ":5149,"ìĭŃëĭĪê¹Į":5150,"ìĿ´ê±°":5151,"ë³Ģ":5152,"íĺĦìĿ´":5153,"ĠëĶ°ëľ»íķľ":5154,"ĠíļĮìĤ¬":5155,"ìķĦì£¼":5156,"ĠðŁį":5157,"ĠìĹŃíķł":5158,"Ġìłķë³´":5159,"ĠëŃī":5160,"êº¼ë":5161,"ĠìĥĿê°ģìĿĢ":5162,"ĠìłģìĿĢ":5163,"Ġ\"âĢ¦âĢ¦":5164,"ê³Ħë¡ľ":5165,"Ġìŀĳê°Ģ":5166,"ĠêµŃëĤ´":5167,"Ġíĭ°ë":5168,"ì²´ë¡ľ":5169,"ĠìŁ":5170,"he":5171,"Ġë§İìķĦ":5172,"ĠíıīìĥĿ":5173,"ìĪĺíķľ":5174,"ìķ¤":5175,"Ġíķľëį°":5176,"ì¡Įë":5177,"ĠìĦ¸ìĥģìĿĦ":5178,"ìĽĲìľ¼ë¡ľ":5179,"==":5180,"ĠìĤ¼ë":5181,"Ġì£¼ìłĢ":5182,"ê¹Ģë":5183,"ĠìĦŃ":5184,"ì¼Ģìĸ´":5185,"ĠìĤ¶ìĿĺ":5186,"ĠíĿ¬ë§Ŀ":5187,"ìĺ¹":5188,"ĠìĿ¸ìĤ¬ë¥¼":5189,"Ġê³³ìľ¼ë¡ľ":5190,"Ġê³łë§Ļ":5191,"¦°ìĿĢ":5192,"ĠíĭĢë¦¼":5193,"ëĬĶëį°ëıĦ":5194,"ì¤ĳíķľ":5195,"Ġë°ĶëŀĮìĿ´":5196,"ìĿ´ìĥģ":5197,"Ġëķ¡":5198,"ĠìŀĳìĹħ":5199,"Ġê°ķëł¥":5200,"ì£¼ë¡ľ":5201,"ìĮį":5202,"ıĪ":5203,"´ĲìļĶ":5204,"ĠìħĪ":5205,"ĠìĿĦ":5206,"Ġãħľãħľ":5207,"ìĿ´ìħĺ":5208,"Ġê´´":5209,"Ġê·¸ëł¤":5210,"Ġë¨¸ë¦¬ê°Ģ":5211,"ĠìĨĶì§ģíŀĪ":5212,"ĠìŀĲëĬĶ":5213,"Ġê¿Ģ":5214,"´íĳ¸":5215,"ëıĪ":5216,"ĠìĿ´ë¦ĦìĿ´":5217,"ĠëĤłìĶ¨":5218,"ìĿ´ëĵ¤":5219,"ìĦľìļ¸":5220,"ì¤ĺìķ¼":5221,"ĠìĺĪìĪł":5222,"Ġì§§ìĿĢ":5223,"ê³łë¥¼":5224,"ĠìķĦìī½":5225,"Ġë¬¼ëŁ¬":5226,"the":5227,"Ġë§ŀì¶°":5228,"ŃĲ":5229,"ëĤĺê²Į":5230,"Ġë¬´ìĭľ":5231,"ĠìĦľë¹Ħ":5232,"ª°":5233,"êµŃìĿ´":5234,"ĠíķĺëĤĺìĶ©":5235,"ĠìķĬëĭ¤":5236,"ĠëĤ´ëł¤ë":5237,"Ġë²Ħë¦°":5238,"ĠN":5239,"ĥĲë":5240,"ìĥīìĿĦ":5241,"ĠìŀĲìĭłëıĦ":5242,"ĠìķĮìķĺëĭ¤":5243,"ìį¹":5244,"Ġë°ĶëĿ¼ë³´ë©°":5245,"ìĿ¼ìĹĲ":5246,"Ġëıĭ":5247,"Ġë¬´ìĹĩìĿĦ":5248,"Ġëĵ¤ìĸ´ìĺ¨":5249,"Ġìĸ´ë¨¸ëĭĪëĬĶ":5250,"Ġì°¨ëĿ¼ë¦¬":5251,"Ġë¶ĪìĿĦ":5252,"ĠìĹĦë§ĪëĬĶ":5253,"ĠìĭľíĹĺ":5254,"ë©Ķ":5255,"¬ëįĺ":5256,"ĠíķĺëĬĺìĿĦ":5257,"ĠG":5258,"Ġê¸°ìļ¸":5259,"ì²ĺë¥¼":5260,"Ġëª¨ëĳĲê°Ģ":5261,"Ġìĸ¸ìłł":5262,"Ġíķ«":5263,"Ġìµľê·¼":5264,"Ġë¬´ëłµ":5265,"ë¶Ģë¥¼":5266,"ĠëĦĵìĿĢ":5267,"ļĿ":5268,"ĠìŀĦë":5269,"ìķĪìĿĦ":5270,"ìŀĲìĻĢ":5271,"ĠìĹĨì§Ģë§Į":5272,"ëĵ¤ëıĦ":5273,"Ġë§Īì¹¨ëĤ´":5274,"ê¸ĪìĿĦ":5275,"ĠìķĦëĭĻëĭĪëĭ¤":5276,"¥µ":5277,"Ġë¶ĦìĿ´":5278,"ëĤĺëĿ¼":5279,"ĠìĹ´ê³ł":5280,"łë¡ľ":5281,"Ġë§Īëĭ¹":5282,"²Ħëł¸ëĭ¤":5283,"Ġì¤ĳìķĻ":5284,"ĠíķĺëĤĺë¥¼":5285,"¶ĢëŁ¬":5286,"ĠíĸĪê³ł":5287,"ìĹĲê²Įë":5288,"ĠëĤ¬":5289,"íķ´ìł¸":5290,"ìĤ¬ìĿ´":5291,"ĠìľłìĿ¼":5292,"ì§ĢìĻĢ":5293,"ĠìĥĲëŁ¬ëĵľ":5294,"ĠìķĦë²Ħì§ĢìĿĺ":5295,"ĠëĨĪìĿ´":5296,"Ġì§Ŀ":5297,"Ġì¹ĺíĤ¨":5298,"ê²¹ìĤ´":5299,"©¸":5300,"ìĿ´ê²Į":5301,"Ġ********":5302,"íĨłë¡Ŀ":5303,"Ġëħ¸ëł¤ë":5304,"Ġëĵ¯íĸĪëĭ¤":5305,"ëĵ¤ê³¼":5306,"Ġë°ĺëĮĢ":5307,"ëĴ":5308,"Ġë¹łë¥¸":5309,"Ġì½ľë":5310,"ĶĶìĺ¤":5311,"ìĺ¨ë":5312,"ðŁĺĨ":5313,"Ġë¶Ļìŀ¡":5314,"łëĥł":5315,"ĵľìĿĺ":5316,"Ġëī´":5317,"íĥľë":5318,"íĨłë¦¬":5319,"Ġë§ĽìĿĦ":5320,"ĠìķĻ":5321,"ìļ°ë¥¼":5322,"íĿ¬ê°Ģ":5323,"Ġë°Ł":5324,"Ġë§ĪëĿ¼":5325,"ì¤Ģë":5326,"Ġë°¥ìĿĦ":5327,"Ġìĺ¤ëĬĺë":5328,"Ġì¹¼ë":5329,"Ġê²ĥìĿ¼ê¹Į":5330,"Ġë°ĶëĿ¼ë³´ê³ł":5331,"ĠìŀħìĪłìĿĦ":5332,"Ġë¬¸ìłľëĬĶ":5333,"ve":5334,"Ġìŀħë§Ľ":5335,"ĠìĹĺ":5336,"Ġê·¸ë¦ĩ":5337,"ëĦĪë¬´":5338,"ì»¨":5339,"ĠìºĲë¦ŃíĦ°":5340,"ĠëĤłì¹´ë":5341,"íĥĳ":5342,"ë§ĮìĿĦ":5343,"ìĤ¬íķľ":5344,"ðŁ¥":5345,"ìĹĲê²ĮëıĦ":5346,"íģ¬ë¡ľ":5347,"íķĺëĦ¤":5348,"ĠëĪĦêµ°ê°Ģ":5349,"ĠìĿĢê·¼":5350,"ìĿ´ëŁ°":5351,"ìķĺìĸ´":5352,"ëĭĺëĵ¤":5353,"Ġê½Ĥ":5354,"ìĺ¤ìĺ¤":5355,"ìĸ´ë²Ħë¦°":5356,"Ġíİ¼ì³Ĳ":5357,"ìħĶìķ¼":5358,"ìĭľíĤ¨":5359,"ìłľíĴĪ":5360,"å®":5361,"ìħĢì¹´":5362,"ĠëĤĺìģľ":5363,"ëĶĶìłĢíĬ¸":5364,"ìľ¼ìĭł":5365,"ìĦľëıĦ":5366,"Ġê·¸ëŁ¬ê³ł":5367,"Ġìĺģìĥģ":5368,"ĠëĤĺë¨¸ì§Ģ":5369,"ion":5370,"ĠR":5371,"50":5372,"¶Ģê°Ģ":5373,"ĠìĪľìĭĿ":5374,"ĠìŀħìĹĲìĦľ":5375,"ê¹Ģì¹ĺ":5376,"įĶêµ°ìļĶ":5377,"ìŀĦìĿ´":5378,"Ġê°ĢëĬ¥íķľ":5379,"Ġê³³ìĿĦ":5380,"self":5381,"ë§ĮìĽĲ":5382,"ĠìĤ¬ìŀ¥ëĭĺ":5383,"ĠìĦľëĳĺëŁ¬":5384,"§¹":5385,"ì§ĪìĿ´":5386,"ĠìŀĪëĭ¤ê°Ģ":5387,"ĵ¤ê³ł":5388,"íĺĪ":5389,"ãħĭãħĭãħĭãħĭãħĭãħĭãħĭ":5390,"ëķ":5391,"ìĿ¸ì¹ľ":5392,"Ġë¬´ì¡°ê±´":5393,"ĠìĹ¬ê¸°ìĹĲ":5394,"Ġì²ĺìĿĮë":5395,"Ġì¶©ê²©":5396,"íķ«":5397,"ħĢë":5398,"ìĹ¬ë¦Ħ":5399,"ĠëıĻë":5400,"êµŃìĿĦ":5401,"ìĽĶë":5402,"Ġì¢ĭìķĦìĦľ":5403,"ĠìĤ¬ëŀĮëıĦ":5404,"ĠìľĦìĹĲìĦľ":5405,"Ġì³Ĳë":5406,"Ġëĵ¤ìĿ´":5407,"ìŀĲë¦¬":5408,"ìĿ¸ìĬ¤íĥĢíĳ¸ëĵľ":5409,"ê°Ģì¡±":5410,"Ġëĭ¨ì§Ģ":5411,"Ŀ¼ìĿ´ë":5412,"ìĳ¥":5413,"Ġì¶Ķìĸµ":5414,"íĥľë¥¼":5415,"°Ģë":5416,"ëł¤":5417,"ìĪľìĿ´":5418,"Ġëª¨ëĳĲë":5419,"ë§Įíķľ":5420,"ìķĪìĹĲ":5421,"ìı":5422,"ĠëĳĺëŁ¬":5423,"ĠìŀĲê³ł":5424,"Ġìłľì£¼":5425,"ìĭ¼":5426,"Ĥĺê²Į":5427,"ìĿ¸ëıĦ":5428,"Ġì»¨":5429,"ìĽĲìĹĲìĦľ":5430,"ĠìĥĿê²¼":5431,"íģ°":5432,"Ŀ½ìĿĦ":5433,"Ġë°ľìĿĦ":5434,"ŀĳìĿ´":5435,"Ġíķµ":5436,"íķı":5437,"Ġê°ĲìĤ¬íķ©ëĭĪëĭ¤":5438,"ĠìĹ¬ìŀĲë¥¼":5439,"Ġê¸°ìĸµìĿ´":5440,"ĪĦë":5441,"ìľ¡ìķĦìĬ¤íĥĢê·¸ëŀ¨":5442,"Ġâĺ":5443,"Ġê¸ĢìĿĦ":5444,"³´ê¸°":5445,"Ġìķīìķĺëĭ¤":5446,"ĠìĻľë":5447,"Ġì¢ĭìķĺëĭ¤":5448,"ª©ìĿĦ":5449,"ĠìŀĪëıĦë¡Ŀ":5450,"Ġê³łíĸ¥":5451,"ìĿ´ìĹĪìĬµëĭĪëĭ¤":5452,"ê¸Īë§Į":5453,"Ġì¶Ķë":5454,"íĭĢë":5455,"ë¨¹ìĬ¤íĥĢ":5456,"ĠëĤ«":5457,"Ŀ¼ë§Ī":5458,"ac":5459,"ì§Ģë©°":5460,"ìĵ°ë":5461,"Ġë¹Ħíķ´":5462,"ìĹĲìĦł":5463,"Ġëĵ¤ìĹĪ":5464,"ìĺ´":5465,"ĠëĤ¨ìŀĲìĿĺ":5466,"Ġìĭ¶ìĸ´ìĦľ":5467,"ĠëĤ¨ìŀĲë":5468,"¦ĦìĿĦ":5469,"Ġê±¸ìĿĮìĿĦ":5470,"ìĿ¸ê³¼":5471,"ĠíĻĪ":5472,"ĠìĪĺë¶Ħ":5473,"ì£¼ë§Ĳ":5474,"ķĮë§Īëĭ¤":5475,"ê¶ĮìĿĦ":5476,"ì¤ĢìĿ´":5477,"Ġê¸¸ê²Į":5478,"Ġì°¾ëĬĶ":5479,"Ġìĭ¸ìĽĢ":5480,"ì²¨":5481,"ìĿ´ë²¤íĬ¸":5482,"Ġì»´":5483,"íĮ¡":5484,"ìī¬ë":5485,"´¤ëĭ¤":5486,"Ġì¤ĳê°Ħ":5487,"ìĦ¸ê°Ģ":5488,"¹¨ë¦¬":5489,"į¤":5490,"ĠìķĦë¬´íĬ¼":5491,"Ġì§ķ":5492,"ĠëļĿ":5493,"Ġê¼´":5494,"Ġìļķë§Ŀ":5495,"ìĦ±ê³¼":5496,"ģ¼ë¦¬":5497,"ĠìĿ¸íĦ°ë":5498,"ĠìķĬìĬµëĭĪëĭ¤":5499,"Ġìĭľìŀĳíķľ":5500,"Ġëª©ìĨĮë¦¬":5501,"ìĪĺë¡ľ":5502,"ĠëŃĲìķ¼":5503,"Įëĵľ":5504,"Ġìŀħêµ¬":5505,"Ġíķĺëĭ¤ê°Ģ":5506,"ëĭ¬ëĿ¼ê³ł":5507,"êµĲë¥¼":5508,"Ġë°ĺë³µ":5509,"Ġì¡°ì§ģ":5510,"Ġëª°ëŀĲëĭ¤":5511,"á´":5512,"Ġê±´ì¡°":5513,"Ŀ¼ê°Ģ":5514,"ĠìķĪìĭ¬":5515,"ĠìķĦëĭĪì§Ģë§Į":5516,"ìĸ´ì§Ģê³ł":5517,"ap":5518,"Ġë¹¼ìķĹ":5519,"ìĭľì§Ģ":5520,"ŀĺìļĶ":5521,"ìķĦìĿĺ":5522,"Ġíĳ¸ì§Ĳ":5523,"ìĦľê°Ģ":5524,"ĠìŀĲì²´ê°Ģ":5525,"ĠìŀħëĭĪëĭ¤":5526,"ê°ĸ":5527,"ëĵ¤ìĹĲê²Į":5528,"ĠíķľìŀĶ":5529,"ê±°ë¦¬ê³ł":5530,"ĠâľĶ":5531,"Ġë¨¹ê³łìĭ¶":5532,"ĠíĿĺëŁ¬":5533,"Ġë³¼ë":5534,"ë§¤ë":5535,"§ĮìĿ´":5536,"ë°Ķëĭ¥":5537,"ìĿ´ìĹĪìĸ´ìļĶ":5538,"Ġìłľë²ķ":5539,"¨ëıĻ":5540,"Ġì£¼ì§Ģ":5541,"Ġë°Ķê¾¸":5542,"íķĺëĭĪê¹Į":5543,"Ġëª¨ìĬµìĿĢ":5544,"ìĭľíĤ¤ëĬĶ":5545,"¡±ìĿ´":5546,"íĺ¸ìĿĺ":5547,"Ġ!!":5548,"Ġìĺ¬ëł¤ë":5549,"ìŀ¥ê³¼":5550,"Ġì¹´ë©Ķë":5551,"Ħê¹ĥ":5552,"ĠìĮį":5553,"Ġãħľ":5554,"Ġì¤ĳìĹĲìĦľ":5555,"Ġì²´íĹĺ":5556,"ëĤĺìļĶ":5557,"Ġê³ĦëŀĢ":5558,"Ġëĭ¨ëĭ¨":5559,"ìĦĿìĿĢ":5560,"ĵ¤ë¡ľ":5561,"ĠíħĮëĭĪ":5562,"ëħĦëĮĢ":5563,"ĠìĿ´ëķĮ":5564,"íķĺëĵ¯":5565,"¯¸ëĬĶ":5566,"ĠëĤ¬ëĭ¤":5567,"ê¹Įì§ĢëıĦ":5568,"Ġê²ĥìĿ¸ì§Ģ":5569,"êµ¬ìĿ´":5570,"ìĿ¼ìĥģìĬ¤íĥĢê·¸ëŀ¨":5571,"ĠìĺģìĽĲ":5572,"ì°¾":5573,"Ġëĭ¤ë¦¬":5574,"ìĨĮë¡ľ":5575,"ĠëıĦìĽĢìĿĦ":5576,"ĠìĹİ":5577,"Ġì½ĺ":5578,"ìĤ°ìĿ´":5579,"ìĺ¤ë¹ł":5580,"Ġë§ĮëĤł":5581,"Ġëĭ¹ìĭłìĿĢ":5582,"į©":5583,"Ġë°©ìĨ¡":5584,"ĠíĮĲëĭ¨":5585,"ê²¨ìĦľ":5586,"ĠëķĲ":5587,"Ġë¹Ħê°Ģ":5588,"©Ķë¦¬":5589,"ëłĪ":5590,"ìķĦëĤĺ":5591,"ĠëĮĢì¶©":5592,"ìłģìĿ´ê³ł":5593,"Ġê´ľíŀĪ":5594,"Ġì§Ģì¼ľ":5595,"ìĺ¤ë©´":5596,"ë§ĪíĬ¸":5597,"ł¤ìķ¼":5598,"Ġë°°ë¥¼":5599,"ĠíķĦìļĶê°Ģ":5600,"Ġê°Ŀ":5601,"ĠìĪľìĭĿê°ĦìĹĲ":5602,"Ġs":5603,"ì§ģíķľ":5604,"Ġë³´íĺ¸":5605,"ê°ľìĿĺ":5606,"´ëĭ¤":5607,"íİľ":5608,"ĠH":5609,"ł¤ìļĶ":5610,"ê»ĺìĦľëĬĶ":5611,"ĠëĤ´ëł¸ëĭ¤":5612,"ĲĲ":5613,"ì±ħìĿĦ":5614,"Ġì¦Ĳê±°":5615,"ì²©":5616,"ìĨĮìĦ¤":5617,"Ġë°©íĸ¥":5618,"ì§ĢìŀĲ":5619,"Ġê²¸":5620,"ĠëĦĲ":5621,"Ġë²ĪëıĦ":5622,"ĠíĿĶëĵ¤ë":5623,"ê°ĦìĿĺ":5624,"ĠëĺĲëĬĶ":5625,"ł·":5626,"Ġìĸ¼êµ´ìĿĢ":5627,"ĠëĺĲë":5628,"ĠíĿ©":5629,"ê°Ģë£¨":5630,"ë¶ĢìĤ°":5631,"Ġë¸ĶëŀĻ":5632,"ëıĦë":5633,"ĠëĤ©":5634,"ŀ©":5635,"Ġë¿ĲìĿ´ëĭ¤":5636,"Ġìĺ³":5637,"ìºĲ":5638,"ë§ĪìĬ¤":5639,"ĠìŀłìĿĦ":5640,"ıĦë¡Ŀ":5641,"Ġìĸĩ":5642,"ìĹŃìĭľ":5643,"Ġê°ĢìĬ´ìĹĲ":5644,"Ġìĺ¤íĶĪ":5645,"Ġìĸ´ë¨¸ëĭĪê°Ģ":5646,"ĠìĹ°êµ¬":5647,"¿į":5648,"ĠìĪ«":5649,"ª¨ê°Ģ":5650,"ìĿ´ì§ĢìļĶ":5651,"ĠìĻ¼ìª½":5652,"Ġì§ľì¦Ŀ":5653,"ĠíĥĢìĿ´":5654,"Ġë§Ĳíķĺ":5655,"ìŀĪê²Į":5656,"Ġìłľìŀĳ":5657,"ìĽłëįĺ":5658,"ŀĢíŀĪ":5659,"ĠìķĪëħķ":5660,"Ġíİĺë":5661,"¦¬ëĤĺ":5662,"Ġ40":5663,"ĠíĤ¤ë":5664,"ĠìŀłìĿ´":5665,"į½":5666,"£¨ë¥¼":5667,"íĶ¼ìŀĲ":5668,"ĠíĽĮë":5669,"Ġêµ¬ìĦĿ":5670,"ì¹ĺê²Į":5671,"ĠìŀĲê¸°ê°Ģ":5672,"Ġìĸ´ì¨Įëĵł":5673,"ni":5674,"and":5675,"ĠìĿ´ê²ĥìĿĢ":5676,"Ġìĭ¹":5677,"ĠìĸĳìĿ´":5678,"Ġì²¨":5679,"§ŀíĮĶ":5680,"ìĻĶëįĺ":5681,"Ġì§Ģë°©":5682,"Ġê²ĥìĿ´ìĺ¤":5683,"ë²Īì§¸":5684,"Ġë¶Īê°ĢëĬ¥":5685,"ìĬ¤íĥĢìĿ¼":5686,"ëĺĲ":5687,"Ġê³µíı¬":5688,"ì°Įê°ľ":5689,"ĠìķĮì§Ģ":5690,"ĵľë¦´":5691,"Ġê³¤ë":5692,"ê·¸ëŀĺëıĦ":5693,"ŀĢëĭ¤":5694,"Ġëĸ¨ìĸ´ì§Ħ":5695,"íĨµìĿĦ":5696,"ìĪľë":5697,"ĠëĲľëĭ¤ëĬĶ":5698,"Ġì£½ìĸ´":5699,"Ġê±´ê°Ģ":5700,"êµ¬ë§Į":5701,"ĠíĮĲë§¤":5702,"Ł°ëį°":5703,"Ġëª©ìĪ¨ìĿĦ":5704,"¶ķ":5705,"ãĦ¹":5706,"łĽ":5707,"íķĺëł¤ëĬĶ":5708,"Ġ16":5709,"¦¬ë¸Į":5710,"Ġìĺ¤ëŀ«":5711,"ĠíĻĶëł¤":5712,"ĠëĲĺê²Į":5713,"Ġêº¼":5714,"Ġì¡°ê°ģ":5715,"ĠìķĪíĥĢ":5716,"ĠìĿ¼ì£¼":5717,"Ġê·ĢìĹ¬ìļ´":5718,"Ġë§ŀìĿĢ":5719,"Ġìĵ¸ë":5720,"Ġë§¤ìļ´":5721,"ĠëıĮìķĦìĺ¨":5722,"ìĤ¬ëıĦ":5723,"ê²¬ë":5724,"íı¼":5725,"Ġë¯¼ì¡±":5726,"ĠãĨį":5727,"ì¹ľë":5728,"ĠìłķìĭłìĿ´":5729,"ĠìķĬìķĺëįĺ":5730,"ìĿĦëķĮ":5731,"Ġìĸ¹":5732,"ëĸ":5733,"ıĻìĥĿ":5734,"ìľĦë¡ľ":5735,"æľ":5736,"ë¡ł":5737,"Ġëĵ¤ìĸ´ê°ĢëĬĶ":5738,"kor":5739,"ł¤ëĤĺ":5740,"ĠëĤĺë¦Ħ":5741,"Ġë§Įëĵ¤ìĹĪëĭ¤":5742,"Ġê±°ì§ĵë§Ĳ":5743,"Ħ·":5744,"ê²łì§ĢìļĶ":5745,"íĬľë":5746,"Ġì±Ħë":5747,"ìĬ¤ëıĦ":5748,"ĠìĿ¸ê°Ħë":5749,"Ġãħ¡":5750,"íķĺìħ¨":5751,"ĠìŀĲì²´":5752,"íĨ±":5753,"ì°¨ê²Į":5754,"Ġìĭ¤íĮ¨":5755,"íķłëķĮ":5756,"Ġë¶ĦëªħíŀĪ":5757,"Ġê·¸ìĹĲ":5758,"ĠìĤ¬ë°©":5759,"ìĤ¬ìĻĢ":5760,"Ġìĭ¬ì§Ģìĸ´":5761,"Ġì¡°íķ©":5762,"ì»¬":5763,"¬¸ìĿĺ":5764,"ì²«":5765,"Ġê¸°ëıĦ":5766,"Ġëĭ¥":5767,"ìĭľë¡ľ":5768,"êµ¿":5769,"íĿĺ":5770,"ì¢ħìĿĺ":5771,"ff":5772,"Ġë°ĺì§Ŀ":5773,"ĠêµŃë¯¼":5774,"ĠëŃĲëĿ¼ê³ł":5775,"Ġê·Ģì¡±":5776,"íĢ´":5777,"Ġê¹ĬìĿ´":5778,"ìĭ¤ìĹĲìĦľ":5779,"ëħĦìĹĲ":5780,"Ġíĩ´ê·¼":5781,"ìłĢëĬĶ":5782,"ĠëıĦë¡ľ":5783,"ĠìĿ´ë§Ī":5784,"ĠëıĦìĭľ":5785,"ìĨįìľ¼ë¡ľ":5786,"Ġë°±ìĦ±":5787,"ĠìŀĲê°Ģ":5788,"¸Ĳ":5789,"--------":5790,"ĠìºĲ":5791,"ãĦ´":5792,"Ġëľ¨ê±°ìļ´":5793,"Ġë§Įëĵ¤ìĸ´ë":5794,"ê³Ħê°Ģ":5795,"íĮ¬":5796,"to":5797,"ĠìĿĺìĭ¬":5798,"ìĹ°ìĿĢ":5799,"íħĲëį°":5800,"ĠëĤĺë©´":5801,"Ġë¶Ħëħ¸":5802,"Ġë§İê³ł":5803,"ìłĢëıĦ":5804,"ê¸°ìĹĲëıĦ":5805,"íĴĪìĿĦ":5806,"³¶":5807,"ë§¹":5808,"Ġw":5809,"ĠëĥĦìĥĪê°Ģ":5810,"Ġë¶Ģë¥´":5811,"ê³ĦìĿĺ":5812,"Ġë¨¹ìĹĪ":5813,"Ġíİ¸íķĺê²Į":5814,"Ġì°¸ìľ¼ë¡ľ":5815,"Ġëµ":5816,"ìłĪíķľ":5817,"ĠìĺĨìľ¼ë¡ľ":5818,"ĠìĹĲìĦľ":5819,"ĠìĥĪëģ¼":5820,"ì»µ":5821,"ìĻĶìĸ´ìļĶ":5822,"Ġ_":5823,"ĠìĿĮìĭĿìĿĦ":5824,"ìłĲìĭ¬":5825,"Ġê¹Ķ":5826,"ĠíĽĦê¸°":5827,"Ķ±":5828,"ë²½":5829,"Ġë´Ĳìķ¼":5830,"ĠìķīìķĦìĦľ":5831,"Ġë¹Ħíĸī":5832,"Ġìĺģíĺ¼":5833,"Ġìĺģìĸĳ":5834,"ê²ģê²Į":5835,"ìĸ´ì§Ī":5836,"íķ¨ë":5837,"Ġì°Ķë":5838,"Ġë§ĮìĹĲ":5839,"ìĤ¬ëŀĮë":5840,"¥¸ëĭ¤":5841,"ĠíķĺëĤĺíķĺëĤĺ":5842,"Ĥ´ë¥¼":5843,"ĠìķīìĿĢ":5844,"ĠëĨĵìĿĢ":5845,"Ġìŀ¡ìķĦë":5846,"ìĿ´íķľ":5847,"Ġì±ħìŀĦ":5848,"you":5849,"ê°ĲìĿĢ":5850,"ãħİãħİãħİ":5851,"Ġêµ¬ìĽĮ":5852,"ĠìĥĪìļ°":5853,"Ġë¨¹ìľ¼ëŁ¬":5854,"ìłĲìĹĲìĦľ":5855,"Ġëª¨ìĸĳìĿ´ìĹĪëĭ¤":5856,"Ġë¬¼ëŁ¬ë":5857,"Ġì·¨íĸ¥":5858,"ìĨįìĹĲìĦľ":5859,"Ĥĺë":5860,"ë¬¸íķĻ":5861,"ê±°ë¥¼":5862,"Ġíķľë§ĪëĶĶ":5863,"ëĭ¨ìĿĺ":5864,"Ġë³ĳìĤ¬ë":5865,"Ġê¸°ì¡´":5866,"íķĺëıĦë¡Ŀ":5867,"ë§Ĳë":5868,"Ġë²Ħë¦¬ê³ł":5869,"Ġë¶Ħëĵ¤ìĿĢ":5870,"ìĹ°ìĿĦ":5871,"ĠìķĦëĭĮëį°":5872,"ĠíĿĻ":5873,"Ġë¬¸íĻĶ":5874,"ĠëĤ¼":5875,"ĠF":5876,"ìĥµ":5877,"Ġì¢ĭì§Ģ":5878,"Ġê°ĲíŀĪ":5879,"ĠìŃī":5880,"ðŁĺĤ":5881,"ì°¬ë":5882,"ĠíĮ½":5883,"ĠíĳľìłķìĿ´":5884,"Ġì°¨ì§Ģ":5885,"ĠìŀĳìĦ±":5886,"Ġê´ľì°®ìĿĢ":5887,"Ġìĺ¤ë¥¸ìª½":5888,"ĠìķĬìķĦìļĶ":5889,"ĠëĬĲëĤĮìĿĦ":5890,"Ġë§ĽëıĦ":5891,"ëĲĺë":5892,"ĠìĥģíĻ©ìĿĦ":5893,"Ġ13":5894,"íĺĦìĿĺ":5895,"ìľĦìĿĺ":5896,"Ġì¶ľê·¼":5897,"Ġìĭ¬ê°ģ":5898,"Ġíķı":5899,"Ġì¡¸ë":5900,"âĹ":5901,"ĠìĿ´ëŀĺ":5902,"ëĮķ":5903,"ĠìĦłë°°":5904,"ìĿ´ë²Ħ":5905,"íķĺë¥¼":5906,"Ġìµľê³łìĿĺ":5907,"17":5908,"ì¦Ļ":5909,"ìĹ°ìĿĺ":5910,"ìį©":5911,"ì±Ħë":5912,"Ġëª¹ìĭľ":5913,"íĹī":5914,"Ġë°©ìľ¼ë¡ľ":5915,"Ġìĸ´ëĶĺ":5916,"foodstagram":5917,"ìĦłìĿ´":5918,"íķĺê¸´":5919,"ĠëĤĺíĥĢëĤľ":5920,"Ġê´Ģíķľ":5921,"ìķĪìĿĢ":5922,"ĠìķĬìķĺì§Ģë§Į":5923,"Ġë§ŀìķĦ":5924,"ìłľì£¼ëıĦ":5925,"ì§ľë":5926,"ìħĢìĬ¤íĥĢê·¸ëŀ¨":5927,"Ġì³Ĳëĭ¤ë³´ìķĺëĭ¤":5928,"!ãĢį":5929,"Ġê²ĥìĿ´ê³ł":5930,"15":5931,"ìĬ¤íĦ°ë":5932,"ìĿ´ëįĺ":5933,"ì§ĳìĿ´":5934,"ici":5935,"Ġì°įìĸ´":5936,"Ġë§Īë¬´ë¦¬":5937,"Ġë¹Į":5938,"ĠëĮĢê¸°":5939,"Ġìĸ´ëĸł":5940,"§¨":5941,"ìľ¡ìķĦë":5942,"ĠìĦ±ë¶Ħ":5943,"¬ë¿į":5944,"ìĦ¸íĬ¸":5945,"Ġíķ¸ëĵľ":5946,"ê¶":5947,"ĠëĤĺíķľíħĮ":5948,"Ġíľ´ëĮĢ":5949,"ĠíĽĪë":5950,"Ġë³´ìķĦ":5951,"ìĺģìĥģ":5952,"Ġì¹ĺê³ł":5953,"ĠíĶ¼ê°Ģ":5954,"ê¹¥":5955,"Ġê±¸ìĿĮ":5956,"ì¹ĺë©°":5957,"ìĬ¤ìĻĢ":5958,"ĠìĤ¬ìļ©íķĺëĬĶ":5959,"pet":5960,"ê·¸ëłĪ":5961,"Ġìļ©ìĦľ":5962,"ĠìŀĲìľł":5963,"Ġë§¥ì£¼":5964,"Ġìĸ´ëĶĶë":5965,"Ġíĸīë³µíķľ":5966,"Ġëĭ¤ìĨĮ":5967,"ëĭ¨ëĭ¤":5968,"Ġìª¼":5969,"ĮĶëĭ¤":5970,"Ġíĺģ":5971,"Ġìļ´ìĺģ":5972,"Ġê²¨ë":5973,"Ġë¯¿ìĿĦ":5974,"Ġì¦Ĳê¸¸":5975,"Ġìĺ¤ì§ģ":5976,"Ġê±¸ëł¤":5977,"Ġë°ĺì°¬":5978,"ìĸ¸ëĭĪ":5979,"25":5980,"Ġëĭĺ":5981,"ê²ĥìĿ´":5982,"Ķĺ":5983,"ĠìŀĲìĭłìĹĲê²Į":5984,"ĠëĬĲê»´ì§ĢëĬĶ":5985,"ëĥĲ":5986,"ë³´ëĭ¤ëĬĶ":5987,"ĠëĳĲëĵľë":5988,"ĠëĿ¼ëĬĶ":5989,"ł¸ëįĺ":5990,"íķĺê³łëĬĶ":5991,"łĮì§ķ":5992,"ĠìĿ¼ë¶ĢëŁ¬":5993,"Ġìĸ´ì°Įë":5994,"ĠìĨĮë¦¬ì³¤ëĭ¤":5995,"ëĭµê²Į":5996,"Ġë°©ê¸Ī":5997,"ĠëĪĪëıĻ":5998,"¢°":5999,"¬¸ìĿĢ":6000,"Ġë³´ëĤ¸":6001,"ê²ĮëĤĺ":6002,"ĠíĮĮìķħ":6003,"ĠìļĶë¦¬":6004,"ìĽ¨":6005,"ë¶Ģë¦¼":6006,"ìķĪìĿ´":6007,"ĠìĿ´ëłĩ":6008,"ĠëĲľëĭ¤ê³ł":6009,"Ġë¯¼ë":6010,"ìķĦë¥¼":6011,"°Ń":6012,"Ġë§Įëĵ¤ê³ł":6013,"Ġì²ĺìĿĮìľ¼ë¡ľ":6014,"ĠâĿ":6015,"íĻĢ":6016,"ĠëĳĲë²Ī":6017,"ë³´ë¥¼":6018,"ĠìķĦëŀĺë¡ľ":6019,"ìĿ¸ìľ¼ë¡ľ":6020,"ĠìĤ¬ëĤ´ê°Ģ":6021,"¶ĢìĿĺ":6022,"ĠëĬĻìĿĢ":6023,"ĠíĬ¹ë³Ħíķľ":6024,"Ġ14":6025,"ë£¨":6026,"Ġìĺ¤ëĬĺìĿĺ":6027,"¦¼ìĿĦ":6028,"Ġï¼į":6029,"ì§Ģë©´ìĦľ":6030,"ĠëĤĺìĦ°ëĭ¤":6031,"Ġìĸ´ë¨¸ëĭĪìĿĺ":6032,"Ġ?":6033,"ì¤ĢìĿĢ":6034,"ë§ĮìĿĢ":6035,"Ġìĭľê°ĦìĹĲ":6036,"¬ë½ķ":6037,"Ġë§Ĳíķľ":6038,"íħĮìĿ´ë¸Ķ":6039,"ĠìĤ¬ìŀ¥":6040,"ìŀĳìĿĢ":6041,"ĠìĹĨëĬĶëį°":6042,"ìĺ¨ëĭ¤":6043,"ĠìĹ¬ê¸°ëĬĶ":6044,"ê·¸ëŀĺìĦľ":6045,"ìļ¤":6046,"Ġë§Īì§Ģë§īìľ¼ë¡ľ":6047,"ê·¸ê±´":6048,"Ġì£¼ë°©":6049,"selfie":6050,"ĠìĨįìĿĺ":6051,"ĠíĽĮë¥Ń":6052,"Ġë¨¹ìĹĪëĭ¤":6053,"ĠìĥĿê°ģíķ´ë":6054,"ëĲľëĭ¤":6055,"Ġíĳ¸ë¥¸":6056,"Ġê´Ģìĭ¬":6057,"ĠëģĪ":6058,"Ġëħ¸ë¦ĩ":6059,"ì¤ĺìĦľ":6060,"de":6061,"Ġ17":6062,"Ġëª¨ìĹ¬":6063,"íģ¬ëĬĶ":6064,"ĠìłķëıĦëĬĶ":6065,"Ġë§ĿìĦ¤":6066,"ìĿ¸ë¶Ħ":6067,"ëĭ¤ìĿ´ìĸ´íĬ¸ìĭĿëĭ¨":6068,"ĠO":6069,"ĠìłĢíĿ¬ëĬĶ":6070,"ĠE":6071,"ìķĦëĿ¼":6072,"Ġíķ´ë³´":6073,"ĠìķĦìłĢìĶ¨":6074,"ìĭľì£ł":6075,"Ġê·¸ëħĢìĹĲê²Į":6076,"Ġë¨¸ë¦¬ì¹´ë":6077,"Ġ***-****-****":6078,"íĿł":6079,"ëĿ½":6080,"Ġëĭ¤ìĿ´ìĸ´":6081,"ì¤Į":6082,"Ġêµ´":6083,"ĠâĢķ":6084,"ëļ±":6085,"Ġëĵ±ìĿ´":6086,"ìľĹ":6087,"Ġëª¨ë¥´ê²ł":6088,"ĠìĿĺìĭĿ":6089,"ĠëĨĵìĹ¬":6090,"ĠëģĮê³ł":6091,"ê³¼ëıĦ":6092,"Ġëĵ¤ìĸ´ë":6093,"Ġì§ģìĽĲë":6094,"ë³´ê³ł":6095,"ìĿ´ëĿ¼ë":6096,"Ġê³łëĵ±":6097,"ĤĮ":6098,"ĶĢ":6099,"íĬ¸ìĿĺ":6100,"Ġë§ĽìĿĢ":6101,"ãħģ":6102,"Ġë°Ķê¹¥":6103,"Ġê°ĵ":6104,"ĠëŁ¬":6105,"ĠìķĪê³ł":6106,"Ġëĵ¤ëł¸ëĭ¤":6107,"Ġìļ°ë¦°":6108,"Ġë¬´íķľ":6109,"ĠíĭĪ":6110,"Ġë§ĮëĤ¬":6111,"Ġìĺ¤ì§Ģ":6112,"ìłĲìĿĢ":6113,"ìĥĲëŁ¬ëĵľ":6114,"ĠëĺĲëĭ¤ìĭľ":6115,"ĠìŀĪëĭµëĭĪëĭ¤":6116,"ìĻķìĿĺ":6117,"¦¬ë§Į":6118,"Ġë¬´ìĦľìļ´":6119,"§Īë¥¼":6120,"Ġë§Īìĭľ":6121,"íķĺìĭ¤":6122,"ĠðŁĻ":6123,"íĿ¬ìĿĺ":6124,"Ġë§ŀì¶Ķ":6125,"ĠíĶĦëŀĳ":6126,"íĪ¬ìĸ´":6127,"êµĲìľ¡":6128,"ĠìĺĪìłĦ":6129,"Ġê°Ĳìłķ":6130,"Ġë³´ê²Į":6131,"ĠíħĮëĭĪê¹Į":6132,"ê²ĥê°Ļ":6133,"ĠíĻľìļ©":6134,"ëª½":6135,"ê·¸ëĥ¥":6136,"ĠìĿ´ê³³ìĹĲ":6137,"ê¼¼":6138,"Ġë¶ĢëŁ¬":6139,"Ġëĵ£ëĬĶ":6140,"Ġë§¤ëĭ¬ë":6141,"¥ľ":6142,"ĠíķĺëĤĺëĬĶ":6143,"...?":6144,"ĠëıĦìłĢíŀĪ":6145,"Ġëĭ¹ìĭłìĿĺ":6146,"Ġìĺ®ê²¨":6147,"16":6148,"Ġê·¸ëĤĺë§Ī":6149,"íĹĪë":6150,"ê°Ĵ":6151,"íĹĲ":6152,"Ġëĵ¤ëł¤ìĻĶëĭ¤":6153,"ĠíĻĢ":6154,"ê·¸ëŁ°ëį°":6155,"ĠìĺĪìłķ":6156,"Ġíķ´ê°Ģ":6157,"ê±´ëį°":6158,"ĠìĽĶë":6159,"ĠëĤ¨ìĿĺ":6160,"Ġë°ľìĥĿ":6161,"ĵ£":6162,"Ġìĺ¤ë©´":6163,"ëĭ¨ìĿ´":6164,"ê¸°ê¹Įì§Ģ":6165,"ĠìĿĺê²¬":6166,"ë¨¹ë¶Ģë¦¼":6167,"Ġëľ»ìĿĦ":6168,"ĠìĹ¬ê¸°ìłĢê¸°":6169,"ĠëĦĪíĿ¬ë":6170,"íĺ¸ë°ķ":6171,"Ġê¸īíŀĪ":6172,"ëªĩ":6173,"ìĨĮë¦¬ë¥¼":6174,"instagram":6175,"Ġì§Ģê¸ĪëıĦ":6176,"Ġìŀ¬ë¹¨ë¦¬":6177,"Ġãħĭãħĭãħĭãħĭãħĭãħĭ":6178,"íĪ¬ë¥¼":6179,"¶ĦëıĦ":6180,"ĠìĥĿê°ģëıĦ":6181,"Ġì¹¼ìĿĦ":6182,"Ġë©Ķëī´ë":6183,"ĠëĬĲê»´ì¡Įëĭ¤":6184,"ł¸ìĿĦ":6185,"ĠìĺĨìĹĲìĦľ":6186,"ĠëĬĲëĤĢ":6187,"ĠëĲĺëĬĶëį°":6188,"ìľ¡ìķĦìĨĮíĨµ":6189,"ĨĢìĿ´":6190,"Ĳĺì§Ģ":6191,"Ġå":6192,"ê³łëıĦ":6193,"ĠìķĮìķĦìĦľ":6194,"Ġë°ĺê°Ģ":6195,"ĠëĶĶìŀĲ":6196,"ìĬµìĿĦ":6197,"Ġê´Ģëł¨":6198,"ĠìĿ¼ìĸ´ëĤ¬ëĭ¤":6199,"ìŀĶìĿĦ":6200,"ĠíĻĶë©´":6201,"Ġê°ĢëĿ¼ìķī":6202,"ĵŃ":6203,"¶ĢëĬĶ":6204,"ĠëĴ¤ìĹĲìĦľ":6205,"Ġì°¸ë":6206,"ìŀĲëıĦ":6207,"íķĺëĦ¤ìļĶ":6208,"ĠíķĦìĪĺ":6209,"ĠìĻĢë":6210,"ĠìĺĪë»Ĳ":6211,"ĠìĿ¼ìĸ´":6212,"Ġê³ģìĹĲ":6213,"ìĿ¼ìĿĺ":6214,"Ġì¡°ê¸Īë§Į":6215,"íĺķìĿĦ":6216,"Ġì§ĢëĤľë":6217,"ĠëĬ¥ëł¥":6218,"ĠíĶ¼ë¶ĢìĹĲ":6219,"ëªħìĿ´":6220,"ł¸ìĬµëĭĪëĭ¤":6221,"ĠëıĪìĿ´":6222,"Ġìĭľê°Ħë":6223,"±ī":6224,"Ġë¶ĪëłĢëĭ¤":6225,"ĠëıĦìĽĢìĿ´":6226,"Ġìĳ¥":6227,"ªħíķľ":6228,"Ġëĸłìĺ¬ëŀĲëĭ¤":6229,"ë³´ëĭĪ":6230,"¡ľëĬĶ":6231,"ĠìĪĺìĹħ":6232,"ëĤĺë¬´":6233,"ëĬ¦":6234,"ĠìĤ¬ìĿ´ë¡ľ":6235,"Ġìĺ¤ëŀ«ëıĻìķĪ":6236,"ì¡°ë¥¼":6237,"ĠëħĢìĦĿìĿ´":6238,"ŀ¨":6239,"Ġìį©":6240,"Ġì¢ĭìķĺìĸ´ìļĶ":6241,"íķĺê¸°ë¡ľ":6242,"ìĤ¬ìĺµëĭĪëĭ¤":6243,"ļ±":6244,"ê¼Ń":6245,"ĠðŁ¤":6246,"Ġì¹¨ëĮĢ":6247,"ìĩ¼íķĳ":6248,"ì§ĦìĿĦ":6249,"ĠíĶ¼ë¥¼":6250,"us":6251,"Ġëĭ¤ë¦Ħ":6252,"ê¿Ģ":6253,"Ġê¿ĪìĿĦ":6254,"Ġê¸°ìĪł":6255,"íķĺëĬĶìĹ¬ìŀĲ":6256,"ìª":6257,"ë¯¼ë":6258,"ì¡°ëĬĶ":6259,"ĠëĦĪë¥¼":6260,"Ġê·¸ë¦¬ê³łëĬĶ":6261,"íĮĮíĭ°":6262,"ĠìłĦíĻĶë":6263,"íĺķìĿ´":6264,"Ġë°°ê³ł":6265,"¨¸ëĭĪë¥¼":6266,"ĠìĿ´ìģĺ":6267,"ĠìķŀìĦľ":6268,"Ġëĵ±ëĵ±":6269,"Ķľ":6270,"ul":6271,"Ġìłĳê·¼":6272,"ìķĦë³´":6273,"ĠíĽĦíļĮ":6274,"ĠìĽ¬":6275,"Ġì²łë":6276,"Ġë¬¼ìĿ´":6277,"Ġëį§":6278,"ìĭŃëĭĪëĭ¤":6279,"Ġì¤Ģë¹Ħë":6280,"íķľêµŃ":6281,"ðŁĳįðŁı»":6282,"Ġëĭ¤ë¦¬ë¥¼":6283,"Ġì£¼ìĭľ":6284,"ĠìĿ´ìķ¼ê¸°ê°Ģ":6285,"Ġë§ĲìĶĢë":6286,"Ġíĥľìĸ´ëĤĺ":6287,"ĠìĹ¬ìľł":6288,"Ġíıīë²Ķ":6289,"ëĬĶê±°":6290,"¦¬ëĿ¼ê³ł":6291,"ĠíĴĢìĸ´":6292,"Ġë§ĪìĿ´":6293,"ª¨ë¥¼":6294,"Ġì´¬ìĺģ":6295,"Ġ)":6296,"Ġìļ°ë¦¬ë¥¼":6297,"ĠíĮĢ":6298,"ĠìķĬì§Ģë§Į":6299,"Ġë§Īì¹¨":6300,"Ġíĥĳ":6301,"Ġëĵ¤ìĸ´ìĻĢ":6302,"Ġíİ¸ë":6303,"ëįĶë":6304,"ê·¸ë§Į":6305,"Ġê°Ĳìĭ¸":6306,"íŀĺ":6307,"íĶĦë¦¬":6308,"ìĩł":6309,"ê°ĦëıĦ":6310,"ĠìĿ½ê³ł":6311,"¦¼ìĿ´":6312,"íĮĢ":6313,"êµ¬ìĿĺ":6314,"ë§ĪíĨł":6315,"íķ´ì¡Į":6316,"ĠìļĶê±°":6317,"ĠíĹĪë¦¬ë¥¼":6318,"..?":6319,"ĠëĦī":6320,"Ġê±°ë¶Ģ":6321,"ì»¥":6322,"ĠìĺģìĹħ":6323,"íķĺì£ł":6324,"ìŀ¥íķľ":6325,"ĠíļĮë³µ":6326,"ìĭ¬íķľ":6327,"ì°¨ê°Ģ":6328,"Ġë¶Ģë¥´ëĬĶ":6329,"ĠíĹ¤ìĸ´":6330,"Ĳë¦¬":6331,"Ġë¬´ìĤ¬":6332,"ĠìłĢê¸°":6333,"ĠìĪĺì¤Ģ":6334,"ĠìĥģíĻ©ìĿ´":6335,"Ġëª°ìķĦ":6336,"ë§ĪìłĢ":6337,"Ġê±´ëĦ":6338,"Ġê±°ë¦¬":6339,"ìĹĲë§Į":6340,"Ġëĭ´ë°°ë¥¼":6341,"ìŀĦë":6342,"ĠìĹ°ì¶ľ":6343,"Ġì¢ĢëįĶ":6344,"ĠâĹ":6345,"ê²½ìĿĺ":6346,"Ġê·¸ëŁ¬íķľ":6347,"Ķ¸":6348,"Ġë¬´ìĹĩìĿ¸ê°Ģ":6349,"ëłĪë":6350,"ìķłëĬĶ":6351,"ĠìĿ´ê²ĥìĿ´":6352,"ìĥĪëģ¼":6353,"Ġë¹Ħë¡ľ":6354,"ĠëĦĪë¬´ëıĦ":6355,"Ġëĭ´ë°°":6356,"ìĮĪ":6357,"Ġë±ĥ":6358,"ĠëĮĢëĭµìĿĦ":6359,"Ġë°ľëĿ¼":6360,"Ġê³¼ìłķ":6361,"ĠìĨįìĿ´":6362,"ëĪĦë":6363,"Ġê±į":6364,"ìĺģìĿĦ":6365,"Ġë°ĶìĤŃ":6366,"Ġê·¸ìłľìķ¼":6367,"ĠëķĮë¶ĢíĦ°":6368,"ìĮĢ":6369,"Ŀ¼ìĿ¸":6370,"ow":6371,"ìĤ¬ìĭ¤":6372,"Ħëĭ¤":6373,"ĠìĨĲë°Ķëĭ¥":6374,"Ġê³°":6375,"ìĹĲê²Ĳ":6376,"Ġì°¬ë":6377,"¦¬ë¯¸":6378,"Ġë¸Ķë¡ľ":6379,"Ġãħłãħłãħłãħł":6380,"Ġê³łê¸°ë¥¼":6381,"ë°Ģ":6382,"ìĭľìŀ¥":6383,"ê²¨ì§Ħ":6384,"ĠëĸłëĤľ":6385,"Ġêµ¬ë©į":6386,"Ġê³¤":6387,"Ġë¶ĪëŁ¬ë":6388,").":6389,"Ġìĸ´ìĥī":6390,"íĥĢë¯¼":6391,"ëĭ¤ëĵ¬":6392,"Ġê´Ģê°Ŀ":6393,"íķ´ì£¼ëĬĶ":6394,"ìļĶì¦ĺ":6395,"ê·¸ê²Į":6396,"ĠìĥĿê°ģíķĺë©´":6397,"ĠìĺģíĻĶìĿĺ":6398,"ĠìłľìĻ¸":6399,"íı¬ë©Ķ":6400,"Ġëĺĳê°ĻìĿĢ":6401,"Ġì¢ĭê²łëĭ¤":6402,"¸ëĭ¤":6403,"ĠëĶ´":6404,"ĠìŀĬì§Ģ":6405,"Ġëĭ¤ìĿĮëĤł":6406,"_-":6407,"Ġê³µê²©ìĿĦ":6408,"³¸ëĭ¤":6409,"Ġì£½ëĬĶ":6410,"Ġê²Ģìĥī":6411,"ĠíĽĶ":6412,"Ġë©ĭì§Ħ":6413,"!!!!!":6414,"ĠíĿł":6415,"ĠëĤ´ë±ī":6416,"ìĹĲëĭ¤":6417,"ĠìķĪëĤ´":6418,"ĠìĿĮë£Į":6419,"ĠìĿ´ë²ĪìĹĶ":6420,"ĠìĭľìĽĲíķľ":6421,"ĠìŀĪìľ¼ëĭĪê¹Į":6422,"Ġë³µìŀ¡":6423,"²łë¦¬":6424,"Ġë°Ķë³´":6425,"Ġì§Ħì§Ģ":6426,"Ġíķłê¹Į":6427,"Ġì²ĺë¦¬":6428,"ĠìĿ¼ìĿ´ëĭ¤":6429,"ĠìĭĿìľ¼ë¡ľ":6430,"ĠìĿ¸ê°ĦìĿ´":6431,"ìĹĳ":6432,"por":6433,"Ġìĥ¤ë":6434,"Ŀ¼ìĿĺ":6435,"ĠíĻĶë¥¼":6436,"ì¡°ê°Ģ":6437,"Ġë§ĪìĿĮìľ¼ë¡ľ":6438,"ĠðŁĮ":6439,"Ġê¸°ìģ":6440,"ìĿ´ëŀįëĭĪëĭ¤":6441,"ĠëģĦ":6442,"Ġë°°ìļ°":6443,"ĠìĦ¤ë§Ī":6444,"ĠìĦľìĦľíŀĪ":6445,"Ġì§ĵìĿĦ":6446,"ì§ľë¦¬":6447,"Ġíĸ¥íĸĪëĭ¤":6448,"ì³ĲìĦľ":6449,"ĠìĨĮë¦¬ë¡ľ":6450,"ł¸ê³ł":6451,"Ġêº¾":6452,"¦¬ì¦Ī":6453,"Ġë°ĶëĿ¼ë³´ëĬĶ":6454,"ĠìłľêµŃ":6455,"ê·¸ëŁ¬ë":6456,"¡ľë¶ĢíĦ°":6457,"Ġì°¨ë¡Ģ":6458,"Ġë§¨ëĤł":6459,"Ġë¹Ħë°Ģ":6460,"ìĭľíĤ¤ê³ł":6461,"Ġë³´ëŁ¬":6462,"Ġëĭ¤ë¥´ê²Į":6463,"ĵľë¦¬":6464,"ĠìĶ¨ë":6465,"ìĭľíĶ¼":6466,"ëĭĺê»ĺìĦľ":6467,"Ġ24":6468,"Ġëĭ¤ëĭĪëĬĶ":6469,"ĪĪ":6470,"ìĿĺê°Ģ":6471,"ĠëĪĦëĤĺ":6472,"íīģ":6473,"Ġì£¼ìľĦë¥¼":6474,"²Įë":6475,"Ġë²łìĿ´":6476,"ëĭ¤ë³´ìķĺëĭ¤":6477,"ĠíĿĺëŁ¬ëĤĺ":6478,"·Ķ":6479,"Ġë§ĲìŀħëĭĪëĭ¤":6480,"Ġì£¼ìłĢìķī":6481,"ìĭ¶ëĭ¤":6482,"Ġì°Įíĳ¸ë":6483,"Ġë¿ľ":6484,"ë¬¼ìĿ´":6485,"ĠìıĻ":6486,"ĠìķĦíĶĪ":6487,"³´ëįĺ":6488,"Ġê°ĪìķĦ":6489,"Ġëĺ¥":6490,"Ġëĵ¤ìĿĦ":6491,"ê°Ģë©´":6492,"ë¦¬ë¥¼":6493,"tra":6494,"ìŀ¥ëıĦ":6495,"¼ëĭ¤":6496,"íİ¸ìĿĺ":6497,"ĠìĽĥê³ł":6498,"íĮĲìĹĲ":6499,"Ġê¸ģ":6500,"Ġê¹¨ëĭ«":6501,"Ġìľ¼ë¡ľ":6502,"íĮĲìĿ´":6503,"ì§ĳìĹĲìĦľ":6504,"ê´ĢìĿĢ":6505,"Ġìłģìĸ´ëıĦ":6506,"ìħĢíĶ¼":6507,"ìĬ¤ëŁ¬ìĽĮ":6508,"Ġëı¼ì§Ģ":6509,"ŀ´":6510,"ëŁ¬":6511,"íķĺê²ĮëıĦ":6512,"Ġì§Ģìľ¼ë©°":6513,"Ġìłģëĭ¹íŀĪ":6514,"ĠíĿĲë¥´ëĬĶ":6515,"ĠíĬĢìĸ´ëĤĺ":6516,"ĮëĵľìľĦ":6517,"ìĿ¸ëĵ¤":6518,"Ġìłľê±°":6519,"ĠìłĪë§Ŀ":6520,"Ġì£¼ìĦ¸ìļĶ":6521,".)":6522,"ĠìĤ¬ìĭ¤ìĿĢ":6523,"vel":6524,"ĠëłĪìĿ´":6525,"ê¹Įë´Ĳ":6526,"íķ´ì§Ģê³ł":6527,"Ġì§Ģë°°":6528,"ìĺ¤ëĬĺìĿĺ":6529,"ĠìķĦìĿ´íħľ":6530,"ıĮìķĦ":6531,"Ġë¶ĢëĵľëŁ½ê²Į":6532,"ë¥ł":6533,"ĠìķĦìĿ´ëĬĶ":6534,"Ġì°°ë":6535,"ìķĦì§ģ":6536,"!âĢĿ":6537,"Ġê³łìĨĮ":6538,"ìĸ´ëĦ£":6539,"Ġê¹ľë":6540,"ëıĦìĿĺ":6541,"Ġëľ¨ë":6542,"Ġìĺ¤ê³ł":6543,".``":6544,"Ġì£½ìĿĮìĿĦ":6545,"ìĦ±ë¶Ħ":6546,"ĠëĮĢë¥Ļ":6547,"ìĨĮìĹĲ":6548,"°ĶëŀĮ":6549,"íĤ¤ë©°":6550,"Ġê³¼ë":6551,"ĠìŀĲìĦ¸íŀĪ":6552,"Ġì¦Ĳê±°ìļ´":6553,"íĬ¸ëıĦ":6554,"ĠìĿ´íķ´íķł":6555,"Ġì¥¬":6556,"Ġê¸°ë¦Ħ":6557,"Ġë§Īë¦¬":6558,"ĠìĤ¬ëĥ¥":6559,"Ġë°ĶëĿ¼ë³´":6560,"´Ħ":6561,"Ġìļ´ëªħ":6562,"Ġìĭłëŀĳ":6563,"ìĦĿìĿĦ":6564,"ĠìĥĿê°ģíķł":6565,"Ġê°ĢìŀĲ":6566,"íķĺê°Ģ":6567,"ĠëĬ¦ê²Į":6568,"Ġì¢ĭê²Į":6569,"Ġìļ´ìłĦ":6570,"Ġìŀ¡ìķĺëĭ¤":6571,"22":6572,"ĠìŃĪ":6573,"Ġìĸ´ëĶĶë¡ľ":6574,"ĠìĹ´ìĸ´":6575,"Ġì°¨ê°Ģìļ´":6576,"íļĮìĹĲ":6577,"ĠíŀĪë":6578,"Ġë§ĽìŀĪë":6579,"ĵ¤ìķĦ":6580,"Ł°ì¹ĺ":6581,"¬¸íķĻ":6582,"Ġìłķë§Ĳë¡ľ":6583,".......":6584,"ìĿ´íģ¬ìĹħ":6585,"Ġê±°ìļ¸":6586,"Ġëĵ¤ìĸ´ìĺ¤":6587,"íķľìĿ´":6588,"ìĥīìĿĺ":6589,"ĠìĻ¸êµŃ":6590,"Ġê¸°ê°Ģ":6591,"Ġê°ģê°ģ":6592,"ìĻ¸ë¡ľ":6593,"Ġëª°ëł¤":6594,"ĠìłĪëĮĢë¡ľ":6595,"Ġë°ĳìĹĲ":6596,"ĠëĶĶìŀĲìĿ¸":6597,"íĸīë³µ":6598,"Ġì²ĺìĿĮë¶ĢíĦ°":6599,"ìķĦë¹ł":6600,"Ġíķ´ëĭ¹":6601,"ĠìĹ¬ëŁ¬ë¶Ħ":6602,"Ġìł¤":6603,"Ġìĭľê°ģ":6604,"ĸ¨":6605,"Ġë²Īì©į":6606,"ĠìĪ¨ìĸ´":6607,"ĠíĿ¥ë¶Ħ":6608,"ë¬¼ìĿĦ":6609,"ĠìķĦëĭĪëĿ¼ëĬĶ":6610,"Ġê¾¸ì¤Ģ":6611,"íķĺëĬĺ":6612,"Ġë§Īêµ¬":6613,"ª¬ë":6614,"Ġìĭ¤ë§Ŀ":6615,"ê°ĦìĿ´":6616,"Ġì§ĢìĽĲ":6617,"Ġë¹ĽìĿ´":6618,"ĠíĿĺëŁ¬ëĤ´ë":6619,"Ġë°ĸìĹĲìĦľ":6620,"ĠìĿ¼ë¡ľ":6621,"Ġ199":6622,"ìĥ¤ë":6623,"ĠìŀĪìľ¼ë©°":6624,"Ġë¹łì§Ħ":6625,"ma":6626,"ê²łëĤĺ":6627,"Ġê±´ëį°":6628,"Ġê¹ĥ":6629,"ĠìķĪëĤĺ":6630,"ĠìµľëĮĢíķľ":6631,"ĠìĹīëį©":6632,"ë¬¼ë¡ł":6633,"ê¸°ëĿ¼ëıĦ":6634,"æŃ":6635,"ì§¤":6636,"Ġë¶Īë¹Ľ":6637,"Ġãħĩ":6638,"Ġìĭ¸ë":6639,"Ġìŀħìŀ¥":6640,"ĠëĨĢëŁ¬":6641,"Ł¬ìĬ¤":6642,"íĹĪíĹĪ":6643,"Ġê¸°ëĭ¤ë¦¬":6644,"ĠëĤĺê°ĢëĬĶ":6645,"Ġì£ĦìĨ¡":6646,"ì¹¨ìĿĦ":6647,"Ġê¸°ëĭ¤ë¦¬ëĬĶ":6648,"Ġê±´ì§Ģ":6649,"ê¸°ê¸°":6650,"ìķłê°Ģ":6651,"ëĺĳ":6652,"Ġë§Īìĭľë":6653,"ì£¼ìĹĲ":6654,"ìķ½ìĿĦ":6655,"ìŁģìĿ´":6656,"ĠìłĲìĿ´":6657,"ĠëĦĪëıĦ":6658,"ëĭĪë¥¼":6659,"Ġ\"âĢ¦":6660,"êµ¬ë¦¬":6661,"ĠíĸĪìĿĦ":6662,"Ġë³´ëĭĪê¹Į":6663,"ĠìĥĢ":6664,"ëĭ¤ë¦¬":6665,"ëĤĺìĦľ":6666,"Ġì§ĢëĭĮ":6667,"ëĵĿ":6668,"ĠëįĶêµ¬ëĤĺ":6669,"Ġìłķë¶Ģ":6670,"Ġë¹Ħë¡ľìĨĮ":6671,"na":6672,"ê»ĳ":6673,"ê´ľ":6674,"Ġíĺ¼ëŀĢ":6675,"Ġê±°ê¸°ìĦľ":6676,"ĠíĹĮ":6677,"Ġëĵ¬ë¿į":6678,"ìĹ¬ê¸°":6679,"Ġì¡¸ìĹħ":6680,"Ġê²ĥëĵ¤ìĿ´":6681,"Ġì¤Ģë¹Ħë¥¼":6682,"ì²´ìĿĺ":6683,"Ġë¬¼ê³ł":6684,"ì¦Į":6685,"~~^^":6686,"Ġê±°ëĭ¤":6687,"ĠìĿ¸ìĤ¬":6688,"Ġë§İëĭ¤":6689,"ĠìķĮìķĺëĬĶëį°":6690,"Ġë¶Ģìłķ":6691,"ìłĢë¦¬":6692,"ãĢı,":6693,"Ġì§ĢìĿĢ":6694,"Ġëĭ¤ë¬¼":6695,"ëį°ë":6696,"ĠìĿ¼ìĸ´ëĤľ":6697,"íĬ¸ë¦¬":6698,"ëıĦìĹĲ":6699,"ìĦ¸ë¡ľ":6700,"ìª½ìĹĲìĦľ":6701,"Ġì¤ĳìĸ¼ê±°ëł¸ëĭ¤":6702,"·°ë":6703,"ĠëĪĦêµ¬ëĤĺ":6704,"ĠìĺĪìłĦìĹĲ":6705,"ê·¸ë¦ĩ":6706,"ĠìķĦëĭĪìĹĪ":6707,"ëĮĢíķľ":6708,"Ġë¶Ħëĵ¤ìĿ´":6709,"¨¹ìĿĦ":6710,"ĠíıŃë°ľ":6711,"ìĦ¸ê³Ħ":6712,"ëĲĲ":6713,"Ġíĥķ":6714,"Ġëª¨ìĬµìĹĲ":6715,"ìķĦë¬´ë":6716,"ĦĽ":6717,"ðŁ¤£":6718,"ê°Ģê¸°":6719,"ê²ĮìŀĦ":6720,"įĶëĿ¼êµ¬":6721,"ë§¥ì£¼":6722,"ĠëĪĪìķŀìĹĲ":6723,"ì¹ĺê¸°":6724,"ì¿łë¦¬":6725,"İħ":6726,"Ġìĺ¨ê°ĸ":6727,"ĠìŀĪìĸ´ëıĦ":6728,"Ġë¹¨ê°Ħ":6729,"Ġìļ©ë³ĳ":6730,"Ġìĵ°ì§Ģ":6731,"Ġìłľì£¼ëıĦ":6732,"Ġëĵ¤ìĸ´ê°ĢìĦľ":6733,"ĠìĹ°ê²°":6734,"íĤ¤ì¦Ī":6735,"Ġì½§":6736,"ĠìĨľ":6737,"ĠìĥĿìĿ¼":6738,"Ġë¬´ê³µ":6739,"ìŀĳìĿĦ":6740,"ìľ¡ìķĦë§ĺ":6741,"ĠìĿ´ë¥´ë":6742,"ł¨ìĿĦ":6743,"Ġìķłëĵ¤":6744,"ł¤ê²¬":6745,"Ġíģ¬ê³ł":6746,"Ġìĸ´ì§¸":6747,"ĠìĿ´ìĥģìĿĺ":6748,"ŀĲë":6749,"ìĿ´ëĭĪê¹Į":6750,"Ġëª¨ë¥´ê²łëĭ¤":6751,"ĠëĮĢê³ł":6752,"ĠìĿ¸ìĥģ":6753,"Ġê°ĲíĥĦ":6754,"ĨĪìĿ´":6755,"íĮ¨ìħĺ":6756,"Ġë³´ìĿ´ê³ł":6757,"ì´Īì½Ķ":6758,"Ġì°¾ìĿĦ":6759,"ĠìĹ¬ê¸´":6760,"íķ¨ê³¼":6761,"ĠíĨµíķ´ìĦľ":6762,"ĠìĭĿìĤ¬ë¥¼":6763,"ì§ģìŀ¥ìĿ¸":6764,"ĠìŀĦê¸Ī":6765,"ĠíĮĮìĬ¤íĥĢ":6766,"²¼ë":6767,"êµ¬ë¡ľ":6768,"Ġë¬´ë¦İìĿĦ":6769,"íĬĢê¹Ģ":6770,"łëĵł":6771,"ĠëıĦìłĦ":6772,"ĠìĪĺìĭŃ":6773,"ĠíĬ¹ì§ķ":6774,"ë§ĽìĿ´":6775,"íķĺì§ĢëĬĶ":6776,"Ġê·¸ëĭ¤":6777,"ì£¼ìĸ¼":6778,"Ġê±°ì¹ł":6779,"ĠëĦĪìĿĺ":6780,"Ġê·Ģë¥¼":6781,"ĠìļĶêµ¬":6782,"ìĿ¼ìĦ¸":6783,"Ġëĭ¹ìĹ°":6784,"ĩ¨":6785,"íķĢ":6786,"Ġë¬¸ìĿ´":6787,"Ġëĵ±ìĿĺ":6788,"ê·Ģë":6789,"Ġëĳĺì§¸":6790,"Ġíĺ¼ìŀĲìĦľ":6791,"§ĮìĿĦ":6792,"£¬":6793,"ĠëĶĶë":6794,"ĠíķĺëįĶëĿ¼ëıĦ":6795,"ĠìĤ¬ëĤ´ëĬĶ":6796,"Ġê°Ģê¸°":6797,"ed":6798,"Ĥłë":6799,"Ġì±ĦìĽĮ":6800,"Ġë§ĪìĿĮìĿĢ":6801,"ì£¼ì§Ģ":6802,"ģĦëŁ½":6803,"ê±°ì§Ģ":6804,"Ġëª¨ë¥´ê²łì§Ģë§Į":6805,"ëĭĪìķĦ":6806,"ì£¼ë¨¸ëĭĪ":6807,"ĠëĤĺìĺ¤ê³ł":6808,"íĬ¸ìĹĲ":6809,"²Ħê±°":6810,"ĠìŀĪìĨĮ":6811,"Ġì£¼ë¡ľ":6812,"ĠìĿ¼ìłľ":6813,"łĮì¦Ī":6814,"ĠìĤ¬ëŀĮëĵ¤ìĹĲê²Į":6815,"íĥĢìŀĦ":6816,"good":6817,"ê·¸ëłĩê²Į":6818,"Ġëĭ¬ëĿ¼ê³ł":6819,"Ġë´ħëĭĪëĭ¤":6820,"Ġê²°ë¡ł":6821,"âĢ¢":6822,"ëĭĺê³¼":6823,"Ġì§ļ":6824,"¨¹ì§Ģ":6825,"ĠìĹĨìľ¼ëĭĪ":6826,"ìĤ°ìĿĢ":6827,"Ġìĸ´ëĳĲìļ´":6828,"ĠìŀĪìĿĮìĿĦ":6829,"ĠíĪŃ":6830,"ĠíĺĦëĮĢ":6831,"ìŀĪëĬĶëį°":6832,"Ġìĺ¬íķ´":6833,"Ġíķĺìħ¨":6834,"ĠìĿ´ìĽĥ":6835,"ĠëĤĺìģĺ":6836,"¨¸ë¦¬":6837,"ľê»ĳ":6838,"íĸĪê¸°":6839,"Ġë²Įëĸ¡":6840,"Ġ&":6841,"Ġë¬´ë¦¬":6842,"ë¶Īë":6843,"ĠëķħìĿĦ":6844,"ķĲ":6845,"íĸĪëĬĶì§Ģ":6846,"ëĦī":6847,"ìĿ¼ë³¸":6848,"Ġê³ĦìĨįíķ´ìĦľ":6849,"ìĿ¼ë¡ľ":6850,"ĠêµĲìĪĺ":6851,"¥¼ë":6852,"ĠìķĦìĿ´ëĵ¤ìĿĢ":6853,"Ġë¦¬ê°Ģ":6854,"ĠìĭľëıĦ":6855,"ĠìĺģíĻĶê°Ģ":6856,"ĠíĿ¬ìĥĿ":6857,"Ġë¿Ĳë§Į":6858,"Ġë¶ĦìľĦê¸°ê°Ģ":6859,"Ġê±¸ìĹĪëĭ¤":6860,"up":6861,"ìĿ´ìĹĪëįĺ":6862,"¤ë¦¬":6863,"ĠëĤ®ìĿĢ":6864,"íķĺëĿ¼ê³ł":6865,"íĽĦë¡ľ":6866,"Ġê¸°ìĸ´":6867,"ĠëģĿëĤĺê³ł":6868,"ìĦ¸ë¨¼":6869,"ĠìłľíĴĪìĿĦ":6870,"ëĤłë":6871,"ìĺ¤ëĬĺìĿĢ":6872,"ìĸ´ëĸ»":6873,"ĠìłĢë¥¼":6874,"Ġê±¸ë¡ľ":6875,"ĠìŀĲìľłë":6876,"Ġëª¨ëĳĲëĵ¤":6877,"ĠU":6878,"ê´ĢìĿĺ":6879,"Ġëª¨ë¥´ì§Ģë§Į":6880,"Ġëĭ¤íĸīíŀĪ":6881,"Ġì¼ľ":6882,"¹ĦìĿĺ":6883,"Ġê·ľë":6884,"Ġëħ¸ëıĻ":6885,"ĠìłĦíĨµ":6886,"Ġë¯¸ëŀĺ":6887,"ëĦ¤ë":6888,"ĠëĿ¼ìĿ´":6889,"ĠìĿ´ê±¸":6890,"Ġì£¼ìŀ¥":6891,"ĠëĤĺê°Ħ":6892,"ê°ĵ":6893,"Ġê´Ģìĭ¬ìĿĦ":6894,"Ġì§ĢëĭĪ":6895,"Ġìĸ´ëĸ¡":6896,"íĻĺìĺģ":6897,"ĠìĺĪìģĺê²Į":6898,"ìļ©ìĿ´":6899,"Ġìĺ¤ëŀĺë":6900,"ĠìľĦíķ´ìĦľëĬĶ":6901,"ìķĪëħķíķĺìĦ¸ìļĶ":6902,"ĠëĦĪë¬´ëĦĪë¬´":6903,"Ġìĭ¶ìĿĦ":6904,"ĠìĨįìĿĦ":6905,"ĠëĮĢìŀ¥":6906,"Ġê½¤ëĤĺ":6907,"ĨĢ":6908,"Ġìĭľê°ĦìĿĢ":6909,"ìĸ´ëĬĶ":6910,"ĶĶë¡ľ":6911,"Ġë³ĳìĽĲ":6912,"ê¸°ëĤĺ":6913,"íĳľë¥¼":6914,"åľ":6915,"æĸ":6916,"Ġê¸°ëĭ¤ëł¤":6917,"ìľ¼ëĿ¼ê³ł":6918,"ê¸ĢìİĦ":6919,"Ġf":6920,"Ġëª¸ìĿĢ":6921,"ĠëĤ´ê³ł":6922,"Ġì¡°ê±´":6923,"Ġì§Ģìĸ´":6924,"ĠâłĢâłĢâłĢâłĢ":6925,"ìĤ¬ì§Ģ":6926,"Ġíķľë²":6927,"ĠëĤĺìķĦ":6928,"ĠëĬĶ":6929,"ìĥ´íĳ¸":6930,"ìĸ´ëĶĶ":6931,"ĤŃ":6932,"Ġìĭłë°ľ":6933,"ìķĦë¦¬":6934,"ì¡°ìĿĺ":6935,"íĶ¼ìĬ¤":6936,"ĠíĮĮëĬĶ":6937,"Ġì³¤ëĭ¤":6938,"ë§ĽìĬ¤íĥĢ":6939,"ëŀµ":6940,"Ġê³łìĸĳ":6941,"ì»´":6942,"Ĥ©":6943,"Ġê·¸ëłĩê³ł":6944,"Ġìłľëª©":6945,"Ġíı¬íķ¨":6946,"ĠëģĬìŀĦ":6947,"ĠìķŀìĿĦ":6948,"ĠìĨĮë¦¬ìĹĲ":6949,"ĠìķĦìĿ´ìĿĺ":6950,"ê¿Ī":6951,"ê±´ì§Ģ":6952,"íĽĦìĿĺ":6953,"§¤ë":6954,"ĠìĥĪìĤ¼":6955,"ĠíĶĮëłĪìĿ´":6956,"ê°ĢìĬ´ìĤ´":6957,"Ġíķľê°Ģ":6958,"ìĭľíĤ¬":6959,"ìĻĶë":6960,"íİ¸ë":6961,"ìĪĻìĿ´":6962,"Ġì±Ħë¡ľ":6963,"ĠíĹĪëĿ½":6964,"ìĥĪë¥¼":6965,"Ġê¸°ëħĲ":6966,"14":6967,"Ġê°Ĳê°ģ":6968,"íı´ë":6969,"Ġì²ĺìĿĮìĹĲëĬĶ":6970,"ĠëĤĺìĺ¨ëĭ¤":6971,"íķĺìĺĢ":6972,"Ġë°©ìĹĲ":6973,"Ġë¹ĽìĿĦ":6974,"ĠìĤĲ":6975,"ig":6976,"ĳ¤":6977,"ä¹":6978,"ìľłìķĦ":6979,"Ġëĵ±ìĹĲ":6980,"īĺ":6981,"ìłĿ":6982,"Ġì°Įë":6983,"åı":6984,"ĠíķĺëĦ¤ìļĶ":6985,"ĠìķĦì¹¨ë":6986,"Ġê¹ĮëĭŃ":6987,"ìĸ¸ë":6988,"Ġë¶ĢëĵľëŁ¬":6989,"æ°":6990,"Ġë©´ë":6991,"Ġë°¤ìĹĲ":6992,"Ġê°Ħëĭ¤":6993,"ĠëĤ¯ìĦł":6994,"ëĭĪëĿ¼":6995,"Ġë¥¼":6996,"ëĭ¤ë³´ë©°":6997,"Ġë°©ë²ķìĿĦ":6998,"ĠëķħìĹĲ":6999,"ĠëĦīëĦī":7000,"Ġê²ĥëĵ¤":7001,"ĠìłĦë¶ĢíĦ°":7002,"ìłĵ":7003,"ĠìĿ´ëŁ´":7004,"íķĻëħĦ":7005,"Ġë§İìķĺëĭ¤":7006,"ì¦ĿìĿĦ":7007,"¹¡":7008,"ĠìĿ´ëĤł":7009,"ê°ĢëĵĿ":7010,"ĠìĿ´ìĹĲ":7011,"âĪ":7012,"Ġì§ĳìĸ´":7013,"Ġëĵ¤ìĸ´ê°Ī":7014,"Ġê°Ģìł¸ëĭ¤":7015,"Ġê±¸ë¦°":7016,"ìĹł":7017,"ml":7018,"ĠìŀĲìĹ°ìĬ¤ëŁ½ê²Į":7019,"Ġê´´ë¡ľ":7020,"ìĹĪëĦ¤":7021,"Ġê¸°ìļ´ìĿ´":7022,"Ġìļ°ë¦¬ëĤĺëĿ¼":7023,"ë¬µ":7024,"ëªħìĿĺ":7025,"Ġê°ķëĤ¨":7026,"ìħĶëıĦ":7027,"ìĿ¸ìĹĲê²Į":7028,"ĠìĭľìĦłìĿ´":7029,"ëĮĢê°Ģ":7030,"ĠìĽĥëĬĶ":7031,"ê²½ìĹĲ":7032,"Ġë¶Ģë¶ĦìĿ´":7033,"ĠìķĪëĲĺ":7034,"ĠíĶ¼ìŀĲ":7035,"Ġê·¸ëŁ°ë":7036,"Ġê³§ë°Ķë¡ľ":7037,"Ġì¡°ìĭ¬ìĬ¤ëŁ½ê²Į":7038,"íķłìĪĺ":7039,"ĠìłĢìĿĺ":7040,"ê¹ĮìĬ¤":7041,"ĠëĬĲëģ¼ê³ł":7042,"ëĭĪìĬ¤":7043,"Ġë§ĲìĹĨìĿ´":7044,"Ġê°ĲìŀĲ":7045,"ìĶ¨ë¥¼":7046,"ĠëĤ´ëĬĶ":7047,"³´ì§Ģ":7048,"kr":7049,"ê³µìĽĲ":7050,"ãħľãħľãħľãħľ":7051,"Ġ25":7052,"ëĵ¤ìĸ´":7053,"ìĭ¤ìĿ´":7054,"ê²łëĬĲëĥĲ":7055,"Ġì¹Ńì°¬":7056,"ĠìĿ´ìľłë¥¼":7057,"Ġìŀ¥ìĪĺ":7058,"íĤ¤ì§Ģ":7059,"§ĮëĳĲ":7060,"Ġë°©ë²ķìĿ´":7061,"ê¹¨ë":7062,"Ġìļ¸ê³ł":7063,"ĠìłķëıĦìĺĢëĭ¤":7064,"íķĺìĭľë©´":7065,"ëĭĺê»ĺ":7066,"Ŀ¼ìĬ¤":7067,"ĠíĬ¹ìľłìĿĺ":7068,"ìĿ¸ëĵ¤ìĿĢ":7069,"Ġì¹ľêµ¬ëĵ¤":7070,"ìĿ¸ëĵ¤ìĿĺ":7071,"³´ìĦ¸ìļĶ":7072,"Ġíķłì§Ģ":7073,"ĠìĹŃìĭľëĤĺ":7074,"ĠëĪĮëŁ¬":7075,"ĠW":7076,"Ġë¬¸ìłľë¥¼":7077,"ĠìĿ´ë¦ĦìĿĢ":7078,"ĠìķĦëĭĪëĿ¼ê³ł":7079,"ıĮìĿ´":7080,"Ġë§ĪëĤĺ":7081,"ëŀĺ":7082,"ĠìĤ´ìĿ´":7083,"ë¹µìĬ¤íĥĢê·¸ëŀ¨":7084,"off":7085,"ê°ĲìĦ±":7086,"Ġê²½ìļ°ê°Ģ":7087,"ë°ĺëł¤ê²¬":7088,"ĠìĤ´ëł¤":7089,"ìĻķìĿ´":7090,"Ġì«Ħê¹ĥ":7091,"ë©įìĬ¤íĥĢê·¸ëŀ¨":7092,"Ġëĭ¤ëħ":7093,"Ġíķ¸ëĵľíı°":7094,"Ġì»´íĵ¨":7095,"Ġê·¸ëłĩëĭ¤":7096,"Ġêµ°ìĤ¬ë":7097,"Ġê°Ĳì¶Ķ":7098,"ĠìĨĮìĭĿìĿĦ":7099,"Ġê°ģì¢ħ":7100,"Ġê°Ģìłķ":7101,"Ġê²½ìłľ":7102,"Ġì§ĪëłĢëĭ¤":7103,"Ġë°ľíĳľ":7104,"Ġíĸ¥ìĿ´":7105,"ìĨĮìĦľ":7106,"ìĦ¸ìł¤":7107,"Ġëĵ¤ì§Ģ":7108,"Ġë§ģ":7109,"Ġê¿ĩ":7110,"ìķĦìĿ´ë":7111,"°©ìĿĺ":7112,"íĦ°ê°Ģ":7113,"ë¦ī":7114,"Ġëħ¸ëŀĺë¥¼":7115,"Ġìĸ¸ê¸ī":7116,"ì°°ë":7117,"Ġê±¸ê¹Į":7118,"»Ķ":7119,"Ġëĵ¤ìĸ´ìĺ¤ëĬĶ":7120,"´¤ìĸ´ìļĶ":7121,"Ġê°Ħìĭł":7122,"ìĹĮ":7123,"ĠìķĪëĭ¤":7124,"£¹":7125,"ê¸°ë©´":7126,"ĠìłĦíķ´":7127,"íĺĢë":7128,"Ġê°Ħíİ¸":7129,"ì¡Įê³ł":7130,"ir":7131,"ĠìĻ¸ì³¤ëĭ¤":7132,"ãħ¤":7133,"ĠJ":7134,"íĹ¬":7135,"íĮĮìĿ´":7136,"ĠìĤ¬ë¡ľ":7137,"ĤĺëĤĺ":7138,"ong":7139,"Ġê²ĥë³´ëĭ¤":7140,"³¸ë":7141,"Ġë¦°":7142,"Ġê°ĢëĵĿíķľ":7143,"ê¸°ë©°":7144,"ìº£":7145,"ìľ¼ë©´ìĦľëıĦ":7146,"ìľ¼ë¦¬ëĿ¼":7147,"Ġëª¨ìĬµìľ¼ë¡ľ":7148,"ĠëĤĺìĿ´ê°Ģ":7149,"Ġëª°ëĿ¼ëıĦ":7150,"íĪ¼":7151,"Ġë¶ĢëĵľëŁ½ê³ł":7152,"ĠëĿ¼ë©´":7153,"ĠëĶ¸ë":7154,"ĠâĻ¥":7155,"ĠìĿ´ìľ½":7156,"Ġë§ĽìŀĪìĸ´ìĦľ":7157,"ĠëıħíĬ¹":7158,"į°ìĿ´":7159,"Ġíĳľë":7160,"Ġêµ¶":7161,"Ġíĥ±":7162,"ĠìĿ´ëģĮê³ł":7163,"ĠìĺģìĽħ":7164,"¹Ķë":7165,"Ġê°Ĵ":7166,"íĴĪìĿ´":7167,"Ġëĵłëĵł":7168,"ìĭĿìĤ¬":7169,"ĠíĿ¡ìĪĺ":7170,"day":7171,"Ġë°Ķëĭ·":7172,"Ġê³³ê³³":7173,"ĠìĤ¬ê³¼":7174,"ëįĶëĿ¼ê³łìļĶ":7175,"ĠëĲĺìĹĪìĬµëĭĪëĭ¤":7176,"ĠìĦ¸ìĽĮ":7177,"Ġìŀ¡ìĿĢ":7178,"ìłĢê²ĥ":7179,"ìĿį":7180,"ìĭľì¼°ëĭ¤":7181,"ë¬´ì§Ģ":7182,"°ĺë":7183,"be":7184,"ĠìĿ´ëĮĢë¡ľ":7185,"ĠëģĿëĤľ":7186,"Ķ°ëĿ¼":7187,"ìĨĮëĬĶ":7188,"ëĲĺì§Ģ":7189,"Ġì§Ģê¸ĪìĿĺ":7190,"Ġëĭ¤ìĿ´":7191,"ĠëĮĢëĭ¨íķľ":7192,"ĠìĿ´ë¶Ī":7193,"Ġìĩł":7194,"Ġëĥīìŀ¥":7195,"ĠìĤ¬ìĿ´ì¦Ī":7196,"íķłê¹Į":7197,"ìĤ°ìĿĺ":7198,"Ġìĥģì§ķ":7199,"Ġìĭ¤ìłľ":7200,"ìŀĺë":7201,"ĠíĦ°ëľ¨ë":7202,"ĠíĶ¼ë¶Ģê°Ģ":7203,"ìĿ´ëłĩê²Į":7204,"ĠëĤ´ë¦°":7205,"ê°ĲìĹĲ":7206,"ì¡¸ë":7207,"ì¿łìħĺ":7208,"Ġë³¶ìĿĮë°¥":7209,"ıðŁı»":7210,"Ġê²ĥìĿ´ëĿ¼":7211,"ìĻĶìĬµëĭĪëĭ¤":7212,"ĠëĤ¸":7213,"ĠíķłìĿ¸":7214,"ì¦Īë¥¼":7215,"ĠëĤĺê°Ī":7216,"¯¹":7217,"____":7218,"Ġê°ĦìĭłíŀĪ":7219,"Ġê³łëł¤":7220,"ê°ĲëıĦ":7221,"ur":7222,"ĠíĶ¼ë¡ľ":7223,"ł¨ëĲľ":7224,"Ġë§Ĳìķ¼":7225,"ĠìŀĲìĭłìĿĢ":7226,"Ġê°Ģë¥´ì³Ĳ":7227,"ëģ¼":7228,"ìłĲìĹĲ":7229,"Ġê°Ģëł¤":7230,"ì¦ĿìĿ´":7231,"ĠëģĿìĿ´":7232,"Ġê¹Įì§Ģ":7233,"Ġë¥ĺ":7234,"³´ëĭ¤ëıĦ":7235,"Ġê²¹":7236,"ë²łìĿ´ë¹Ħ":7237,"Ġìĭľì¼°":7238,"Ġëª©ìĨĮë¦¬ë¥¼":7239,"im":7240,"íĨłëŀĳ":7241,"ìŃī":7242,"100":7243,"Ġì°©íķľ":7244,"Ġê·¼ì²ĺìĹĲ":7245,"Ġë³´ëĤ´ë":7246,"ĠêµŃê°Ģ":7247,"Ġì¢ĭëĭ¤ê³ł":7248,"ì´Īë°¥":7249,"ĠíĻĢë¡ľ":7250,"ìĦ¼ìĬ¤":7251,"Ġë§ĪëĬĺ":7252,"ĠìĿĢìĿĢ":7253,"ĠëĤ¨íİ¸ìĿ´":7254,"ìĹĪëĭ¤ê³ł":7255,"Ġìĭ¤ëł¥":7256,"ìĬ¤íĤ¨":7257,"Ġëª¨ìŀĲë":7258,"ì£¼ìĭł":7259,"ëĤ¨ë":7260,"ì¹´ë¡±":7261,"Ł°ë":7262,"ìºĲë":7263,"ªħìĿĢ":7264,"ìŀ¡ê³ł":7265,"ĠìĿ¸ë¬¼ë":7266,"ìĹĪëĭ¤ëĬĶ":7267,"ĠìĿ´ìľ½ê³ł":7268,"ĠíĹĪê³µ":7269,"íģ¬ê°Ģ":7270,"ì¡°ë¡ľ":7271,"ĠìĿ¼ìĥģ":7272,"ëĮĢêµ¬":7273,"ìĦ±íķľ":7274,"Ġì´Īë°¥":7275,"ìŀĳìĿ´":7276,"ìŀĲëĵ¤":7277,"Ġë¬¼ìĹĲ":7278,"ì¡°ë¦¬":7279,"Ġê´´ë¡Ń":7280,"íĶĮëłĪìĿ´":7281,"Ġê°Ļê³ł":7282,"ëĳĺ":7283,"Ġì¦īìĭľ":7284,"ê¸¸ìĹĲ":7285,"ĠìłĲë":7286,"ìŀĲëĵ¤ìĿĢ":7287,"ì¡°ìłĪ":7288,"ìŀ¬ë¡ľ":7289,"¾ħ":7290,"Ġë§ŀìĿ´":7291,"Ġê°ķëł¥íķľ":7292,"80":7293,"ê»Ħ":7294,"ìĥĪìļ°":7295,"íĥľê°Ģ":7296,"ìŀĲë¦¬ìĹĲ":7297,"ê·ĢìĹ¬":7298,"Ġê·ĵ":7299,"Ġëı¼ìļĶ":7300,"Ġìĸ¸ëįķ":7301,"ì¹ĺë¡ľ":7302,"³ĢìĿĦ":7303,"Ġëª©ìĿ´":7304,"íķ´ëĿ¼":7305,"Ġë³´ìĿ¼":7306,"ĠâĢ¦":7307,"ìĸ´ë¨¸ëĭĪ":7308,"Ġì§ĳìĿ´":7309,"ìĿ´ë©´ìĦľ":7310,"ĠìĭľëĮĢ":7311,"Ġê·¸ëĵ¤ìĹĲê²Į":7312,"ìķĪìĿĺ":7313,"ĠìķĦìĿ´ìĬ¤íģ¬ë¦¼":7314,"Ġìŀĥê³ł":7315,"ìĿ´ë²Ī":7316,"âłĢâłĢâłĢ":7317,"ãĢİ":7318,"ìħĭ":7319,"ëį°ìĿ´íĬ¸":7320,"ķĮëıĦ":7321,"Ġì§ĢìĨį":7322,"ëĭĺëıĦ":7323,"ë²łë":7324,"ìļ´ìĿ´":7325,"Ġëª©ìłģ":7326,"Ġìĥģì²ĺë¥¼":7327,"Ġíİ´":7328,"www":7329,"ëĭ¨ìĹĲ":7330,"Ġíķľìŀħ":7331,"´ĲëıĦ":7332,"°©ìĿĦ":7333,"¤ëįĺ":7334,"ì¢ħìĿ¼":7335,"ìļ°ë©´":7336,"Ġê±´ëĦ¤":7337,"ĠìĶ¨ê°Ģ":7338,"ìĹ´ë":7339,"Ġíķľëĭ¤ë©´":7340,"íķ¨ìĹĲ":7341,"Ġê·¸ë¦°":7342,"ìłĦìĿĢ":7343,"ìĨĮìĬ¤":7344,"Ġíĺľë":7345,"ĠìŀĪìĹĪê¸°":7346,"ìĭłíĺ¼":7347,"Ġì§Ħìłķíķľ":7348,"ê°ĲìĤ¬":7349,"ĠìĦ±ìŀ¥":7350,"ĠëĤĺì§Ģ":7351,"ãħĭãħĭãħĭãħĭãħĭãħĭãħĭãħĭãħĭãħĭãħĭãħĭãħĭãħĭãħĭãħĭãħĭãħĭãħĭãħĭãħĭãħĭãħĭãħĭãħĭãħĭãħĭãħĭãħĭãħĭãħĭãħĭ":7352,"¡¬":7353,"ĠëĪĦêµ¬ëıĦ":7354,"Ħë¦¬":7355,"ĠìķĬìķĺê³ł":7356,"ê²¨ìļ¸":7357,"ìļ°ëıĦ":7358,"íĻĪì¿¡":7359,"ìĸ´ëĤ´":7360,"ĠìĬ¤íħĮìĿ´íģ¬":7361,"êµ¬ë§Ī":7362,"Ġë²¤":7363,"ìĻ¸ë":7364,"âľ¨":7365,"íĳľë":7366,"Ġë°ľê±¸":7367,"Ġìĭ¶ìĸ´ìļĶ":7368,"ĠëªħìĿĦ":7369,"Ġë°©ìĿĦ":7370,"ìĿ´ìļĶ":7371,"Ġìĸ´ëĶĶìĹĲ":7372,"ì£¼ë¶Ģ":7373,"ê²łëĦ¤ìļĶ":7374,"Ġê°Ļê¸°ëıĦ":7375,"ĠìĥģëĮĢë":7376,"Ġë§Īì¹ĺê³ł":7377,"¡Ģë¥¼":7378,"ĠëĤļ":7379,"ĠíĸĪìĸ´":7380,"ĠìŀĥìĿĢ":7381,"Ġê¸°íļĮë¥¼":7382,"íĺĢìĦľ":7383,"íķĺì§ĢëıĦ":7384,"ĠìĿ¼ìĸ´ìĦľ":7385,"íĶĦë¥¼":7386,"ìłĲë":7387,"¬´ë¥¼":7388,"ìĸ´ëľ¨ë":7389,"ì§ĢëĤĺ":7390,"ìĸ´ëĤ´ë":7391,"Ġ=":7392,"Ġë²½ìĹĲ":7393,"Ġê²Ģë":7394,"Ġë§ĪëĶĶ":7395,"Ġìĺ¨íĨµ":7396,"ìłľìĹĲ":7397,"Ġê°ĩ":7398,"ì¤įëĭĪëĭ¤":7399,"ìĬ¤íħľ":7400,"ìľĪ":7401,"Ġíĺ¸ê¸°":7402,"ĠìĹĲìĸ´":7403,"§¡":7404,"ìĥģíķľ":7405,"ĠìĻ¸ì¶ľ":7406,"ĠëĤ´ìī¬":7407,"ĠìĨĮë¦¬ë":7408,"Ġë¨¸ë¦¬ìĹĲ":7409,"ëª»":7410,"ì½ľë¦¿":7411,"ĢëĵĿ":7412,"ang":7413,"Ġëĵ¤ë¦¬":7414,"Ġìĸ´ì§Ģë":7415,"ĠìĿ¸ëıĦ":7416,"Ġë°ĿìĿĢ":7417,"ĠìĹŃíķłìĿĦ":7418,"Ġì£¼ë¨¸ëĭĪ":7419,"Ġëıħë¦½":7420,"Ġê±°ìłĪ":7421,"ìĹĪëĬĶì§Ģ":7422,"Ġê°ĲìłķìĿĦ":7423,"Ġë²ĦìĬ¤":7424,"ìłķìľ¼ë¡ľ":7425,"ĠëĽ°ìĸ´ëĤľ":7426,"Ġìķ¼ì±Ħ":7427,"Ġë§ĲìĶĢìĿ´":7428,"ĠìłķíĻķíŀĪ":7429,"ìĿ¸íħĮë¦¬ìĸ´":7430,"ìĿ´ë¸Į":7431,"Ġëª¨ìķĦ":7432,"íĥĦë":7433,"Ġíķ¨ë¶Ģë¡ľ":7434,"ê°ĦìĿĦ":7435,"ìĽĲëıĦ":7436,"íķĺíķĺíķĺ":7437,"íĸīìĿĦ":7438,"ĠìŀĪëĬĶëį°ìļĶ":7439,"ĠëıĻë¬¼":7440,"Ġìļ°ìļ¸":7441,"íķ´ì£¼ìĦ¸ìļĶ":7442,"ĠìĿ¸ìĭĿ":7443,"ĠíķĺëĤĺë¡ľ":7444,"Ġë§ĲìĿ´ìĺ¤":7445,"oot":7446,"ìĸ´ìłľ":7447,"Ġë°Ķê¿Ķ":7448,"Ġë³¸ê²©":7449,"ĠìĬ¤ìĬ¹":7450,"Ģë§Ľ":7451,"ĠìŀĲê¸°ë":7452,"Ġê°ĳìŀĳ":7453,"Ġëį¤ë":7454,"ë·°íĭ°ìĬ¤íĥĢê·¸ëŀ¨":7455,"ìĸ´ëĸ»ê²Į":7456,"ìĻķìĿĢ":7457,"ĠìĿ¸ê¸°":7458,"Ġìĸ´ìĿ´":7459,"ĠëĥĪëĭ¤":7460,"ĠíķĺëĭĪê¹Į":7461,"Ġìĸ´ë¥¸ë":7462,"Ġê±°ì£ł":7463,"Ġë©Ķëī´íĮĲ":7464,"ĠìľĦì¹ĺíķľ":7465,"ĠìĬ¬íĶĶ":7466,"ìĹĪëĦ¤ìļĶ":7467,"Ġê·ĢìĹĲ":7468,"Ġê³¼íķĻ":7469,"ëĭ¤ëĭĪë":7470,"ĠìĽĢì¼ľ":7471,"íķĺê¸°ìĹĲ":7472,"íķ´ê°Ģ":7473,"ìĭ¸ë":7474,"Ġê´Ģìĭ¬ìĿ´":7475,"ì§ĸ":7476,"íķľìĿĺ":7477,"ĠìĹĲëĦĪ":7478,"Ġêµµ":7479,"Ġì°įìĿĢ":7480,"íĮĶë":7481,"ĠëķĮìĿĺ":7482,"Ġíľ©":7483,"íģ¬ë¦¬ìĬ¤":7484,"íĮĮìĬ¤íĥĢ":7485,"ìĺ¤ë¥¼":7486,"Ġë²ĦìĦ¯":7487,"ê³łê°Ģ":7488,"Ġìĸ´ì©Ĳ":7489,"Ġëĵľë¦¬":7490,"ìĺ¤ëĬĺë":7491,"ĠìĥĿê°ģíķľ":7492,"Ġëľ¬":7493,"íķ´ì§Ī":7494,"py":7495,"ê´ľì°®":7496,"ĠëĮĢê¾¸":7497,"ëĮĢëĬĶ":7498,"Ġê°Ģë²¼ìļ´":7499,"ĠV":7500,"ĠìłģíĺĢ":7501,"Ġë¬´ìĹĩìĿ´":7502,"ì§¸ë¡ľ":7503,"Ġìĸ´ë¦¬":7504,"íĮĮìĿĺ":7505,"ìĨįìĿĦ":7506,"ì¡Įëįĺ":7507,"Ġë§µ":7508,"ĠíĸīëıĻìĿĦ":7509,"ĠìĻ¸ë¡ľ":7510,"ĠëĬĲëģ¼ëĬĶ":7511,"Ġê²ĥìĿ´ëĿ¼ëĬĶ":7512,"¶ĦìĿĦ":7513,"ĠìķĦëĵ¤ìĿ´":7514,"ĠëıĻìĿ¼":7515,"ìĦłìĿĢ":7516,"ê±°ëĭĪ":7517,"ĠìĹĨìľ¼ë©´":7518,"Ġíĥľë":7519,"Ġê³łìĪĺ":7520,"ìĦłìĿĺ":7521,"Ġëĭ¤ë£¨":7522,"ì§ĢëŁ°":7523,"Ĩĵìķĺëĭ¤":7524,"ìĦ°":7525,"Ġê¸¸ìĹĲ":7526,"ê³ĦëĬĶ":7527,"Ġëį¥":7528,"ĠìĿĺë¯¸ë¥¼":7529,"ĠìĤ¬ëŀĮìĹĲê²Į":7530,"ĠìĹĨê²Į":7531,"ê¸°ë³´ëĭ¤ëĬĶ":7532,"ìĻĢëıĦ":7533,"ĠìĽĢì§ģìĿ´ëĬĶ":7534,"Ġë¶Īê½ĥ":7535,"Ġê³łìłķ":7536,"Ġì§ĢëĤ´":7537,"ìĹ¬íĸīìĬ¤íĥĢê·¸ëŀ¨":7538,"ĮëĵľìľĦì¹ĺ":7539,"ãĢĮ":7540,"ĠíĨ¡":7541,"Ġëĭ¹ìĹ°íķľ":7542,"Ġìĺ¤ë¦¬":7543,"ĠìļĶëłĩê²Į":7544,"Ġë³ĢíĻĶ":7545,"Ġê¼¼ê¼¼":7546,"è¨":7547,"²łìĿ´":7548,"ĠìĹĶ":7549,"ì¦Ĳ":7550,"ìĹĨëĭ¤":7551,"ĠìķĦëŀ«":7552,"ìĦ±ë¹Ħ":7553,"ê³°":7554,"íķĺêµ¬":7555,"24":7556,"ĠíĻ©ìłľ":7557,"ìļ´ëıĻíķĺëĬĶìĹ¬ìŀĲ":7558,"Ġì¶ķíķĺ":7559,"ðŁĺĬ":7560,"Ġì¤ĦìĿĦ":7561,"³´ìŀĲ":7562,"ëĭ¤ë³´ë©´":7563,"Ġê¾¸ì¤ĢíŀĪ":7564,"ìŀ¼":7565,"íİ«":7566,"êµŃìĹĲ":7567,"Ġê°Ĳê³ł":7568,"ĠëĤłìĶ¨ê°Ģ":7569,"Ġëª»íķĺê²Į":7570,"icial":7571,"ĠíĹĺ":7572,"Ġê·¸ìķ¼ë§Ĳë¡ľ":7573,"Ġê³łì¶Ķ":7574,"Ġëļľë":7575,"Ġë¼Ī":7576,"ìĤ¬ë¦¬":7577,"##":7578,"íĺģìĿĢ":7579,"¬ë¡ľ":7580,"Ġíķĺìĭľë":7581,"ìĪĺë":7582,"Ġíİ¸ìĿĺ":7583,"Ġê³Ħìĭł":7584,"500":7585,"ĨĪìĿĺ":7586,"Ġê°ĢëĤľ":7587,"Ġë¹ļ":7588,"ì£¼ìĿ¸":7589,"ĠìĹ¬ìĦ¯":7590,"ĠìĤ¬ìĭ¤ìĿ´":7591,"íĮį":7592,"Ġëĭ¹ìĭłìĿĦ":7593,"Ġëĭ´ìķĦ":7594,"Ġìī¬ìļ´":7595,"ëĭ´ë":7596,"Ġê·¸ëŁ°ê°Ģ":7597,"ĠëĪĪìĿĢ":7598,"ìĭ¤íķľ":7599,"ĠìłģìĿĺ":7600,"ĠìĤ¬ë¡ľìŀ¡":7601,"Ġì¾Į":7602,"ëħĦìĿ´":7603,"ĠëıĮìķĦìĺ¤":7604,"½Ģ":7605,"Ġëĭ´ê²¨":7606,"ĠìĮĪ":7607,"Ġìĸ´ìļ¸ë¦¬ëĬĶ":7608,"¦¼ìĿĺ":7609,"ĠíĿ¥ë¯¸ë":7610,"Ġëĭ´ê¸´":7611,"Ġ****************":7612,"ìŀĪëįĺ":7613,"ĠìĿ´ìķ¼ê¸°ëĬĶ":7614,"Ġë§Ĳíķľëĭ¤":7615,"Ġë§Īë¥¸":7616,"ĠëĩĮ":7617,"13":7618,"ŀĢíķľ":7619,"Ġë£¨ë":7620,"ĠìŀĲì¡´":7621,"Ġìĺ¤ìłĦ":7622,"oto":7623,"ĠëıĮìķĦìĻĶëĭ¤":7624,"ĠëĤĺìĺ¤ì§Ģ":7625,"Ġì¢ħì¢ħ":7626,"¦ĦëĮĢë¡ľ":7627,"ì¹ĺë©´":7628,"ìĹ¼ë":7629,"Ġíķĺëł¤ê³ł":7630,"official":7631,"Ġì°°":7632,"Ġê³łê¸°ë":7633,"ĠìĪĺìĺģ":7634,"¦¬ìŀĲ":7635,"ĠëĮĢíĻĶ":7636,"ĠëĲĺìĸ´ìĦľ":7637,"Ĳĺë©´":7638,"Ġë°°ê²½":7639,"ìĬĪë":7640,"ŀ¬":7641,"cafe":7642,"Ġì±ħìĥģ":7643,"ĠëĬĲëģ¼ë":7644,"Ġì°¨ìĿ´ê°Ģ":7645,"ì¿¨":7646,"Ġì£¼ë¬¸íķľ":7647,"Ġì§Īë¬¸":7648,"ĠìķĦëĭĺ":7649,"©°ë":7650,"Ġê³łêµ¬ëł¤":7651,"Ġë¶ķ":7652,"ıĻìĿ´":7653,"Ġë¹łìł¸ë":7654,"ĠíĿ¬ë¯¸":7655,"ĠíļĮìĿĺ":7656,"Ġê¹ĶëģĶíķĺê²Į":7657,"ĠìĹ°ê¸°":7658,"Ġìĸ´ëķĮ":7659,"Ġ^":7660,"Ġë¶ĪìĮį":7661,"Ġë°Ķìģĺ":7662,"Ġë§¤ì½¤":7663,"ìĬ¤íģ¬íĮ©":7664,"Ġì°©ìļ©":7665,"Ġìĸ¸ìłłê°Ģ":7666,"ĠëĤĺíĥĢëĤ¬ëĭ¤":7667,"ĠëĮĢë¹Ħ":7668,"Ġìĭłì²Ń":7669,"Ġì£½ê³ł":7670,"ĠëģĬìŀĦìĹĨìĿ´":7671,"Ġëĭ¤ì§Ĳ":7672,"Ġëĭ¤ë¥¼":7673,"Ġìĩ¼íķĳ":7674,"ä»":7675,"Ġê»į":7676,"ìľ¼ë¡ľìĦľ":7677,"íı¬ë¥¼":7678,"60":7679,"ìĦ¸ìļ©":7680,"ĠìķĦë¹łê°Ģ":7681,"ê³łìĭ¶ëĭ¤":7682,"íķĺë©´ë":7683,"ê°±":7684,"ìĮ¤":7685,"ìĭľê¸°":7686,"Ġìĺ¤ë¹łê°Ģ":7687,"ĠëĮĢì¤ĳ":7688,"ìĿ¸íĬ¸":7689,"ìĪĺìĻĢ":7690,"Ġìķ¨ë":7691,"ĥī":7692,"ìĸ´ë¦¬":7693,"¬´ëĬĶ":7694,"ìĿ´íĮħ":7695,"ent":7696,"Ġíķĺê¸´":7697,"ìĿ¼ëıĦ":7698,"ìķłë¥¼":7699,"ëķħ":7700,"ì²´ëĬĶ":7701,"ħĢê°Ģ":7702,"Ġë¯¸ìĨĮ":7703,"Ġìĺ¹":7704,"ĠìĬ¤ë§ĪíĬ¸":7705,"ëĭ¤ëĭĪëĬĶ":7706,"ìĺ¤ìĿ¼":7707,"Ġìłĵ":7708,"Ġë®¤":7709,"ìĺģìĸĳ":7710,"ĠìĦ¤ìłķ":7711,"ìłĢê·Ģ":7712,"ê¾¸ë§Į":7713,"ê³¼ìŀĲ":7714,"ĠëĤ´ë°ĢìĹĪëĭ¤":7715,"ĠëħĢìĦĿìĿĢ":7716,"ìĹĨìĸ´":7717,"êµĲìĿĺ":7718,"ë¶Ļ":7719,"ĠíŀĲ":7720,"ìĹĪì§Ģ":7721,"Ġëĸ¨ìĸ´ì§ĢëĬĶ":7722,"Ġë³´ëĥĪëĭ¤":7723,"Ġìī½ì§Ģ":7724,"Ġê°Ħëĭ¨íķĺê²Į":7725,"íĹ¤ìĸ´":7726,"±ħ":7727,"ì¡¸":7728,"ĠìķĦëĭĪìĹĲìļĶ":7729,"ìĻĶëĬĶëį°":7730,"ðŁĺĭ":7731,"ìĹŃìĿĦ":7732,"ìĹĦë":7733,"ĠëĤ¨ìŀĲë¥¼":7734,"ĠìĽĲë§Ŀ":7735,"bo":7736,"íĺķìĿĢ":7737,"ì¹ĺìĹĲ":7738,"ĠìĦ¸ìĥģìĿ´":7739,"ĠìĿ´íĭĢ":7740,"ìķ¼ìĭĿ":7741,"ìĪĺìĹĲ":7742,"la":7743,"Ġê°ĸì¶Ķ":7744,"ìŀĲëĵ¤ìĿĺ":7745,"Ġë¨¸ë¦¬ì¹´ëĿ½":7746,"ĠìĿ´ê²ĥìłĢê²ĥ":7747,"ĠëĮĢíķ´ìĦľëĬĶ":7748,"¶Ħëĵ¤":7749,"íĮ½":7750,"Ġíķľìłķ":7751,"Ġëĭ¤ê°ĢìĻĶëĭ¤":7752,"ìĿ¼ë¦¬ë":7753,"§ĮìĿĢ":7754,"Ġì²ľìĹ°":7755,"ì©¡":7756,"ĠìĤ¬ìĹħ":7757,"Ĥ¨ëıĻ":7758,"ìĿ¸ìĥĿ":7759,"ĠìĤ¬ì§Ħë":7760,"Ġë³´ëĤ´ê³ł":7761,"Ġëª»íĸĪëįĺ":7762,"íĻĶë¡ľ":7763,"ĠìĿ¸íĦ°ëĦ·":7764,"ĠìĿ´ìĹĪëĭ¤":7765,"íĭ°ìĬĪ":7766,"Ġê±°ë¦¬ë¥¼":7767,"Ġë§īìĥģ":7768,"Ġì¡°ê¸ĪìĿĢ":7769,"ìħī":7770,"Ġìĭ¶ìĿĢëį°":7771,"ðŁĺĺ":7772,"Ġìķ¡ìħĺ":7773,"ĠëįĶë¶Ī":7774,"Ġê±°ìļĶ":7775,"ìĹĲìĦľë¶ĢíĦ°":7776,"ë¯¼ìĿĢ":7777,"Ġãħĭãħĭãħĭãħĭãħĭãħĭãħĭ":7778,"Ġìłķìĥģ":7779,"Ġìĸ´ë¨¸":7780,"Ġì§ĲìĬ¹":7781,"ë°ľë":7782,"ĠëĲľìŀ¥":7783,"korea":7784,"ıĻìĿĦ":7785,"Ġë§ĽìŀĪìĸ´ìļĶ":7786,"ĠëģĮëł¤":7787,"ìĬ¤íħĮìĿ´íģ¬":7788,"¦¬ëĿ¼ëĬĶ":7789,"Ġëļľê»ĳ":7790,"ĠëĮĢêµ¬":7791,"ìļ©íĴĪ":7792,"Ġì¡´ë§Ľ":7793,"Ġthe":7794,"ĠëĨĢìĿ´":7795,"ìĶ¨ìĿĺ":7796,"Ġì£¼ìĭł":7797,"ĠëĤ´ë©°":7798,"ì¸µìĹĲ":7799,"ë¨¸":7800,"ìłĢëĤĺ":7801,"ĠìŀĲìłĦ":7802,"ëģ":7803,"ìĹĲê²Įë¡ľ":7804,"ĠìłĲìĿĦ":7805,"Ġì¢ĭìķĺ":7806,"Ġë§¤ìŀ¥":7807,"Ġë¶ĢìĦľ":7808,"ĠëģĶ":7809,"ìļĶê±°":7810,"Ġìĭłê²½ìĿĦ":7811,"Ġê±±ìłķìĿ´":7812,"ë§ĽìŀĪëĭ¤ê·¸ëŀ¨":7813,"Ġê¸Ģë":7814,"ë©´ë":7815,"ĠëĤĺëĪł":7816,"Ġì¹ĺë£Į":7817,"ĠìĹ¬íĸīìĿĦ":7818,"ĠëĳĲëł¤ìĽĮ":7819,"ĠìļĶìĥĪ":7820,"ìŀĳìĿĺ":7821,"Ġë¹Ħì£¼ìĸ¼":7822,"Ġë¶ĢìĹ¬":7823,"Ġê³łê³ł":7824,"ĠëĵľëĿ¼ë§Ī":7825,"Ġì²ŃìĨĮ":7826,"ê²ĢìĿĦ":7827,"ìļ´ëĵľ":7828,"ĠìłĦíķĺ":7829,"Ġë§ĽìŀĪê³ł":7830,"ĠìĻĶìĸ´ìļĶ":7831,"êµŃìĿĢ":7832,"ĠëıĮìķĦê°ĢëĬĶ":7833,"į®":7834,"ìĭ¤ìĿĢ":7835,"ĠëįĶëĵ¬":7836,"Ġc":7837,"ë§ĲìĿĦ":7838,"ĠìĤŃ":7839,"ê¸¸ë¡ľ":7840,"ĠìŀĲê¾¸ë§Į":7841,"ëĮĢìĿĺ":7842,"ĠìĿĺìķĦ":7843,"Ġë¬´ëł¤":7844,"ĠëĬ¦ìĿĢ":7845,"ìĿ´ëĦĪ":7846,"ê°ĢìŀĲ":7847,"Ġë¶ĵ":7848,"Ġë°°ìļ°ë":7849,"³ĳìĿĦ":7850,"ìĸĺ":7851,"ĠìķĪìłķ":7852,"ìĭ«":7853,"Ġê±°ëĿ¼":7854,"ìłĪìĿ´":7855,"ĠíĺĢë¥¼":7856,"ì§ĢìĹĲìĦľ":7857,"Ġì§Ħìĭ¬":7858,"ìĭľìĿĺ":7859,"ĵĢ":7860,"Ġì§Ģíľĺ":7861,"Ġê±´ê°ķíķľ":7862,"êµ¬ë¨¼":7863,"ĠìĺģìĽĲíŀĪ":7864,"ĩĮë":7865,"Ġë§ĳìĿĢ":7866,"ìĭľíĤ¤ë":7867,"íĺĶ":7868,"Ġë¦¬ë·°":7869,"åĲ":7870,"ãĦ·ãĦ·":7871,"Ġë¨¹ìĿĮ":7872,"¥´íĬ¸":7873,"Ġê°ľëħĲ":7874,"Ġì°©ê°ģ":7875,"Ġëĭ¹íķľ":7876,"ðŁı»âĢįâĻĢï¸ı":7877,"ëĬĲëĤĮ":7878,"ìĦĿìĹĲ":7879,"©Ķë¦¬ì¹´ë":7880,"Ġìĥĺ":7881,"Ġë§Įëĵ¤ìĸ´ì§Ħ":7882,"ĠìĿ´ëĵ¤ìĿĢ":7883,"Ġìº¡":7884,"ĠìĹĦë§ĪìĿĺ":7885,"ĠìĤ¬ëŀĳíķ´":7886,"ĠìľłìĿ¼íķľ":7887,"-)":7888,"ĠìĿ´ë¥¸":7889,"Ġë¸Įëŀľëĵľ":7890,"£Įë¡ľ":7891,"ĠëıĮìķĦìĦľ":7892,"Ġãħłãħłãħł":7893,"ê´ĢìĹĲ":7894,"Ġê·¸ëŁ¼ìĹĲëıĦ":7895,"ĠìĬ¤íģ¬ë":7896,"Ġë°Ľì§Ģ":7897,"Ġë§Īì°¬ê°Ģì§Ģë¡ľ":7898,"íķľì§Ģ":7899,"ĠëĭĪê°Ģ":7900,"ì·¨ë":7901,"íĺķìĿĺ":7902,"Ġë¶ĪìĿ´":7903,"Ġìĭ¶ìĹĪëĬĶëį°":7904,"Ġ60":7905,"Ġëľ¨ê³ł":7906,"ìĭĿìĹĲ":7907,"ĠìĽĥìĿĮìĿ´":7908,"Ġê·¸ê³³ìĹĲ":7909,"Ġë¬´ìĸ¸ê°Ģ":7910,"¿Įë":7911,"ĠìĪłë":7912,"ĠíĶ¼ë¶Ģë¥¼":7913,"Ġë±ī":7914,"Ġíķľì°¸ìĿĦ":7915,"ëĬĶê²Į":7916,"ĠìĿ´ëĶ°":7917,"ëĭ¤ìļ´":7918,"Ġë¶Ģíķĺë":7919,"íĺ¸íħĶ":7920,"íİ¸ìĹĲ":7921,"dogstagram":7922,"ĠìĹ¿":7923,"ì¹ĺìĿĺ":7924,"íģ¬ìĿĺ":7925,"ĠëĤĺë¦ĦëĮĢë¡ľ":7926,"Ġëĭ¤ëĭĪë":7927,"íķĻìĿĦ":7928,"ìĺ¤ë¥´ëĬĶ":7929,"Ġë¶ĻìĹ¬":7930,"°íĶĮ":7931,"Ġê°Ģê²©ìĿ´":7932,"ĠìŀĪì£ł":7933,"Ġìĭľê³¨":7934,"íİĺìĿ´ì§Ģ":7935,"Ġê·¸ëŁ¬ëĭ¤ê°Ģ":7936,"ĠìĿ¼ìļĶìĿ¼":7937,"ë¨¸ë¦¬":7938,"art":7939,"ê²łêµ°":7940,"Ġë²Ħë¦´":7941,"Ġê¹ĶëģĶíķľ":7942,"ĠëĵĿ":7943,"ĠìĹİëĵľë":7944,"ĠìŀĪëĬĶê°Ģ":7945,"êµ¬ëł¤":7946,"ĠìļĶì¦ĺìĿĢ":7947,"°ĽìĿĢ":7948,"ootd":7949,"ìļ©ìľ¼ë¡ľ":7950,"Ġëĭ¤ìĭľëĬĶ":7951,"ĠëĤłì¹´ë¡ľìļ´":7952,"ì§ĳëĭĪëĭ¤":7953,"ĠëĨĴìĿ´":7954,"ĠëĦĺë":7955,"ĠìľĦìĿĺ":7956,"ĠíĸĪëįĶëĭĪ":7957,"ĮĢìļĶ":7958,"ìĭľíķľ":7959,"ĠëıĮìķĦìĻĢ":7960,"ëĴ¤":7961,"ê¸°ìĹĲëĬĶ":7962,"Ġìĸµìļ¸":7963,"Ġë§ĪìĬ¤íĦ°":7964,"Ġì»µ":7965,"Ġì¤ĦìĿĢ":7966,"âĪ¼":7967,"Ġê·Ģë":7968,"ĺ¥":7969,"Ġëª»ë¨¹":7970,"ë§ĪìĿĦ":7971,"Ġì«ĵìķĦ":7972,"ĠëĤĺê³ł":7973,"Ġë¯¼ì£¼":7974,"ĠìŀĶìĿĦ":7975,"Ġì¤ĳìĭ¬":7976,"ĠìĬ¤íİĺ":7977,"Ġë§ĲëĮĢë¡ľ":7978,":)":7979,"ì°Ķ":7980,"ĠìĤ¬ëĤĺ":7981,"ĠìĨĮíĮĮ":7982,"ĠìķĪíĥĢê¹Į":7983,"Ġãħħ":7984,";;;":7985,"Ġëĭ´ëĭ¹":7986,"ëł¬íķľ":7987,"ìĥĺ":7988,"ĠëĪĦêµ°ê°Ģê°Ģ":7989,"Ġì»¬ëŁ¬":7990,"Ġíķľê²°":7991,"ĠëıĦëĳĳ":7992,"ĠìķĦëĤ´ê°Ģ":7993,"âĻ¥ï¸ı":7994,"âľ":7995,"ĠíĮĮëıĦ":7996,"ê³µìĿ´":7997,"Ġê¸°ëĭ¤ëł¸ëĭ¤":7998,"Ġì²ĺìĿĮìĹĲ":7999,"Ġë³´ìĹ¬ì£¼ëĬĶ":8000,"ìĤ°ìĹĲ":8001,"ĠìĿ´ìª½":8002,"ĠìĤ°ì±ħ":8003,"Ġë´ĲìļĶ":8004,"Ġë¿Įë¦¬":8005,"ê°ĢìĿĦ":8006,"Ġê¸°ì¤Ģ":8007,"Ġë§İìĿĢëį°":8008,"ì¤ĳìĿĦ":8009,"ì¹´ìĺ¤":8010,"ĠìĤ¬ëĿ¼ì¡Įëĭ¤":8011,"Ġìķłìį¨":8012,"ìĸ´ìĸ´":8013,"ĠìĹĨìĹĪê³ł":8014,"ĨĶ":8015,"Ġë§Īëķħ":8016,"Ġëª»íĸĪ":8017,"Ġë¹Ħìĭ¸":8018,"ê°Ģëįĺ":8019,"Ġê·¸íĨłë¡Ŀ":8020,"ê³±ì°½":8021,"Ġë¦½":8022,"Ġë¨¹ìĹĪëĬĶëį°":8023,"Ġëª°ëŀĺ":8024,"Ġë¨¹ìľ¼ëĭĪ":8025,"ŀĦê¹Į":8026,"å¤§":8027,"porn":8028,"¿ľ":8029,"ê´´ë":8030,"ĠíķĺëĬĺìĿ´":8031,"Ġì¢ħìĿ´":8032,"Ġêµ¬ì²´":8033,"ìłľë¶ĢíĦ°":8034,"Ġìĸ´ëĬĲë":8035,"ê°Ĳíķľ":8036,"éģ":8037,"ìĪłë":8038,"Ġì§Ħíķľ":8039,"Ġìĺ¤ë¹łë":8040,"ĠíĨµê³¼":8041,"íģ´ë¦°":8042,"ĠíĥĪë":8043,"Ġm":8044,"ðŁĺģ":8045,"ìħľ":8046,"ĠëĮĢíķľë¯¼":8047,"ĠíķĺëĤĺë§Į":8048,"ì§ĳìĿĢ":8049,"ĠëĤĺëŀĳ":8050,"ì¡±ìĿĺ":8051,"Ġë°Ģëł¤":8052,"Ġë¬´ê±°ìļ´":8053,"íĦ°ìĹĲ":8054,"ë§Ĳê³ł":8055,"ĠíĽĪ":8056,"Ĳģ":8057,"³¼ê¹Į":8058,"ļê½ĥ":8059,"pome":8060,"ëģĿ":8061,"Ġa":8062,"´ħëĭĪëĭ¤":8063,"Ġ21":8064,"Ġì§Ģê²½":8065,"ëı¼ì§Ģ":8066,"Ġëį°ìĿ´íĬ¸":8067,"rani":8068,"ĠìķĪìĿĦ":8069,"ĠìĨĮìĬ¤":8070,"ĠëĬĻ":8071,"ê³ĦìĹĲ":8072,"ĠìłĲìĿĢ":8073,"ĠìĨĮê¸Ī":8074,"ĠìŁģ":8075,"Ġëĵłëĭ¤":8076,"íĳ¼":8077,"ë¦°":8078,"Ġì£¼ë¨¹ìĿĦ":8079,"Ġìĥģíĥľë¡ľ":8080,"ĠìķĬìķĺìĬµëĭĪëĭ¤":8081,"ëŁ½":8082,"Ġë¨¹ìĹĪìĸ´ìļĶ":8083,"ĠìĭłìĿ´":8084,"Ġë¿Įëł¤":8085,"ĠëĮĵ":8086,"Ġìĺģìĸ´":8087,"Ġê±°ëĥĲ":8088,"ê°ķëĤ¨":8089,"ì¡°ê°ģ":8090,"¹¨":8091,"ł¤ëįĺ":8092,"Ġì°¨ëł¤":8093,"íķĺê²łìĬµëĭĪëĭ¤":8094,"ĠëģĶì°į":8095,"ìºł":8096,"¶ĵ":8097,"ìĸĢ":8098,"ĠìłĬ":8099,"ĠëĤĺëŀĢíŀĪ":8100,"ĠíĮĮê³ł":8101,"ĠìĤ¬ëĤ´ë":8102,"ĠìľĹ":8103,"ëĬĶì§ĢëıĦ":8104,"ëĤ©":8105,"ĠíķľëĳĲ":8106,"ìĿĮìĿĢ":8107,"ĠíĽĳ":8108,"Ġë¹ĦëªħìĿĦ":8109,"äºº":8110,"ĠëĲĺìŀĲ":8111,"ranian":8112,"ìĺ¬ëŀĲëĭ¤":8113,"ĠìĤ¬ìłķ":8114,"ĠìĬ¤íĮĮ":8115,"pomeranian":8116,"°©ìĿ´":8117,"Ġì§Ģìĺ¥":8118,"ëĭ´ìĿĦ":8119,"Ġìĸ´ì°ĮëĤĺ":8120,"Ġëª»íķľëĭ¤":8121,"ì¹µ":8122,"âĿ£":8123,"Ġëª¨ë¥¸ëĭ¤ëĬĶ":8124,"Ġë§Ĳíķĺì§Ģ":8125,"ĠíĦ°ìł¸":8126,"Ġê°Īëĵ±":8127,"Ġë³´ìĹ¬ì£¼":8128,"Ġê°¸":8129,"Ġë¬´ì§Ģ":8130,"ĠìĿ´íķ´ê°Ģ":8131,"Ġë¹ĦíĭĢ":8132,"ĠìķĦë²Ħì§Ģë¥¼":8133,"ìĹĶë":8134,"Ġê·¸ëŁ¬ë©´ìĦľ":8135,"Ġìŀİ":8136,"Ġë²Ħíĭ°":8137,"Ġë©ĺ":8138,"ĠíĬ¼":8139,"ĠìľĦíĺĳ":8140,"ìĿ¸ëį°ëıĦ":8141,"ĠìĨĲëĭĺë":8142,"Ġê·¸ëŁ¬ëĭ¤":8143,"ĠìŀĲë¦¬ê°Ģ":8144,"ĠìķĬìķĺìĿĦ":8145,"ðŁĴĽ":8146,"ëĭĪëĬĶ":8147,"Ġì¢ĭìĿĢëį°":8148,"ĠìĪĺëł¨":8149,"ł¸ìĸ´ìļĶ":8150,"Ġê°ļ":8151,"Ġìłķìŀĳ":8152,"Ġìłģê·¹":8153,"ĠëįĶë¶Īìĸ´":8154,"ĠìĨįìĤŃ":8155,"íĻĶëĲľ":8156,"ĠìłĦë³µ":8157,"ìĤ¼ë":8158,"ê°Ģìķ¼":8159,"ĠìĨĮë¬¸ìĿ´":8160,"ìĤ°ê·ł":8161,"Ġìĭ¶ìĬµëĭĪëĭ¤":8162,"ê°ĳê²Į":8163,"Ġë§Ĳíķĺë©´":8164,"Ġì£¼ìĿĺ":8165,"ĠíķĺëĬĶì§Ģ":8166,"Ġê°Ħëĭ¨íķľ":8167,"ĠìĦ¸ìĥģìĹĲìĦľ":8168,"ĠëĮĢíĻĶë¥¼":8169,"ĠìłĲìĹĲìĦľ":8170,"ĠëıĮëł¤ë":8171,"ĠìķĶíĬ¼":8172,"Ġë³´ìĬµ":8173,"Ġëªĩëªĩ":8174,"Ġë¹¡":8175,"Ġëª©ìļķ":8176,"Ġë§ĪìĦ¸ìļĶ":8177,"ĠìłĦìĭľ":8178,"ë§ĮëĳĲ":8179,"Ġê·¸ëĭ¤ì§Ģ":8180,"Ġê¸°ëĮĢë":8181,"âĢ¦âĢ¦.'":8182,"Ġìłķë³´ë¥¼":8183,"êº¼ë²ĪìĹĲ":8184,"Ġìĺ¬ë¦¬ê³ł":8185,"Ġë²ĦíĬ¼":8186,"Ġìĵ°ëłĪ":8187,"Ġê¶Įëł¥":8188,"ĠëĤ´ë¦¬ëĬĶ":8189,"Ġì¹´ìĿ´ëŀĢ":8190,"íķµ":8191,"ĠìĪ¨ìĿ´":8192,"ìĺ¤ê°Ģ":8193,"íķľìĿĢ":8194,"ìļ´ìĿĢ":8195,"ĠìĦ¤ëĵĿ":8196,"íĶĦê°Ģ":8197,"ĠìĤ¬ëĿ¼ì§Ħ":8198,"ĠìĿĺì§Ģ":8199,"ĠìķĦíĮĮíĬ¸":8200,"eat":8201,"ê²ĥìĿĢ":8202,"Ġìĭ¬ìĭ¬":8203,"íĶĦëłĪ":8204,"ĠëĦĺëĬĶ":8205,"ìŀĪìĹĪëĭ¤":8206,"ìŀĲëĦ¤":8207,"ĠëĳĺìĿĢ":8208,"Ġëĵ¤ìĸ´ê°Ķ":8209,"Ġíı°":8210,"Ġê³łê¸°ê°Ģ":8211,"Ġìºł":8212,"ë¬¸ë":8213,"ê±°ëĿ¼ê³ł":8214,"Ġë¬´ë£Į":8215,"ìĸĳìĿĺ":8216,"ĠìŀĬê³ł":8217,"pic":8218,"êµ½":8219,"Ġë§ĮëĤĺëĬĶ":8220,"ĠëįĶëįĶ":8221,"Ġìŀ¥êµ°":8222,"ĠìĤ¬ìļ©íķĺê³ł":8223,"ĠìĬ¬ì©į":8224,"Ġëĭ¤ìĿ´ìĸ´íĬ¸":8225,"ĠìĤ¬ëĤ´ìĿĺ":8226,"ìĬµëĭĪëĭ¹":8227,"ĠëĦĺìĸ´ê°Ģ":8228,"ìĿ¸ì§ĢëıĦ":8229,"Ġë¸Ķë£¨":8230,"Ġë¶Īíĸī":8231,"ì´ĪìĹĲ":8232,"Ġëĭ¤íģ¬":8233,"Ġê³µìĹ°":8234,"Ġíķľêº¼ë²ĪìĹĲ":8235,"Ġë¹Ħë¡¯íķľ":8236,"¯¸ë¡ľ":8237,"¦¬íķľ":8238,"íŀĪì§Ģ":8239,"ëŃĲìķ¼":8240,"ĠìĿ´ë§Į":8241,"ê¹Įì§Ģë§Į":8242,"Ġê³½":8243,"ĠìŀħìĿ´":8244,"Ġì§ģìĹħ":8245,"Ġìĭłë¬¸":8246,"ĠíĶĮëĿ¼":8247,"ĠTV":8248,"ëĶ°ë":8249,"Ġë¸ĮëĿ¼":8250,"ê¸īíŀĪ":8251,"Ġëĺĳëĺĳ":8252,"ĠíıŃëł¥":8253,"Ġì°įê³ł":8254,"Ġì¼Ģë":8255,"Ġë§ĮëĤ¨":8256,"Ġì£½ìĹ¬":8257,"ĠíľĺëĳĲë":8258,"Ġê°Ħìŀ¥":8259,"ĥĲëĬĶ":8260,"ëĦ¤ê°Ģ":8261,"Ġì§ľë":8262,"Ġíķ´ì¹ĺ":8263,"ĠìĨĮìľł":8264,"ëŃĲë":8265,"Ġë°ĿíĺĢ":8266,"Ġì´Īëĵ±":8267,"ë¯¸ìķĪ":8268,"ĠìĿ´ë¦¬ìłĢë¦¬":8269,"ìĵ±":8270,"íķĺìĭľë":8271,"ìĭ¤ìĿĺ":8272,"Ġìĭ¶ìĹĪëįĺ":8273,"íĨµìĿ´":8274,"íĻĶìĿ´íĬ¸":8275,"ĠëıĦì°©íķľ":8276,"ì²ľìĿĢ":8277,"Ġë§ĪìĿĮìĿĺ":8278,"ªħìĿĺ":8279,"ìľ¼ìĭľ":8280,"ĠëĪĪìį¹":8281,"ĠìŀĺëĿ¼":8282,"Ġìĸµì§Ģë¡ľ":8283,"ķĮë¶ĢíĦ°":8284,"ĠìĥĿê°ģíķĺì§Ģ":8285,"ĠëĤ´ë©´":8286,"Ġì§Īë¬¸ìĿĦ":8287,"ìĨįìĿĺ":8288,"Ġì°¾ê³ł":8289,"Ġë¬¼ë¦¬":8290,"Ġíİ¸ì§Ģë¥¼":8291,"ĠìĨĮì¤ĳíķľ":8292,"ĠìķĬëĬĶëĭ¤ëĬĶ":8293,"Ġë°ĽìķĦëĵ¤ìĿ´":8294,"ë§ĺìĬ¤íĥĢê·¸ëŀ¨":8295,"ĠíĥĪì¶ľ":8296,"§Ĳë":8297,"íķĺìĭľê³ł":8298,"ìĻĦë":8299,"Ġê°Ļì§Ģ":8300,"ìĹ¬ëıĦ":8301,"íķľê²Į":8302,"íĥĢìĿ´":8303,"ĠìłĢíķŃ":8304,"Ġë¨¹ì§Ģ":8305,"ĠìĦľë¡ľë¥¼":8306,"íķ´ì£¼ê³ł":8307,"Ġêº¼ëĤ´ë":8308,"ìłĢëŁ°":8309,"ìĺ¨ìĿ´":8310,"Ġì§Ģë£¨":8311,"ĠìķĦë¬´ëłĩ":8312,"Ġë§ĮëĤĺê³ł":8313,"âĹĭ":8314,"Ĥľëĭ¤":8315,"ìŀ£":8316,"ë´Ħ":8317,"ìĿ´ê±´":8318,"ĠìĭłìĿĺ":8319,"ìĸ´ì©":8320,"Ġê·¸ëŁ¬ëĬĶ":8321,"ê°Ģê²Į":8322,"Ġë¹ĦíĮĲ":8323,"ëī´":8324,"Ġì°¡":8325,"ê°Ĳê³¼":8326,"Īë§Į":8327,"ìĿĮìĹĲëıĦ":8328,"ĠíĺķìĦ±":8329,"Ġë¬¼ìĸ´":8330,"ê±´ë§Į":8331,"Ġ80":8332,"Ġë°ĶëĿ¼":8333,"ĠâĿ¤":8334,"ĠëĤĺëĿ¼ë¥¼":8335,"ĠìķĦìī¬ìļ´":8336,"ĠëķĢ":8337,"Ġë²Ĺìĸ´ë":8338,"Ġë°¤ìĿ´":8339,"Ġê³µìĭĿ":8340,"íķ¨ìĿĢ":8341,"ĠìĿ´ìĤ¬":8342,"Ġê·ĢìĹ¬ìĽĮ":8343,"ĠìĻĶìĬµëĭĪëĭ¤":8344,"ìĦłíĮĶíķĺë©´ë":8345,"ìłĦìľ¼ë¡ľ":8346,"Ġç":8347,"ìŀĲëĤĺ":8348,"ĠëĤĺëĿ¼ìĿĺ":8349,"Ġêµ°ìĤ¬ë¥¼":8350,"ł¸ì§Ģë§Į":8351,"Ġë¹Ħëªħ":8352,"Ġæ":8353,"Ġì°Ĳ":8354,"Ġê·ł":8355,"ìŀĲìĹĲê²Į":8356,"Ġìľ¼ë":8357,"Ġë¬»ëĬĶ":8358,"ì¿µ":8359,"²ķìĿĦ":8360,"ĠìĨĲëĭĺìĿ´":8361,"êµ¬ë©į":8362,"ĠíĻĢë":8363,"Ġê´Ģê´ĳ":8364,"Ġ-_-":8365,"Ġíıīë²Ķíķľ":8366,"ë£Į":8367,"ìĦłíĮĶíķĺë©´ë§ŀíĮĶ":8368,"Ġë³¸ëĭ¤":8369,"Ġì¤ĳìĭ¬ìľ¼ë¡ľ":8370,"ĠìĹ°ìĬµ":8371,"ĠìľĦíķĺìĹ¬":8372,"ĠëĶ±ëĶ±":8373,"Ġê´Ģê³Ħë¥¼":8374,"ĠëĤ´ìļ©ìĿĦ":8375,"ìĿ´ëįĶ":8376,"ĠíĶĮëłĪ":8377,"ìħ¨ìĬµëĭĪëĭ¤":8378,"åį":8379,"Ġê°ķì¡°":8380,"Ġì»¤íĶ¼ë¥¼":8381,"Ġì±Ļê²¨ë":8382,"Ġì°¨ë¶Ħ":8383,"£»":8384,"Ġìī´":8385,"Ġê¸°ë»Ĳ":8386,"Ġê·¸ëħĢë":8387,"ìĬ¤ëŁ¬ìĽłëĭ¤":8388,"Ġëĭ¬ìķĦ":8389,"¦ħëĭĪëĭ¤":8390,"ìĿĢëį°":8391,"ìĹĨìĹĪëĭ¤":8392,"ess":8393,"ĠëĴ¤ì§ĳìĸ´":8394,"ĠëĤĺëŃĩ":8395,"âĢ¦âĢ¦,":8396,"photo":8397,"Ŀ¼ë¶Ļ":8398,"ìĿ¸ìĬ¤íĥĢë":8399,"ì½ľ":8400,"ë¥´":8401,"foodporn":8402,"ĠìĤ¬ìĦľ":8403,"¹ĪìĿĢ":8404,"ĠìĦ¹":8405,"ĠìŀĺìĥĿ":8406,"ĠëĿł":8407,"ĠìĥģëĮĢê°Ģ":8408,"ëļĿ":8409,"·°íĭ°":8410,"ìĸ´ë¶Ļ":8411,"ĠìĿ´ìłľìķ¼":8412,"ìĿ¸ëĵ¯":8413,"ĠìķĪìĿĺ":8414,"Ġê³¼ìĿ¼":8415,"Ġê³łíĨµìĿĦ":8416,"ìļ°ëĭĪ":8417,"ì¹´ëıĦ":8418,"ĠìŀĪëĦ¤ìļĶ":8419,"ju":8420,"Ġê³µëıĻ":8421,"íļĮëĬĶ":8422,"Ġê·¸ëıĦ":8423,"Ġì§ĵê³ł":8424,"Ġê±°ì¹ľ":8425,"ìĿ¸ê°ĢìļĶ":8426,"å±":8427,"Ġìĭľì§ĳ":8428,"Ġëĸ¨ìĸ´ì¡Įëĭ¤":8429,"ĠìĹĳ":8430,"ì§ķìĸ´":8431,"Ġê²½ê³Ħ":8432,"Ĳ¨":8433,"Ġìĸ¼êµ´ë":8434,"ko":8435,"ĠíķĺìĭľëĬĶ":8436,"ĠìĤ¼ê²¹ìĤ´":8437,"Ġë¶ĦìľĦê¸°ë¥¼":8438,"ĠìĪĺíĸī":8439,"Ġë¬´ëĭ¹":8440,"ìĥĿìĿ´":8441,"ê°Ģë°©":8442,"ĠëĪĪê¸¸ìĿĦ":8443,"Ġë²¼ë":8444,"Ġìĸ´ëĸ¨":8445,"Ġìļ°ë¦¬ìĹĲê²Į":8446,"ìĸ´ë¦°":8447,"å°":8448,"Ġíķĺìĭľ":8449,"ì§Ģìĸ´íĦ°":8450,"ĠìĿ´ìģľ":8451,"Ġï¼":8452,"ĠìĹĨìĹĪìĬµëĭĪëĭ¤":8453,"ĠìĸĳíĮĮ":8454,"ìķłìĬ¤íĥĢê·¸ëŀ¨":8455,"Ġê°Ķëĭ¤ê°Ģ":8456,"Ġë¹Ħìĭ¼":8457,"Ġëĭ¬ëŀĺ":8458,"Ġì°įìĸ´ë":8459,"ê²©ìĿ´":8460,"Ġìŀī":8461,"ĠìĦ¸ìĥģìĿĺ":8462,"Ġê°ĪëĿ¼":8463,"Ġì¶ľìĭł":8464,"ĠìĿ¼ê³±":8465,"Ġãħİãħİãħİãħİ":8466,"Ġê·¸ë¦¼ìĿĦ":8467,"ìĭľê°ĦìĿ´":8468,"ë¥ĺë":8469,"ss":8470,"íĻĶìłĲ":8471,"Ġëª©íĳľ":8472,"íĦ±":8473,"Ġìłķë©´":8474,"ĠëĨĢëŀĲëĭ¤":8475,"Ġê¸į":8476,"Ŀ¼ëĸ¼":8477,"ĠìĦ°ëĭ¤":8478,"ĠìĤ¬ëŀĳìĿ´":8479,"ĠìĿ¼ìłľíŀĪ":8480,"íĦ°ë¡ľ":8481,"Ġë§ĲìĶĢìĿĦ":8482,"ê»į":8483,"ĠìļĶê±´":8484,"ĠíĶĦëŀĳìĬ¤":8485,"Ġìķĵ":8486,"íķ´ì¤Ģ":8487,"ĠíĮ©":8488,"Ġìĭ¸ìļ°":8489,"Ġê°Īë¹Ħ":8490,"Ġê·¸ëŀĺìļĶ":8491,"²ħìĬ¤":8492,"ê°ķìĿĺ":8493,"Ġíĺ¸íĿ¡":8494,"ëª¸":8495,"ì¤ĺìļĶ":8496,"ĠíĮĶë¡ľ":8497,"ĠìĿĺìĻ¸ë¡ľ":8498,"Ġì¤ĳê°ĦìĹĲ":8499,"Ġìŀ¥ìĨĮ":8500,"ĠðŁĳį":8501,"Ġê·¼ìľ¡":8502,"ìľłì§Ģìĸ´íĦ°":8503,"ĠìĦ¤ì¹ĺ":8504,"ĠðŁĳī":8505,"íĤ¨ë":8506,"ĠíĶ¼ìĸ´":8507,"Ġíķĺê²łìĬµëĭĪëĭ¤":8508,"Ġëĵ¤ìĿ´ë":8509,"op":8510,"Ġê·¸ëŀ¬ëĭ¤":8511,"ìļ°ìľł":8512,"ĠìĿ´íĽĦë¡ľ":8513,"ìĽĲëĵ¤ìĿ´":8514,"ì±Ħë¥¼":8515,"ì¹´ëĵľ":8516,"íķ´ì§Ģ":8517,"ìĦ¸ìłľ":8518,"¦¬ë¸Įìĺģ":8519,"ĠëģĿëĤ¬":8520,"ĠìĹ¬ê¸°ê¹Įì§Ģ":8521,"Ġê³±ì°½":8522,"ĠìĸĢ":8523,"ĠëıĻêµ´":8524,"Ġì¶ľìĹ°":8525,"ìķħíķľ":8526,"ìĭłìĥģ":8527,"_+":8528,"ĠìĤ½":8529,"ĠìĤ¬ëŀĳìĿĺ":8530,"ĠíĥĦë":8531,"ĠìķĬìķĺë":8532,"ĠìłĢëħģìĹĲ":8533,"ĠìĬĪë":8534,"Ġëģ¼ê³ł":8535,"Ġíĸĩë¹Ľ":8536,"ĠìĥĿê°ģíķľëĭ¤":8537,"¹Ħë¡ľ":8538,"íĿ¬ë¥¼":8539,"ê°ľëĬĶ":8540,"ĠìħĶ":8541,"ëģ¼ë¦¬":8542,"ĠâĢ¦âĢ¦":8543,"ìĸ´ì¡Į":8544,"instadaily":8545,"ĠíĻĶìŀ¥ìĭ¤":8546,"Ġëĭ´ë°±":8547,"Ġê°Ģê¹Ŀ":8548,"ĠìłģìĿĦ":8549,"ìĹĲìĿ´":8550,"Ġê°ĦìĭĿ":8551,"ĠìĻĶë":8552,"ê²¼ë":8553,"Ġìļ°ìľł":8554,"ĠëłĪìĬ¤":8555,"ĠíĹĪë¦¬":8556,"Ġíį½":8557,"ì²ľìĽĲ":8558,"ìĸ´ìļ©":8559,"ìłĪë¡ľ":8560,"Ġ22":8561,"Ġì°¾ìķĦìĺ¨":8562,"íģĲë":8563,"ì²´íĹĺ":8564,"Ġìĺ¤ë¡ľ":8565,"ìĸ´ìĿĺ":8566,"Ġì¢ĭëįĶëĿ¼êµ¬ìļĶ":8567,"«ï¸ı":8568,"ĠíħĶë":8569,"Ġë¶ĢëĮĢ":8570,"ĠìĤ´ìķĦëĤ¨":8571,"Ġëħ¸ëŀĢ":8572,"ìľ¼ìĦ¸ìļĶ":8573,"íĺ¸íĺ¸":8574,"ìĽĢìĹĲ":8575,"Ġãħ¤":8576,"Ġëĸ´ëĭ¤":8577,"ì§ĢëĿ¼ëıĦ":8578,"ê°ĢìĹĲìĦľ":8579,"ìłĦíķľ":8580,"Ġë§ĽëĤĺ":8581,"ak":8582,"ëĭ¤ë³´":8583,"ĠìķĦì§ģìĿĢ":8584,"ì¾Įíķľ":8585,"Ġë¬´ìĿĺ":8586,"Ġê±°ëĳĲ":8587,"íĸĪìľ¼ëĤĺ":8588,"ĠíĹ¬":8589,"ìķ½íķľ":8590,"ĠìĬ¬íĶĪ":8591,"ìĺ¤ëŀľ":8592,"ĠìŀĪìĹĪìĿĦ":8593,"Ġë¨¸ë¦¬ë":8594,"ĠìŀĲìĭłëĵ¤ìĿĺ":8595,"Ġëª©ìĨĮë¦¬ëĬĶ":8596,"Ġë¶ĢíĦ°":8597,"ëª¬":8598,"ĠìłĦì²´ìłģìľ¼ë¡ľ":8599,"íĥĲ":8600,"ĠìķĦë¦Ħëĭµ":8601,"´ëĵľ":8602,"Ġíİ¸ìĿ´":8603,"ì°¨ëĬĶ":8604,"ìĩĦ":8605,"Ġì§ĢëĤĺê°ĢëĬĶ":8606,"ĠìĿ¸ì¦Ŀ":8607,"Ġì¡°ìłķ":8608,"ë°ĺì°¬":8609,"ĠëģĮìĸ´ìķĪ":8610,"Ġì´Īì½Ķ":8611,"Ġê¸°íļĮê°Ģ":8612,"ĠìĹĨìĹĪì§Ģë§Į":8613,"ł¸ëĭ¤ëĬĶ":8614,"ìĺ¤ë¦¬":8615,"íķ´ìķ¼ì§Ģ":8616,"ë¹Ļ":8617,"Ġê³łë°±":8618,"Ġë³´ìĦ¸ìļĶ":8619,"Ġê°Ģê²©ìĿĢ":8620,"ĠìļĶì²Ń":8621,"ì£¼ìĭľ":8622,"íķĺê¸°ëĬĶ":8623,"ĠìĤ¬ìĿ´ìĹĲìĦľ":8624,"ìĪĺìĪĺ":8625,"ê¹Ģë°¥":8626,"ë¯¼ìĿ´":8627,"ìĬ¤íĬ¸ë¡ľ":8628,"ì¿Ħ":8629,"Ġì¶©ìłĦ":8630,"Ġê¼¼ì§Ŀ":8631,"ĠëĶ¸ê¸°":8632,"ëĦĺ":8633,"ë¹µìĪľìĿ´":8634,"²Ħë¦¬ê³ł":8635,"ĠìĬ¤íħĮìĿ´ì§Ģ":8636,"ìĤĲ":8637,"Ġê³łìĸĳìĿ´":8638,"Ġìī¬ë":8639,"ĠíĻĶëł¤íķľ":8640,"ìĵ°ê³ł":8641,"Ġì¢ĭìķĺëįĺ":8642,"Ġë§ĮëĳĲ":8643,"ìĸĳìĿĦ":8644,"Ġì§ĳìĿĢ":8645,"Ġìª½ìĿĦ":8646,"§ĪìłĢ":8647,"Ġê³Ħì§ĳ":8648,"Ġë©įíķĺëĭĪ":8649,"Ġë¹Ħë°":8650,"ĠðŁĲ":8651,"Ġë¬´ê²¸":8652,"ĠìĨĮë¦¬ìĻĢ":8653,"ê·¸ëłĩëĭ¤ë©´":8654,"Ġë½Ģ":8655,"ëª°":8656,"ëĭ¨ìĿĢ":8657,"ĠìĻĶëĬĶëį°":8658,"Ġìĸ´ê¹¨ìĹĲ":8659,"²Ħë¦´":8660,"Ġëľ»ë°ĸ":8661,"ĠìĦľë¡ľìĿĺ":8662,"Ġ:-)":8663,"2017":8664,"ĠìĿ¼ìĸ´ìĦ°ëĭ¤":8665,"íĿĶ":8666,"Ġãħĭãħĭãħĭãħĭãħĭãħĭãħĭãħĭãħĭãħĭãħĭãħĭãħĭãħĭãħĭãħĭ":8667,"Ġê²ĥìĿ´ëĭĪ":8668,"Ġê¹İ":8669,"Ġìĵ°ëĭ¤ëĵ¬":8670,"ĠëĪĪì¹ĺë¥¼":8671,"ĠëĤĺê°Ģë":8672,"ĠìłľíĴĪë":8673,"íķĺëįĶëĿ¼êµ¬ìļĶ":8674,"Ġìĸ»ìĿĢ":8675,"Ġê±°ëĵŃ":8676,"ĠìĥģíĻ©ìĹĲìĦľ":8677,"íĻī":8678,"Ġìļ°ìĹ°íŀĪ":8679,"Ġêº¼ëĥĪëĭ¤":8680,"Ġë°°ëĭ¬":8681,"ĠìķĪìĹĲëĬĶ":8682,"ê¶Įë":8683,"ĠìĿ¸ìĥģìĿĦ":8684,"ìŀĲëĵ¤ìĿĦ":8685,"Ġë¸Ķë¡ľê·¸":8686,"ĠíıŃíĴį":8687,"ĠìŀĪëĦ¤":8688,"Ġìĸĳë°ĺ":8689,"ĠìĿĺìŀĲìĹĲ":8690,"====":8691,"ìĦ¸íķľ":8692,"ë¨¹ê³ł":8693,"ìĭľê°ĦìĹĲ":8694,"ĠìĶĮ":8695,"ë³µìĿĦ":8696,"¬ĺíķľ":8697,"ĠìĦ¤ëªħìĿĦ":8698,"Ġâĸ«ï¸ı":8699,"ìĪ²":8700,"ìŃĪ":8701,"ĠìĭľìĬ¤íħľ":8702,"21":8703,"ĠëĽ°ìĸ´ëĤĺ":8704,"íĸĪìĹĪëĭ¤":8705,"ĠíĴįë¶Ģ":8706,"èĢ":8707,"Ġì§Ģì§Ģ":8708,"ìĽĮì§Ħ":8709,"ĠìķĬëıĦë¡Ŀ":8710,"ë§ĪëĬĶ":8711,"ĠíĻĶìĿ´íĬ¸":8712,"travel":8713,"ìĦĿìĿĺ":8714,"Ġëª©ìĪ¨":8715,"all":8716,"ĠìĿ´ê²ĥëıĦ":8717,"ìĪĺìľ¡":8718,"ĠìĿ¼ì£¼ìĿ¼":8719,"ĠìŀĲê¸°ìĿĺ":8720,"Ġìĸ´ë¦´":8721,"ëĤ¨ìŀĲ":8722,"ĠìĽ¨ìĿ´":8723,"ĠìĨĮê³łê¸°":8724,"Ŀ¼ëĭĪìķĪ":8725,"ĠìĺĪìģ":8726,"Ġìļ¸ìĿĮ":8727,"Ġì¥Ĳê³ł":8728,"¥´ë¥µ":8729,"Ġëĵ¤ìĹĪëįĺ":8730,"ĠìłĢìĹĪëĭ¤":8731,"Ġì§ĢëĤĺì§Ģ":8732,"ĠíŀĲë":8733,"Ġë³´ìĿ¸":8734,"ëĤĻ":8735,"ëĪĦê°Ģ":8736,"Ġë§ĲëĿ¼ê³ł":8737,"ĠìĦ¸ëł¥":8738,"Ġëįĺìł¸":8739,"Ġë§Īë¥´":8740,"ëªħìĿĦ":8741,"ĠìĬ¤íı¬":8742,"ĠìľłëŁ½":8743,"ĠëĤĺìĺ¤ëĬĶëį°":8744,"ĠìĿ¼ìľ¼ì¼ľ":8745,"Ġê²¬ëĶĶ":8746,"Ġì§Ģêµ¬":8747,"íĹ¤ë":8748,"Ġë¹ĦìĽĥ":8749,"íı¬ë©Ķë":8750,"ë¡±":8751,"ĠëĴ·ëª¨":8752,"Ġë¶ĢìĹĮ":8753,"ì¤ĳìĿ´":8754,"ĠìĿ´ìĥģíķĺê²Į":8755,"Ġëª¨ìŀĦ":8756,"íĸĪì§Ģ":8757,"Ġë´Ħë":8758,"íĥľìĽĲ":8759,"íķĺê³łëıĦ":8760,"ĠìĿ´ëĵ¤ìĿ´":8761,"Ġê²ĮìŀĦìĿĦ":8762,"Ġë§ĲìĿ´ì§Ģ":8763,"ì§ĪëŁ¬":8764,"Ġì§Ģìłģ":8765,"ĠìĿ´ê³³ìĹĲìĦľ":8766,"Ġê·¸ì¤ĳ":8767,"Ġëĺĳê°Ļ":8768,"Ġëª¨ëŀĺ":8769,"ĠëħĢìĦĿìĿĺ":8770,"ìĭ¬ìĿĢ":8771,"Ġë©Īì¶°":8772,"Ġë¨¸ê¸Ī":8773,"ì¹ľêµ¬ë":8774,"Ĥ´ì§Ģ":8775,"ĠìĨĮë¦¬ëĬĶ":8776,"ª¨ëĬĶ":8777,"ł¸ëĬĶëį°":8778,"Ġë©ĶìĿ¸":8779,"Ġìļ¸ëł¤":8780,"Ġë§ĮìĿ¼":8781,"ĠëĦĭ":8782,"ê²°ìĿĦ":8783,"ëĬ¦ê²Į":8784,"°©ìĿĢ":8785,"Ġë§¤ë²Ī":8786,"Ġìĺ¬ëł¸ëĭ¤":8787,"íĻįëĮĢ":8788,"ĠìĿ¼ìłķ":8789,"ĠìķĦëĤ´ëĬĶ":8790,"ìł¯":8791,"Ġìŀ¬ë£Į":8792,"Ġì°½ë¬¸":8793,"ĠìĤ´íı":8794,"ŀı":8795,"ter":8796,"ìĤ¬ìĹĲìĦľ":8797,"íĥĢëĬĶ":8798,"ĠëĸłëĤł":8799,"Ġë¹Įëł¤":8800,"ĠìĨĲëĭĺ":8801,"íĴĢìĿ´":8802,"ĠíĽĪëł¨":8803,"Ġêµ¬ë¦Ħ":8804,"ëĭĻ":8805,"ĠëĽ":8806,"Ġìĭ¬íķĺê²Į":8807,"ê³§":8808,"Ġì°¸ìĿĦ":8809,"ĠëĨĢëŀĲ":8810,"ìķĦìĽĥ":8811,"ĠìĤ¬ëŀĮì²ĺëŁ¼":8812,"ĠëĨĵìĿ¸":8813,"ĠìŀĲëĦ¤ê°Ģ":8814,"Ġê°ĲìłķìĿ´":8815,"ĠëŃĶì§Ģ":8816,"¬»":8817,"Ġê°ķíĻĶ":8818,"ĠðŁĴķ":8819,"Ġê³łë§ĪìĽĮ":8820,"Ġíķ´ì£¼ëĬĶ":8821,"ìĬ¤ëŁ½ê³ł":8822,"Ġê»´":8823,"ê³µë¶Ģ":8824,"Ġë¶ģíķľ":8825,"Ġìĥģíģ¼":8826,"Ġìļ°ì£¼":8827,"ìłĲìľ¼ë¡ľ":8828,"Ġìĭ¬íķľ":8829,"íı¬ë©ĶëĿ¼ëĭĪìķĪ":8830,"Ġê·¸ëĬĺ":8831,"Ġì¢ĭìĬµëĭĪëĭ¤":8832,"§Īíķľ":8833,"Ġìĭ±ìĭ±":8834,"ĥĦ":8835,"Ġê·¼ëĮĢ":8836,"ëĦĮ":8837,"Ġë§ĲìĿ´ìĹĪëĭ¤":8838,"ĠìĿĮìĭĿìĿ´":8839,"ì¹¼ë¡ľ":8840,"Ġê³µìľł":8841,"ìĦ¸ëĬĶ":8842,"Ġë¬»ê³ł":8843,"ìķłìķłìķłìķł":8844,"Ġìłģëĭ¹íķľ":8845,"ĠìĸĳëıĦ":8846,"ĠìĿĺëıĦ":8847,"¯¼ìĿĢ":8848,"Ġë§ĲìķĦ":8849,"ª¨ìĿĺ":8850,"ìĤ¬ëĭĺ":8851,"Ġìĸ¼ìĿĮ":8852,"ìłĪìĿĦ":8853,"ì§Ģë°©":8854,"ê·ľë":8855,"ĠìĹ°ê²°ë":8856,"ê±¸ìĿ´":8857,"ĠëĭĪë":8858,"ìķĦë²Ħì§Ģ":8859,"ĠìĬ¤ì³Ĳ":8860,"¥´ë©´ìĦľ":8861,"Ġëª¨ìĸĳìĿ´":8862,".^^":8863,"Ġê´ľì°®ìķĦ":8864,"ĠìĻĦë²½íķľ":8865,"ìľ¼ë¡ł":8866,"Ĩ¨":8867,"Ġì§ĢëĤ¬":8868,"Ġë²ĪìĿ´ëĤĺ":8869,"ĠìĹ¬ê¸°ê°Ģ":8870,"ê³½":8871,"ëĶ°":8872,"ĠëĲĺê¸°":8873,"ĠìıĺìķĦë":8874,"Ġëĭ¨ìĪľíķľ":8875,"íĮł":8876,"¥´ëįĺ":8877,"Ġ23":8878,"ĠëĤ¨ìĦ±":8879,"offe":8880,"Ġê²ĥë¿Ĳ":8881,"Ŀ¼êµ¬":8882,"§£":8883,"ìĸ´ë¦°ìĿ´":8884,"íĶĦëĬĶ":8885,"ĠëĲĺëĭĪ":8886,"Ġë°Ķì§Ŀ":8887,"Ġë©įì²Ń":8888,"ìļ°ë©°":8889,"Ġê²¬ëĶľ":8890,"Ġìķ½ê°ĦìĿĺ":8891,"ĠëĨĵìķĺëĭ¤":8892,"ĳĲë¥¼":8893,"ĠíĨłìļĶìĿ¼":8894,"Ġë°°ë¶Ģë":8895,"íķĺê¸°ë§Į":8896,"ìłĦë¶ĢíĦ°":8897,"ë°ĶëŀĮ":8898,"íĿĲíĿĲ":8899,"Ġë°ľíľĺ":8900,"Ġë°¤ìĿĦ":8901,"ĠìķĬëĤĺ":8902,"ĠìĤ¬ì§ĦìĿ´":8903,"ĠëĤłìĿĢ":8904,"ìĺ¬ëĿ¼":8905,"ê²Įë¥¼":8906,"ĠìĻ¸ë©´":8907,"ê±°ë¦¬ë":8908,"ĠìľłëĤľ":8909,"ìķĦìķħ":8910,"ë§ĪìĿ´":8911,"ê³łìļĶ":8912,"Ġì£¼ë¬¸ìĿĦ":8913,"ìĿ´ë¯¸":8914,"ê¸į":8915,"ĠëĮĢë¶Ģë¶ĦìĿĺ":8916,"Ġìĭłê³ł":8917,"ĠíĻįëĮĢ":8918,"¨¹ìĿĢ":8919,"ĠìĶ©":8920,"Ġì¤ĳìĿĺ":8921,"³´ë©´ìĦľ":8922,"ĵłë":8923,"íĮŁ":8924,"ĵ¯íķľ":8925,"ĠìķĦì¹¨ë¶ĢíĦ°":8926,"ĠìĻĢìĿ´":8927,"Ġë¶Ģë¶ĦìĿĦ":8928,"ĠìĥĪë¡Ńê²Į":8929,"ģĪíķľ":8930,"ê»ĺìļĶ":8931,"ëŁ½ìĬ¤íĥĢê·¸ëŀ¨":8932,"Ġê²ĥëĵ¤ìĿĦ":8933,"Ġëĵ¤ìĸ´ê°Ģë©´":8934,"ĮëıĦ":8935,"Ġë°ĶëŀįëĭĪëĭ¤":8936,"ĠìĤ¬ëł¹":8937,"ĠëĨĪìĿĢ":8938,"Ġë§ŀê²Į":8939,"ŀĲëįĺ":8940,"ŃĲë":8941,"Ġë´¤ëĬĶëį°":8942,"íĬ¸ëĤ¨":8943,"ĠëĤ´ë¦¬ê³ł":8944,"ĠìĭłìĿĮ":8945,"ĥħ":8946,"Ġê°ķíķĺê²Į":8947,"ĠìĭĿíĥģ":8948,"ê°ĳëĭĪëĭ¤":8949,"Ġë¬´ê²Į":8950,"Ġê±¸ê³ł":8951,"ìĬ¤íĤ¤":8952,"íķĺìĺ¤":8953,"Ġì´Īë°ĺ":8954,"ĠíĬ¹ë³ĦíŀĪ":8955,"Ġê°Ģì£½":8956,"¬¼ìĹĪëĭ¤":8957,"Ġë°ĶìľĦ":8958,"ëĨį":8959,"©´ìĹĲ":8960,"Ġ198":8961,"Ġëĭ¬ë¦°":8962,"Ġìĭľì¦Ī":8963,"ĠíķłìķĦë²Ħì§Ģ":8964,"ĠìĤ¬ëŀĮëĵ¤ëıĦ":8965,"ë°ľìĿĦ":8966,"ŀĢìĿ´":8967,"ĠëĤ´ì§Ģ":8968,"ĠìłĸìĿĢ":8969,"ĠíĽĮë¥Ńíķľ":8970,"Ġê°Ĳëĭ¹":8971,"ĠëıĦë¬´ì§Ģ":8972,"Ġê·¸ë¦¬íķĺìĹ¬":8973,"Ġì¹ĺë°Ģ":8974,"ĠìķĦë¥´":8975,"ĠìłĦìĿĺ":8976,"ĠëĦ·":8977,"ìĬ¤íĨł":8978,"ê±´ê°Ģ":8979,"Ġë¯¸ì²ĺ":8980,"Ġìĭľìŀ¥":8981,"Ġíģ¬ë¡ľ":8982,"łĮì§Ģ":8983,"Ġë§ĲíĪ¬":8984,"Ġë§ĲìĿ´ì£ł":8985,"ĠíĶĦë¡ľê·¸ëŀ¨":8986,"ĠíĬ¸ìľĦ":8987,"son":8988,"Ġëĭ¤ìĬ¤ë":8989,"ðŁĺħ":8990,"Ġë§ŀê³ł":8991,"íĤ·":8992,"ìį¨ë":8993,"Ġê¾¹":8994,"ĠìĥĪëģ¼ë":8995,"Ġëĭ¨ìĪľíŀĪ":8996,"ì¹´ëĬĶ":8997,"ëĥ¥ìĬ¤íĥĢê·¸ëŀ¨":8998,"ĠìķĦì¤Įë§Ī":8999,"°©ìĹĲ":9000,"Ġh":9001,"ĠìķĬìĿĢê°Ģ":9002,"íĽĦê¸°":9003,"Ġë§ĽìŀĪìĹĪìĸ´ìļĶ":9004,"ìŀ¬ê°Ģ":9005,"ĠëĤ´ìĸ´":9006,"ìĥīìľ¼ë¡ľ":9007,"Ġê°ĢìĦ±ë¹Ħ":9008,"Ġê¸ĪìĦ¸":9009,"Ġë¹¼ê³ł":9010,"ĠëĤĺìĺ¤ë©´":9011,"Ġê°ĶìĿĦ":9012,"ëį°ìĿ¼ë¦¬ë":9013,"ĠìĦ¸ê³Ħë¥¼":9014,"Ġëıķ":9015,"¦¼ìĿĢ":9016,"ê±´ìĿĦ":9017,"ëħ¹":9018,"ĠìĿ½ëĬĶ":9019,"ĠìĿ¸ìĬ¤íĥĢ":9020,"ìĨĲë":9021,"íķĺëįĶëĭĪ":9022,"Ġíīģ":9023,"¥ĺë¥¼":9024,"Ġë§ĽëĤľ":9025,"ĠìĹĺë¦¬ë":9026,"ìĹĪìĿĮ":9027,"ìĨĲìľ¼ë¡ľ":9028,"íĬ¹ë³Ħ":9029,"íķľê±°":9030,"Ġì¡°ê¸ĪëıĦ":9031,"ĠìķĦëĭĻëĭĪê¹Į":9032,"Ġì¢ģìĿĢ":9033,"Ġë²ĪìĶ©":9034,"ĠìĿ´ìľłë¡ľ":9035,"ĵ¤ê¸°":9036,".(":9037,"ĠìķĦìĿ´ëĵ¤ìĿĦ":9038,"Ġìķłë¥¼":9039,"ìīĲ":9040,"ê³µìĿĺ":9041,"ìĸ´ë²Ħëł¸ëĭ¤":9042,"ìļ°ìĻĢ":9043,"Ġì§Ģê¸Īë":9044,"ìŀĲë¦¬ë¥¼":9045,"ĠíķĺìĸĹê²Į":9046,"Ġê¹¨ëĭ¬ìķĺëĭ¤":9047,"Ġë¬´ìĦŃê²Į":9048,"ìĹĪìľ¼ëĭĪ":9049,"ĠìĥĿíĻľìĿĦ":9050,"íķĺëĿ¼ëĬĶ":9051,"Ġë¶Īìĸ´":9052,"ĠìĶ¨ëĬĶ":9053,"ze":9054,"ĠìĿ¼ì¢ħìĿĺ":9055,"Ġì£¼ë³ĢìĿĦ":9056,"ê°Ģì§Ģê³ł":9057,"ìĺĢìĸ´":9058,"ĠëıĦìĭľëĿ½":9059,"æĪ":9060,"ê²¨ìł¸":9061,"ìĹĪëįĶëĭĪ":9062,"Ġë§ĮëĤĺìĦľ":9063,"ĠâłĢâłĢâłĢâłĢâłĢâłĢâłĢâłĢ":9064,"Ġíĸ¥íķľ":9065,"ì§ľë¡ľ":9066,"Ġê¸°ê°Ħ":9067,"Ġìĺģíĸ¥ìĿĦ":9068,"ĠìĹ¬íĥľ":9069,"ìļ´ìĿĺ":9070,"ê²°ìĹĲ":9071,"ĠìĬ¤íĬ¸ëłĪ":9072,"Ġìĸ´ëĸłíķľ":9073,"Ġì¶ľìŀħ":9074,"ĠìĥĿê°ģëĤĺ":9075,"Ġë¶ĢëģĦëŁ¬":9076,"ĠìĤ¬ì§ĦìĿĢ":9077,"ĠìĿ´ì²ĺëŁ¼":9078,"ê°Ģë¦¬":9079,"ìĤ¬ëĵ¤ìĿĢ":9080,"ìĺ¨ìĿĢ":9081,"Ġì°¨ë§Ī":9082,"ĠíĻĺê²½":9083,"Ġì·":9084,"ĠìķĦëĤ´ìĿĺ":9085,"©Ķë¦¬ì¹´ëħ¸":9086,"ĠìĹ°íķ©":9087,"Ġê±´ëĵľë":9088,"ĠX":9089,"sty":9090,"Ġë³Ģíķ´":9091,"Ġê°ľë°ľ":9092,"ĠìĨĮìļ©":9093,"ĠëĶ±íŀĪ":9094,"Ġëĭ¤ë¦¬ê°Ģ":9095,"ì¹ľëĭ¤":9096,"ìĿ¸ì§ĢëĬĶ":9097,"ĠìĨĮì¤ĳ":9098,"ë¶Ħê°Ħ":9099,"ì²łìĿ´":9100,"Ġë¯¸ëĭĪ":9101,"Ġëĸ¨ë¦¬ëĬĶ":9102,"ĠëĤ´ëĨĵ":9103,"Ġê±¸ìĸ´ê°Ģ":9104,"Ġê´ĳê³ł":9105,"ure":9106,"ëĭ¤ëħ":9107,"ìħ¨ëįĺ":9108,"³Ħë¡ľ":9109,"ĨĢë":9110,"cle":9111,"Ġìľłíĺ¹":9112,"çĶ":9113,"ĠëĦĲë":9114,"ìłķë³´":9115,"¥´ìŀĲ":9116,"¯¼ìĿĺ":9117,"Ġëªħëł¹ìĿĦ":9118,"Ġíĥľìĸ´ëĤľ":9119,"ĠíĶ½":9120,"ëĵ¯ìĿ´":9121,"Ġê³µíķŃ":9122,"íĽĦíĽĦ":9123,"ck":9124,"íķĺê³łìŀĲ":9125,"Ġë¹Ħíıī":9126,"Ġíħħ":9127,"Ġê°Ĳìĥģ":9128,"ìĪľê°Ħ":9129,"ĠëķĮë¬¸ìŀħëĭĪëĭ¤":9130,"ĠíĿĶìłģ":9131,"ìļ°ê¸°":9132,"ì¹ĺëıĦ":9133,"¯¼ìĿ´":9134,"ĠìŀĲìĿĺ":9135,"ĠíķĺëŁ¬":9136,"ĨĴ":9137,"ĠìĪ¯":9138,"ìľĦìĽĲ":9139,"Ġëĥłëĥł":9140,"ĠëĦĪë¬´ëĤĺëıĦ":9141,"Ġë¬´ëį¤":9142,"ìłķë¶Ģ":9143,"Ġ90":9144,"Ġê°ĦìłĪ":9145,"ìĥĿìĿĦ":9146,"Ġë°Ķíĥķ":9147,"Ġë¶Īìĳ¥":9148,"ëĤ´ìĿ¼":9149,"ĠìĬ¹ë¦¬":9150,"Ġìĸ¸ëĭĪë":9151,"Ġíļ¨ê³¼ê°Ģ":9152,"Ġì§ĢëĭĪê³ł":9153,"ĠìķĪìĿĢ":9154,"ĠëĲľëĭ¤ë©´":9155,"Ġì¡°ìĤ¬":9156,"ê»ĺë":9157,"Ġì°ľ":9158,"ĠëĮĢìłĳ":9159,"ì¯¤ìĿĢ":9160,"Ġê³µì£¼":9161,"ê¸°ëĨį":9162,"Ġê¸¸ìĿĢ":9163,"Ġì°¾ê¸°":9164,"Ġê³łìļĶ":9165,"įŁ":9166,"ĠìĬ¤íĨłë":9167,"~!!":9168,"ìıĺ":9169,"ĥĲë©°":9170,"ĠìĿ´ëĵ¤ìĿĺ":9171,"ìĹĪê¸°":9172,"ĠëķĮìĺĢëĭ¤":9173,"Ġëĵ£ì§Ģ":9174,"ĠíĮĮê´´":9175,"ìłĿíĬ¸":9176,"íĶĦëĿ¼":9177,"ìłĦì£¼":9178,"íĥľëĬĶ":9179,"ĠëĳĲë²Īì§¸":9180,"ĠëłĪìĬ¤íĨłëŀĳ":9181,"Ġì¹´ë©ĶëĿ¼":9182,"ìĥĪê°Ģ":9183,"Ġë©Īì¶Ķê³ł":9184,"Ġì¤ĳëħĦ":9185,"Ġìĭľë°ľ":9186,"ĠìĹ¼ëł¤":9187,"ê¸ĪìĿ´":9188,"Ġìľ¤ë":9189,"Ġë°ľìłĦ":9190,"ì¤Ģë¹Ħ":9191,"Ġíķľëĭ¬":9192,"Ġìĸ´ë¦°ìĿ´":9193,"ê°ľë¡ľ":9194,"Ġëĵľë¦´":9195,"Ġê°ĪìĪĺë¡Ŀ":9196,"ĠíĮĮëŀĢ":9197,"id":9198,"ĠëĤĺìĻĶìĸ´ìļĶ":9199,"ìĦ¸ë¨¼ì§Ģ":9200,"ì²ľìĿĺ":9201,"ĠíĴįê²½":9202,"ëĭ¤ìĿ´ìĸ´íĬ¸ê·¸ëŀ¨":9203,"éĽ":9204,"ê²łëĬĶëį°":9205,"Ġíİľ":9206,"ĠìŀĪëįĶëĿ¼êµ¬ìļĶ":9207,"Ġê°Ĳìķĺëĭ¤":9208,"ĠìĺĪë¯¼":9209,"ĠìłĦëĭ¬":9210,"Ġìŀ¥ë¥´":9211,"âĶĢ":9212,"ĠíĻľì§Ŀ":9213,"Ġì£¼ë³ĢìĹĲ":9214,"Ŀ¼ë¯¸":9215,"ĠìŀĶìĿ¸":9216,"ĠìĿĺë¯¸ê°Ģ":9217,"ìĺ¨ëįĶ":9218,"Ġë¬¼ê±´ìĿĦ":9219,"Ġê³¨ëĿ¼":9220,"ĠëĦĺê²Į":9221,"íĥľìĿĺ":9222,"ì¶Ķê°Ģ":9223,"ê±°ìĹĲìļĶ":9224,"ĠìĪĺë°±":9225,"ĠëĮĢìłĦ":9226,"ľ¸":9227,"Ġê³Ħê³¡":9228,"08":9229,"ħĢìĿĺ":9230,"ĠìĬ¤íĥĢìĿ¼":9231,"Ġëļ«ê³ł":9232,"ë¹Ħë¥¼":9233,"ĠìĨĮì£¼":9234,"ĠìĺĪë¥¼":9235,"Ġìĸ´ë¨¸ëĭĪë¥¼":9236,"ĠíĿĶëĵ¤ìĹĪëĭ¤":9237,"Ġê¹ĢëĳĲ":9238,"Ġëª«":9239,"Ġt":9240,"ĠíĺĢ":9241,"ìĤ¬ëŀĳíķ´":9242,"Ġë§Īìĭ¤":9243,"ĠìĤ¬ëĿ¼ìł¸":9244,"ĠíĸĪì§Ģ":9245,"Ġëĭ¤íķ´":9246,"Ġì£½ìĿ´ê³ł":9247,"¦Ħíķľ":9248,"Ġëĭ¬ê³ł":9249,"ìĭĿëĭ¨ìĿ¼ê¸°":9250,"ĠíĶ¼ìĭĿ":9251,"ĠìĹĨëįĺ":9252,"¨¹ìľ¼ë©´":9253,"ìĪĺìĺģ":9254,"ĠìĤ´íĶ¼":9255,"ìĿ¼ë¶ĢíĦ°":9256,"ĠìĿĢê·¼íŀĪ":9257,"Ġê¸°ìĹħ":9258,"ĠìłģëıĦ":9259,"ĠìĥģíĥľìĹĲìĦľ":9260,"ĠíĽĮ":9261,"ê´Ģìľ¼ë¡ľ":9262,"ĠìĿ¼ë¶Ģ":9263,"íĽĦëĬĶ":9264,"Ġì¶Ķì²ľë":9265,"ĠìĿ´ë²¤":9266,"ë¦¬ê°Ģ":9267,"Ġê¹¡":9268,"ĠðŁ¥":9269,"ìĸ´ëĨĵê³ł":9270,"Ġì°¾ìķĺëĭ¤":9271,"ĠìłĦëŀµ":9272,"ðŁ¤Ĺ":9273,"ãħĪ":9274,"ì¹©":9275,"ìĸ´ë¨¸":9276,"ìļ°ë¡ľ":9277,"âĺħ":9278,"Ġìĸ»ìĿĦ":9279,"ĠâłĢâłĢâłĢ":9280,"Ġì°¸ìĦĿ":9281,"Ġëĭ¤ê¸ī":9282,"Ġì¢ĭìķĦíķ´ìĦľ":9283,"ª©ìĿ´":9284,"ìĭľëĤĺìļĶ":9285,"ë©´ìĿĦ":9286,"ìĦ±ëıĦ":9287,"Ġë°©ë¬¸ìĿĦ":9288,"bea":9289,"ĠìľĦëĮĢ":9290,"ê¾¼ë":9291,"ĠìĨĮìĭĿ":9292,"ëĥī":9293,"ĠìĹ¬ìĿĺ":9294,"Ġë¯¿ìĸ´":9295,"ĠìłĦìĹĲëĬĶ":9296,"ìĤ¬íļĮ":9297,"Ġë°Ķìģľ":9298,"Ġíķ´ë°©":9299,"Ġê°Ļëĭ¤ëĬĶ":9300,"Ġìĥīê¹Ķ":9301,"Ġê³µê¸°":9302,"Ġë§Īì°¬ê°Ģì§ĢìĺĢëĭ¤":9303,"Ġëĭ¤ê°Ģê°Ķëĭ¤":9304,"ĠíĨłë§ĪíĨł":9305,"Ġë°Ķë¥¸":9306,"ĠìĥĿê°ģíĸĪëĬĶëį°":9307,"ĠìĿĺìĤ¬":9308,"Ġê·¸ëŀ¬ë":9309,"ë³¼ë":9310,"¯¸ëıĦ":9311,"©ľ":9312,"ëĿł":9313,"íĽĦìĹĲ":9314,"ĠìłĪë°ĺ":9315,"łë¥¼":9316,"ĠìĤ´ìķĦê°ĢëĬĶ":9317,"ĠëĪķ":9318,"ìłģìĿ´ëĭ¤":9319,"Ġê½ģ":9320,"ĠíĸĪìľ¼ëĤĺ":9321,"ĠìĤ¬ëŀĮê³¼":9322,"Ġíķľì°½":9323,"ĠìłĪë¡ľ":9324,"ĠìĹ¬ê²¨":9325,"å¤©":9326,"ë¯¸íĦ°":9327,"Ġíķĳíģ¬":9328,"ìĦ¤ìĿĦ":9329,"ëĪĪìĹĲ":9330,"ĠìĹ¬ìĿ¸":9331,"ĠìĥģíĻ©ìĹĲ":9332,"ĠìĭłëĤĺê²Į":9333,"ĠìĿĢíĸī":9334,"ìĺ¤ëįĺ":9335,"Ġê°ĸëĭ¤":9336,"ìĦľë¡ľ":9337,"Ġìĭ¶ëĭ¤ëĬĶ":9338,"Ġì§ĢíĤ¤ê³ł":9339,"ĠìĽ¬ë":9340,"Ġë¯¸ìĨĮê°Ģ":9341,"Ġíľ´ëĮĢíı°":9342,"ãĢĭ":9343,"ëĸ¡ë³¶ìĿ´":9344,"ìĬ¤íĮĮ":9345,"Ġë¬µë¬µ":9346,"ĠìĹĦì²ŃëĤĺê²Į":9347,"¡¯ëį°":9348,"ì´¬ìĺģ":9349,"ĠíķĺìĹ¬ê¸Ī":9350,"Ġê·¸ê³³ìĹĲìĦľ":9351,"Ġëľ¨ê±°":9352,"ë¹Ħê°Ģ":9353,"ĠìĻľëĥĲ":9354,"¤íŀĪ":9355,"ĠìłĢíĿ¬ë":9356,"ãĢį,":9357,"Ġëĥīìŀ¥ê³ł":9358,"ĠìķĦìĭľ":9359,"Ġë°Ľìķĺ":9360,"ìĺ¨ëįĶíħĮìĿ´ë¸Ķ":9361,"ãħĭãħĭãħĭãħĭãħĭãħĭãħĭãħĭãħĭ":9362,"¹Ĺ":9363,"ìŀĪìĿĮ":9364,"íĦ°ë¦¬":9365,"ĠìĦ¤ëłĪ":9366,"900":9367,"ĠìµľëĮĢ":9368,"coffe":9369,"Ġë³¸ëĬ¥":9370,"ãħıãħı":9371,"ĠìĿ´ê¸°":9372,"ĠìŀĪëĭ¨":9373,"ĠíĸĪëĭ¤ëĬĶ":9374,"ĠìĹīëļ±":9375,"Ġìĭ¤ëĤ´":9376,"Ġë°©ìĸ´":9377,"ìª½ìĿĺ":9378,"ĠìŀĳíĴĪìĿĦ":9379,"ĠíĬĢê¹Ģ":9380,"ê¸°ëķĮë¬¸ìĹĲ":9381,"Ġ70":9382,"ĠëĲĲëĭ¤":9383,"Ġê°ĢëĬ¥ìĦ±ìĿ´":9384,"ĠìĹĨìĿĮ":9385,"Ġëĭ¤ê°ĢìĻĢ":9386,"íĻľëıĻ":9387,"Ġë§ĪìĭľëĬĶ":9388,"Ġê³łìŀĳ":9389,"łĪë¹Ħ":9390,"ì§ĦëıĦ":9391,"ê¶Ĳ":9392,"ĠëĤĺê°ĢìĦľ":9393,"Ġê°ĶëĬĶëį°":9394,"ĠíĥĢëĬĶ":9395,"Įëĭ¤":9396,"ë°ĽëĬĶ":9397,"ìļ©ìĿĦ":9398,"ł¹ìĿ´":9399,"ĠìŀĳëħĦ":9400,"ìĨĲìĿĦ":9401,"ce":9402,"ðŁĩ":9403,"Ġê±°ì³Ĳ":9404,"Ġêµ°ìĤ¬":9405,"ĠìĿ´ëĵ¤":9406,"ë°Ķëĭ¤":9407,"ì¢ħìĿ´":9408,"Ġíģ¼":9409,"ìĽłìĸ´ìļĶ":9410,"Ġì§ĲìĿĦ":9411,"ìĹĺë":9412,"Ġë¹ħ":9413,"ìĨĮìĿ´ëĭ¤":9414,"ĠíĸīìĤ¬":9415,"Ġë§Įëĵ¤ê¸°":9416,"Ġëĭ¹ëĭ¹":9417,"Ġìĺ¬ë¦°":9418,"ĠìŀĳíĴĪë":9419,"ĠíĺķìĿ´":9420,"Ġì¢ħìĿ¼":9421,"Ġê²Įë":9422,"Ġíı´ë":9423,"ĠìĹ°ìĸ´":9424,"ĠìĿĢë°Ģ":9425,"ë§ĪìĿĺ":9426,"ct":9427,"ëĬ¬":9428,"ĠëĤ¡":9429,"Ġë°ĶëĿ¼ëĬĶ":9430,"ĠìĭľíĤ¨":9431,"Ġë¨¸ë¬¼ë":9432,"ëĭ¨ìľ¼ë¡ľ":9433,"ĠìķĪëıĦ":9434,"ìĸ´ìķ¼ì§Ģ":9435,"ìĹĪìľ¼ë©´":9436,"ĠëĦ£ìĸ´ìĦľ":9437,"Ġì§Ģê³ł":9438,"ìĺĢìĿĦ":9439,"Ġìį¨ìĦľ":9440,"ç¥":9441,"Ġë§ŀì§Ģ":9442,"Ġë½ĳìķĦ":9443,"ê¸°ë³´ëĭ¤":9444,"ĠìĪĺê³ł":9445,"ìľ¼ìħ¨":9446,"ëĭ¤ë³´ê³ł":9447,"Ġìĭ¸ëĬĺ":9448,"Ġìļ¸ìĤ°":9449,"Ġì¡°ìłĪ":9450,"ì½ķ":9451,"po":9452,"Ġíĥľìĸ´ë":9453,"Ġê¸°ìĸµìĿĦ":9454,"ìĽĢê³¼":9455,"ì¤ĳìĿĺ":9456,"ìĸ´ì§Ħëĭ¤":9457,"Ġë¯¸ìĬ¤":9458,"Ġë¯¸ìĪł":9459,"ìłģìĿĺ":9460,"ĠìĨĲíĨ±":9461,"Ġë¶Ģíĥģëĵľë":9462,"Ġì§Īë¬¸ìĹĲ":9463,"Ġëįĺì¡Įëĭ¤":9464,"23":9465,"ì²ŃìĨĮ":9466,"ĠìłĢê±°":9467,"íķĺìļ°ìĬ¤":9468,"ĠëķĮë©´":9469,"ĠëĤľëĭ¤":9470,"ìĭľê¹Įì§Ģ":9471,"Ġ2018":9472,"ĠíĮĮíĭ°":9473,"ĠY":9474,"Ġìłģëĭ¹":9475,"ï¼ŀ":9476,"ìĿ´ìľł":9477,"Ġìĺ¤ë¡ľì§Ģ":9478,"Ġì´Īë¡Ŀ":9479,"íģ´ëłĮì§ķ":9480,"ĠìĥĿê²¨ë":9481,"ĠìķĦëĭĪì§Ģ":9482,"Ġë°Ķë¥´ê³ł":9483,"Ġë°Ń":9484,"Ġë§ĲìĿ´ëĥĲ":9485,"Ġì°¾ìķĦê°Ģ":9486,"ìŀĲìĹ°":9487,"Ġë³´ê´Ģ":9488,"ĠìµľìĨĮíķľ":9489,"Ġê·¸ë¡ľ":9490,"ìļ¸ë¡ľ":9491,"ĠëĲĺì°¾":9492,"ĠëıĪë":9493,"ĵłê°Ģ":9494,"ĠìľĦë¥¼":9495,"ŀĳìĿĢ":9496,"ìĺ·ìĿĦ":9497,"ì¼Ģë":9498,"Ġë°ĶëŀĮìĿĦ":9499,"Ġê³łê°ľ":9500,"ìŀ¥ëĤľ":9501,"!!!!!!":9502,"dieter":9503,"ê·¸ëĿ¼":9504,"íĶĦìĿĺ":9505,"Ġì²łìłĢ":9506,"Ķëį°":9507,"ĠëĨĢëŀį":9508,"ëł¨":9509,"40":9510,"ë¨¼":9511,"ìķĦê¸°ë":9512,"Ġëª¨ìĸĳìĿ´ëĭ¤":9513,"ĠìķĦëĵ¤ìĿĦ":9514,"ìĽĶìĹĲ":9515,"Ġê²ģëĭĪê¹Į":9516,"Ġìľłì¹ĺ":9517,"Ġhttps":9518,"ĠìŀĪìľ¼ë":9519,"¯¸ìĿĺ":9520,"ung":9521,"Ġë³´ëĤ´ëĬĶ":9522,"Ġë³´ìķĺ":9523,"ìĸ¸ìĿĦ":9524,"Ł¿":9525,"£½":9526,"ĠìķĦëģ¼":9527,"Ġë§ĲíķĺìŀĲë©´":9528,"å·":9529,"Ġì£Ħë¥¼":9530,"Ġë°°ìĭł":9531,"Ġì¹ĺëĬĶ":9532,"Ġëħ¸ìĿ¸ìĿĢ":9533,"ë§Īë¦¬":9534,"Ġë§ĮëĤĺê²Į":9535,"§ĮìĿĺ":9536,"ìłķíķĺê²Į":9537,"Ġìŀ¡íĺĢ":9538,"foodie":9539,"Ġëĸ¡ë³¶ìĿ´":9540,"ĠëĳĲìĸ´":9541,"Ĥ¸ëĭ¤":9542,"ģĦëŁ¬ìļ´":9543,"Ġë°©ë²ķìĿĢ":9544,"ĠëıĮìķĦê°Ī":9545,"Ġëĭ¤ëħĢìĺ¨":9546,"Ġë¬´ìĤ¬íŀĪ":9547,"Ġìĭľëĭ¬ë":9548,"Ġë¶ĢìĿ¸":9549,"ĠëĲĺìĹĪê³ł":9550,"Ġì²ĺìĿĮìĹĶ":9551,"ŀĹê²Į":9552,"ĠìĥĿê¸°":9553,"Ġëĺĳê°ĻìĿ´":9554,"ìĥģëıĦ":9555,"ĠëĤĺë§Į":9556,"ĠëĤĺìķĦê°Ģ":9557,"Ġë¨¹ìĸ´ìĦľ":9558,"³µìĿĦ":9559,"ìĿĮìľ¼ë¡ľ":9560,"Ġë§Īë²ķìĿĦ":9561,"ë§Īë¥¼":9562,"ĠìĿĳìĭľ":9563,"Ġê¸¸ë¡ľ":9564,"Ġì¹¼ë¡ľ":9565,"Ġê³ĦìĤ°":9566,"ª¨ëį¸":9567,"ħĦë":9568,"ìķĦìķĦìķĦìķĦ":9569,"£°":9570,"Ġëª¸ìľ¼ë¡ľ":9571,"âĺº":9572,"ĠâĹı":9573,"Ġëª©ìĹĲ":9574,"Ġë§ĲìĶĢëĵľë":9575,"¦ĦëıĦ":9576,"ĠìĥĿê°ģíķ©ëĭĪëĭ¤":9577,"íķłì§Ģ":9578,"Ġê¹ĶëģĶíķĺê³ł":9579,"ê³Ħìłķ":9580,"Ġìĸ»ìĸ´":9581,"Ġë©Ķëī´ê°Ģ":9582,"Ġëª°ìķĦë":9583,"ìľ¼ëł¤ëĬĶ":9584,"ĠëĤĺìĦł":9585,"Ġìį¼ëĭ¤":9586,"Ġëĵ¤ìĸ´ìĦ°ëĭ¤":9587,"Ġìĸ´ì§¸ìĦľ":9588,"ìļ´ë§Ľ":9589,"Ġìĺ¬ëŀĲëĭ¤":9590,"Ġíķĺë£¨ìĹĲ":9591,"ĠìĤ¬ëĿ¼ì§Ģê³ł":9592,"Ġíģ´ë¦¬ìĸ´":9593,"Ġëľ»ìĿ´":9594,"è¡":9595,"Ġë¦Ń":9596,"Ġì½©ëĤĺ":9597,"ĠìĿ´ìłĦ":9598,"ìķłìĿĺ":9599,"ĠëĬĲê¼Ī":9600,"¦¬ë¯¸ìĹĦ":9601,"ĠìĿ´ìļ©íķ´":9602,"íķ´ìł¸ìĦľ":9603,"Ġìļ¸ëł¸ëĭ¤":9604,"je":9605,"íĴĢë":9606,"Ġì°¨ìĹĲ":9607,"êµ¬ëĭĪ":9608,"ì¸µìľ¼ë¡ľ":9609,"Ġìį°":9610,"Ġíķ´ìĤ°ë":9611,"ĠìĶģ":9612,"Ġëĭ¤ìĸĳíķĺê²Į":9613,"ìĪĺë¶Ħ":9614,"Ĥĺë¦¬":9615,"ìļ¸ìĿ´":9616,"Ġì¦Ĳê¸°ëĬĶ":9617,"ìĺ¤ìĿĺ":9618,"ĠëĤ¨ìĿĦ":9619,"ĠìĿĳìĽĲ":9620,"ĠëĨĢëĿ¼ìļ´":9621,"°ĶìĿ´":9622,"ĠëĶĶìłĢíĬ¸":9623,"Ġíļį":9624,"ìļ´ìĿĦ":9625,"¶ĦìĿĢ":9626,"ĠëĦ£ìĹĪëĭ¤":9627,"instagood":9628,"ê·¸ëŁ´":9629,"¶ĢëıĦ":9630,"Ġë¹ĦíĥĢë¯¼":9631,"¹Ķë°¥":9632,"ĠìĤ´íıĪëĭ¤":9633,"Ġìĵ¸ìĵ¸":9634,"Ġê±°ëĿ¼ëĬĶ":9635,"ãĥ³":9636,"ìĹ¿":9637,"Ġê°ķìĿĺ":9638,"ë¨¹ë°©ìĬ¤íĥĢê·¸ëŀ¨":9639,"Ġìĸ¸ëĭĪê°Ģ":9640,"Ġìŀ¬ì´ī":9641,"ìĸ¼êµ´":9642,"2019":9643,"ê³¼ìĿ¼":9644,"íĶĶìĿĦ":9645,"Ġì¶¤ìĿĦ":9646,"Ġê¹¨ëģĹíķĺê²Į":9647,"Ġë°°ìļ´":9648,"ì§ĳìľ¼ë¡ľ":9649,"ìª½ìĿĦ":9650,"¡Ńê³ł":9651,"ue":9652,"Ġê³µë¶Ģë¥¼":9653,"ĠìĦłìĥĿëĭĺìĿ´":9654,"ĠìķĬê¸°":9655,"ıĻë§Ľì§ĳ":9656,"Ġë³´ê³łìĭ¶":9657,"ĠìĽ¨":9658,"Ġì¹´ëĵľ":9659,"êµ´ë":9660,"Ġë¶Ģë¶ĦìĿĢ":9661,"°ľìĿĦ":9662,"ë°į":9663,"Ġê°Ħíĺ¸":9664,"Ġë»Ĺìĸ´":9665,"ĠìĹ¬ìĿ¸ìĿĺ":9666,"Ġëĭ¬ë¹Ľ":9667,"ìĥģìĹĲìĦľ":9668,"Ġìķ¨ë²Ķ":9669,"ìĬ¤íģ¬ë":9670,"Ġíŀĺëĵ¤ìĸ´":9671,"íĸ¥ìĿĢ":9672,"Ġìĭľë¦¬ì¦Ī":9673,"Ġìĺ®ê²¼ëĭ¤":9674,"åŃ":9675,"ŁīìĿ´":9676,"ĠìŀĪìĹĪëĭ¤ëĬĶ":9677,"ĠìĿ´ë¡ł":9678,"íķľíħĮë":9679,"Ġìŀ¥ë¡ľ":9680,"ĠðŁĵ":9681,"Ġê°Ģê²©ëıĦ":9682,"Ġë§ĲëĿ¼":9683,"Ġì£¼ìĿ¸ìĿ´":9684,"ì¡Įìĸ´ìļĶ":9685,"ëĥłëĥł":9686,"for":9687,"Ġì°įìĸ´ë¨¹":9688,"Ġê°ģìŀĲ":9689,"Ġê³µì¤ĳ":9690,"ĠìĤ°ìĿĦ":9691,"ĠëıĮìķĦìĺ¤ëĬĶ":9692,"ì§ĵìĿĦ":9693,"Ġê²ĥìĿ¼":9694,"íĶĦíĬ¸":9695,"ê°ľìĦł":9696,"ëĶ©":9697,"íķĺìĹĲ":9698,"ĠëĬ¥ëł¥ìĿĦ":9699,"Ġë¬´ê±°":9700,"ĠíĸĪìĹĪëĭ¤":9701,"Ġê°ĢëĬĺ":9702,"ŀĢìĿĦ":9703,"Ġìĸ´ìļ°ë":9704,"Ġëª©ìĨĮë¦¬ìĹĲ":9705,"Ġìķłê°Ģ":9706,"ĠìĹĲìĿ´":9707,"íİĻ":9708,"Ġë°°ìĨ¡":9709,"©ĶìĿ´ëĵľ":9710,"ë°ĽìķĦ":9711,"ìĭľê°Ħë":9712,"ĠìĥĿê°ģíķĺë©°":9713,"åĪ":9714,"Ł¬ë¯¸":9715,"pe":9716,"Ġìŀĳê°ĢìĿĺ":9717,"ĠìĤ¬ìĿ´ìĿĺ":9718,"Ġì¤Ģë¹ĦëĲĺìĸ´":9719,"Ġê°ľë¥¼":9720,"ìŀĲê·¹":9721,"ê´ĢìĹĲìĦľ":9722,"ĠíĮį":9723,"ĠëĳĲíĪ¼":9724,"Ġë£¸":9725,"ĠíŀĲë§ģ":9726,"ìĿ´ìĺĪìļĶ":9727,"ìļĶë¯¸":9728,"ì¡ĮìĬµëĭĪëĭ¤":9729,"Ġì²´íģ¬":9730,"Ġì¶¥":9731,"ĠëĤ´ìī¬ìĹĪëĭ¤":9732,"Ġë°Ģìĸ´":9733,"Ġìłł":9734,"ĠíķĺíķĦ":9735,"ĠìķĪëĲĺëĬĶ":9736,"ĠíķĺìĿ´":9737,"ìĹŃìĹĲìĦľ":9738,"ëĤ¬":9739,"íĭ°ë¥¼":9740,"íħĮë¦¬":9741,"ìĪĻíķľ":9742,"ĠìĥĲëŁ¬ë":9743,"Ġê²½ìļ°ëĬĶ":9744,"Ġë§ĽìŀĪìĸ´":9745,"Ġë³´ëĤ¼":9746,"Ġì£½ìĿ¼":9747,"Ġëĭ¤ìĭľê¸Ī":9748,"ĠìĬ¬ìĬ¬":9749,"ìķĪì£¼":9750,"ĠëĵľëŁ¬ëĤĺ":9751,"ĠíıīìĨĮìĹĲ":9752,"Ġì§¬ë½ķ":9753,"Ġê°ĻëĦ¤ìļĶ":9754,"ìĿĮë£Į":9755,"»ĳ":9756,"ĠëĤ¨ê²¨":9757,"ĠëĦĺìĸ´ìĦľ":9758,"ĳ¬":9759,"Ġìĺ¬ëĿ¼ê°Ķëĭ¤":9760,"ì£¼ë©°":9761,"Ġì£¼ìĭŃìĭľìĺ¤":9762,"íħį":9763,"ê²Ħ":9764,"ĠìłģìĿĳ":9765,"Ġê°Ħëĭ¨íŀĪ":9766,"ê°ĶìĿĦ":9767,"ìĭĿíĴĪ":9768,"Ġìŀ¡ìĿĦ":9769,"Ġëĭ¬ìķĦë":9770,"ìĹĪìľ¼ëĤĺ":9771,"ĠìłĢëł´íķľ":9772,"ĠìĥĿìĥĿ":9773,"ëĪĪë":9774,"ê°Ĳëıħ":9775,"ħĢë¥¼":9776,"ĠíĸĪëĭ¤ê³ł":9777,"ĠìĥĿìĦł":9778,"Ġë§ĲìĿ´ìĹĲìļĶ":9779,"²łìĿ´ë¹Ħ":9780,"Ġìĭľì¼ľë":9781,"ë¬´ë¥¼":9782,"¡¤ë":9783,"íŀĺë":9784,"°ľìĿ´":9785,"ĠìĿ¸ë¬¼ìĿ´":9786,"ĠíķĦìļĶëĬĶ":9787,"ĠëĤĺëĭĪ":9788,"Ġë§Īëĥ¥":9789,"ï¤":9790,"Ġì£¼ìĨĮ":9791,"oon":9792,"Łê°ĢëĿ½":9793,"ĠíĥĦìĥĿ":9794,"ìĿ¼ëĭ¨":9795,"ĠìīĲ":9796,"ĠëĪĪë¹ĽìĿ´":9797,"ìĺ¥ìĿĢ":9798,"Ġì¿µ":9799,"ĠìĭłìĦłíķľ":9800,"Ġë²Ħëł¤":9801,"Ġëĺĳë°Ķë¡ľ":9802,"ĠëĤ¨íİ¸ìĿĢ":9803,"aby":9804,"ãħĵ":9805,"Ġë¨¹ìĹĪëįĺ":9806,"ŀĦë":9807,"Ġê±°ëĬĲë":9808,"íħĶë":9809,"ê²łëĭĪ":9810,"Ġì¤ĳëıħ":9811,"ìĿµìĿĢ":9812,"Ġì§ĳìĸ´ëĦ£":9813,"Ġë§Īì¹ľ":9814,"¦¼ëıĦ":9815,"éĻ":9816,"Ġì¯":9817,"íĮĲë":9818,"ĠìķĦìĿ´ëĵ¤ìĿĺ":9819,"ĠëķĮìĹĲ":9820,"íķ¨ìľ¼ë¡ľìį¨":9821,"êµ°ëį°":9822,"°ķíķľ":9823,"¤Ħ":9824,"ĠëĤ´ìĦ¸":9825,"Ġê²°íĺ¼ìĿĦ":9826,"ĠìĿ¸íħĮë¦¬ìĸ´":9827,"ĠëĦ£ìĿĢ":9828,"íķĺê¸°ê°Ģ":9829,"ê±±ìłķ":9830,"ĠíķľìĪ¨":9831,"ĠëłĪëĵľ":9832,"ìĿ½":9833,"ê²Įë§Į":9834,"ĠìĿ´ìĻĢ":9835,"Ġê±°ë¦¬ê°Ģ":9836,"Ġì¤Ģëĭ¤":9837,"ìļ©ìĭ¤":9838,"ĠëµĻ":9839,"ĠìĿ´ìĭŃ":9840,"Ġê¸īíķĺê²Į":9841,"Ġë¬ĺíķľ":9842,"ĵľë¦½ëĭĪëĭ¤":9843,"Ġíķ´ì¤Ħ":9844,"Ġìĭ¤íĹĺ":9845,"Ĥ¬ëįĺ":9846,"ĠìĤ¬ìļ©íķ´ë":9847,"ĠíĿĺëłĢëĭ¤":9848,"ë°Ķëĭ¥ìĹĲ":9849,"Ġë¯¸ìķĪíķ´":9850,"ge":9851,"Ġê²½ìŁģ":9852,"ĠìĥģíĥľìĺĢëĭ¤":9853,"ìĽĮìķ¼":9854,"Ġë²¨":9855,"ĠìĿ´ê³³ìĿĢ":9856,"ĠìłĦíĻĶë²Ī":9857,"ê±°ë¦¬ë¥¼":9858,"ĳĲëĬĶ":9859,"ĠìĨĲìĪĺ":9860,"Ġê³Ħìĭľ":9861,"ìĿĦê¹ĮìļĶ":9862,"ĠìĹ°ì£¼":9863,"Ġê·¸ëŁ¬ì§Ģ":9864,"Ġíĺķíİ¸":9865,"íĶĮë£¨":9866,"Ġëĭ¤ê°Ģìĺ¤ëĬĶ":9867,"íķĺëĬĲëĿ¼":9868,"įĶëĿ¼ë©´":9869,"ĠâľĶï¸ı":9870,"ìŀĪìĬµëĭĪëĭ¤":9871,"ì´ĪìĿĺ":9872,"Ġíķľë²ĪìĹĲ":9873,"ĠãħħãħĤ":9874,"ĠìłĦêµŃ":9875,"ëĭ¬ìķĦ":9876,"Ŀ¼ëĤĺ":9877,"Ġìĭ¶ìĹĪì§Ģë§Į":9878,"ĠëĤ¨ê²¨ë":9879,"Ġê°ķì¶Ķ":9880,"ìķīìķĦ":9881,"Ġëĭ¨íĺ¸":9882,"Ġìĥ¤ìĽĮ":9883,"Ġì£¼ëª©":9884,"Ġëĵ¤ë¦¬ëĬĶ":9885,"Ġ2019":9886,"íķĺëĬĶê±°":9887,"Ġë°¤ë":9888,"ĠìłľêµŃìĿĺ":9889,"Ġì£½ìĿĮìĿĺ":9890,"ĠìķĬëĭ¤ëĬĶ":9891,")'":9892,"ĠìĽĲìŀĳ":9893,"ĠíĪ¬ìŀĲ":9894,"ĠìĹ°ê·¹":9895,"Ł½ê²Į":9896,"ĠíĥĢìĿ´ë":9897,"Ġë¶Ģì¡±íķľ":9898,"ë§ĲìĿ´":9899,"Ġì¿łë":9900,"æĿ":9901,"íĻĪë":9902,"ì»¨ë":9903,"ìħĶìļĶ":9904,"ĠìķĬìķĺëĬĶëį°":9905,"ĠìĥĿìĤ°":9906,"Ġíĺķëĭĺ":9907,"Ġë³ĳëł¥":9908,"ĠëĤ¨íİ¸ìĿĺ":9909,"yum":9910,"................":9911,"Ġì§ĢìĭĿ":9912,"ĠìŀĪìĹĪìĸ´":9913,"ìłķëıĦë¡ľ":9914,"íĮĮë¥¼":9915,"Ġìŀ¥ìĤ¬":9916,"ĠíķľëķĮ":9917,"ĠíıīìĿ¼":9918,"ìĸ¼ìĬ¤íĥĢê·¸ëŀ¨":9919,"ĠìĤ¬ì§Ħì°į":9920,"ì¿¡ìĬ¤íĥĢê·¸ëŀ¨":9921,"ëĨĢìĿ´":9922,"Ġë¶ĦëªħíĸĪëĭ¤":9923,"Ġì§Ģíķĺì²ł":9924,"?``":9925,"©°ìĭľ":9926,"ìĽĥìĿĮìĿĦ":9927,"ìħ¨ëĬĶëį°":9928,"ĠíĿĶíŀĪ":9929,"Ġíİ¸ì§ĳ":9930,"Ġëĭ¬ìĿ´":9931,"ĠíĿĳíĿĳ":9932,"ĠëĨĪìĿĺ":9933,"Ħ¤ìĿ¼":9934,"Ġë°©íĸ¥ìĿĦ":9935,"ì´Įë":9936,"íķ¨ê»ĺ":9937,"Ġë°ľë¡ľ":9938,"ĠëĨĶë":9939,"Ġê´ĢëŀĮ":9940,"ĠìºĲë¦ŃíĦ°ë":9941,"ëĪĪìį¹":9942,"ĠìĭľìĽĲíķĺê²Į":9943,"coffee":9944,"Ġë§¤ì½¤íķľ":9945,"¹ĪìĿ´":9946,"å¯":9947,"..!":9948,"ìĤ°ì±ħ":9949,"ĠìĤ´ìĿ¸":9950,"Ġëĭ¤ê°Ģê°Ģ":9951,"³¼ë":9952,"ê³łë§Ī":9953,"²Ħë¦¬":9954,"ĠìĪĺìĥģ":9955,"Ġë¬¸ìłľë":9956,"ĠìĿ´ë²ĪìĹĲëıĦ":9957,"Ġì²łíķĻ":9958,"Ġê°ĲëıħìĿĺ":9959,"ĠíĴĪìĹĲ":9960,"ì¤ĢìĿĺ":9961,"Ġ500":9962,"ħ¸ë¥¼":9963,"ĠìĿį":9964,"ĠíĦ°ìĺĢëĭ¤":9965,"Ġê°¤ë":9966,"Ġë©¸":9967,"ê°ĲìĿĺ":9968,"ĠìĬ¤ë©°ë":9969,"ë¶Ģëĵ¤":9970,"ĠìĿ¼ìľ¼ì¼°ëĭ¤":9971,"ĠíĹĲ":9972,"¸Ķë¡ľ":9973,"ĠëıĻê·¸ëŀ":9974,"ìĹ¬ìķ¼":9975,"Ġë¬´ëĮĢ":9976,"ê°ĳìĿĦ":9977,"Ġìĭ¬ê°ģíķľ":9978,"Ġë°ľê²¬íķľ":9979,"Ġëļ±":9980,"ŃĲë¨¹ì§Ģ":9981,"ë§Īë¡±ìĿ´":9982,"ĠìĤ¬ìĿ´ë¥¼":9983,"Ġê¼½":9984,"ĠìĻ¸ë¶Ģ":9985,"ĠíĮ¬ë":9986,"ĠìķĪìķĦ":9987,"Ġëª¨ì¡°ë¦¬":9988,"ĠìĺģìĹħìĭľê°Ħ":9989,"ì¹ĺë§Į":9990,"Ġê·¸ëŁ¬ë¯Ģë¡ľ":9991,"ë³´ë©´":9992,"fit":9993,"âĢ¦âĢ¦\"":9994,"ĠëĪĪë¹Ľìľ¼ë¡ľ":9995,"Ġê°Ģë¡ľë§ī":9996,"ìĺĨ":9997,"ĠëıĦë¦¬":9998,"Ġë°ľìŀĲ":9999,"Ġë¶Īê¸¸":10000,"Ġëĸ¨ìĸ´ëľ¨ë":10001,"Ġì¢ħêµĲ":10002,"ìĬ¤íĭ°":10003,"ìĬ¤ì½ĺ":10004,"Ġë§Īìĭł":10005,"ì§¬ë½ķ":10006,"ëįĶëĿ¼":10007,"Ġê·Ģê°Ģ":10008,"ìĬ¤ìĹĲìĦľ":10009,"ðŁı¼":10010,"Ġì§Ħìĭ¬ìľ¼ë¡ľ":10011,"Ġì¡°ìķĦ":10012,"Ġê·¼ë¬´":10013,"Ġìŀħê°ĢìĹĲ":10014,"Ġê³µê°ĦìĿ´":10015,"ãħłãħłãħłãħłãħł":10016,"Ġíľĺëĳĺë":10017,"ĠìłĢì§Ģë":10018,"Ġìĸ´ì©Ĳì§Ģ":10019,"Ġë±Ģ":10020,"ay":10021,"Ġì½Ķë¥¼":10022,"Ġê³¼ìłķìĿĦ":10023,"ê¸°ëĬ¥":10024,"ĵ¤ìĹĲê²ĮëĬĶ":10025,"Ġìłľê°Īë":10026,"Ġíķĺë£¨ì¢ħìĿ¼":10027,"Ġì¸µ":10028,"Ġë§ĽìŀĪëĭ¤ê³ł":10029,"ĠëĤ´ëł¤ê°Ģ":10030,"Ġê·¸ëĤĺìłĢëĤĺ":10031,"ĠìĦ¬ë":10032,"Ġë§Īë£¨":10033,"ĠìĿ½ìĿĦ":10034,"ª°ë":10035,"ĠëĮĢìĤ¬":10036,"Ġë¶Ģì²ĺ":10037,"ìļķìĿĦ":10038,"ĠëĨįëĭ´":10039,"naver":10040,"ĦĮ":10041,"¶Ģë¶Ģ":10042,"Ġìĭ¤ìĿĢ":10043,"Ġê²ĥìĿ¸ëį°":10044,"ìĺ¤ê¸°":10045,"ĠìĽĢì§ģìĿ¼":10046,"Ġíļ¡":10047,"ðŁĮ¸":10048,"ì¹ĺì¦Īë":10049,"ĠìŀĲë³¸":10050,"ĠëŁ¬ìĭľìķĦ":10051,"ìłĦíķĺ":10052,"ĠíķĺëįĶëĿ¼êµ¬ìļĶ":10053,"ì¹łë":10054,"ìĥģê³¼":10055,"Ġê³§ìŀ¥":10056,"Ġíıīê°Ģ":10057,"Ġìļ°ëĬĶ":10058,"Ġìŀħìľ¼ë¡ľ":10059,"Ġê²½ê¸°":10060,"ìĬ¤ì½Ķ":10061,"ĠìłĦìĦ¤":10062,"ĠìĥĿê°ģíĸĪëįĺ":10063,"Ġê³łìĨĮíķľ":10064,"Ġíŀĺê»ı":10065,"ĠìĻĦë£Į":10066,"ĠìĮĵìĹ¬":10067,"Ġìłķëł¹":10068,"³ĳìĿ´":10069,"ê²°íĺ¼":10070,"Ġ....":10071,"ł¹ìĿĦ":10072,"ëĮķìĿ´":10073,"kg":10074,"Ġê°ľê°Ģ":10075,"ê¸´ëĭ¤":10076,"ìĿ¸ì¤Ħ":10077,"Įë¦°":10078,"íĥĢê³ł":10079,"ìľ¼ìľ¼":10080,"ĠìķĬìĬµëĭĪê¹Į":10081,"ë§Įìľ¼ë¡ľ":10082,"ëįĶëĿ¼ëıĦ":10083,"Ġì§ĢëĤĺê°Ķëĭ¤":10084,"Ġìķ½ìĨįìĿĦ":10085,"ĠìĨįëıĦë¡ľ":10086,"ìķĦìĿ´ìĬ¤íģ¬ë¦¼":10087,"Ġëĭ¤ìĿĮê³¼":10088,"Ġíķ´ìĦĿ":10089,"Ġìķ½íķľ":10090,"ë¯¸ê°Ģ":10091,"ãħĮãħĮ":10092,"ĠìĤ¬íĿĺ":10093,"ê°Ĳìľ¼ë¡ľ":10094,"ĠíıĲíķĺ":10095,"Ġìĵ¸ëį°":10096,"ìĭľê¸¸":10097,"ìĨľ":10098,"ê²łêµ¬ëĤĺ":10099,"ĠëĨĴìķĦ":10100,"Ġëĵ¤ìĹĪìĬµëĭĪëĭ¤":10101,"Ġë°©íĸ¥ìľ¼ë¡ľ":10102,"Ġëĭ´ê³ł":10103,"į§":10104,"ĠìĿ´ëª¨":10105,"one":10106,"íĬ¸ë¶ģ":10107,"ĠìĿ¸ê°ĦìĿĢ":10108,"ĠìĹ¬ëŁ¬ê°Ģì§Ģ":10109,"Ġìŀ¬ë¯¸ìŀĪëĬĶ":10110,"ĠìķĪëı¼":10111,"ĠëıħíĬ¹íķľ":10112,"Ġì¹¨ëĮĢìĹĲ":10113,"íķĺì§Ħ":10114,"Ġë§īìĿĦ":10115,"Ġê·¸ëŀĺìķ¼":10116,"ìĥ¤ë¸Į":10117,"Ġg":10118,"åĬ":10119,"ì´Īë¥¼":10120,"ĠìłĦìŁģìĿĦ":10121,"ĠìĿµìĪĻíķľ":10122,"íģ´ëŀĺ":10123,"Ġof":10124,"Ġì·¨ë":10125,"ľ¬":10126,"Ġì¶ľíĮĲ":10127,"ĠëĨĪëĵ¤ìĿ´":10128,"ë´ĩ":10129,"Ġì¹´íİĺë":10130,"Ġì£½ìĿ¸":10131,"Ġìŀ¡ëĬĶ":10132,"ìĨĮìĹĲìĦľ":10133,"ĠìĽĶìļĶìĿ¼":10134,"ìķ¤ë":10135,"Ġì¹¨ìĿĦ":10136,"ĠìĨŁìķĦ":10137,"ĠìľłëĤľíŀĪ":10138,"ìĨ¥":10139,"ëĤ¬ëĭ¤":10140,"Ġëĭ¹ìĭłë":10141,"Ġëĭ¬ëŀĲëĭ¤":10142,"Ġëºı":10143,"Ġë²Īê°Ī":10144,"ĠìĭłíĻ©":10145,"ìĻĵ":10146,"Ġíŀĺìľ¼ë¡ľ":10147,"ìĵ°ëĬĶ":10148,"Ġë°Ķëĭ¤ë¥¼":10149,"Ġê¸°ìģ¨":10150,"ĠëĤ¨ê¶ģ":10151,"Ġëĭ¬ëĭ¬íķľ":10152,"der":10153,"ë©Ķë":10154,"ĠëĮĢíķĺìĹ¬":10155,"ĠìĨĮìĦ¤ìĿĦ":10156,"ê¶Ī":10157,"ãħİãħİãħİãħİ":10158,"ĠìķĬìķĺìĸ´ìļĶ":10159,"ê°ĲìŀĲ":10160,"Ġë²Įìĸ´":10161,"Ġìļ°ë¦¬ëıĦ":10162,"íĮ¨ë¥¼":10163,"Ġìķłìłķ":10164,"Ġìĸ½":10165,"ìĿ¸ìĹĲ":10166,"Ġê°ķìķĦì§Ģ":10167,"Ĥ´ê¸°":10168,"Ĵ¤":10169,"Ġíķľë°Ķ":10170,"ìĻĢìĿ´":10171,"Ġê¼¬ë§Ī":10172,"Ġë¬´ë¦¼":10173,"§¤ë¥¼":10174,"Ġì£¼ë¦Ħ":10175,"íĽĦê°Ģ":10176,"Ġë¬¼ëŁ¬ëĤĺ":10177,"Ġì§ĢíĤ¤":10178,"ëĭ¹ìĿĺ":10179,"Ġë§ĪìĿĮëĮĢë¡ľ":10180,"Ġíģ´ëłĮì§ķ":10181,"ĠìĦ¼ìĬ¤":10182,"ĮĦ":10183,"ĠìĦ¸íĬ¸":10184,"Ġë°©ìĭĿ":10185,"ìļ°ì§Ģ":10186,"ìħĶì¸ł":10187,"Ġì²«ì§¸":10188,"ìŀĪìĿĦ":10189,"Ġìłľìĭľ":10190,"ĠìĤ¬ëŀĮëĵ¤ê³¼":10191,"we":10192,"²łìĿ´íĦ°":10193,"ĠëıĦìĦľ":10194,"Ġëĭ´ìĿĢ":10195,"ìĤ°ë¶Ģ":10196,"Ġë©Ķëī´ëĬĶ":10197,"Ġíķľë²ĪëıĦ":10198,"Ġìĭľì¦Į":10199,"ĠìłķìĿĺ":10200,"Ġêµ¬íķ´":10201,"ĠìĬ¤íĨłë¦¬":10202,"å±±":10203,"¦°ìĿĺ":10204,"ìĨįìĿ´":10205,"Ĳëĭ¤":10206,"Ġëª¨ìĬµìĿ´ìĹĪëĭ¤":10207,"ê±°ê°Ģ":10208,"ĠìĦľë¹ĦìĬ¤":10209,"_<":10210,"ĠìĺģêµŃ":10211,"Ġì¦Ĳê²ģê²Į":10212,"ëª¨ëĭĿ":10213,"ìĭ¬ëıĦ":10214,"ĠíĬ¹ìĿ´":10215,"Ġì£¼ë©´":10216,"ìĽĶìĿĺ":10217,"ĠëĤĺì¤ĳ":10218,"¦¬ìĻĢ":10219,"Ġì¡´ìŀ¬ê°Ģ":10220,"ĠìĽĥìĸ´":10221,"Ġë¶ĦìĦĿ":10222,"íĺĦìĿĦ":10223,"Ġê¶":10224,"Ġì§ł":10225,"ìĭľìŀĳ":10226,"Ġìłķìĭłë":10227,"ìĦ¸ìĿĺ":10228,"Ġë©Ģë¦¬ìĦľ":10229,"ĠìĽĢì§ģìĿ´ì§Ģ":10230,"êµ¬ìĹĲ":10231,"íİ¸ìĿĺìłĲ":10232,"Ġëĳĺëĭ¤":10233,"ĠìĿ¼ê·¸ëŁ¬":10234,"ĠìĿĺìŀĲ":10235,"ĠëıĮìķĦë³´ìķĺëĭ¤":10236,"ìĽ¨ìĿ´":10237,"ĠëģĪìłģ":10238,"ĠìķĦëĭĪëĥĲ":10239,"ĠìŀĲìĦ¸íķľ":10240,"Ġëª¬ìĬ¤íĦ°":10241,".,":10242,"ĵľëĿ¼":10243,"ĠíĿĺë¦¬ë©°":10244,"Ġìłģìļ©":10245,"ĠìĹĶë":10246,"Ġê³łêµ¬ë§Ī":10247,"Ġì¡°ëªħ":10248,"ì²«ì¤Ħ":10249,"ë´Ĳ":10250,"Ġëĭ¨ì²´":10251,"ĠìĿ´ìĻ¸":10252,"ìĤ°ìľ¼ë¡ľ":10253,"ĠíĹĮë":10254,"ì¹ĺìķ½":10255,"ĠìĨĮìĦ¤ìĿĺ":10256,"ëį°ìĿ¼ë¦¬ë£©":10257,",,,,,,,,":10258,"ĠãĦ±":10259,"ìłĦìĹĲìĦľ":10260,"Ġë°ĳìľ¼ë¡ľ":10261,"mo":10262,"ìķĪìĹĲìĦľ":10263,"ìĦłìĥĿëĭĺ":10264,"Ġë¡Ŀ":10265,"Ġê·¸ë³´ëĭ¤":10266,"Ġë¨¸ë¬¼":10267,"ìħĢë":10268,"Ġë¶ĪëłĢ":10269,"ĠìĹĨëĦ¤":10270,"¼Ī":10271,"ĠëĤ´ëħĦ":10272,"ĠìłĢìłĪë¡ľ":10273,"ê¼¬ì¹ĺ":10274,"²³":10275,"íŀĪëĤĺ":10276,"ĠìķĪë¨¹":10277,"Ġë¶Īë¦¬ëĬĶ":10278,"Ġë§İì§Ģ":10279,"íĥĦìĿĦ":10280,"Ġëĵ¤ìĹĪìĸ´ìļĶ":10281,"Ġì§Ń":10282,"Ĥ®":10283,"ìĥĿìĿ¼":10284,"Ġëĭ¤ëĭĲ":10285,"Ġê·¸ëŁ°ëį°ëıĦ":10286,"Ġë°©ìĹĲìĦľ":10287,"íģŃ":10288,"ĠëıĻìĽĲ":10289,"ĠìŀĲìĭłê³¼":10290,"ĠìĪłìŀĶìĿĦ":10291,"Ġì¹¸":10292,"ķĮëĬĶ":10293,"íķĳíģ¬":10294,"Ġìĭ¬ìŀ¥":10295,"ìĽĢìĿĢ":10296,"ĠìŀĲëıĻì°¨":10297,"íĻĶìĹĲ":10298,"ìĸ¸ìĦľ":10299,"ĠìĤ¬ëıĦ":10300,"Ġê°Ģê¹ĮìĽĮ":10301,"ì°¸ë":10302,"ĠëıħìĿ¼":10303,"©´ìĿĦ":10304,"ì¡±ë°ľ":10305,"ĠëıĻìĥĿìĿ´":10306,"ìŀħê³ł":10307,"Ġíİ¸íķľ":10308,"íĮĮê°Ģ":10309,"æĺ":10310,"Ġìĭľìŀĳíķľëĭ¤":10311,"ĠìĹ¬ìĿ¸ìĿ´":10312,"ĠìŀĪëĭ¤ëĭĪ":10313,"ĠìĪĺìłķ":10314,"ĠíĹĲë":10315,"ĠìĿ¼ìĸ´ëĤĺìĦľ":10316,"ĠìľłëĭĪ":10317,"ĠìĪłìĿ´":10318,"ĠëįĶëįĶìļ±":10319,"ê¸°ìķ¼":10320,"Ġï¼ľ":10321,"ĠìĹ¬ìĿ¸ìĿĢ":10322,"Ġë³´ëĥĪ":10323,"ĠíĻĪíİĺìĿ´ì§Ģ":10324,"ĠíĻĶìŀ¥íĴĪ":10325,"ê³ĦëŀĢ":10326,"ìľµ":10327,"Ġìĸ´ë§Ī":10328,"ĠëıĮìķĦìĺ¬":10329,"Ġíķ´ìķ¼ì§Ģ":10330,"Ġìĺ¤ëŀĺëĲľ":10331,"ĠìłĲì°¨":10332,"Ġìĺģê´ĳ":10333,"¦¬ëĭ¤":10334,"ì·Ħëĭ¤":10335,"Ġíħį":10336,"ì¢ħìĿĦ":10337,"ĠìĤ¶ìĿĢ":10338,"ì½ĶìĬ¤":10339,"ìĽĲëĵ¤ìĿĢ":10340,"ìĪĻìĿĢ":10341,"Ġë¯¸ì¹ĺ":10342,"Ġãħ¤ãħ¤":10343,"ĠìłķëıĦê°Ģ":10344,"ãħ£":10345,"Ġë°ĶìĿ´":10346,"íķ´ìĿĺ":10347,"ê³µíķŃ":10348,"ĠëĨĢê³ł":10349,"Ġë¬µë¬µíŀĪ":10350,"į´":10351,"Ġíķ´ëĿ¼":10352,"ê²ĥìĿĦ":10353,"ĠìĦ±ìĿĦ":10354,"ĠëĦĺê²¨":10355,"Ġì©":10356,"Ġìĸ´ëĸ»ê²Įë":10357,"Ġë´ĲìĦľ":10358,"Ġíĥľìĸĳ":10359,"ë¦¼":10360,"ĠëĦ¤ìĿ´ë²Ħ":10361,"Ġíģ´ëŀĺ":10362,"ĠíĬ¼íĬ¼":10363,"Ġì²©":10364,"íķĺëĬĶê²Į":10365,"ë¯¼ìĿĺ":10366,"Ġì¹´ë§Ī":10367,"ìĬµê´Ģ":10368,"ĠìĬ¤íĥ":10369,"ĠìĿ´ìķ¼ê¸°ë":10370,"ìľ¼ëĭĪê¹ĮìļĶ":10371,"ł¹ìĿĢ":10372,"ĠìĥģíĴĪ":10373,"ëħķ":10374,"ĠíĻķìĭł":10375,"ê¾¸ë¯¸":10376,"Ġê°Ģë°©ìĿĦ":10377,"Ġì¡´ìŀ¬ë":10378,"Ġì·¨ê¸ī":10379,"ĠìĻľëĥĲíķĺë©´":10380,"Ġë§Įë§Į":10381,"íĸĪìľ¼ëĭĪ":10382,"ĠìĿ¼íĸīìĿĢ":10383,"Ġì±ħìĿĢ":10384,"Ġâĸ²":10385,"ê±°ë¡ľ":10386,"ìĺ¤ëĬĺëŃĲë¨¹ì§Ģ":10387,"íĤ´":10388,"ĠìķĦë¹łëĬĶ":10389,"íķ´ìĦľëĬĶ":10390,"Ġê¸°ìļ´ìĿĦ":10391,"Ġì»´íĵ¨íĦ°":10392,"ìĿ´ëĿ¼ë©°":10393,"ì¤Ħë":10394,"ĠëŃĲì§Ģ":10395,"ª¨ë¡ľ":10396,"ĠìĿ¸íĺķ":10397,"Ġìī¬ê³ł":10398,"Ġë³ĳìĽĲìĹĲ":10399,"ĠëĮĢíĺķ":10400,"Ġì§Ģì¹ľ":10401,"ê¹ĢìĹĨìĿ´":10402,"Ġì´īì´īíķľ":10403,"Ġë¯¸ì¹ľë":10404,"ëĭ¤ìĭľíĶ¼":10405,"ìķĶë":10406,"Ġì¦Ŀëªħ":10407,"Ġíķłë¨¸ëĭĪê°Ģ":10408,"âĢ¦âĢ¦ãĢį":10409,"ê²°ìĿ´":10410,"ĠíĺĦìĭ¤ìĿĦ":10411,"Ł´ë":10412,"Ġì£¼ìľĦ":10413,"Ġì§ĢëĤĺê°Ģ":10414,"Ġëĭ¬ì½¤":10415,"ĠíĻ©ê¸īíŀĪ":10416,"Ġì»¬ë":10417,"ĠêµŃë¬¼ìĿ´":10418,"Ġê·¹ë³µ":10419,"ì¢ĭê²Į":10420,"ĠìķĦë¹łë":10421,"Ġë°ĺì¯¤":10422,"ëĤ®":10423,"Ġë¶Ģëĵ¤":10424,"ĠíĬ¹ìĪĺ":10425,"ìĿ´ëŀĺ":10426,"ĠìĹĲìĬ¤":10427,"ìĹ°ëĤ¨ëıĻ":10428,"Ġëħ¸ìĿ¸ìĿ´":10429,"ëĬĲëĥĲê³ł":10430,"baby":10431,"¹ĦëıĦ":10432,"ĠìĦłëªħ":10433,"ĠìĻĦë²½íķĺê²Į":10434,"Ġìĭ¸ìĽĢìĿĦ":10435,"ĸł":10436,"ĠíĨ¡íĨ¡":10437,"ìĿ´ë¸Įë":10438,"ĠìĿ´ë¦Ħë":10439,"ly":10440,"Ġì§ĻìĿĢ":10441,"ĠíķĺìĦ¸ìļĶ":10442,"ìĸ¸ìĿ´":10443,"ìŀ¬ëĬĶ":10444,"ì¹´íİĺìĬ¤íĥĢê·¸ëŀ¨":10445,"ë¶ĢìĿĺ":10446,"įĶëĥĲ":10447,"Ġëı¼ì§Ģê³ł":10448,"ë¶ĦìĿ´":10449,"ë§Īê°Ģ":10450,"ìĨŁ":10451,"ì§¸ë":10452,"ä¹ĭ":10453,"Ġë²Ħë¦ĩ":10454,"ĠìĪŃ":10455,"Ġëĭ¬ì½¤íķľ":10456,"ìĤ¼ê²¹ìĤ´":10457,"Ġì¢ĭëĦ¤ìļĶ":10458,"ĠêµŃìłľ":10459,"Ġê·¸ëł¤ë":10460,"ĠíĥĢìŀħ":10461,"Ġì¤ĳìĹĲìĦľëıĦ":10462,"Ġìĥģëĭ¹íķľ":10463,"Ġëĸ¼ë":10464,"ĠìĥģëĮĢìĿĺ":10465,"Ġê·¸ëķĮëĬĶ":10466,"ĠíĹĪë²ħ":10467,"ĠíķĻêµĲìĹĲ":10468,"âĹĭâĹĭ":10469,"beaut":10470,"Ġë©Ģì©¡":10471,"ìĿ¸ëĵ¤ìĿĦ":10472,"Ġìĸ¸ìĸ´":10473,"ê·¸ë¦¬":10474,"Ġë¶Ģì§ĢëŁ°":10475,"ĠìĹ°ìĨį":10476,"íĹ¤íĹ¤":10477,"ĠìĨĮë¬¸ë":10478,"íĴĭ":10479,"Ġìĭłë¶Ħ":10480,"Ġëª¨ëį¸":10481,"ìĿ´ë¦¬":10482,"Ġë³´ëĿ¼":10483,"ł¥ìĿĢ":10484,"ê¹Ķë":10485,"ĠìĤ¬ëŀĮìĿ´ìĹĪëĭ¤":10486,"íĽĪë":10487,"2018":10488,"ĠëĬĲëģ¼ë©°":10489,"ìĸ´ë¨¹ìĿĦ":10490,"ĠìĬĪíį¼":10491,"ìķĦë¬´":10492,"Ġì¿¨":10493,"ĠëķĮë¡ľëĬĶ":10494,"ĠìĪľìĪĺ":10495,"te":10496,"Ġìĭ¶ëĭ¤ê³ł":10497,"Ġëĸ¨ìĹĪëĭ¤":10498,"ĠìķĦíĶĶ":10499,"ê¸°ê°Ħ":10500,"ìĹ¬ìĦ±":10501,"Ġê°Ģë³´":10502,"ëĭ¹ìĭł":10503,"íĺľë¥¼":10504,"ëĭµëĭĪëĭ¹":10505,"!)":10506,"Ġê²ĥìĿ´ì§Ģ":10507,"íĭ°ê°Ģ":10508,"ħĢëĬĶ":10509,"ĠìĤ¬ëŀĳìĿĢ":10510,"ì½ĶëĶĶ":10511,"Ġê³łê°Ŀ":10512,"log":10513,"ĠíĨłëģ¼":10514,"ĠìłĢíĿ¬ê°Ģ":10515,"ģĮ":10516,"ìłķìĭĿ":10517,"åŃĲ":10518,"łĺ":10519,"Ġìĸ´ë¦¬ë":10520,"íķ´íķĺëĬĶ":10521,"Ġë³¸ëŀĺ":10522,"Ġê¹Ģë°¥":10523,"Ġì°¾ìĿĢ":10524,"íķľìĿĦ":10525,"ĠìĿ¸ìĤ¬ë":10526,"ë¡ľë¥¼":10527,"ĠíĻĺìĥģ":10528,"Ġíļ¨ê³¼ë¥¼":10529,"íķ´ëĬĶ":10530,"ìĿ´ìĹĪìĸ´":10531,"ĳ¥ìĿ´":10532,"Ġë¹ĽëĤĺëĬĶ":10533,"Ġê°Ĳìĺ¥":10534,"ìŁĪ":10535,"Ġíģ°ë":10536,"ìĹŃìĹĲ":10537,"Ġë¯¿ëĬĶ":10538,"ìĹĨê³ł":10539,"ê²Įë¡ľ":10540,"ĠìĹ°ìķł":10541,"Ġì°¨ìĿ´":10542,"ĠìłķìĦ±":10543,"ĠìĭľìŀĳíķĺëĬĶ":10544,"ê³łê¸°ë":10545,"Ġëĭ¨ëĭ¨íŀĪ":10546,"ì£¼ê¸°":10547,"ìĦľìĹĲ":10548,"ë³¶ìĿĮ":10549,"ĠëĳĲêº¼":10550,"Ġë³´ìĹ¬ì£¼ê³ł":10551,"Ġë©Ģë":10552,"ĠëĲ¨":10553,"Ġëĸłìĺ¤ë¥´ëĬĶ":10554,"Ġì¡´ìŀ¬ë¥¼":10555,"å¿":10556,"ìĿ¸ê±°":10557,"ĠìĪľê°Ħë":10558,"oul":10559,"¦ħ":10560,"²Ħë¦¬ëĬĶ":10561,"ìĦ¼íĦ°":10562,"ìĽ°":10563,"¨¹ê¸°":10564,"ĠìĦľëĦĪ":10565,"íĺ¼ìŀĲ":10566,"ëįĺëį°":10567,"·Ķíİĺ":10568,"ë¬¸ìĿĺ":10569,"íķłë¨¸ëĭĪ":10570,"ĠíĥĲë":10571,"ĠìĹ°ìĭł":10572,"ì²ŃìĿĦ":10573,"ĠíŀĪíŀĪ":10574,"ì§ĢëĭĪ":10575,"ĠìŀĲìĦ¸ë¥¼":10576,"íħĮìĬ¤":10577,"ĠëįĶëŁ¬":10578,"Ġì«ĢëĵĿ":10579,"ĠëŃĲëĿ¼":10580,"ĶĶë¥¼":10581,"Ġëĸłëĵ¤":10582,"íį½":10583,"ìĿ´ê¸´":10584,"ĠìĭĿêµ¬ë":10585,"ĠíĻķìĿ¸íķł":10586,"Ġì¤¬":10587,"ĠìľĦíĹĺíķľ":10588,"Ġê·¸ë§Įë":10589,"Ġê°Ģì§Ī":10590,"ĠìĤ´ìķĦìķ¼":10591,"ì¤ĦìĿ´":10592,"ì»¤ë¦¬":10593,"Ġíİ¸ì§Ģ":10594,"Ġë³Ģíĺ¸":10595,"Ġì§Ģë¶ķ":10596,"!!\"":10597,"Ħ¤ê°Ģ":10598,"ĠìĬ¬íį¼":10599,"Ġíı¬íķ¨ë":10600,"íĶĮë£¨ìĸ¸ìĦľ":10601,"ĠìĨĲëĵ±":10602,"Ġê³Ħëĭ¨ìĿĦ":10603,"ĠëĮĢë¬¸":10604,"ĠëĬĺìĸ´ëĤĺ":10605,"Ġìĭ«ìĿĢ":10606,"Ġíĺ¹ìĭľëĤĺ":10607,"ĠìĿ¼ìĸ´ëĤł":10608,"ëĤĺìĿĺ":10609,"ë§Īë²ķ":10610,"Ġíķľê»ı":10611,"¨¹ë°©":10612,"ìĺ¤ëĭĪ":10613,"Ġêµ¬ì¡°":10614,"ĠëĳĲê°ľ":10615,"Ġì¢ħì¡±":10616,"ł¸ìĸ´":10617,"Ġê¸°ìĤ¬ë":10618,"Ġê°Ģì¹ĺ":10619,"ê´ĳì£¼":10620,"ĠìĽĢì§ģìŀĦ":10621,"įĶëŁ¬":10622,"ê°ĢëĿ¼":10623,"Ġë©ĶìĿ´íģ¬ìĹħ":10624,"Ġêµ°ëį°":10625,"Ġë²¼":10626,"ĠìĨĮë¹Ħ":10627,"Ġin":10628,"íĨ°":10629,"ìĨĮìĿĺ":10630,"Ġìĭ¬ìŀ¥ìĿ´":10631,"ĠìŀħìĪłìĿ´":10632,"ĠëĵľìĽĮ":10633,"ĠíĻ©ê¸Ī":10634,"ĠëĥīëıĻ":10635,"ëıĦìĭľëĿ½":10636,"ìĪ¨ìĹĲ":10637,"Ġì¡±ë°ľ":10638,"ìĺģìĸ´":10639,"³´ëĭ¨":10640,"íĺģìĿ´":10641,"íķ´ì§Ħëĭ¤":10642,"»ìŀİ":10643,"ìķĦìłĢ":10644,"Ġëĸ¨ê³ł":10645,"íĶ¼ë¥¼":10646,"Ġë¹Ħìĸ´":10647,"íĻĺìĿ´":10648,"¨ëĶ©":10649,"Ġì¹ľêµ¬ëĬĶ":10650,"Ġì¡°ê·¸ë§Į":10651,"ìķĪìľ¼ë¡ľ":10652,"ĠãĢĬ":10653,"ĠíĽĮì©į":10654,"íĸĪìľ¼ë©´":10655,"Ġìĭľë¥¼":10656,"ì¦ī":10657,"ĠíĺĲ":10658,"ìĺĪìģľ":10659,"ìĥĪëĮģ":10660,"ĠìĦ¸ìļ´":10661,"ìķĦìĿ´íı°":10662,"Ġê°Ļëĭ¤ê³ł":10663,"ì¤ĳìĿ¸":10664,"ì¼ĢìĿµ":10665,"ĠìĦłíĥĿíķľ":10666,"ëĭŃê°ĢìĬ´ìĤ´":10667,"ĠëŃĶê°Ģë¥¼":10668,"ĠìĦŀìĿ¸":10669,"íģ´ëŁ½":10670,"ĠìĭľíĤ¤":10671,"ìłľê±°":10672,"del":10673,"Ġì¤ĳìĿ´ìĹĪëĭ¤":10674,"Ġì¹ĺë©°":10675,"ìĿ´ëĵ¤ìĿ´":10676,"ì¹¨ìĿ´":10677,"Ġì§Ģëıħ":10678,"íķ¸ë":10679,"ĠìķĪê²¨":10680,"ĠëŁ¬ë":10681,"ĠìĽĥìľ¼ë©´ìĦľ":10682,"Ġìķ½ìĿĦ":10683,"ĠìĿ¼ìĸ´ëĤĺëĬĶ":10684,"¹¼":10685,"Ġê¸°íļį":10686,"ìĬ¤ëĿ¼":10687,"ĠìŀĪìĿĦì§Ģ":10688,"ì¿łíĤ¤":10689,"Ġê±°ìĬ¬ë":10690,"Ġëĵ¤ìĸ´ìŀĪëĬĶ":10691,"Ġíķ´ì¤Ģ":10692,"29":10693,"ĠìĬ¬íĶĦ":10694,"ëĤĺê³ł":10695,"íĻĶìĻĢ":10696,"ìĦłê°Ģ":10697,"ĠíĻĶìĤ´":10698,"Ġì¢ĭìķĦíķĺëĬĶëį°":10699,"å¸":10700,"ëĭĻëĭĪëĭ¤":10701,"ìĦ¸ê¸°":10702,"ìĹ°íķĺê²Į":10703,"ĠíĺķìĿĢ":10704,"Ġë¿Į":10705,"ìµľê³ł":10706,"ĠìĿ´ê°Ģ":10707,"ĠâłĢâłĢâłĢâłĢâłĢâłĢâłĢâłĢâłĢâłĢâłĢâłĢâłĢâłĢâłĢâłĢ":10708,"ëĮĢìłĦ":10709,"Ġê³ģëĵ¤":10710,"Ġê°Ħë§ĮìĹĲ":10711,"Ġê°¸ìĽĥ":10712,"ĠìĹ½":10713,"ĠëĮĢìĥģ":10714,"ĠíħĶëłĪë¹Ħ":10715,"ì²łìĿĢ":10716,"ĠëĮģ":10717,"Ġìĺ¤ê¸°":10718,"ìĦ¸ìĹĲ":10719,"Ġìŀ¥ìĦ±":10720,"Ġë¶ĦìĿĢ":10721,"Ġì²«ë²Īì§¸":10722,"ì¹ĺëĭ¤":10723,"ĠìŀĲëĿ¼":10724,"ĠëĪĪë¬¼ë":10725,"ĠìĤ¼ìķĦ":10726,"ĠìķĦëĤĺ":10727,"ë¹ł":10728,"ĠëĸłëĤĺëĬĶ":10729,"Ġë¹Īë":10730,"Ġë§īìķĦ":10731,"ìĿ¸ìĬ¤íĥĢê·¸ëŀ¨":10732,"ĠíķĺìĺĢ":10733,"§ĲìĿ´":10734,"Ġë¸Ķë£¨ë":10735,"å¾":10736,"Ġê³µê°ľ":10737,"ĠìĻĶëįĺ":10738,"ĸ¡ë³¶ìĿ´":10739,"27":10740,"ĠìķĦê°ĢìĶ¨":10741,"ĠìĺĪìģĺê³ł":10742,"Ġë°¤ìĥĪ":10743,"íĬľëĶĶìĺ¤":10744,"Ġê°ĦìĿ´":10745,"Ġ,,":10746,"ê·¸ë¦¼":10747,"ì´Īëĵ±":10748,"Ġê·¸ëĮĢ":10749,"ĠíķĺëıĦ":10750,"ìĺ¤ëĬĺëıĦ":10751,"ì¢ĭëĭ¤":10752,"ĠìĿ½ìĸ´ë":10753,"ĠìłķíĻķíķĺê²Į":10754,"¡Ģë":10755,"Ġ+_+":10756,"ðŁĶ":10757,"Ġìĸĺê¸°ê°Ģ":10758,"ĠëĩĮë":10759,"Ġê·¸ëħĢìĻĢ":10760,"ìł¤ë":10761,"ĠìĭĿë¬¼":10762,"Ġìĸ´ëłµì§Ģ":10763,"Ġë©¤ë":10764,"íľ´ê°Ģ":10765,"Ġë¨¸ëŃĩ":10766,"Ġë²Įìĸ´ì§Ħ":10767,"ê³łêµ¬ë§Ī":10768,"ĠìĨįëıĦ":10769,"ëĳĲê³ł":10770,"Ġêµ´ëŁ¬":10771,"ĠìłĲëł¹":10772,"ä½":10773,"©©":10774,"Ġì´Īì¡°":10775,"Ġëį§ë¶Ļ":10776,"Ġê²ĢìĿ´":10777,"Ġì§ĢìĽĮ":10778,"Ġê²½ìļ°ìĹĲëĬĶ":10779,"ĠìŀĪê¸´":10780,"ìĭ¬ìĹĲ":10781,"Ġíķĺëł¤":10782,"ĠëĨĵì¹ĺì§Ģ":10783,"Ġìŀ¬ë¯¸ê°Ģ":10784,"Ġì»¤ìĦľ":10785,"ì³ĲëĤĺ":10786,"çİ":10787,"ĠìĿ´ìĪľ":10788,"ĠìĤ¬ë§Ī":10789,"ĠìĸĩìĿĢ":10790,"Ġì§Ģë¥´ë©°":10791,"íķĺëĭ¤ëĭĪ":10792,"¹Ķ":10793,"ìľ¨ìĿ´":10794,"Ġë§ĽìŀĪìĹĪëĭ¤":10795,"Ġê°ĢëıĦ":10796,"ê°ĲìĤ¬íķ©ëĭĪëĭ¤":10797,"Ġìĺģíĸ¥":10798,"íŀĲë§ģ":10799,"ĠìĤ¬ë§Ŀ":10800,"ģĦëŁ¬ë¯¸":10801,"ĮĢê³ł":10802,"Ġë¯¿ì§Ģ":10803,"Ġì¹Ńê¸°":10804,"ĨĪìĿĢ":10805,"ĠìĽĢì§ģìĺĢëĭ¤":10806,"Ġìĸ´ë§Īìĸ´ë":10807,"¬¼ìĿĺ":10808,"ìł¯ë°¤":10809,"ĠìĭłëĿ¼":10810,"ĠìĤ¬ìļ©íķ´":10811,"style":10812,"ĠìķĦìļ°":10813,"íķĺëĬĶì§Ģ":10814,"ê³µìĿĢ":10815,"Ġë¬¼ìĸ´ë³´":10816,"éĸ":10817,"łĪë¥¼":10818,"Ġê±¸ì³Ĳ":10819,"íĮĮëĬĶ":10820,"ĠìĬ¤íĭ°":10821,"ĠíĦ¸ë":10822,"Ġìĺ¬ë¦¬":10823,"¬´ê°Ģ":10824,"Ġìĵ°ëŁ¬ìł¸":10825,"ì¹¼ë¡ľë¦¬":10826,"ì£¼ìĻĢ":10827,"ì§Ħíķľ":10828,"ĠëĤ´ìļ©ìĿ´":10829,"ãħħãħİ":10830,"Ġìķŀìľ¼ë¡ľëıĦ":10831,"26":10832,"ìĭľì¼°":10833,"ĠìŀĲëĵ¤ìĿ´":10834,"ĠìĹ°ëĿ½ìĿĦ":10835,"Ġíķ´ìĻ¸":10836,"ê¸°ìĹĲìĦľ":10837,"ê·¸ë¦°":10838,"Ġëª¨ìľ¼":10839,"Ġëĵ¤ìĸ´ìĺ¬ë":10840,"ĠìĿ´ë£¨ìĸ´":10841,"Ġì¦Ĳê²¨":10842,"ĠìĿ¼ìĿ´ìķ¼":10843,"Ĳ©ëĭĪëĭ¤":10844,"íķĺìĿ´":10845,"Ġê¹¨ëģĹíķľ":10846,"ĠíĶ¼íķł":10847,"ĠìĿ¸ìĥĿìĿĦ":10848,"Ġë°ĶëŀĮë":10849,"ĠíĻķìĭ¤íķľ":10850,"ìŀ¥ë©´":10851,"ê±°ë¦¬ê°Ģ":10852,"ìł¸ëĿ¼":10853,"ĠëĬĲëģ¼ê²Į":10854,"ert":10855,"ĠëĨĪëĵ¤":10856,"ĠìĻĶìĿĦ":10857,"Ġê³ĦìłĪ":10858,"ĠìĻķêµŃ":10859,"Ġë°°ë¶Īë":10860,"ĠìŀĲìĤ´":10861,"łĪëĵľ":10862,"Ġì¡°ë§Į":10863,"ëĵ¤ë¡ľ":10864,"ìļ°ë¦¬ë":10865,"Ġì¦Ī":10866,"Ġëĭ¨ìĪ¨ìĹĲ":10867,"Ġíķłë¨¸ëĭĪëĬĶ":10868,"ĠìłĦê¹Įì§Ģ":10869,"ĠðŁİ":10870,"ĠìĤ¶ìĿ´":10871,"ĠìĿ¼ëŁ¬":10872,"ĠìłĦëĤł":10873,"¥´ëĭ¤":10874,"ĠìĦ¸íĥģ":10875,"Ġë¶Īê°Ģ":10876,"ì»¤ëħķ":10877,"ĠíķĺëĦ¤":10878,"Ġë¶Ļëĵ¤":10879,"ĠìĪĺíĻĶ":10880,"ìĦľìĦľ":10881,"ìĤ¬ëł¹":10882,"ĠëķĮë¬¸ìĿ¸ì§Ģ":10883,"ëĬĺë¡ľ":10884,"Ġ!!!":10885,"ĠìĺĪìĿĺ":10886,"¥´ìĿĺ":10887,"Ġë¬´ë¦¼ë":10888,"ì£¼ìĬ¤":10889,"Ġë¿Įëĵ¯":10890,"Ġë¬´ìĸ¸ê°Ģë¥¼":10891,"ĠìĤ¬ë§ī":10892,"Ĳë¥¼":10893,"ì¶ĶëĬĶ":10894,"Ġìłĸìĸ´":10895,"ĠíĨ¤":10896,"Ġì°¸ê°Ģ":10897,"ìĦłìľ¼ë¡ľ":10898,"out":10899,"Ġê±°ì¹łê²Į":10900,"Ġì¡°ê¸ĪìĿ´ëĿ¼ëıĦ":10901,"ëĭ¤ìĿ´ìĸ´íĬ¸ë":10902,"ĠìĿ½ìĸ´":10903,"ĠëłĪëª¬":10904,"Ġìķ¤":10905,"Ġë°Ķê°Ģ":10906,"¯Ħ":10907,"ĠìĨĲìŀ¡":10908,"ê·¸ëŀĺìļĶ":10909,"ĠìĬ¤ì¼Ģ":10910,"íķľìŀĶ":10911,"99":10912,"ĠìĿ´ìĦ±":10913,"ĠëĦĪë¨¸":10914,"ĠìĿ´ê¸¸":10915,"Ġë§Ľë³´":10916,"¦¬ëł¤ê³ł":10917,"ĠìķĦëĭĪìĺ¤":10918,"³´ëł¤ê³ł":10919,"ĠìĪĺìļ©":10920,"Ġë°ľìĿ´":10921,"ĠìĸĮ":10922,"ĠìĥģëĮĢë¥¼":10923,"íĩ´ê·¼":10924,"įľë":10925,"ìĨĮëħĦ":10926,"ĠëĦĺì¹ĺëĬĶ":10927,"İĮ":10928,"ĠìķĦì£¼ë¨¸ëĭĪ":10929,"ìĦ¸ìł¤ê·Ģ":10930,"ìŀĳê°Ģ":10931,"Ġìŀ¥ìĭĿ":10932,"ĠìĬ¤ìľĦ":10933,"íĺľëĬĶ":10934,"¡łë":10935,"Ġë³´ê³łëĬĶ":10936,"ĠìĤ¼ìĭŃ":10937,"ê°ľìĽĶìķĦê¸°":10938,"âĿ£ï¸ı":10939,"Ġìĸ´ë¥´":10940,"ê°¯":10941,"Ġê¹į":10942,"ë½":10943,"Ġë°Ľê²Į":10944,"ĠìĿ´ê³³ìĿĦ":10945,"ĠâĶĢ":10946,"28":10947,"ĶĶìħĺ":10948,"ĠìłľíĴĪìĿĢ":10949,"êµĲê°Ģ":10950,"Ġì¶©ê²©ìĿĦ":10951,"ĠìĥĿê°ģíķĺ":10952,"ĠëĤłìķĦê°Ģ":10953,"Ġì¢ĭëĭ¤ëĬĶ":10954,"Ġê´Ģê³Ħê°Ģ":10955,"Ġë³Ħëĭ¤ë¥¸":10956,"ĠëĤ¨ê¸°ê³ł":10957,"ĠíķĺëĿ¼":10958,"Ġê²°ìĭ¬":10959,"Ġëį°ëĬĶ":10960,"Ł¬ë¸Ķ":10961,"íĺ¹ìĭľ":10962,"ìĿ´ìĿ´":10963,"ìĿ¸ê°Ħ":10964,"Ġíİ¸ìķĪíķľ":10965,"Ġìļ°ë¦¬ì§ĳ":10966,"ìĿ¼ëŁ¬":10967,"ĠâĻ¡":10968,"ëıĦì¹ĺ":10969,"ìħĺë":10970,"ĠìŀĲê¸°ë¥¼":10971,"ĠìĬ¤íĤ¨":10972,"ë°ĽìĿĢ":10973,"ìĻĶìĿĦ":10974,"Ġìĳ¤":10975,"Ġë¬´ìĦľìĽĮ":10976,"ê°Ķëįĺ":10977,"ìĦłìĹĲ":10978,"íĲģ":10979,"petstagram":10980,"ĠìŀĪê¸°ìĹĲ":10981,"íĻĺê²½":10982,"ĠëĮĢíķľë¯¼êµŃ":10983,"ì¹´ê°Ģ":10984,"Ġë§¡ìĿĢ":10985,"Ġíķ´ë¬¼":10986,"Ġë¬´ìĭ¬":10987,"ĠíķĢ":10988,"ĠíĬ¹íŀĪëĤĺ":10989,"ì½ĶëĦĽ":10990,"ãħĭãħĭãħĭãħĭãħĭãħĭãħĭãħĭãħĭãħĭ":10991,"Ġì¡°ìļ©íķľ":10992,"ìĥĮëĵľìľĦì¹ĺ":10993,"Ġëį°ê°Ģ":10994,"Â·Â·":10995,"Ġë¹Ħê·¹":10996,"íĨµìĹĲ":10997,"ì²´ìĹĲ":10998,"Ġëĵ±ìŀ¥íķĺëĬĶ":10999,"Ġìĭ¬ë¦¬":11000,"Ġto":11001,"Ġê±·ê³ł":11002,"ìĽĢë":11003,"ìļ´ëĮĢ":11004,"Ġì¡´ê²½":11005,"ĠìĿ´íĺ¼":11006,"Ġ28":11007,"ĠìĭľíĤ¤ëĬĶ":11008,"Ġìĸ´ëĬĲëį§":11009,"¿Į":11010,"Ġë¶Ģë¥¼":11011,"Ġë¬¼ë¡łìĿ´ê³ł":11012,"ĠìĹ´ë¦°":11013,"Ġì§Ģê·¹":11014,"ĠìĬ¤ë§ĪíĬ¸íı°":11015,"ĠìĬ¤íĤ¬":11016,"ĠìķĪë³´":11017,"¡Ńì§Ģ":11018,"¹Įë":11019,"Ġè":11020,"íľ´ë":11021,"ìĭľíĭ°":11022,"ĠìĿ´ë¦Ħìľ¼ë¡ľ":11023,"Ġìª½ìĹĲ":11024,"Ġê¸ĪìļĶìĿ¼":11025,"ìķĦë¡ľ":11026,"ĠëıĻìĿĺ":11027,"ĠëıĮìķĦê°Ķëĭ¤":11028,"Įĵ":11029,"Ġì§§ê²Į":11030,"ì£ĦìĨ¡":11031,"sp":11032,"ìŀ¥êµ°":11033,"ìłķìĭł":11034,"ì°¨ë¡ľ":11035,"æĹ":11036,"ê¸Ģë¡ľ":11037,"ê°ĻìĿĢëį°":11038,"ìĺ¤ë©´ìĦľ":11039,"ë°Ľê³ł":11040,"ìĸ´ëĵ¤ìĹĪëĭ¤":11041,"íĭ¸":11042,"Ġëĭ¬ëĿ¼ë¶Ļ":11043,"Ġê·Ģíķľ":11044,"mt":11045,"Ġë¬¼ëģĦëŁ¬ë¯¸":11046,"ìĽłì§Ģë§Į":11047,"Ġíĺģëªħ":11048,"Ģëįĺ":11049,"Ġë§ĲíĸĪìĬµëĭĪëĭ¤":11050,"Ġì³Ĳëĭ¤ë³´ê³ł":11051,"Ġë©Ķìĭľ":11052,"ĠëĳĺìĿ´ìĦľ":11053,"ĠìĹĦë§Īë¥¼":11054,"ĠìĿ¸ì²ľ":11055,"ĠëĲĺëıĮìķĦ":11056,"ĠìĤ¬ê¸°":11057,"ìĿ¸íĶĮë£¨ìĸ¸ìĦľ":11058,"Ġë¶ĻìĿĢ":11059,"į°ìļĶ":11060,"ĠìĦłìĪĺ":11061,"íķĺìŀĲë§ĪìŀĲ":11062,"ĠëĪĪë¹ĽìĿĦ":11063,"ĠëģĿëĤ´ê³ł":11064,"ĠìŀĪê²łì§Ģë§Į":11065,"Ġê¸īíķľ":11066,"ĠíķľìĹĨìĿ´":11067,"Ġêµ¬ìĽĮë":11068,"¯Ģ":11069,"íĸĪëĤĺ":11070,"ìĺ¬ë¦¬ë¸Įìĺģ":11071,"Ħ¤ëĬĶ":11072,"íĬ¸ëĿ¼":11073,"¼ëıĦ":11074,"ì¸Ħ":11075,"ëįľë":11076,"Ġê±°ê¸°ëĭ¤":11077,"ĮĢëıĦ":11078,"§£ê²Į":11079,"Ġìľłíĸī":11080,"Ġëĭ¬ëł¤ê°Ķëĭ¤":11081,"Ġëļľëł·":11082,"Ġê¹¨ìĸ´ëĤĺ":11083,"ĠìļĶëŁ°":11084,"Ġëª¨ìĭľê³ł":11085,"Ġì½ĶìĬ¤":11086,"Ġë°ĿìķĦ":11087,"Ġìŀłëĵ¤":11088,"ĠëıĻë£Įë":11089,"Ġìĭ¤ì²ľ":11090,"Ġê±·ìĸ´":11091,"ĠìĤ¬ê±´ìĿ´":11092,"Ġë¬´ê°Ģ":11093,"¹êµ´":11094,"ĠìĿ´ìłķëıĦ":11095,"Ġê±¸ìĸ´ê°Ķëĭ¤":11096,"ĠìĪĺìĪł":11097,"ĠëĲłê¹Į":11098,"ìĺ¤ëŀľë§ĮìĹĲ":11099,"ĠìķĦìłĢìĶ¨ê°Ģ":11100,"Ġê´ĳì£¼":11101,"Ġë°ĽìķĦìĦľ":11102,"Ġëħ¸ëŀĺë":11103,"ĠìĤ¬ìŀ¥ëĭĺìĿ´":11104,"ĠìĹĨëĭ¤ë©´":11105,"Ġë¦¬íķĦ":11106,"ĠíĹī":11107,"Ġìĭ¸ìļ°ëĬĶ":11108,"Ġìĺ¨ëª¸ìĿ´":11109,"âĢĶ":11110,"Ġì¹ľêµ¬ëĵ¤ìĿ´":11111,"ĠìĥĪë²½ìĹĲ":11112,"ļľ":11113,"ĠìĪĺìłľ":11114,"ìłģìĿ´ìĹĪëĭ¤":11115,"Ġìŀĳê³ł":11116,"âĢ¦âĢ¦?\"":11117,"ê°ķìĿĦ":11118,"íĶĮëŁ¬ìĬ¤":11119,"ì£¼ìħĶìĦľ":11120,"ĠìĿ´ê²ĥìĿĦ":11121,"Ġì§ĢíĤ¤ëĬĶ":11122,"Ġê³³ê³³ìĹĲ":11123,"Ġë²Ħë¦¬ëĬĶ":11124,"Ġìĸ´ëĶľ":11125,"ì°½ìĿĦ":11126,"ìķĦëĵ¤ë§ĺ":11127,"heal":11128,"Ġìĸ´ëĸ»ê²Įëĵł":11129,"Ġë¶Ģë¥¸":11130,"ĠìĹ°ìĥģ":11131,"ĠëĤ´ìļ©ìĿĢ":11132,"ĵľëł¤ìļĶ":11133,"Ġì¢ĭìĿĮ":11134,"Ġyou":11135,"ë§Įìľ¼ë¡ľëıĦ":11136,"ìĺ¤ìŀĲ":11137,"¥ĺê°Ģ":11138,"Ġë¦¬ë·°ë":11139,"ê¹Įì§Ħ":11140,"Ġíı¬ëıĦ":11141,"Ġê³¼ìłķìĹĲìĦľ":11142,"Ġë²Īê°ĪìķĦ":11143,"ëĭ¨ê³Ħ":11144,"ĠëĿ¼ëĶĺ":11145,"Ġì°¨ëĭ¨":11146,"Ġìĭľìķ¼":11147,"Ġê³µìĨĲ":11148,"ĵľìĹĲ":11149,"Ġìĸ¼ë§Īëĵłì§Ģ":11150,"íı¬ë¡ľ":11151,"ì½ľëĿ¼":11152,"ĠëĲĺëıĦë¡Ŀ":11153,"ĠìĿ¼ìĸ´ëĤ¬":11154,"ê·Ģë¥¼":11155,"ĠëĤ´ëł¤ìķī":11156,"ĠíİĦ":11157,"min":11158,"ìĭľëıĦ":11159,"Ġë¬´ê¸°":11160,"Ġë¯¸ìĽĮ":11161,"Ġì°¨ê³ł":11162,"ĠâłĢ":11163,"200":11164,"ŀĢìĿĢ":11165,"Ġê²ĥìĿ´ë©°":11166,"ĠìĨĮë¦¬ëıĦ":11167,"¶Ħëĵ¤ìĿ´":11168,"ëį°ìĿ´":11169,"Ġíİ¸ë¦¬":11170,"Ġê±·ëĬĶ":11171,"ĠíĬ¸ìľĹ":11172,"íħĮìĿ¼":11173,"Ĥ´ëł¤":11174,"ĠìłĢëħģìĿĦ":11175,"----------------":11176,"ĠìĦ¸ìļ°ê³ł":11177,"Ġë¯¸ë£¨":11178,"ëĭĪê¹Ĳ":11179,"ĠëıĮìĿ´":11180,"íĶĮëĿ¼":11181,"Ŀ¼ë¡ľ":11182,"Ġë¶Ģëĵ¤ë¶Ģëĵ¤":11183,"ĠìķĪê²½":11184,"Ġëª¨ìĹ¬ë":11185,"ì°¨ìĹĲ":11186,"ëĲ©ëĭĪëĭ¤":11187,"ĠëĤ¨ëĬĶ":11188,"Ġì°¸ê³łë¡ľ":11189,"ĠíĻ©ìłľìĿĺ":11190,"ER":11191,"ëĭĲë":11192,"ĠìŀĪì§ĢìļĶ":11193,"Ġë¹Ħë²¼":11194,"Ġë°°ëł¤":11195,"ĠìĿĺê²¬ìĿĦ":11196,"§ĽìĿ´":11197,"ĠíĳľìłķìĿĢ":11198,"Ġë¬´ìĹĩìĿ¸ì§Ģ":11199,"Ġëŀĳ":11200,"ĠíħĲ":11201,"Ġì°½ì¡°":11202,"ì¶ķìłľ":11203,"ìĬ¤íĥĢë²ħìĬ¤":11204,"Ġì§ĳì°©":11205,"Ġìĭ«ìĸ´íķĺëĬĶ":11206,"ê»´ë":11207,"ĠêµĲíļĮ":11208,"life":11209,"Ġìį¨ìķ¼":11210,"ĠëĹ":11211,"ëĭ¤ìĿ´":11212,"Ġì¶©ëıĻ":11213,"Ġì£¼ë¬¸íĸĪìĸ´ìļĶ":11214,"ê¸°ìłĢê·Ģ":11215,"Ġíĭ°ì¼ĵ":11216,"Ĥ´ë©°":11217,"ĠìĪŁê°ĢëĿ½":11218,"ìĵ´":11219,"íĦ°ëĬĶ":11220,"ĠíĥĵìĹĲ":11221,"ìĤ¬ìĹĲê²Į":11222,"Ġê·¼ë³¸":11223,"ìĸ´ê°Ģê³ł":11224,"ĤĺìĦľ":11225,"ìĪłìĬ¤íĥĢê·¸ëŀ¨":11226,"âĢ¦âĢ¦.âĢĿ":11227,"Ġê³łì§ĳ":11228,"Ġê³ĦíļįìĿĦ":11229,"Ġê³łìĬ¤ë":11230,"Ġë°Ķë¥¼":11231,"Ġë¹Ħì¥¬":11232,"ì¿łë¡±ìĿ´":11233,"Ġëª°ëł¤ë":11234,"wor":11235,"Ġíķĺìĭł":11236,"ìĸ´ëĸ¤":11237,"ëĭ¹ìĿĦ":11238,"Ġë¬¼ìĿĮìĹĲ":11239,"ëĶ¸ìĬ¤íĥĢê·¸ëŀ¨":11240,"ĠëĤĺê°Ķ":11241,"Ġìļ¸ìĿĮìĿĦ":11242,"Ġê¹Ģìĺģ":11243,"ì§ł":11244,"ìĬ¥":11245,"Ġë¹łì§Ī":11246,"ĠìĻĢìĿ¸":11247,"ìĤ¬ê±´":11248,"ï§":11249,"ĠìĿ´ìĥģìĿĢ":11250,"Ġë©°ëĬĲë":11251,"Ġíģ¬ë¦¬ìĬ¤ë§ĪìĬ¤":11252,"ĠìŀĦìĭł":11253,"zz":11254,"ãĥ¼":11255,"ĠíķľëĪĪìĹĲ":11256,"ëĮĢìĹĲ":11257,"Ġãħĭãħĭãħĭãħĭãħĭãħĭãħĭãħĭãħĭ":11258,"ĠìķĬëįĺ":11259,"ëķĮë":11260,"ĠìĭľëĤ´":11261,"ĵ¤ë§Į":11262,"ĠìĿ´ìłľë¶ĢíĦ°":11263,"ĠìĿĺíķľ":11264,"ĠìłķëıĦë©´":11265,"Ġì¿łìħĺ":11266,"ĠíĻľë":11267,"si":11268,"ĠëĲĺìĹĪìĿĦ":11269,"ì¡°ì°¨ëıĦ":11270,"°ëįĺ":11271,"ith":11272,"Ġë§Įëĵľ":11273,"ĠìĤ´íĶ¼ë":11274,"Ġì±ħìĿ´":11275,"ë§ĪëĿ¼":11276,"ĠíĬķ":11277,"¶ĢìĹĲ":11278,"Ġì¢ĭì§Ģë§Į":11279,"ĠìĿ´ìĸ´ì§ĢëĬĶ":11280,"home":11281,"ĠìĤ¬ìļ©íķľ":11282,"Ġê´Ģì°°":11283,"ĠëĬĲëĤĮìĿ´ìĹĪëĭ¤":11284,"ê±°ìĹĲ":11285,"¦¬ìĺ¤":11286,"Ġì§ģìŀ¥":11287,"ì±ħìĬ¤íĥĢê·¸ëŀ¨":11288,"Ġì°¨ëŁī":11289,"ìĽĲê³¼":11290,"Ġê±°ë¶ģ":11291,"ðŁĳįðŁĳį":11292,"look":11293,"Ġì´ĿìĿĦ":11294,"Ġëĵ¤ìĸ´ë³´":11295,"êµŃë°¥":11296,"ĠìŀĲëĦ¤ë":11297,"ĠìĹ°ê¸°ë¥¼":11298,"íİĺìĿ´":11299,"Ġìª½ìĹĲìĦľ":11300,"êµ¬ë§¤":11301,"ë¦¬íķĦ":11302,";;;;":11303,"ĠíĮ¥":11304,"NS":11305,"ìĸ´ìļ¸ë":11306,"ìĭľëĮĢ":11307,"¿Ĳë§Į":11308,"Ġìłĵê°ĢëĿ½":11309,"ĠëĤ´ë²Ħë":11310,"ìľĦíķ´":11311,"ê¶ĮìĿ´":11312,"ìĺ¤ë¥¸":11313,"Ġìļ©ëŁī":11314,"Ġë°Ķë¹ł":11315,"Ġë°ĺëĮĢë¡ľ":11316,"ĠíĴĪê³ł":11317,"ìĭľë°ľ":11318,"Ġê¹Ĭê²Į":11319,"ĠëĤĺëĪĦìĸ´":11320,"ê·¸ëłĩìĬµëĭĪëĭ¤":11321,"ĠìŀĬìĸ´ë²Ħë":11322,"ĠìķĶíĿĳ":11323,"Ġê´Ģëł¨ëĲľ":11324,"Ġê¸°ê³Ħ":11325,"ĠìĦľìļ´":11326,"Ġë¬´ê´Ģ":11327,"Ġì»¤íĶĮ":11328,"ìĤ¬ê³¼":11329,"Ġëĭ¹ë¶Ħê°Ħ":11330,"Ġì¢ĭìķĦíķł":11331,"ê°ĢëıĦ":11332,"Ġìĸ´ëĶĶìĦłê°Ģ":11333,"ìļĶê±°íĬ¸":11334,"ĠëĶ¸ìĿĦ":11335,"ĠëĪĪìĹĲëĬĶ":11336,"íķľë²Ī":11337,"ì¸°":11338,"ĠìĤ¬íļĮìłģ":11339,"Ġë§Īë¦¬ê°Ģ":11340,"ìŀ¬ìĿĺ":11341,"ĠìŀĪìĬµëĭĪê¹Į":11342,"ĠëĬ¥ëł¥ìĿ´":11343,"íĶĮëłĪ":11344,"íĺľë":11345,"ĠìĤ¬ìĿ´ë":11346,"dy":11347,"ĠëĮĢìĻķ":11348,"Ġì£¼ìļĶ":11349,"ìĥĿìĿĺ":11350,"Ġì§ĢëĤľë²Ī":11351,"07":11352,"Ġë³´ëįĺ":11353,"Ġíĺ¸ë°ķ":11354,"íĸĪëįĶëĭĪ":11355,"ĠìĭłìĦ±":11356,"fff":11357,"ë°Ń":11358,"íĴįìĿ´":11359,"ack":11360,"OR":11361,"ìķĦëĭĪë":11362,"ëıĦì¹ĺë§ĺ":11363,"ĠìłķíĻķíķľ":11364,"Ġë¬»ìĸ´":11365,"¬´ì¹¨":11366,"Ġì»¸":11367,"ì£¼ë°©":11368,"ĠëĶ°ë¥¸":11369,"Ġê³łìĬ¤ëŀĢíŀĪ":11370,"ĠíĤ¹":11371,"ĠìĹĦë§Īëŀĳ":11372,"Ġì¹ĺì¦Īë":11373,"ĠìĶģìĵ¸":11374,"Ġìķŀìŀ¥":11375,"Ġê³µìĿĦ":11376,"ĠìĤ¬ëŀĮìľ¼ë¡ľ":11377,"Ġë°ĺì°¬ë":11378,"book":11379,"Ġìĸ´ëĶĶê¹Įì§Ģ":11380,"Ġìŀ¦":11381,"ĠìĿ´ì¤ĳ":11382,"ì¹´ìĿ´":11383,"Ġëį°ìĿ´":11384,"ìĭ¯":11385,"ĠìĿ¼íķĺëĬĶ":11386,"çĦ":11387,"ê·ľëĬĶ":11388,"ë°©ìĿĦ":11389,"íĭ°ë¸Į":11390,"Ġìĺ¤ìĿ¼":11391,"įĶêµ°":11392,"Ġë°Ľìľ¼ë©°":11393,"íģ¬ë¦¬ìĬ¤ë§ĪìĬ¤":11394,"ĠëĤ¨ê¸´":11395,"¶ĢíĦ°ëĬĶ":11396,"Ġì¶Ķêµ¬":11397,"ì¡°ë¦¼":11398,"ë°ĶìĤŃ":11399,"ĠâĢ¢":11400,"Ġìĸ´ì©ľ":11401,"Ġë¶Ħëĵ¤ëıĦ":11402,"ĠìķĮìķĺìĸ´":11403,"ĠìıŁìķĦìł¸":11404,"Ġë¬´ë¦¼ë§¹":11405,"Ġë¬»ìĿĢ":11406,"ĠëĤ¯ìĦ¤":11407,"ìľ¼ìĭ¤":11408,"Ġìĺ¬ë¦¬ëĬĶ":11409,"Ġìķłë§¤":11410,"łĪìĿ´íģ¬":11411,"ê¸ĭíķľ":11412,"Ġë°ĶëĶĶ":11413,"Ġê¸°ëĮĢë¥¼":11414,"ãĢı(":11415,"ìĿ¸ì¦Ŀ":11416,"¬¼ìĿĢ":11417,"...)":11418,"íĺģìĿĺ":11419,"¨¸ë¡ľ":11420,"ìĽĢìľ¼ë¡ľ":11421,"ĠìĬ¤íĬ¸ëłĪìĬ¤":11422,"Ġê³łëĮĢ":11423,"ĠëĤĺëĿ¼ê°Ģ":11424,"ìķĦëĭĻëĭĪëĭ¤":11425,"¸ĮëĿ¼":11426,"ĠìķĮìķĦì°¨ë":11427,"Ġë´¤ëĭ¤":11428,"Ġê°ĢìļĶ":11429,"ĠíĤ¤ê°Ģ":11430,"ĠëįĶìĿ´ìĥģ":11431,"Ġë§Įëĵ¤ìĸ´ìĦľ":11432,"ĠìŀĪê²łì§Ģ":11433,"ĠìķĦëĭĪëĿ¼ë©´":11434,"ìľĦëĮĢ":11435,"ê¸¸ìĿĢ":11436,"Ġìķłëĵ¤ìĿ´":11437,"ê³łë¡ľ":11438,"íĤ¤ë¡ľ":11439,"Ġíķ´ì£¼ê³ł":11440,"ìĿ¸ì§ĢëĿ¼":11441,"íĭĪ":11442,"Ġì¹ľë":11443,"ĠíķłìĪĺ":11444,"ĠëģĿìĿĦ":11445,"ĠíĹ¤ìķĦë":11446,"ìłģíķľ":11447,"ì¸łë¥¼":11448,"Ġì§ĢëĤĺë©´":11449,"Ġê¸°íļĮ":11450,"ĠëĳĲíĶ¼":11451,"íĨµíķľ":11452,"Ġë²ĪìĿĺ":11453,"Ġê¸°ë¶ĦìĿĦ":11454,"ìº¡":11455,"ĠìłķìĭĿ":11456,"ĠëĬĳ":11457,"ëıħìĦľ":11458,"Ġë¶Ļìŀ¡ê³ł":11459,"³´ê°Ģ":11460,"ĠëĳĺëŁ¬ìĭ¸":11461,"ëĶ¸ê¸°":11462,"ê¸°ëħĲ":11463,"Ġêµ³ê²Į":11464,"ìĪ¨ìĿ´":11465,"ine":11466,"ĠìĤ¶ìĹĲ":11467,"ĠëĴ¤ëĬ¦ê²Į":11468,"Ġëĭ´ìķĦë":11469,"ĠëĬĺìĸ´":11470,"Ġê³¼ê±°ìĿĺ":11471,"ê´ĳìĿ´":11472,"ðŁĳı":11473,"Ġìĸ´ëĳĲìĽĮ":11474,"íķ´ì¤Ħ":11475,"Ġë²ĪìĹŃ":11476,"Ġì£¼ê¸°":11477,"Ġë§Īëĭ¤":11478,"ì»¬ë":11479,"Ġë³´ìŀħëĭĪëĭ¤":11480,"¬¼ìĹĲ":11481,"ìĺ¤ëŀĺ":11482,"Ġë¯¸ëģĦëŁ¬":11483,"ĠìĪĺìŀħ":11484,"Ġë¬´ëĤľ":11485,"beauty":11486,"ìĽĶëĵľ":11487,"Ġë§¤ìĿ¼ë":11488,"Ġë¬´ì²ĻìĿ´ëĤĺ":11489,"Ġê°Ģìĭľ":11490,"ĠëķĢìĿĦ":11491,"ĠìĥĿê²¼ëĭ¤":11492,"Ġë¶ĪìķĪíķľ":11493,"Ġëª¸ìĿĺ":11494,"ì»¤íĶĮ":11495,"ĠëĪĪë¶Ģ":11496,"ĠìĨŁêµ¬":11497,"¿ĲìĿ´ìĹĪëĭ¤":11498,"ĠíĻĺìĺģ":11499,"Ġë¡¤":11500,"Ġìŀĳìłķ":11501,"Ġì¢ħë¡ľ":11502,"ê³¨ëª©":11503,"Ġìĸ´ì¨Į":11504,"Ġë§Ĳê³¼":11505,"ĠìĥĿê°ģìľ¼ë¡ľ":11506,"Ġëħ¸ìĿ¸ìĿĺ":11507,"Ġê°Ĳìĭľ":11508,"ĠìĤ¬ê±´ìĿĦ":11509,"ĠìĿ´ë»Ĳ":11510,"ë²łìĿ´":11511,"ĠëıĻë£Į":11512,"ìķłíĶĮ":11513,"Ġìĥ´íĳ¸":11514,"ì±Ļ":11515,"íĥķìĿĦ":11516,"Ġâĸ¶":11517,"ëĬĲëĿ¼ê³ł":11518,"Ġì§Ħìŀĳ":11519,"Ġì·¨íķľ":11520,"ĠìĤ¬ëŀĳìĹĲ":11521,"Ġ2017":11522,"ì§Ģë§Ī":11523,"ìķ°íĶĮ":11524,"Ġê³łëıħ":11525,"ĠìĭľëĮĢìĿĺ":11526,"ĠìĤ¼ì´Į":11527,"éĩ":11528,"Ġìĭ¤ë¡ľ":11529,"íķĦëĿ¼":11530,"Ġê·¸ì§Ģ":11531,"ĠëĤĢ":11532,"ĠìĭľìŀĳëĲľ":11533,"ģ¼ë¥¼":11534,"íı´":11535,"ĠìĨĲê°ĢëĿ½ìľ¼ë¡ľ":11536,"Ġë³´ìĹ¬ë":11537,"Ġì´Į":11538,"Ġë°ķíĺĢ":11539,"Ġëĭ´ëĭ´":11540,"ĠíĿĲë¥´ê³ł":11541,"íľĺë":11542,"ĠìĪĺìĹ¼":11543,"ŀĢìĿĺ":11544,"ì¹ĺìŀĲ":11545,"ì§Ģëĵ¯":11546,"Ġë§Īì§Ģë§īìĹĲ":11547,"ë·°ìĬ¤íĥĢê·¸ëŀ¨":11548,"ĠíĢĦë¦¬":11549,"íĮĮíģ¬":11550,"¹Į":11551,"ê·¸ë¨¸ëĭĪ":11552,"ĠíķĺëĤĺê°ĻìĿ´":11553,"ĥĲë©´":11554,"Ġëħ¸ëł¤ë³´ìķĺëĭ¤":11555,"ĠìĿ´ë£¨ìĸ´ì§Ħ":11556,"ì´ĿìĿĦ":11557,"âĢķ":11558,"Ġì°½ë°±":11559,"ìĸ¸ìłľ":11560,"ĳł":11561,"Ġë§¤ìļ´ë§Ľ":11562,"ê³łë§Ļ":11563,"ĠëĤ´ìĭ¬":11564,"§ĿìĿĦ":11565,"íļ¨ê³¼":11566,"Ġê°Ķëįĺ":11567,"ĠìĤ¬ìļ©íķĺë©´":11568,"ĠìŀĪêµ¬ìļĶ":11569,"ìĥĪë²½":11570,"ë¶Ģê°Ģ":11571,"ê²¬ìĬ¤íĥĢê·¸ëŀ¨":11572,"Ġê¹ĬìĪĻìĿ´":11573,"ĠíĪ¬ëªħ":11574,"ì²łë":11575,"ĠìĽ¨ìĿ´íĮħ":11576,"ìĿ¼ê¹Įì§Ģ":11577,"Ġë°ĺë©´":11578,"ì¡°ìĦł":11579,"ĦëĬĶ":11580,"ĠìĿ´ìĸ´ìĦľ":11581,"Ġê·¸ëŁ¬ê³łëĬĶ":11582,"jmt":11583,"íĨłë¥¼":11584,"ìĿ´ëŁ¬":11585,"ì§ģìĿĦ":11586,"ling":11587,"Ġë¨¹ìľ¼ë©´ìĦľ":11588,"ĠíĥľëıĦ":11589,"ìĭľë¶ĢíĦ°":11590,"Ġìĸ¸ìłľê¹Įì§Ģ":11591,"ĠìĦ¸ìĽĶìĿ´":11592,"¶ĦìĿĺ":11593,"Ġë°©ìĭĿìľ¼ë¡ľ":11594,"Ġíĺ¸ëŀĳ":11595,"ìĹ°ìĸ´":11596,"Ġë°ĺê°ĳ":11597,"ĠìĦŀìĹ¬":11598,"°Ķëĭ¤":11599,"íĮĿ":11600,"ì¤į":11601,"ì¡´ëĤĺ":11602,"ìĤ¬ëŀĮìĿ´":11603,"ĠìĥģìĬ¹":11604,"Ġë§İìĿĦ":11605,"ìŀĦìĹĲëıĦ":11606,"ıĻìĿĢ":11607,"âĺĨ":11608,"ĠìĪĺë©´":11609,"Ġê°Ļì§Ģë§Į":11610,"ê³łìĭ¶ìĿĢ":11611,"íķĺëł¤ë©´":11612,"ĠíļĮìĭĿ":11613,"ìĽłê³ł":11614,"ì¶°ë":11615,"Ġìĥģíĥľê°Ģ":11616,"Ġì¹¨ì°©":11617,"ĠëĦĪíĿ¬":11618,"Ġìĸ´ìļ°ëŁ¬":11619,"ëķ¡":11620,"ĠìĪĻìĺĢëĭ¤":11621,"ĠìłķìĭłìĹĨìĿ´":11622,"ĠìŀĪëĤĺìļĶ":11623,"ĠíĹ¬ë":11624,"ĠìĬ¤ë¬´":11625,"\"(":11626,"ĠìĪĺë§Į":11627,"§İ":11628,"íĺĪë":11629,"Ġìĸ´ì¼Ģ":11630,"ìļ°ë¦¬ê°Ģ":11631,"Ġëĸłìĺ¬ëł¸ëĭ¤":11632,"ê·¼íķľ":11633,"íķľíħĮëĬĶ":11634,"ëŃĺ":11635,"cy":11636,"Ġëª»íķ´ìĦľ":11637,"ĠëĤĺìĿ´ìĹĲ":11638,"ì¡ĮìĿĦ":11639,"Ġë°°ëĬĶ":11640,"ìĹĪëĬĶëį°ìļĶ":11641,"ĠìķĦìķĦ":11642,"ìĿ´ëįĶëĿ¼êµ¬ìļĶ":11643,"ĠìĬ¤íĥĢë":11644,"íĭ°ëĶĶ":11645,"ĠðŁĺį":11646,"æĸĩ":11647,"ìľłìĤ°ê·ł":11648,"ĠìŀĲë¥¼":11649,"ìĺ¤ëĤĺ":11650,"ĠìķĪëĲľ":11651,"Ġíķĺíķĺíķĺ":11652,"êµ¬ìĦĿ":11653,"°©ìĹĲìĦľ":11654,"ĠìĿ¼ë³¸ìĿĺ":11655,"Ġë²łíĬ¸ëĤ¨":11656,"ìłľëıĦ":11657,"Ġê°Ļìķĺ":11658,"ì¤ĦìĿĦ":11659,"Ġëª°ëĿ¼ìĦľ":11660,"Ġë¶Ģë¶Ģ":11661,"ìĿ´ìĹĪìĿĦ":11662,"Ġëĭ®ìĿĢ":11663,"ì¢ħìĿĢ":11664,"ĠìķĦë²Ħì§ĢìĻĢ":11665,"ëĬĶëĶĶ":11666,"ê±°ë¦¬ë©´ìĦľ":11667,"ê¼½":11668,"íĻĺìĿĢ":11669,"cm":11670,"ĠëįķìĹĲ":11671,"ìĭ¤íŀĪ":11672,"ĠìķĦì§ģê¹Įì§Ģ":11673,"Ġì¡°ë§Įê°Ħ":11674,"...!":11675,"ĠìĹīëļ±íķľ":11676,"ĠìĹĨê¸°":11677,"Ġëĵ¯ìĭ¶":11678,"ĠìĨĲê°ĢëĿ½ìĿĦ":11679,"ĠìĥĿëªħìĿĦ":11680,"ê°ĳìŀĲê¸°":11681,"Ġìķłì´ĪìĹĲ":11682,"ĠìĦłë¬¼ë¡ľ":11683,"ê¿į":11684,"ìĽĮëıĦ":11685,"łĮë":11686,"ĠìĥĿì¡´":11687,"Ġê·¸ëŁ¬ëįĺ":11688,"Ġì¡´ìŀ¬íķĺëĬĶ":11689,"ĠëĤĺìĿĢ":11690,"Ġì·¨íķ´":11691,"ë¦¬ëĬĶ":11692,"ëĭ¹ìĿ´":11693,"ĠìĿ´ëŁ°ìłĢëŁ°":11694,"ĠìĦ¸ê³ĦìĿĺ":11695,"Ġíĺĳë°ķ":11696,"ĠìĿµìĿĢ":11697,"ê½ģ":11698,"ë¶ĪìĿĦ":11699,"ĠìłĢíĥĿ":11700,"ĠíĸĪëĬĶì§Ģ":11701,"Ġì£¼ìĸ´":11702,"ëĶ¸ë":11703,"ìĹ°íķ©":11704,"ĠìłĦìļ©":11705,"ĠìĪĺëĭ¤":11706,"ĠìĿĺíķĺë©´":11707,"ĠìĤ¬ìĥģ":11708,"ì¶Ķì¶ľë":11709,"Ġíķĺê³łëĬĶ":11710,"ëĭ¤ë©´ìĦľ":11711,"ðŁĻĬ":11712,"ĠìĹĨìĨĮ":11713,"ĠìĹ¬ìľłë":11714,"Ġë©¸ë":11715,"ĠìĤ¬ìļ©íķĺê¸°":11716,"ĠëıĮë¦¬ê³ł":11717,"ĠëĤĺíĥĢëĤ¬":11718,"ĠìķĮëł¤ì§Ħ":11719,"Ġë¯¼ë§Ŀ":11720,"Ł¬ìĦľ":11721,"ĠëĮĢë¦¬":11722,"ĠëĤĺê°Ģê³ł":11723,"ìķĦëĭĺ":11724,"ì¹´ìĿĺ":11725,"ìĺĪë¥¼":11726,"ìĿĮê³¼":11727,"Ġë§Īì¡±":11728,"ĠëĶ°ìľĦëĬĶ":11729,"ĠìĿ´ë§ĪìĹĲ":11730,"Ġìĸ´ë¦¬ëĳ¥":11731,"ì§Ģì»¬":11732,"Ġê½ĥìĿĦ":11733,"ì§Īë¡ľ":11734,"Ġëª°ê³ł":11735,"ĠêµĲíĨµ":11736,"Ġë°ĶëĤĺëĤĺ":11737,"ĠíķĺëĬĺìĹĲ":11738,"å¹":11739,"ĠìĿ´ë¯¼":11740,"¹ĦìĹĲ":11741,"ä¸Ģ":11742,"Ġë¬´ê¸°ë¥¼":11743,"©Ģ":11744,"Ġìŀ¥ìĿĦ":11745,"ê²©íķľ":11746,"Ġì°¨ëĬĶ":11747,"Ġì³Ĳëĭ¤ë³´":11748,"Ġì£¼ë§ĲìĹĲ":11749,"ê°ģìĿĦ":11750,"ì«ĵ":11751,"Ġby":11752,"ĠíĮĮê³łëĵ¤":11753,"ëĬĲëĭĪ":11754,"¦¿íķľ":11755,"Ġì§Ģì¼ľë³´ê³ł":11756,"ë§İìĿ´":11757,"ry":11758,"Ġê°ķìļĶ":11759,"Ġëĭ¬ëł¤ê°Ģ":11760,"íħĲì¸ł":11761,"ìĺ¤ìĺ¤íĭ°ëĶĶ":11762,"Ġìī¬ëĬĶ":11763,"ëĮĢíķĻ":11764,"Ġì²ĺëŁ¼":11765,"°©ìľ¼ë¡ľ":11766,"ĠíĻĺíķĺê²Į":11767,"ĠìĿ¸ê³µ":11768,"ĠìĤ´ê¸°":11769,"ĠìĤ´ìķĦìĺ¨":11770,"ç¥ŀ":11771,"ìķĦëħ¸":11772,"ìĹ°êµ¬":11773,"ì£¼ëħĦ":11774,"íĪŃ":11775,"ëĶĶë":11776,"ĠëĤ´ìĿ¼ìĿĢ":11777,"ë©Ķëī´":11778,"Ġì§ĢëĬĶ":11779,"ìłķê³¼":11780,"ĠìĨĮìĬ¤ê°Ģ":11781,"Ġìŀ¡ì§Ģ":11782,"íķĺêµ°":11783,"íĸĪëĭµëĭĪëĭ¤":11784,"ëª°ë":11785,"ĠìĹīë§Ŀ":11786,"ĠìķĦíĮł":11787,"íĿī":11788,"ĠìķĦëĵĿ":11789,"ĠìĭĿê°ĲìĿ´":11790,"Ġíģ´ë¦Ń":11791,"ĠìķĪìĭ¬íķĺê³ł":11792,"Ġì£½ì§Ģ":11793,"ĵľë¦´ê²ĮìļĶ":11794,"ì§ģìŀ¥ìĿ¸ëĭ¤ìĿ´ìĸ´íĦ°":11795,"ĠìĹĨìĹĪìĸ´ìļĶ":11796,"ĠìĦľëĬĺ":11797,"ìĻĶê³ł":11798,"Ġëĭ¦ìķĦ":11799,"ë¸Į":11800,"Ġëĵ¤ìľ¼ë©°":11801,"Ġíķ¨ìľłë":11802,"ìľ¼ë¡ľë§Į":11803,"Ġìĭłê¸°íķľ":11804,"health":11805,"¥´ìĭľ":11806,"ĠíĿ¡ìŀħ":11807,"ĠìĹĨìķł":11808,"Ġëĭ¤ë¥´ëĭ¤":11809,"Ġíķĺì£ł":11810,"Ġ300":11811,"Ġë³¸ê²©ìłģìľ¼ë¡ľ":11812,"ĠíĻĺë":11813,"çĽ":11814,"Ġê¿°ë":11815,"íķĦìĪĺ":11816,"Ġìĺ¨ëĭ¤":11817,"ĠìķĦìĿ´ìĬ¤":11818,"Ġìĸ¸ë¡ł":11819,"ĠìĨĮëħĦìĿĢ":11820,"ľ¯":11821,"Ġì°»":11822,"Ġì¹ľêµ¬ë¥¼":11823,"ëĬĶì§ĢëĬĶ":11824,"Ġëĭ¹íĻ©íķľ":11825,"Ġê²ģëĤĺ":11826,"ĠëĲĺëĭĪê¹Į":11827,"êº½":11828,"Ġë§ĮíĻĶ":11829,"íķĺìĺĢìĬµëĭĪëĭ¤":11830,"ì¡°ìĭ¬":11831,"Ġë°±ìľł":11832,"ëľ¨":11833,"Ġì§Ģìĭľ":11834,"ĠëķĮìĹĲëĬĶ":11835,"ĠíĸĩìĤ´":11836,"ĠëĤĺë³´ëĭ¤":11837,"ì§Ģëª»":11838,"ĠìĦ¸ìĥģìĿĢ":11839,"êµ°ê³¼":11840,"ĠìĿ´ìĨĮë":11841,"ãħĭãĦ±":11842,"ì²ľìĿ´":11843,"Ġìŀ¥ë¯¸":11844,"Ġë³ĳìĿĦ":11845,"ĠíķľêµŃìĿĺ":11846,"Ġë§ĺë":11847,"ł¤ëıĦ":11848,"Ġìĵ°ê¸°":11849,"Ġê·¸ë£¹":11850,"ĠìµľìĦłìĿĦ":11851,"ĠíķľìĦ¸":11852,"ìĪĺìĹħ":11853,"¯¸ëĭĪ":11854,"Ġê³Ħëĭ¨":11855,"Ġë°ľê²¬ë":11856,"Ġê°ĳëĭĪëĭ¤":11857,"Ġê·¸ë¦¬ìĽĮ":11858,"Ġê°ĢëģĶìĶ©":11859,"ê³°ë":11860,"Ġë¶Ģë¥´ê³ł":11861,"ìĿ´ëĿ¼ê³łëĬĶ":11862,"ìĻ¸ìĦł":11863,"ĠíİĺìĿ´":11864,"°ĽìķĦ":11865,"Ġëľ°":11866,"ĠíĳľìłķìĿ´ìĹĪëĭ¤":11867,"°Ľê³ł":11868,"ĠìĥĿê°ģíķĺëĭĪ":11869,"ì±Ħë¡ľ":11870,"Ġë§ĽìŀĪìĿĮ":11871,"ì±ħìĿ´":11872,"ë¬´ê°Ģ":11873,"Ġëħ¸ìĺĪ":11874,"fre":11875,"Ġì°¾ì§Ģ":11876,"Ġì³Ĳëĭ¤ë³´ë©°":11877,"ëĭ´ìĿ´":11878,"ì½Ķëįķ":11879,"Ġìĵ°ëłĪê¸°":11880,"Ġìł¤ë":11881,"íķłìĿ¸":11882,"ìĨ¡ìĿ´":11883,"Ġìĭľê°ĦëıĦ":11884,"ìºī":11885,"ĠëĬĺë":11886,"ĠìĦľë¥¸":11887,"Ġì£¼ì²´":11888,"Ġë¹Ħìĥģ":11889,"ĠëĸłëĤ¬ëĭ¤":11890,"ĠëıĦëĭ¬":11891,"Ġ27":11892,"ĠìħĪìĿ´ëĭ¤":11893,"yummy":11894,"Ġë§ĽëĤĺê²Į":11895,"Ġê¿Ģë§Ľ":11896,"Ġêµ³ìĿĢ":11897,"ĠëĮĢëŀµ":11898,"ĠëŁ°":11899,"íĬ¸ìĻĢ":11900,"Ġëĵ±ë¡Ŀ":11901,"ìķĬìĿĢ":11902,"Ġìŀĺëª»ëĲľ":11903,"ãħħãħĤ":11904,"ìĭĿëĭ¨ì¡°ìłĪ":11905,"Ġíķ©ë¦¬":11906,"ĠìŀĪìŀĲ":11907,"ìļ°ìļ°":11908,"Ġë²Ħë¦¬":11909,"ë³ķ":11910,"Ġë¨¸ë¦¿ìĨįìĹĲ":11911,"íĽĪìĿ´":11912,"Ġì£¼ë³ĢìĿĺ":11913,"ìķĦìĿ´ê³ł":11914,"íı¬ëıĦ":11915,"Ġëĭ¤ëħĢìĻĶìĸ´ìļĶ":11916,"íĽĪìĿĢ":11917,"Ġì»¨ìħī":11918,"ĠìķķëıĦ":11919,"ëħĦìĿĺ":11920,"ĠëķĮë¬¸ìĿ´":11921,"Ġìĭ¸ìļ¸":11922,"ĠëĳĲëĵ¤":11923,"ĠëĤĺìĿ´íĬ¸":11924,"ĠìĥĿê°ģëĤĺëĬĶ":11925,"Ġê³Ħìķ½":11926,"ìĹ¥":11927,"ĠìĹĺë¦¬ë²łìĿ´íĦ°":11928,"Ġë§İìķĦìļĶ":11929,"ì§Ģëįĺ":11930,"¦¬ìķĦëĬĶ":11931,"ean":11932,"Ġê·Ģìĭł":11933,"Ġìŀ¬ëĬ¥":11934,"Ġë£":11935,"ìĿ´íĶĦ":11936,"Ġì¤Ħë":11937,"ĠëįĶìļ´":11938,"ìłĦë¬¸":11939,"ha":11940,"ëĭ¤ëĭ¥":11941,"Ġë³´ìĤ´":11942,"Ł¬ë¥¼":11943,"Ġë°ĶëĿ¼ë³´ëįĺ":11944,"Ġëĭ¤ìĿĮìĹĶ":11945,"ìĤ¬ëĤĺ":11946,"ìŀłê¹Ĳ":11947,"Ġë°ľëĿ¼ë":11948,"ëĬĶëĭ¤ëĬĶ":11949,"Ġë³´ëĭ¤ê°Ģ":11950,"Ġìĺ¬ëĿ¼ê°ĢëĬĶ":11951,"ĠíĴĢê³ł":11952,"Ġë°ľê±¸ìĿĮìĿĦ":11953,"ĠíİĮ":11954,"ìłģìľ¼ë¡ľëĬĶ":11955,"ìĺĽ":11956,"Ġìĸ´ëł¸ìĿĦ":11957,"Ġì°½ìĿĦ":11958,".]":11959,"31":11960,"ê·¸ëŁ¬ëĭĪê¹Į":11961,"Ġêµ¬ë¶Ħ":11962,"ĠìłĦê¸°":11963,"ëĭ¤ìĿ´ìĸ´íĬ¸ê¸°ë¡Ŀ":11964,"ìĿĮìĿĺ":11965,"ëĪĦêµ¬":11966,"ëĭ¤ë³¸":11967,"Ġë°©íķĻ":11968,"Ġë¨¹ìĸ´ë³¸":11969,"ìĭ¬ìĿĺ":11970,"Ġë§ŀìķĺëĭ¤":11971,"ìĦľìļ¸ë":11972,"ĠìķĬëĤĺìļĶ":11973,"Ġìĺ¤ë¥´ëĬĶ":11974,"Ġë°ĳìĹĲìĦľ":11975,"Ġë¨¹ìĸ´ë³´ê³ł":11976,"Ġìĭ¤ìĪĺ":11977,"íĨłë§ĪíĨł":11978,"ĠëĳĲëłµ":11979,"ê³¨ìĿ´":11980,"ĠìĿ´ìĸ´íı°":11981,"ĠëįĶëŁ¬ìļ´":11982,"ĠìĨĮíĮĮìĹĲ":11983,"ë¬¸ìĿ´":11984,"Ġì§±ì§±":11985,"ëĤŃ":11986,"ì²ľìĹ°":11987,"ë¶ģìĬ¤íĥĢê·¸ëŀ¨":11988,"Ġë¬´ê³µìĿĦ":11989,"ĠíĻķìĭ¤íķĺê²Į":11990,"ĠìķĮë¦¬ëĬĶ":11991,"ĠìĦŃì·¨":11992,"éĥ":11993,"Ġìĺ´":11994,"ãĥ«":11995,"ëĭ¤ëĦ¤":11996,"Ġì°¾ìķĦìĦľ":11997,"ĠëĬĲëĭ·":11998,"ðŁĺŃðŁĺŃ":11999,"ĠìĿĢìĿĢíķľ":12000,"ìĸĮ":12001,"Ġëĭ¬ë¦¬ëĬĶ":12002,"ìĪłì§ĳ":12003,"love":12004,"ĠìķĪëħķíķĺìĦ¸ìļĶ":12005,"Ġë§Ĳë§Į":12006,"ĠìĥĿê¸°ëĬĶ":12007,"Ġë²½ìĿĦ":12008,"ìĪŃìķĦ":12009,"³´ë¥¼":12010,"Ġê³łëĵ±íķĻêµĲ":12011,"ª¬ëĵľ":12012,"Ħ¨":12013,"ĠëĸłëĤ¬":12014,"Ġë§ĪìĿ´íģ´":12015,"Ġn":12016,"ĠìŀŃ":12017,"Ġìĸ´ë¨¸ëĭĪë":12018,"ĠìłĢë²ĪìĹĲ":12019,"ìłľë°ľ":12020,"ĠìŀĲìĭĿìĿ´":12021,"ìłĦìŁģ":12022,"ĠëĥĦìĥĪë¥¼":12023,"Ġìĺ¤ì§ķìĸ´":12024,"ĠëĤ®ê²Į":12025,"ì¶Ķë¥¼":12026,"cor":12027,"ĠìľĦëĮĢíķľ":12028,"¦¬ìķĪ":12029,"Ġëĭ¨íĺ¸ë°ķ":12030,"Ġë¹ĦëĤľ":12031,"ĠëĤĺìĦľëĬĶ":12032,"ĠëĶ°ëŀĲëĭ¤":12033,"íķĺìħĶìĦľ":12034,"Ġì¹ĺì¼ľë":12035,"ìļ¬":12036,"Ġë³´ëĭ¤ëĬĶ":12037,"Ġëª¨íĹĺ":12038,"ìĿĮìķħ":12039,"ĠìĪĺíķĻ":12040,"Ġì§Ħìĭ¤":12041,"Ġê¸įìłķ":12042,"ìķĦëĥĲ":12043,"Ġëĵ¤ìĸ´ê°Ģë":12044,"Ġëª°ëĿ¼ìļĶ":12045,"íķĺëĥĲ":12046,"Ġì°¸ì¹ĺ":12047,"ers":12048,"Ġë°Ķëĭ¥ìĿĦ":12049,"gi":12050,"ĠíĻķìĿ¸íķĺê³ł":12051,"ĠëĨĢëĿ¼ìĦľ":12052,"ìĹ£":12053,"Ġë§Īìħ¨ëĭ¤":12054,"ofinstagram":12055,"ĠíĺĦìĥģ":12056,"ëŃĶ":12057,"Ġê¸ĢìİĦ":12058,"ĠìµľìĨĮ":12059,"Ġë¬»ì§Ģ":12060,"Ġíı¬ë¡ľ":12061,"ìĬĲë":12062,"ìĸ´ëĤ¸":12063,"ë°©ë²ķ":12064,"Ġíĸīë³µíķĺê²Į":12065,"ĠëĬĲëĤĮìĿĺ":12066,"ðŁĻĪ":12067,"clean":12068,"Ġêµ°ëĮĢ":12069,"ĠëĪĪìĹĲìĦľ":12070,"Ġì¨":12071,"ĠëłĮ":12072,"ĠíĻķë³´":12073,"ëĭ¤ëħĢ":12074,"Ġë°ĺìĿĳìĿĦ":12075,"Ġê²½ê¸°ëıĦ":12076,"Ġë³´ìĬ¤":12077,"£¨ê°Ģ":12078,"ĠìĬ¤ìĬ¤ë¡ľë¥¼":12079,"ĠëĦĵê³ł":12080,"ħìĭľëĭ¤":12081,"ðŁ¤Ń":12082,"ĠíĬ¸ëŁŃ":12083,"ĠëĤ´ëł¤ëĨĵ":12084,"¯¿":12085,"Ġì¦Ĳê²ģ":12086,"ê¹¡":12087,"Ġ26":12088,"ĠëĤĺìĻĶìĬµëĭĪëĭ¤":12089,"Ġìłľê°Ī":12090,"ĠìĿ¸ê°ĦìĿĦ":12091,"ê²¹ê²Į":12092,"íĶĦëłĮ":12093,"Ġë©ĶìĿ´":12094,"Ġê²ĥë§Įìľ¼ë¡ľëıĦ":12095,"ĠêµµìĿĢ":12096,"ê°ľìĨĮë":12097,"Ġë§ĮëĤĺë©´":12098,"Ġãħİãħħãħİ":12099,"ĠìĪĺìĽĲ":12100,"Ġë°©ìļ¸":12101,"Ġì½ķ":12102,"Ġë°ĸìĿĦ":12103,"ìĸ´ëĨĵìĿĢ":12104,"Ġê²½ë¹Ħ":12105,"Ġë§İìķĺ":12106,"ë³´ë¦¬":12107,"ĠìĦ¸ìĽłëĭ¤":12108,"Ġë©Ķëī´ë¥¼":12109,"Ġê³łì³Ĳ":12110,"íĮĮìĦľ":12111,"ĠëħĦìĿ´":12112,"ĠìłĦë°ĺ":12113,"ê²Ģë":12114,"ìĹĲìĦľë§Į":12115,"ìĹŃë§Ľì§ĳ":12116,"ĠëĤĺìĻĢìļĶ":12117,"ĤĺìĿĺ":12118,"Ġì°¨ë¦¼":12119,"íĽĹ":12120,"íİĮ":12121,"íİ¸ìĿ´":12122,"Ġëħ¸íĬ¸ë¶ģ":12123,"ĠìĶ»ê³ł":12124,"Ġê°Ģìŀħ":12125,"ĠëĤĺìĦľìĦľ":12126,"Ġêµ¬ìļ´":12127,"Ġíı¬ìĿ¸":12128,"ard":12129,"????????":12130,"ĠìĿ½ìĿĢ":12131,"Ġë°Ģê³ł":12132,"Ġëįľë":12133,"ï¦":12134,"Ġìĺ¤ë¥´":12135,"ëħĦìĿĦ":12136,"ê³łì¶Ķ":12137,"ĠìĭľíĤ¤ë":12138,"Ġì¦Ĳê¸°":12139,"ĠíĿĺ":12140,"ĠìĪľê°Ħìłģìľ¼ë¡ľ":12141,"Ġëĵ¤ìĸ´ìĦł":12142,"ĠìĻ¸ìĹĲ":12143,"Ġìĵ°ë©´":12144,"Ġìļ°ìĬ¤":12145,"ĠìĪľê°ĦìĹĲ":12146,"ë§Īë§Ī":12147,"Ġê²°ê³¼ë¥¼":12148,"Ġìĸ´ëĳ¡":12149,"ìĿ´ë¯Ģë¡ľ":12150,"Ġì¹ĺìĹ´":12151,"íĽĦë¥¼":12152,"ĠëıĻìŀĳ":12153,"Ġ197":12154,"Ġë°¥ëıĦ":12155,"ĠìĥģëĮĢë¡ľ":12156,"ĠìĿ¸íħĮë¦¬":12157,"Ġë¨¼ì§Ģ":12158,"Ġê°ķëł¬íķľ":12159,"¸ëŁ°":12160,"ĠìĻĢì¤ĳìĹĲ":12161,"ĠëĤĺìĺ¤ê¸°":12162,"ĠëĤ®ìĹĲ":12163,"Ġì¢ħë¥ĺìĿĺ":12164,"ky":12165,"ĠìķĦëĤ´ë¥¼":12166,"Ġíİ´ë":12167,"Ġë§´ë":12168,"ì£¼ë§Ľì§ĳ":12169,"ĠìĭĿìĿĢ":12170,"Ġëª¸ìĹĲìĦľ":12171,"Ġìĸ´ëĬĲìłķëıĦ":12172,"ĠìĨĮíĻĶ":12173,"ĠëĤ´ëł¤ê°Ķëĭ¤":12174,"Ġì¥Ķ":12175,"ìľłê°Ģ":12176,"ì°¨ê³ł":12177,"ĠìĹ¬ìľłê°Ģ":12178,"Ġê¹ľë¹¡":12179,"íĸĪìľ¼ë©°":12180,"Ġë¬´ìĹĩë³´ëĭ¤ëıĦ":12181,"ĠìķĬëĬĶëĭ¤ë©´":12182,"05":12183,"ĠìķŀìĿĺ":12184,"ĠíĪ¬ìŁģ":12185,"Ġìŀĥìĸ´ë²Ħë":12186,"ìĺĪë»Ĳ":12187,"mb":12188,"Ġë¬´ëł¥":12189,"íĸĪìĿĮ":12190,"ìĽłìĬµëĭĪëĭ¤":12191,"ì´Īì½ľë¦¿":12192,"ìĭľìĽĲ":12193,"Ġê¸°ëĳ¥":12194,"Ġì¢Ĩ":12195,"ìĤ¬íķĺê³ł":12196,"Ġìĭ¶ìľ¼ë©´":12197,"Ġê²½ìļ°ëıĦ":12198,"Ġì§Ļ":12199,"Ġê½ĥìĿ´":12200,"ðŁĺįðŁĺį":12201,"Ġë§Īëĭ¹ìĹĲ":12202,"Ġì´Ľ":12203,"ë°°ì¶Ķ":12204,"ĠìĬ¤ë¬¼":12205,"ĠìĤ°ëľ»":12206,"ì·¨ë¥¼":12207,"Ġê²°êµŃìĿĢ":12208,"ĠëĶ¸ìĿ´":12209,"ĠëĳĲë¦¬ë":12210,"ë©¸":12211,"Ġëĭ¨ë°±":12212,"Ġê¶ģê¸Īíķľ":12213,"íŀĪë©°":12214,"Ġì´ĪëĮĢ":12215,"ĠìŀĲìĦ¸ë¡ľ":12216,"Ġë³´ëıĦ":12217,"ł¨ìĿĺ":12218,"Ġëĥ¥":12219,"ĠìĤ¼ìĦ±":12220,"Ġê²ĥìĿ´ëĤĺ":12221,"íĶĦë¡ľìłĿíĬ¸":12222,"Ġì¸¡ë©´":12223,"Ġê³µê°ĦìĿĦ":12224,"Ġëıĭë³´":12225,"ìłĸ":12226,"ĠìķĪìª½":12227,"ĠëĤ´ëł¤ìĻĢ":12228,"Ġì§Ģì³Ĳ":12229,"ĠìĨĮìĨį":12230,"íİ¸ìľ¼ë¡ľ":12231,"Ġìĸ´ëĳłìĿ´":12232,"Ġíķľê°Ģìļ´ëį°":12233,"Ġë¬¼ê±´ë":12234,"Ġë´ĲëĿ¼":12235,"Ġê·¸ëłĩê¸°ìĹĲ":12236,"ĠìĦłìĥĿëĭĺìĿĢ":12237,"ê°Ķë":12238,"Ġì£¼ìľĦìĹĲ":12239,"ãħĭãħĭãħĭãħĭãħĭãħĭãħĭãħĭãħĭãħĭãħĭ":12240,"ìĩłë¥¼":12241,"ĠìĨĮìĭĿìĿ´":12242,"ĠìŀĬìĿĦ":12243,"Ġëª¨ìĿ¸":12244,"Ġë§ŀìĿĦ":12245,"ĠìłĦìŁģìĿ´":12246,"ê³łë¦¬":12247,"ìŀĪìľ¼ë©´":12248,"ëĭ¤ëįĺ":12249,"ti":12250,"Ġì°½ë°ĸ":12251,"Ġë°Ģì°©":12252,"íİ¸ìĿĦ":12253,"ë°©ìĹĲ":12254,"ì¹´ë¥¼":12255,"Ġë³´ìŀ¥":12256,"Ġë¬´ìŀĳ":12257,"ĠìķĮìķĺë":12258,"ĠíĿĶëĵ¤ìĸ´":12259,"Ġë²Ķì£Ħ":12260,"ĠìķĮìķĦìķ¼":12261,"ì¦Īë¡ľ":12262,"Ġìķ¼ë¬´":12263,"Ġëĵ¤ë¦¬ì§Ģ":12264,"ìĸ¼ë¦¬":12265,"vie":12266,"Ġìĥģëĭ¹":12267,"ìĬ¤íĭ°ë":12268,"ê¼´":12269,"Ġíŀĺëĵ¤ê²Į":12270,"ìĨĶë":12271,"ĠìĨĲëª©":12272,"ĠìĦľìļ¸ë¡ľ":12273,"ĠìĬ¤íĶ¼":12274,"ðŁĴļ":12275,"íĪ¬ìĬ¤":12276,"Ġì¤Ģë¹Ħíķ´":12277,"ĠìĦľë°©":12278,"Ġìĺ¤ëĬĺëĤł":12279,"ì£¼ë©´ìĦľ":12280,"íķĺê²łëĭ¤ëĬĶ":12281,"ĠìĨįìĿĢ":12282,"ì¶ľê·¼":12283,"ìķĮê²łìĬµëĭĪëĭ¤":12284,"Ġìŀĳìļ©":12285,"Ġë¾":12286,"AN":12287,"ĠìķĦíĻī":12288,"ë¬¼ìĹĲ":12289,"ĵ¤ìĿ´ìĹĪëĭ¤":12290,"ľìĹĲ":12291,"ëĵ¤ìĹĲ":12292,"ĠìķĮìķĦëĵ£":12293,"¤ëįĶëĭĪ":12294,"Ġê³łë¯¼ìĿĦ":12295,"ì±Į":12296,"ĠìłĦíĻĶê°Ģ":12297,"ĠìĹ¬íķĻìĥĿ":12298,"íķĺê³¤":12299,"Ġë³ĢíĻĶë¥¼":12300,"Ġì°įìĸ´ìĦľ":12301,"Ġê°ĻìĿĮ":12302,"íĤ¥":12303,"ì°¹":12304,"íĺ¸ìĻĢ":12305,"04":12306,"ðŁĺĦ":12307,"ĠëĬĲëģ¼ì§Ģ":12308,"Ġê³µìĤ°":12309,"ê¸īìĿĦ":12310,"Ġìĸ´ìł¯ë°¤":12311,"ë»":12312,"ĠíŀĺìĹĨìĿ´":12313,"Ġê²Ł":12314,"ĠìĥĿê°ģíķ´ëıĦ":12315,"Ġì§ĢëĤĺì¹ĺê²Į":12316,"ëĤłìĿ´":12317,"ì²ľìĿĦ":12318,"neko":12319,"ĠìķĦê¹Ŀ":12320,"ĠìĹ¬ëįŁ":12321,"Ġê°Ķë":12322,"Ġë¹ĦêµĲìłģ":12323,"ì¾ħ":12324,"ĠëĤĺìĿĦ":12325,"ë¶Ģëª¨":12326,"ĠëĤľë¦¬":12327,"Ġíľ©ìĭ¸":12328,"ìĭľëĿ¼ëıĦ":12329,"ëĭ¤ëĭĪë©°":12330,"ĠìľłìłĢë":12331,"Ġì´ĪìĽĶ":12332,"ĠìĻķìĿ´":12333,"ĠìĹĲíĶ¼":12334,"ê±°ë¦¬ëįĺ":12335,"ìŀĪì§Ģ":12336,"Ġì£¼ë¯¼ë":12337,"ĠìĦłê±°":12338,"Ġì°¨ì¸°":12339,"Ġì´Īì½ľë¦¿":12340,"íķĺê¸°ë¥¼":12341,"ê³łë£¨":12342,"ĠíĹ¤ë§¤":12343,"Ġê¸Ģë¡ľ":12344,"ê³µì£¼":12345,"ìĹ¬ìĦ¯":12346,"Ġë°Ģëł¤ë":12347,"Ġëª½ê³¨":12348,"Ġê³¤ëŀĢ":12349,"ye":12350,"ĠìłĦìĭł":12351,"Ġìĭłë¹Ħ":12352,"Ġëĭ¿ëĬĶ":12353,"ĠìĦľìĸĳ":12354,"Ġë³ĢíĸĪëĭ¤":12355,"Ķ´":12356,"Ġëĭ¤ë¥¸ë":12357,"Ġëĭ¹íķł":12358,"ĠìĪłìĹĲ":12359,"ê·Ģíı¬":12360,"ëª¨ëĳĲ":12361,"ĠìĿ´ë¡ľ":12362,"ĵłëĭ¤":12363,"Ġê·¸ëŀĺë":12364,"ĠìĿ´íĥĪë":12365,"Ġíķĺëĵ¯":12366,"Ġíķĺë£»":12367,"Ġìłķì²´":12368,"Ġìĭ¬ìĥģ":12369,"ìłģìĿĢ":12370,"ìĥĿíĽĦ":12371,"Ġì§ĵëĬĶ":12372,"Ġë©Īì¶ĶìĹĪëĭ¤":12373,"Ġë¬´ê²ģ":12374,"§ĪìĿĦ":12375,"ĠìĨĮë¬¸":12376,"Ġê³¼ìŀ¥":12377,"ĠìķĪê°ľ":12378,"ĠëķĮë¥¼":12379,"ĠìĺĪì¸¡":12380,"ìĦ¸ëŁ¼":12381,"Ġìĸ¸ìłłê°ĢëĬĶ":12382,"Ġê¶ģê¸Īíķ´":12383,"ĠâĿ¤ï¸ı":12384,"ĠëĤ¡ìĿĢ":12385,"Ġìĭľê¸°":12386,"Ġìĸĺë":12387,"ĠëĮĢìĿĳ":12388,"Ġìµľê·¼ìĹĲ":12389,"Ġë§ĪìĤ¬ì§Ģ":12390,"Ġë²ļê½ĥ":12391,"ë²ĦíĦ°":12392,"ëł¤ê³ł":12393,"ìĦľíĬ¸":12394,"Ġë¬»ìŀĲ":12395,"âĢĶâĢĶ":12396,"íĺ¸íĿ¡":12397,"Ġê¸°ë³¸ìłģìľ¼ë¡ľ":12398,"Ġìĸĳìª½":12399,"Ġì¢ħë¥ĺê°Ģ":12400,"ìľĻ":12401,"ìĿ¼ì§Ģ":12402,"Ġë§Ľìŀĩ":12403,"ìĹ´ìĿĦ":12404,"Ġëº¨ìĿĦ":12405,"Ġë¶ĢëĶĶ":12406,"Ġíİĳ":12407,"¹ĪìĿĺ":12408,"Ġìļ°ëıĻ":12409,"ìį½":12410,"ĠëłĪë²¨":12411,"ĠëĲĺìĸ´ìķ¼":12412,"ĠíĦ±ìĿĦ":12413,"Ġíķ´ê²°ë":12414,"ĳĲë¶Ģ":12415,"ê¾¸ë¡ľ":12416,"ĠëĮĢëĭµìĿ´":12417,"ĠìĤ¬íļĮìĿĺ":12418,"ðŁĲ·":12419,"ëĳ¥ìĿ´":12420,"éĿ":12421,"ê¸°ìĤ¬":12422,"Ġì¦Ĳê¸°ê³ł":12423,"ĠìħĢë":12424,"ëªħìĿĢ":12425,"ĠâĢĶ":12426,"Ġì¹ľêµ¬ëĵ¤ê³¼":12427,"Ġì¢Ģì²ĺëŁ¼":12428,"ëĦĽ":12429,"ĠìķĪíĥĢê¹Ŀ":12430,"Ġìĸ´ëł¤ìļ¸":12431,"Ġíķĺìĺ¤":12432,"Ġíķĺìĭ¤":12433,"ìĬ¤ëĤĺ":12434,"ìł¤ë¦¬":12435,"ê°Ģë©´ìĦľ":12436,"ê¸°ëĵ¤":12437,"ì¹ĺìĻĢ":12438,"ĠíķĺëįĶëĭĪ":12439,"ĠìĤ¬ìĭ¤ìĹĲ":12440,"ìĿ´ê¹Į":12441,"ìĽħìĿĢ":12442,"ĠëĳĲë¶Ģ":12443,"ĠìĹ¼ìĥī":12444,"ĠëĮķ":12445,"Ġìķķë°ķ":12446,"į¸ë":12447,"ĠìĥĪì½¤":12448,"íķĦìļĶ":12449,"ìļ°ëĵľ":12450,"Ġì§ĢëĤĺê³ł":12451,"Ġê¿Īê¾¸":12452,"ë¸ĶëŀĻ":12453,"ĠíĦ°íĬ¸ë":12454,"ĠìĦ±ë²½":12455,"ĠìĿ´ë¯¸ì§Ģ":12456,"Ġê°Ģì¡±ìĿ´":12457,"ìķĦëĭĮ":12458,"Ġì£½ìĹĪëĭ¤":12459,"Ġëª¨ëĭĪ":12460,"ðŁĵ":12461,"Ġìłľê²Į":12462,"ĠíĹĪê³µìĿĦ":12463,"ĠìĹĨìĹĪëĬĶëį°":12464,"Ġì£ĦìĨ¡íķ©ëĭĪëĭ¤":12465,"02":12466,"Ġë³´ìķĦëıĦ":12467,"Ġë³ĳìĤ¬ëĵ¤ìĿ´":12468,"ĠìķĪì£¼":12469,"Ġê³łë¬´":12470,"ê±¸ìĿĮ":12471,"Ġth":12472,"Ġë°ĶíĢ´":12473,"ëĭ¿":12474,"ìĸ´ëĤ´ëĬĶ":12475,"Ġìĺ¤ë¥´ë":12476,"ĠíĬ¸ë¦¬":12477,"ĠìŀĲì¹«":12478,"ĠìĦ¸íĮħ":12479,"ìħ¨ëĤĺìļĶ":12480,"ìį¨ë¶ĢíĦ°":12481,"blog":12482,"Ġê¹»ìŀİ":12483,"ĠìĻ¸ìĹĲëıĦ":12484,"Ġê³¨ì§ľ":12485,"³¶ìĿĮ":12486,"ìĺĢëĭ¤ëĬĶ":12487,"ĠìĿ¸ìłľ":12488,"èĩ":12489,"Ġëĵ¤ìĹĪëĬĶëį°":12490,"ĠìĽĢì§ģìĹ¬":12491,"Ġíĳ¸ì§Ĳíķĺê²Į":12492,"Ġê¸°íĥĢ":12493,"ĠëªħìĿĢ":12494,"ìĺµìĨĮìĦľ":12495,"os":12496,"íĦ°ìĹĲìĦľ":12497,"Ġë§īê±¸ë":12498,"Ġë¶Ģì¶Ķ":12499,"Ġê¸°ì´Ī":12500,"ĠëĤ¨ì§Ģ":12501,"ãħłãħłãħłãħłãħłãħłãħłãħłãħłãħłãħłãħłãħłãħłãħłãħł":12502,"ĠìıŁìķĦë":12503,"ĴĢ":12504,"ìĦ¸ì§Ģ":12505,"Ġê·¸ë¦¼ìŀĲ":12506,"ëĭ¬ìĿ´":12507,"ĠëıĻë¬¼ë":12508,"ĠìĨįìĹĲëĬĶ":12509,"Ġë¯¸ëł¨":12510,"Ġë²Ĺê³ł":12511,"ì¹´íİĺë":12512,"Ġì¢ĭìķĦíķĺì§Ģ":12513,"Ġíĳľìĭľ":12514,"ark":12515,"ĠìĹĶëĶ©":12516,"Ġ~~":12517,"ìłĦëıĦ":12518,"ĠëĲĺë©´ìĦľ":12519,"Ġíı´":12520,"ì§ĢìķĬê³ł":12521,"Ġë§ĪìĿĦìĿĦ":12522,"Ġê°ĩíĺĢ":12523,"ĳĲìĹĲ":12524,"Ġê°Ģë§Ī":12525,"ĠìłĢìĹĲê²Į":12526,"Ĥ´ìĸ´":12527,"ĠìłĢë²Ī":12528,"ĠìķĪì§Ģë":12529,"ĠëģĦëįķìĿ´ë©°":12530,"ìĤ¬ìłģìľ¼ë¡ľ":12531,"Ġd":12532,"ĠëĤĺë¡ľ":12533,"ìĤ°ëıĻ":12534,"Ġìĥģì²ĺê°Ģ":12535,"ĠëĴ¤íĨµ":12536,"Ġìŀ¬ë£Įë":12537,"Ġì½©ëĤĺë¬¼":12538,"ìºĦ":12539,"ëĭ¤ìĿĮ":12540,"ìĭĿê³¼":12541,"ĠìĹ°ê°ľìĨĮë":12542,"ĠìĺģíĻĶìĹĲìĦľ":12543,"ĠëĮĦ":12544,"ĠíĺķìĿĺ":12545,"ĠíĪ¬ëįľ":12546,"ĠëĤĺëĪĦê³ł":12547,"ĠëĤĺìģĺì§Ģ":12548,"ĠìĿ´ëŁ¬ë":12549,"ìĿ¼ì§ĢëıĦ":12550,"íķ´ë³¼":12551,"Ġê°ĢëĬ¥íķĺëĭ¤":12552,".........":12553,"ðŁĻĦ":12554,"Ġê²ĥìĿ´ìķ¼":12555,"ĠëĲĲë":12556,"Ġë³´ìĭľë©´":12557,"§¤ìĿ¼":12558,"ê±´ê°ķìĭĿ":12559,"Ġìŀ¥ìķħ":12560,"ĠëĦ£ìĸ´ë":12561,"Ġë³´ìķĺëįĺ":12562,"Ġê¿ĪìĿ´":12563,"ìĿ¼ì°¨":12564,"ĠìŀĳíĴĪìĿĢ":12565,"Ġì§ĿìĿ´":12566,"ĠìĶ¨ë¥¼":12567,"ĠíĹ¤íĹ¤":12568,"Ġëĥīë©´":12569,"Ġë²¼ìĬ¬":12570,"ìĽłëĬĶëį°":12571,"Ġíķľìļ°":12572,"ĠìŀĳëıĻ":12573,"ĠìĿ´ëŁ°ê±°":12574,"Ġê³łê¸°ëĬĶ":12575,"Ġê°ľìļ´":12576,"Ġê¿ĪíĭĢ":12577,"¨ë¡ľ":12578,"ĠìĤ¬ê·Ģ":12579,"Ġì¹ľêµ¬ìĿĺ":12580,"Ġì¡°ìĦłìĿĺ":12581,"Ġë§ĪìĿĮëıĦ":12582,"ĠìĨĲìĹĲìĦľ":12583,"Ġì½ľëĿ¼":12584,"ĠìĪĻìĹ¬":12585,"Ġì²łìłĢíŀĪ":12586,"ĠëķĮëł¤":12587,"ĠìĹ®":12588,"ëĬĶê±¸":12589,"ĠìķĦëĭĪìĹĪì§Ģë§Į":12590,"Ġê±±ìłķíķĺì§Ģ":12591,"Ġë³µìŀ¡íķľ":12592,"Ġë§ĲíķĺìŀĲ":12593,"ĠìĿ´ëĨĪ":12594,")`":12595,"ì¹¼êµŃìĪĺ":12596,"Ġê¸°ìłĪ":12597,"ìĪłìĿ´":12598,"ìłĬ":12599,"Ġì¹Ļ":12600,"ĮðŁı»":12601,"Ġë¨¹ìĿĦìĪĺ":12602,"íķĺëĭ¤ë©´":12603,"ìĪĺê³ł":12604,"Ġìĸ´ì¡°ë¡ľ":12605,"ê¸ĪìĿĢ":12606,"ĠìĿĺìĭĿìĿĦ":12607,"Ġìĸ¼êµ´ëıĦ":12608,"Ġë§īê³ł":12609,"ĠëĤłëł¸ëĭ¤":12610,"Ġê·¸ê³³ìĿĦ":12611,"Ġìĺ¤ë¹łëĬĶ":12612,"íĬľë¸Į":12613,"ĠìĪĺìĤ¬":12614,"Ġë¨¹ëĭ¤ê°Ģ":12615,"ìĿĮëıĦ":12616,"ĠìŀĪìŀĸìķĦ":12617,"ĠíĽĦëł¤":12618,"ê¹ħ":12619,"ĠìĤ¬íķŃ":12620,"íĦ°ìĿĺ":12621,"ðŁĺ¢":12622,"Ġíİ¸íķĺê³ł":12623,"ıĻìĿĺ":12624,"ĠìłĦì²´ë¥¼":12625,"ìģĺë":12626,"ĠëĭŃê°ĢìĬ´ìĤ´":12627,"ĠìĿ´ëĵ¤ìĿĦ":12628,"Ġë©´ëıĦ":12629,"ĠíĥĿìĭľ":12630,"è¨»":12631,"ì¹¼ë":12632,"íĿĲë":12633,"Ġë©Ķëī":12634,"pup":12635,"Ħ¬":12636,"ĠìĿ´ë³Ħ":12637,"ĠëĨĶ":12638,"Ġì§ĢëĤĺê°Ħ":12639,"ìĬ¤ëŁ½ëĭ¤":12640,"ĠíķĺëĬĺìĿĺ":12641,"Ġìŀ¬ë¯¸ìŀĪê²Į":12642,"¥¨":12643,"ĠìĹŃìĤ¬ë¥¼":12644,"ĠíĸĦë":12645,"ëĭĪë©Ķ":12646,"Ġë³Ģìĭł":12647,"ĠëįĶìļ±ëįĶ":12648,"ëĤ´ë¥¼":12649,"Ġê°Ģë¦¬ì¼°ëĭ¤":12650,"ĠìĽĢì¼ľì¥Ĳ":12651,"ìĿ¼ë¥ľ":12652,"ĠíĶĦë¦¬ë¯¸ìĹĦ":12653,"Ġìµľì¢ħ":12654,"Ġëĭ¤ìĿĮìĹĲëĬĶ":12655,"ìĿ´ìĸ´ìĦľ":12656,"Ġë§Īê°Ĳ":12657,"cook":12658,"ĠêµŃë¯¼ë":12659,"ĠëĤ¨ìķĺëĭ¤":12660,"Ġíĺķìłľ":12661,"ê°Ģì§Ģë¥¼":12662,"ĠìķĦìĿ´ëĵ¤ê³¼":12663,"ìĤ°ëıĦ":12664,"Ġë§Īì¹´ë¡±":12665,"¥ĺìĿĺ":12666,"ĠìĺĢ":12667,"ìĭľê²Į":12668,"Ġëĵ¤ìĸ´ìļĶ":12669,"¥´ê°Ģ":12670,"Ġì¶Ķìļ´":12671,"Ġãħĭãħĭãħĭãħĭãħĭãħĭãħĭãħĭãħĭãħĭ":12672,"ìĿµìĿĦ":12673,"ìķĦíĬ¸":12674,"ê¸°ëĵ¤ìĿ´":12675,"ìķµ":12676,"ìĦ¤ìĿ´":12677,"æµ":12678,"ëĭ¤ëĤĺ":12679,"Ġìŀ¤":12680,"ìĸĳëħĲ":12681,"ĠìķĦìĿ´íı°":12682,"ĠíĶĦëłĪ":12683,"Ġëª¬ìĬ¤íĦ°ë":12684,"Ġë¡ľë´ĩ":12685,"Ġëĭ¤ìĿĮìĿĢ":12686,"ĠìĽĢì°Ķ":12687,"ìĹĳìĬ¤":12688,"ì§ĢëĦĲ":12689,"ĠíĨµìĿ¼":12690,"ä¸Ń":12691,"ĠíķĺëĿ¼ê³ł":12692,"ãħłãħľ":12693,"Ġíķľì¸µ":12694,"ì§ĪìĿĢ":12695,"ĠìĹĨëĤĺ":12696,"íĸĪìĹĪëĬĶëį°":12697,"Ġì¹ĺìĨŁ":12698,"ìĥĪëģ¼ë":12699,"nd":12700,"ðŁ¥°":12701,"íĮ¥":12702,"Ġì¢ĭê²łìĸ´ìļĶ":12703,"Ġê°Ģìł¸ìĺ¨":12704,"ĠìłĢë§Į":12705,"ìĸ´ìĿ´":12706,"ì»¬ëŁ¬":12707,"ĠìłĪë²½":12708,"¯¸ìĹĲ":12709,"ìħĺìĿĦ":12710,"ðŁĳī":12711,"Ġìĭ¤ëł¤":12712,"Ġì»¤ë²Ħ":12713,"ĠìŀĺíķĺëĬĶ":12714,"ĠêµĲíĻĺ":12715,"ĠíķĻêµĲìĹĲìĦľ":12716,"áħ":12717,"ç¾":12718,"ê³µê¸°":12719,"Ġë°ĺê°Ģìļ´":12720,"ĠìĨ¡ìĿ¼ë¥ľ":12721,"Ġê»´ìķĪ":12722,"ðŁĺĿ":12723,"Ġë²ĪìĹĲ":12724,"ĠìĹ¬ìŀĲìĻĢ":12725,"ìĤ°ìĹĲìĦľ":12726,"Ġëħ¸ìĿ¸":12727,"ê°Ľ":12728,"ê±±":12729,"ĠëĤĺìĻĶëĬĶëį°":12730,"!``":12731,"ìĿĺëĬĶ":12732,"íĥĲë":12733,"ĠìĦłë¬¼ìĿĦ":12734,"Ġìĭ«ëĭ¤":12735,"ĠíĮĿ":12736,"ĠíĬ¹ìĿ´íķľ":12737,"ë¡Ģ":12738,"ĠëĮĢë§Į":12739,"ĠìŀĳìłĦ":12740,"Ġì°¨ê°ĳê²Į":12741,"ĠìŀĲëŀĢ":12742,"ĠìĿ¸ìĥĿìĿĺ":12743,"ìĿ´íĥľìĽĲ":12744,"Ġëª¸ë¶Ģë":12745,"±ĥ":12746,"ĠìĿ¸íķľ":12747,"ng":12748,"ê¸°ë¦Ħ":12749,"ĠìłĪìĿĦ":12750,"ĠëĬĲëĤĮìĿĢ":12751,"Ġê¸°ê´Ģ":12752,"Ġê°ĦìĹĲ":12753,"Ġë¦¬ìĸ¼":12754,"ĠìķĦëŀĺìĹĲ":12755,"ĸ¤":12756,"°ķìĬ¤":12757,"ĠíĭĪìĿĦ":12758,"ãĦ¹ãħĩ":12759,"ëıĦëĮĢì²´":12760,"²Īì§¸":12761,"ëĦĪëĬĶ":12762,"ļ«":12763,"Ġë°ĺìĺģ":12764,"íĸĪëĦ¤":12765,"Ġë³µìĪĺ":12766,"ê¶ĮìĿĺ":12767,"Ġë»ĶíĸĪëĭ¤":12768,"ì°°ìĿĦ":12769,"ĠìķĬëĬĶëĭ¤ê³ł":12770,"06":12771,"Ġëļ«ìĸ´":12772,"ìłģìĿ´ì§Ģ":12773,"Ġë¹ĦëĭĲ":12774,"ĠëĨĵìķĦ":12775,"ĠëħĢìĦĿìĿĦ":12776,"ous":12777,"Ġë²ħ":12778,"Ġê³µíĨµ":12779,"ìľłëŁ½":12780,"ĠìĺĪìĪĺ":12781,"Ġë¬´ë¦¬ê°Ģ":12782,"ìķłê²¬":12783,"ìĸ´ê°ĢëĬĶ":12784,"íĶĪë":12785,"íĬ¸ëŁ¬":12786,"Ġë°©ë²ķìľ¼ë¡ľ":12787,"ĠíĹĪëĤĺ":12788,"Ġê¸¸ê³ł":12789,"ta":12790,"ĠëĨĪìĿĦ":12791,"Ġëħ¹ì°¨":12792,"âĢ¦âĢ¦!\"":12793,"ĠëŃĲëĥĲ":12794,"Ġíķľë³µ":12795,"ì¤ĳê°Ħ":12796,"íĬ¹ë³Ħìĭľ":12797,"ì¯§":12798,"ĠëģĿëĤĺë©´":12799,"ì¼ĢìĿ´ìĬ¤":12800,"ĠìĿ¼ë°ĺìłģìĿ¸":12801,"êµ¬ìĻĢ":12802,"Ġì°¸ì§Ģ":12803,"Ġë¡ľë§¨":12804,"ĠëĳĺìĿĺ":12805,"¡¯ëį°ë":12806,"Ġê¸°ëĭ¤ë¦´":12807,"Ġìĥģì²ĺë":12808,"Ġë¹Ħíķĺë©´":12809,"íĴĪëıĦ":12810,"Ġë¶Ģì¹ľ":12811,"Ġìľµ":12812,"ëĮĢê³ł":12813,"ë¬¸íĻĶ":12814,"Ġê²½íĹĺìĿ´":12815,"ĠëķĢìĿ´":12816,"ĠìķĪíķĺê³ł":12817,"Ġê²°ê³¼ë":12818,"Ġíıīìĸĳ":12819,"Ġìĺ¬ëĿ¼ê°Ħ":12820,"æ³":12821,"ëıĻë§Ľì§ĳ":12822,"ĠìĬ¬ê·¸ë¨¸ëĭĪ":12823,"ĠìĤ¬ë¬´ìĭ¤":12824,"ĠìĹīëį©ìĿ´ë¥¼":12825,"Ġíķĺë£¨ë¥¼":12826,"ł¤ëĿ¼":12827,"ê°ĶìĬµëĭĪëĭ¤":12828,"Ġë³´ë¦Ħ":12829,"Ġì¶Ķì¸¡":12830,"ĠìķĦìĤŃ":12831,"ĠíľĻ":12832,"ìļ°ë¦¬ëĬĶ":12833,"ĠëģĿëĤł":12834,"íĶĮë¡ľ":12835,"ĠìłĢë¦¬":12836,"ãħĬ":12837,"ìĭ¶ìĿĢ":12838,"ê¶ģìĿĺ":12839,"Ġê·¸ëŁ´ë":12840,"ĠíļŁ":12841,"ĠëĴ¤ëį®":12842,"ĠíĦ°ëľ¨ëł¸ëĭ¤":12843,"ë¹¨ë¦¬":12844,"ĠíĿĺëŁ¬ëĤĺìĻĶëĭ¤":12845,"ĠìĹİëĵľëł¤":12846,"ĠìĹĨìľ¼ëĭĪê¹Į":12847,"³´ê²Į":12848,"íıĲë":12849,"puppy":12850,"³¶ìĿĮë°¥":12851,"ì£¼ë¶ĢìĬ¤íĥĢê·¸ëŀ¨":12852,"íŀĪíŀĪ":12853,"ĠìľĦì¹ĺëĬĶ":12854,"ĠìĤ¬ìłķìĿĦ":12855,"Ġë§ĪìĿĮê»ı":12856,"íĶĦë¦¬ì¹´":12857,"ìĸ´ëĤ´ê³ł":12858,"Ġìĭľë¦¬":12859,"Ġìļ©ê¸°ë¥¼":12860,"íİĢ":12861,"Ġê¹Ģì¢ħ":12862,"ĠìŀĪìĹĪê¸°ìĹĲ":12863,"Ġëĵ¤ëł¤ìĺ¤ëĬĶ":12864,"ĠìĿ´ë£¨ê³ł":12865,"ìķ±":12866,"Ġê·¸ëĵ¤ê³¼":12867,"ĠìĺĨêµ¬ë":12868,"ĠìĪĺë¡Ŀ":12869,"ëĭ¤ìĿ´ìĸ´íĬ¸ê³Ħìłķ":12870,"Ġê¸°ìŀĲ":12871,"êµ¬ëıĦ":12872,"Ġìķµ":12873,"ìĬ¤ë©Ķ":12874,"ìł¸ìļĶ":12875,"Ġëħ¸ëĬĶ":12876,"Ġìĺ¬ëł¤ìĦľ":12877,"Ġìĺ¨ëª¸ìĿĦ":12878,"ĠìĤ´ìĤ´":12879,"ëĦ¤ìĿ¼":12880,"ìķĦìķĦìķĦ":12881,"ĠìĹ¬ìŀĲëĵ¤ìĿ´":12882,"Ġë¹Ļê¸ĭ":12883,"ìĮĢë":12884,"ĠìľĦì¹ĺë¥¼":12885,"Ġë³Ģíķľ":12886,"ĠëĤ¨ìŀĲìĻĢ":12887,"Ġíķĺë©´ìĦľëıĦ":12888,"ìŀ¥ìĹĲê²Į":12889,"íı¬íĦ°":12890,"ĠëĬĲê»´ì§Ģ":12891,"ĠíĥĲëĿ¼":12892,"Ġìŀ¥ë¹Ħ":12893,"Ġê¹Ķëł¤":12894,"ĠíķŃë³µ":12895,"Ġê°Ģê²©ìĹĲ":12896,"Ġë§¤ëĭ¬ëł¤":12897,"Ġë²łìĸ´":12898,"Ġìļ°ë¬¼":12899,"Ġëĵ£ê¸°":12900,"ĠíĿĺëł¸ëĭ¤":12901,"ĠìłĲìĭ¬ë":12902,"Ġì¹¨ìŀħ":12903,"ĠìķĦëĭĮì§Ģ":12904,"Ġê¸Īìķ¡":12905,"ê³łíķľ":12906,"Ġê¸°ë°ĺ":12907,"ĠëĶ°ìľĦ":12908,"ìĪĺìłľ":12909,"ë¶Ģë¶Ħ":12910,"ĠëĤ¨íİ¸ìĿĦ":12911,"ëĭĪìĿĺ":12912,"Ġë¶ĢëŁ½":12913,"ĠíĸĪìľ¼ëĭĪ":12914,"Ġìļ´ëıĻìĿĦ":12915,"Ġê°Ħíİ¸íķĺê²Į":12916,"ëĺĲë":12917,"ìĻķìĿĦ":12918,"ĠëıĮìķĦìĺ¤ì§Ģ":12919,"ìķĦë¬´ë¦¬":12920,"ĠìĺĪë»ĲìĦľ":12921,"ðŁĴĻ":12922,"ĠëĵľëłĪ":12923,"Ġê³łíķ¨ìĿĦ":12924,"ìŀĲëĿ½":12925,"ĠìļĶê¸°":12926,"ĠíĶ¼íķ´ë¥¼":12927,"æĽ":12928,"Ġë¬´ìŀ¥":12929,"ĠìĿ¸ê·¼":12930,"ìŀĦìĿĢ":12931,"íĥĢë¥¼":12932,"Ġìŀĥìĸ´ë²Ħë¦°":12933,"Ġê´ľì°®ìĿĦ":12934,"ìķĦëĭĪìķ¼":12935,"Ġì»¨ë":12936,"ĠëķħìĿ´":12937,"ĠíķĺëĬĺë¡ľ":12938,"ght":12939,"íħĢ":12940,"Ġìłģì§Ģ":12941,"Ġê±¸ìĸ´ìĦľ":12942,"Ġë²łìĬ¤íĬ¸":12943,"ê³³ìĿ´":12944,"ìĦ¸ìĥģ":12945,"ĠìķĦëĵ¤ìĿĺ":12946,"łĪê°Ģ":12947,"ëıĦë¦¬":12948,"Ġì°½ê³ł":12949,"ê·¸ë£¹":12950,"ìļĶê°Ģ":12951,"ì£µ":12952,"Ġê³µê°Ĳ":12953,"Ġë¶ĻìĿ´ê³ł":12954,"ìĤ¼ê²¹":12955,"ĠìĿ´ìĬ¹":12956,"Ġíķĺëł¤ëĬĶ":12957,"Ġê±°ëŀĺ":12958,"ĠìĿ´ë¥´ëĬĶ":12959,"Ġë³ĢíĻĶê°Ģ":12960,"ìĭľíĹĺ":12961,"ê¸°ëĿ¼":12962,"ĠìĿ¼ë§Į":12963,"Ġì¶Ķê°Ģë¡ľ":12964,"ĠìĻĶìĸ´":12965,"Ġì°¹":12966,"ĠìŀĪê²łëĬĶê°Ģ":12967,"ì²ĺìĿĮ":12968,"ì§ģìĿ´":12969,"ĠìĿ´ë§Īë¥¼":12970,"ĠëĶ°ìĬ¤":12971,"íĢĺ":12972,"ĠìĤ¬ëĿ¼ì§ĢëĬĶ":12973,"Ġíı¬ê¸°íķĺê³ł":12974,"ë§Īì§Ģë§ī":12975,"Ġìĭłë¢°":12976,"Ġì²Ńì£¼":12977,"ê¸°ê²Į":12978,"¡łìĿĦ":12979,"Ġì¹´ìļ´":12980,"Ġíİ¸ìķĪíķĺê²Į":12981,"Ġìŀħêµ¬ìĹĲ":12982,"ê·¸ëłĪìĿ´":12983,"ĠëĶ°ë¦Ħ":12984,"ëĸłë":12985,"Ġë°ĶëŀĢëĭ¤":12986,"Ġë²Įìį¨ë¶ĢíĦ°":12987,"ĠìĪĻìĿ´ê³ł":12988,"Ġë§ĪìĿĦìĹĲ":12989,"Ġê²½íĹĺìĿĦ":12990,"ĠìĨĲìĿĢ":12991,"Ġìľłìļ©":12992,"ĠíĪ¬ìŀħ":12993,"Ġëĭ¹ê·¼":12994,"ĠìĦłíĺ¸":12995,"ìĿ´ê¸°ìĹĲ":12996,"ìļ°ëıĻ":12997,"ĠìķĮë©´ìĦľëıĦ":12998,"íĺ¸ëĳĲ":12999,"ĠìĤ¬ìłĦ":13000,"Ġë°Ķë¥´":13001,"ĠëĮĢë¦½":13002,"Ġê°ĸê²Į":13003,"Ġìĭľì²Ń":13004,"íİĳ":13005,"ĠìĺĪë»":13006,"íħĮëĿ¼":13007,"Ġë§¡ê³ł":13008,"Ġë¹Ħì¥¬ìĸ¼":13009,"ĠëĶ°ë¥´ëĬĶ":13010,"Ġíķµìĭ¬":13011,"ĠìĤ¬ëŀĳíķĺê³ł":13012,"ĠëĳĲë£¨":13013,"çĻ":13014,"íı¬ê°Ģ":13015,"Ġì²¨ë":13016,"ìĤ¬ë¹Ħ":13017,"ĠìĹ°ê¸°ê°Ģ":13018,"ĠìłĦê°ľ":13019,"Ġíķľë§ĪëĶĶë¡ľ":13020,"Ġëĭ¹ì²¨":13021,"ê²¨ìļ´":13022,"ìĽĶìĿĢ":13023,"ĠìĥģíĻ©ìĿĢ":13024,"ìłľëĤĺ":13025,"ĠíķłìķĦë²Ħì§Ģê°Ģ":13026,"æĻ":13027,"éĢ":13028,"ĠìĥĿê¸¸":13029,"Ġë§ĲìĿĺ":13030,"Ġìłľìķķ":13031,"Ġë³´ëł¤ê³ł":13032,"Ġì¼ĢìĿ´íģ¬":13033,"ìŀ¡ìĿĦ":13034,"įĶëĿ¼êµ¬ìļ©":13035,"ĠìŀĲê¸°ëıĦ":13036,"ĠëĤ´ë¿ľ":13037,"Ġëį°ìĦľ":13038,"Ġíķĺë£¨ê°Ģ":13039,"âĺºï¸ı":13040,"íĪ¬ë¡ľ":13041,"ĠìĨĲëĭĺëĵ¤ìĿ´":13042,"ĠìŀĪëĬĲëĥĲ":13043,"Ġìłķì¤ĳ":13044,"ĠìłĲìĭ¬ìĿĦ":13045,"Ġë°±ìŀĳ":13046,"Ġë§ĮëĤĺëŁ¬":13047,"Ġê¸°ì°¨":13048,"ĮĢë©°":13049,"Ġëªĩë²Ī":13050,"Ġì¶©ë¶Ħíķľ":13051,"ĠìķĮë°Ķ":13052,"ĠìĪłì§ĳ":13053,"ë¹µì§ĳ":13054,"íĸĪëĭ¤ê°Ģ":13055,"ĠìłĦíĪ¬ë¥¼":13056,"ĠíĺĦìŀ¥":13057,"ãĥ©":13058,"ëĲĺë©´":13059,"ê¸°ë©´ìĦľ":13060,"ĠíĨµë¡ľ":13061,"³´ëĤ´":13062,"ë°ĺìĤ¬":13063,"Ġëī´ìļķ":13064,"Ġì§ĳëĭ¨":13065,"Ġê¼¬ë°ķ":13066,"Ġê²ĥìĿ´ëĥĲ":13067,"ìķĦëĵ¤ìĬ¤íĥĢê·¸ëŀ¨":13068,"Ġê¼¬ë¦¬ë¥¼":13069,"Ġìŀ¥ë©´ìĿĦ":13070,"ķï¸ı":13071,"¶Ģì§ĸ":13072,"Ġìŀĺë¨¹":13073,"Ġìļ¸ìĹĪëĭ¤":13074,"Ġìĸ¸ëľ»":13075,"ĠìħĭìĿ´":13076,"åľĭ":13077,"ĠíĻįì½©":13078,"ĠìĦľìļ¸ë":13079,"Ġìľłì§Ħ":13080,"Ġìĸ´ìļ¸ë¦¬ì§Ģ":13081,"ê¸°ëĭ¤":13082,"ĠëĳĲë¦¬ë²Ī":13083,"ĠìĦľìļ¸íĬ¹ë³Ħìĭľ":13084,"ê¸°ë¶Ħ":13085,"Ġì´īì´īíķĺê²Į":13086,"Ġë¶Ģëª¨ëĭĺ":13087,"ë³´ëĬĶ":13088,"ìĿ´ëĶĶ":13089,"Ġì»·":13090,"Ġíĺ¼ìŀ£":13091,"ĠíĥĦëł¥":13092,"Ġê²½ìķħ":13093,"Ġ************************":13094,"Ġíķĺíķĺ":13095,"Ġì°¨ë³Ħ":13096,"©´ìĿ´":13097,"Ġëĭ¹ëĤĺëĿ¼":13098,"Ġëĵ¤ë©´":13099,"Ġë¶Ģì¶ķ":13100,"Ġë¹¤íŀĪ":13101,"Ġê²°ìłķìĿĦ":13102,"Ġìĸ´ì©Įëĭ¤":13103,"ĠìĭĿë¯¼":13104,"ĨĪëĵ¤":13105,"Ġê¸°ìģĺ":13106,"ĠìĭĿëŁī":13107,"ðŁĻĭ":13108,"å¥":13109,"ìŀ¥ëĭĺìĿ´":13110,"Ġë¶īê²Į":13111,"Ġìŀĳê²Į":13112,"íķ´ëĵľë":13113,"ê²łëĥĲ":13114,"ĠìĿĮìķħìĿĦ":13115,"ĠìĨĮëĵľ":13116,"ĠëĶ°ëľ»íķĺê²Į":13117,"ìĪłë¡ľ":13118,"ĠìĤ¬ìļ©íķĺì§Ģ":13119,"Ġìĵ°ìĹ¬":13120,"ĠìĦ±ê²©ìĿ´":13121,"ëĬĶëĭ¤ê³ł":13122,"Ġì§ĢìĦ±":13123,"ìĭľëįĶëĿ¼êµ¬ìļĶ":13124,"Ġì¶©ëıĮ":13125,"Ġë´¤ìĿĦ":13126,"ĠìŀĪìĹĪìľ¼ëĤĺ":13127,"Ġë²Ļ":13128,"Ġëª¨ë¦ħëĭĪëĭ¤":13129,"ĵľë¦Ħ":13130,"Ġë½Ģë":13131,"kin":13132,"Ġìĺ¬ëĿ¼ìĺ¤ëĬĶ":13133,"ĠìĿ´ìłķ":13134,"ê±°ëĬĶ":13135,"Ġìļ¸ë¶Ģì§ĸ":13136,"Ġë§ĪìĭŃìĭľìĺ¤":13137,"Ġìĸ¼êµ´ìĹĲëĬĶ":13138,"Ġë¼Īë":13139,"Įë¦°ì§Ģ":13140,"Ġëīĺ":13141,"ĠìĹ¬ë¦Ħë":13142,"ĠëĪĦêµ¬ë³´ëĭ¤":13143,"Ġë¶Ģê·¼":13144,"Ġìĺ¤ëĿ¼ë":13145,"ĠíķĦìļĶëıĦ":13146,"ĠíĥģìŀĲ":13147,"`,":13148,"ĠìĹ¬ëĬĲ":13149,"Ġë§īìķĦë":13150,"Ġëĭ¤ëħĶ":13151,"Ġê¸°ë¶ĦìĿ´ìĹĪëĭ¤":13152,"ìł¸ëıĦ":13153,"ëĭĪë©ĶìĿ´ìħĺ":13154,"Ķë²ħ":13155,"ĠìĬ¹ìļ©":13156,"ãĥ»":13157,"ĠìĨĮìĦ¤ìĿĢ":13158,"Ġìłķë³´ë":13159,"ìĳ¤":13160,"Ġì£¼ìłľìĹĲ":13161,"ìĽĮíĦ°":13162,"ìķĦëĵ¤ìĹĪëĭ¤":13163,"Ġì´Īëĵ±íķĻêµĲ":13164,"Ġë°ĽìķĦìķ¼":13165,"¦¬ëł¤":13166,"íĺ¸ê°ķ":13167,"íĴĪìľ¼ë¡ľ":13168,"ê°ģìĿ´":13169,"ìķĦë§Ī":13170,"Ġê±°ìĺĢëĭ¤":13171,"ì§ĪìłģìĿ¸":13172,"Ġë°±ìłľ":13173,"Ġëĵ¤ìĸ´ê°Ģê³ł":13174,"ê³¤ë":13175,"ĠìĿ¸ê¸°ê°Ģ":13176,"Ġë²Ħëł¸":13177,"ìĺ¥ìĿ´":13178,"íķ´ë³´ìĦ¸ìļĶ":13179,"ĠëıħìĦľ":13180,"Ġëı¼ìĦľ":13181,"ice":13182,"ĠìĹ°ìĺĪ":13183,"ĠêµŃë¬¼ë":13184,"ì£½ìĿĦ":13185,"ë°°ê³ł":13186,"©ĭ":13187,"ëİħ":13188,"ìį¸":13189,"íĺľê°Ģ":13190,"¬¼ëıĦ":13191,"ĠìŀĶìŀĶ":13192,"êµŃìĹĲìĦľ":13193,"ĠìĦłìłķ":13194,"Ġë¨¹ëĬĶëį°":13195,"ĠëĦĪë¨¸ë¡ľ":13196,"ìĿ¸ëĶĶ":13197,"Ġë¬´ìŀĳìłķ":13198,"ê¸°ìĹĶ":13199,"Ġìŀ¬ìĥĿ":13200,"ĠìĦłëľ»":13201,"ê¶ĮìĿĢ":13202,"Ġíķľê°ķ":13203,"ìĺĢê¸°":13204,"ĠìĹ´ìĸ´ë":13205,"Ġë¬¸íķĻìĿĺ":13206,"Ġìµľìķł":13207,"Ġì°½ìŀĳ":13208,"ê²łêµ°ìļĶ":13209,"Ġëĸ¡ë³¶":13210,"Ġë¹Ħë¹Ħ":13211,"ìĬ¤íĬ¸ë¥¼":13212,"Ġì¹¼ëĤł":13213,"Ġë®":13214,"ê·¸ëł¤":13215,"ĠìĦ¸ê³ĦìĹĲ":13216,"ì¡Įì§Ģë§Į":13217,"ðŁĳĢ":13218,"Ġëº¨":13219,"ĠìĭłìķĻ":13220,"ĠìĹ°ëĿ½ìĿ´":13221,"ìĵ¸ë":13222,"ĠìļĶëŀĢ":13223,"ìĿ´ëŀĦê¹Į":13224,"Ġê±°ê¾¸ë¡ľ":13225,"ìŀĦìĹĲ":13226,"Ġìľłê¸°ëĨį":13227,"Ġë¬´ìĸ¼":13228,"ì±Ħê°Ģ":13229,"íķĺê²Įë":13230,"íŀĪëıĦ":13231,"ì£¼ë¬¸":13232,"ê³°ëıĮìĿ´":13233,"ĠìĹ¬ë¦ĦìĹĲ":13234,"ì¡´ë§Ľíĥ±":13235,"Ġë¬µìĿĢ":13236,"Ġìĥģê´ĢìĹĨ":13237,"ĠíĭĢìĸ´":13238,"Ġâĺħ":13239,"ĠëıĦëĬĶ":13240,"Ġë§īíĺĢ":13241,"Ġê¸°ì¡´ìĿĺ":13242,"ìĿĺìłķ":13243,"ĠìĨĮíĻĺ":13244,"Ġê²Ģìłķ":13245,"ĠëĵĢ":13246,"ĠíĿĲë¦Ħ":13247,"Ġìĭłìĥģ":13248,"Ġë§Īë²ķìĤ¬":13249,"çİĭ":13250,"Ġíķĺë£»ë°¤":13251,"Ġê°ľìĿ¸ìłģìĿ¸":13252,"ìĤ¬ëĵ¤ìĿĺ":13253,"ëĮģ":13254,"ĠìĪĺìĬµ":13255,"°©ë²ķ":13256,"ëĬī":13257,"ìĤ¬ì¹´":13258,"ê°ľìĬ¤íĥĢê·¸ëŀ¨":13259,"ëį°ìĿ¼ë¦¬ê·¸ëŀ¨":13260,"Ġì¹ľìłķ":13261,"Ġë§ĪëĪĦë":13262,"ĠìĤ´ëįĺ":13263,"ëıħìĬ¤íĥĢê·¸ëŀ¨":13264,"ê¹ľ":13265,"íļĮìĹĲìĦľ":13266,"ĠìķĬìķĺëĭ¤ë©´":13267,"ĠìĿ´ëħĲ":13268,"ĠëıĮìķĦê°Ģê³ł":13269,"ĠëĤĺíĥĢëĤĺëĬĶ":13270,"dietfood":13271,"ĠìĹĨìŀĸìķĦ":13272,"Ġë©´ìĿ´":13273,"ãģĦ":13274,"âĶĢâĶĢ":13275,"¦¬ëŀĳ":13276,"ëĤľë":13277,"Ġë³Ģê²½":13278,"fa":13279,"ìĪĺìĽĲ":13280,"ł¹ìĿĺ":13281,"ëĭ¤ìĿ´ìĸ´íĬ¸ìĿ¼ê¸°":13282,"ìĺµëĭĪê¹Į":13283,"¨¼íĬ¸":13284,"Ġë²Ĺìĸ´":13285,"°ĶëĶĶ":13286,"¡Ģë¡ľ":13287,"ë§ĽìŀĪëĬĶ":13288,"Ġê¹Ģìłķ":13289,"ĠíĸīëıĻìĹĲ":13290,"ìĿ¸ìĬ¤íĥĢë²łìĿ´ë¹Ħ":13291,"AL":13292,"ĠìłĦì²´ê°Ģ":13293,"ìĿ¸ëĵľ":13294,"Ġê¸°ë¥¼":13295,"íĥĦìĿ´":13296,"ĠëģĵìĹ¬":13297,"Ġì¡°ë¦¬":13298,"Ġíķ´ì£¼ìĦ¸ìļĶ":13299,"ĠíĽĦë°ĺ":13300,"ëĭ¹ìĹĲ":13301,"!!!!!!!!!!!!!!!!":13302,"ĠìķĬìľ¼ëĭĪ":13303,"ìĭłíĺ¼ë":13304,"Ġê³łìļ´":13305,"Ġì§ĦëıĻ":13306,"ë°ĶëĶĶ":13307,"ull":13308,"Ġì£¼ëıĦ":13309,"ê°ģìĿĢ":13310,"dailylook":13311,"Ġìĺ¤ìĭł":13312,"ì¡Įëĭ¤ëĬĶ":13313,"ìĽĥê²¨":13314,"ĠìĹīìĹī":13315,"Ġìŀ¥ë©´ìĿ´":13316,"æķ":13317,"è»":13318,"ï¥":13319,"æĢ":13320,"ĠëĤĺìĺµëĭĪëĭ¤":13321,"Ġìŀłê²¨":13322,"åº":13323,"ĠìķĬìķĺìĸ´":13324,"ìŀĦëıĦ":13325,"ì«Ħê¹ĥ":13326,"ĠìĭľìŀĳëĲĺìĹĪëĭ¤":13327,"ãħ¡ãħ¡":13328,"Ġê¼¼ê¼¼íķĺê²Į":13329,"ĠìĦľìĪł":13330,"ĠðŁĺŃ":13331,"ĠìĺģìĹŃ":13332,"ĠíļĮìłĦ":13333,"ëĮķëĮķìĿ´":13334,"Ġìĥ¤ë¸Į":13335,"Ġëĭī":13336,"Ġê±°ìĭ¤":13337,"ĠìĭľìĿ¸":13338,"Ġë¹Ħì°¸":13339,"Ĺê³ł":13340,"ĠìĥĿê°ģë§Į":13341,"ĠìĥĿê°ģìĿ´ìĹĪëĭ¤":13342,"Ġë¯¸ì³¤":13343,"°ĶëŀĮìĿ´":13344,"ìĿ´ëĤł":13345,"¦¬ëĵ¤ìĿ´":13346,"Ġê¹ĢìĹĲ":13347,"ĠíķłìķĦë²Ħì§ĢëĬĶ":13348,"ìĤ¬ëĵ¤":13349,"ĠíĹĪë¬´":13350,"¿ëĤł":13351,"Ġand":13352,"ĠìĽĢì§ģìŀĦìĿĦ":13353,"Ġëĭ¤ëħĢìĺ¤":13354,"ĠìºĦ":13355,"Ġë¶Ħëªħíķľ":13356,"ìļ´ëį°ìĿ´ìħĺ":13357,"ëĵĢ":13358,"ìĹĲìĦ¼ìĬ¤":13359,"ĠìķĦë¥´ë":13360,"Ġë°Ķì§Ģ":13361,"ĠíĺķìĭĿ":13362,"Ġì°¾ìķĦìĻĶëĭ¤":13363,"ìª¼ë":13364,"ìĪĺëĿ¼":13365,"Ġë¶Īíİ¸íķľ":13366,"Ġëĭ¤ëĭĮ":13367,"Ġì§Ħìŀħ":13368,"Ġë¶ĢëıĻ":13369,"Ġê³³ëıĦ":13370,"íķ¨ìľ¼ë¡ľ":13371,"Ġì¿łíĤ¤":13372,"ìĺ¥ìĿĺ":13373,"íķ´ë²Ħë":13374,"Ġìķ¼ìĻ¸":13375,"ĠìļķìĿĦ":13376,"ĠëĳĺëŁ¬ë³´ìķĺëĭ¤":13377,"ĠëĲĺìĹĪìĸ´ìļĶ":13378,"Ġë§īëĤ´":13379,"Ġíķľë°Ķíĥķ":13380,"Ġì¤ĳìĿ¸":13381,"Ġìļ°ë¦¬ëĵ¤ìĿĺ":13382,"ìŀĦìĤ°ë¶Ģ":13383,"ĠíĽĹ":13384,"Ġì§Ģê·¹íŀĪ":13385,"Ġìķ±":13386,"íĹĺë":13387,"Ġëĵ¯íķĺëĭ¤":13388,"ìĨĲìĿ´":13389,"ĠìĤ¬ì§ĦëıĦ":13390,"Ġìļ°ìĬµ":13391,"ìĨĲìĹĲ":13392,"Ġíķ©ê²©":13393,"Ġë²Īë§Į":13394,"Ġë³ĦëıĦ":13395,"ĠìĤ´ìķĺ":13396,"ìĦŃìĿĢ":13397,"Ġê³¨ê³łë£¨":13398,"ê·¸ë§Īíķľ":13399,"Ġê¸°ìĥĿ":13400,"êµĲëĬĶ":13401,"ĠëıĪê¹ĮìĬ¤":13402,"¿Ķ":13403,"Ġëĭ¹íķĺê³ł":13404,"Ġê±´ê°ĢìļĶ":13405,"Ġìŀłëĵł":13406,"¦¬ëįĶëĭĪ":13407,"ìĤ¬íķĺëĬĶ":13408,"Ġë°¥ìĿ´":13409,"Ġìĸ´ëĶĶë¡ł":13410,"Ġëļľê»ĳìĿĦ":13411,">,":13412,"Ġì°¾ìķĦìĻĢ":13413,"ãĥ¡":13414,"ĠíĮįíĮį":13415,"ê¸´ë":13416,"Ġ29":13417,"Ġê³±ê²Į":13418,"Ġì§Ģê°Ģ":13419,"íĳľê°Ģ":13420,"ëĭ¬ëĿ¼":13421,"Ĥĺê³ł":13422,"ĠìŀĺëĿ¼ë":13423,"íĶ¼ì¸ł":13424,"Ġì¢ħë¥ĺë":13425,"Ġìĭ¤ì»·":13426,"Ĥ¨ìĿĦ":13427,"Ġëĭ¨ìĸ´":13428,"ì§ģíķĺê²Į":13429,"Ġe":13430,"ì§Ģê°Ħ":13431,"Ġìĸ¼ìĸ´ë¶Ļ":13432,"¥´ëĦ¤":13433,"ĠìĪĺë¹Ī":13434,"ĠìĿ¼ëĵ¤ìĿ´":13435,"°ĸ":13436,"Ġê°ĦìĿĺ":13437,"ì¿łìķĦ":13438,"ê±°ê°ĻìķĦìļĶ":13439,"ĠíĻķë¥ł":13440,"ìĹ¬ëĿ¼":13441,"íĻĶë¬¸":13442,"Ġìľłëıħ":13443,"éŃ":13444,"ĠìĭłìĦ¸":13445,"Ġëį°ëł¤ëĭ¤":13446,"Ġìĭ¶ëĦ¤ìļĶ":13447,"íĺķìľ¼ë¡ľ":13448,"ê±°ë¦°ëĭ¤":13449,"Ġìŀ¥ìłĲ":13450,"ë¨¹ì§¤":13451,"ìķŀìĹĲ":13452,"ĠìĹĨìĸ´ëıĦ":13453,"ìĥģíĥľ":13454,"ĠìĶ¨ë°ľ":13455,"ìĦ±ìĹĲìĦľ":13456,"ĠêµŃíļĮìĿĺ":13457,"ë¿Įë":13458,"Ġì§¤":13459,"Ġíı¼":13460,"ĠëĤ´ë¦´":13461,"ĠëĦĪìĹĲê²Į":13462,"ĠìĦłìĥĿìĿ´":13463,"Ġíı¬ìĬ¤íĮħìĿĢ":13464,"Ġìłķì²´ë¥¼":13465,"¦¬íĬ¸":13466,"ĠìĦłìĸ¸":13467,"Ġê±´ìĦ¤":13468,"ìĽĶìĿ´":13469,"ðŁ¤Ķ":13470,"Ġê³µëŀµ":13471,"ì§ĲìĿĦ":13472,"ìĺĪìĪł":13473,"ĠìĶ©ìĶ©":13474,"´Ĳìķ¼ì§Ģ":13475,"ĠíĪ¬ëªħíķľ":13476,"æī":13477,"ĠëĤĺëīĺ":13478,"ĠíĿĶëĵ¤ë©°":13479,"Ġê³Ħê¸ī":13480,"ë¶ĢëĬĶ":13481,"Ġv":13482,"íĺĦìĭ¤":13483,"Ġì°¼ëĭ¤":13484,"Ġì³¤":13485,"íĻĺë":13486,"Ġê³µê¸ī":13487,"Ġë¹Ħëĭ¨":13488,"êµ°ìĹĲ":13489,"ĠìĭľìŀĳëĲĺ":13490,"ĠìĿ´ì§Ģ":13491,"ĠíŀĺìĿĢ":13492,"¦¬ìķĦìĿĺ":13493,"Ġì¼Ħ":13494,"ìĪľíŀĪ":13495,"Ġê±°ì§ĵë§ĲìĿĦ":13496,"Ġëĵ¤ìĸ´ìĻĢìĦľ":13497,"Ġì±ħìŀĦìĿĦ":13498,"Ġì¹´íĨ¡":13499,"ĠìłķìĪĺ":13500,"ê±°ì£ł":13501,"Ġê²Ģìļ°ë":13502,"Ġë°Ģíģ¬":13503,"°ĶëĿ¼":13504,"íĺ¹íķľ":13505,"Ġë§ĲìŀħëĭĪê¹Į":13506,"ìĸ´ëĥĪëĭ¤":13507,"ĠìĹĦë§ĪëıĦ":13508,"Ġì£¼ìĿ¸ê³µìĿ´":13509,"AD":13510,"ĠìŀĲë£Į":13511,"Ġíı¬ìĿ¸íĬ¸":13512,"ĠìķĦê¹Įë":13513,"Ġì¢ĭìķĦíķĺê³ł":13514,"ĠìĿ´ìĸ´ì¡Įëĭ¤":13515,"éģĵ":13516,"ì¤ĳêµŃ":13517,"íĶ¼ìķĦ":13518,"Ġì§ģìłĦ":13519,"ĠìĦŃìĦŃ":13520,"ë³´ìĬµ":13521,"Ġì°įìĿĦ":13522,"Ġëĸ¨ìĸ´ì§Ī":13523,"Ġì§Ģê¸Īë¶ĢíĦ°":13524,"ħ¹":13525,"Ġê·¸ìª½":13526,"ê¹ĢìĿ´":13527,"Ġê²°íķ©":13528,"ĠìĪľìĪĺíķľ":13529,"ê¶ģìĿĦ":13530,"ĠìĿ´íĬ":13531,"ì¶©ìłĦ":13532,"ĠìĿ´ìĭľ":13533,"ĠìŀĳíĴĪìĿ´":13534,"ĠìĤ´ìķĺëĭ¤":13535,"Ġëĭ¬ìķĦëĤĺ":13536,"ìĦ¸ìł¤ìĺĪ":13537,"ï½":13538,"ìľ¡ìķĦê·¸ëŀ¨":13539,"êµĲë¡ľ":13540,"Ġìĥģíĥľë¥¼":13541,"ìĨĮë¦¬ìĹĲ":13542,"Ġíĺķíĥľë¡ľ":13543,"Ġë¶Īë¦¬":13544,"ìľ¤ìĿĢ":13545,"og":13546,"Ġìĭ¤ëł¥ìĿĦ":13547,"ê³¡ìĿĦ":13548,"ĠëĤĺë¬´ë¥¼":13549,"Ġìľ¨":13550,"Ġì¡°ê°ľ":13551,"ĠëĳĲê°Ģì§Ģ":13552,"íĳľë¡ľ":13553,"Ġëĵ¤ìľ¼ë©´":13554,"ĠëŃĶëį°":13555,"Ġê·¸ë¦¼ìŀĲê°Ģ":13556,"Ġìĸ´ëłµê²Į":13557,"¹ĦìķĦ":13558,"ë§Įíģ¼ìĿĢ":13559,"Ġëĵ¤ìĸ´ìĺ¬":13560,"íļĮìĤ¬":13561,"ì§Ħìłķ":13562,"íĮĮìĿ´íĦ°":13563,"ëıĮë":13564,"Ġìĺ¤ëłĮì§Ģ":13565,"ê´Ģê³¼":13566,"ĠíĻĶìĿ´íĮħ":13567,"ì½ĶëĬĶ":13568,"selca":13569,"ĠëıĻìĺģìĥģ":13570,"íİł":13571,"Ġë¹¨ëĿ¼":13572,"ëĥĲê³ł":13573,"Ġìĺ¬ë¦´":13574,"íķĻê³¼":13575,"ìĦ¸ìĿ´":13576,"Ġë§Ľë³¼":13577,"¸Įë¡ľ":13578,"Ġìĺ·ìĿ´":13579,"ëĭ´ìĿĢ":13580,"ĠëļĿëĶ±":13581,"ĠìĪĺíĻĶê¸°ë¥¼":13582,"Ġì¼Ģìĸ´":13583,"!?":13584,"Ġì¾ħ":13585,"¶Ħëĵ¤ìĿĢ":13586,"ĠíĸĩìĤ´ìĿ´":13587,"ìĪĻìĿĺ":13588,"ĠìĿ´ìłĦìĹĲ":13589,"Ġì¡°ì²ľë":13590,"Ġë¬»íĺĢ":13591,"Ġê°ĸì¶ĺ":13592,"ëĬĳ":13593,"ĠìłľíĴĪìĿ´":13594,"ĠëıĻíĻĶ":13595,"ĠíĶĦë¦¬":13596,"Ġìĺ¤ëĿ½":13597,"§Įíķľê³³":13598,"ĠëģĶì°įíķľ":13599,"mm":13600,"ê¾¹":13601,"ĠëĵľëŁ¬ëĤľ":13602,"ag":13603,"ìłķë¦¬":13604,"Ġì§Ħì§ľë¡ľ":13605,"ìĹĪëĭµëĭĪëĭ¤":13606,"ë²Įë":13607,"ìķĦê¹Į":13608,"Ġë¬¼ëŁ¬ìĦľ":13609,"Ġìĭľê°ĦìĿĺ":13610,"Ġìľ¡ì¦Ļ":13611,"ĠíĥģìĽĶ":13612,"Ġê³³ìĿ´ìĹĪëĭ¤":13613,"ĠëĤ´ëł¤ìĺ¨":13614,"ĠìķĪìłĦíķľ":13615,"ìłĢë¶Ħ":13616,"Ġë¹Ħíĸīê¸°":13617,"Ġê°ľìĿ¸ìĿĺ":13618,"ìĹĦë§Īë":13619,"ìľĦìĻĢ":13620,"ĠìĿ¼ìĿ¼ìĿ´":13621,"ĠíĽĦë¡ľ":13622,"Ġêµ³ìĸ´":13623,"Ġìī¬ìĹĪëĭ¤":13624,"ĠìŀĳíĴĪìĿĺ":13625,"ĠìĦłìĥĿìĿĢ":13626,"ĠìŀĪìľ¼ëĤĺ":13627,"Ġë§Īìķ½":13628,"Ġíķĺëįĺëį°":13629,"Ġë°ľìŀĲêµŃ":13630,"!!!!!!!":13631,"Ġì¥Ĳìĸ´":13632,"°ĳ":13633,"ON":13634,"ê¸Ķ":13635,"Ġë°ĳë°ĺì°¬":13636,"essert":13637,"Ġë§ĲìķĦìļĶ":13638,"ĠìķĬìĨĮ":13639,"Ġë³ĳìĿ´":13640,"ìĿ¸íĺķ":13641,"íĿĳíĿĳ":13642,"ª¨íĨł":13643,"ìķ¼ë¥¼":13644,"ĠìĮĵìĿ¸":13645,"ĠìķĦëŀĳ":13646,"ĠíĦ°ëĿ¼":13647,"ĠìĥģìŀĲ":13648,"ĠìĦ±ìĿ¸":13649,"ĠìłĢë§Īëĭ¤":13650,"Ġìĭ¬íĶĮ":13651,"ðŁĴĵ":13652,"íĻĺìĿĦ":13653,"ìľ¼ëł¤ë©´":13654,"ĠíĺĦìŀ¬ìĿĺ":13655,"ì¿łë¦¬ë":13656,"ĠìĭłìĿĢ":13657,"Ġì²ľìŀ¬":13658,"ëĭ¬ëĭ¬":13659,"Ġëª»íķĺë©´":13660,"ëĭ¤ëĵ¤":13661,"íĺ¸ìĹĲ":13662,"Ġíİ¸íŀĪ":13663,"°¥ìĥģ":13664,"Ġëª»íĸĪì§Ģë§Į":13665,"ore":13666,"Ġë¯¸ìĹŃ":13667,"¦¼íĶ½":13668,"íĸ¥ìĿĺ":13669,"ðŁĳıðŁı»":13670,"Ġê¸°ìĸµìĹĲ":13671,"Ġê±´ì¡°íķľ":13672,"Ġëª¨ë¥´ê²łìĬµëĭĪëĭ¤":13673,"Ġì¹¨ë¬µìĿ´":13674,"Ġìŀ¡ìķĦëĭ¹":13675,"ĠëŃ£":13676,"Ġë§¥ì£¼ë¥¼":13677,"§ĪìĿĺ":13678,"ĠìĿĺíķ´ìĦľ":13679,"ãħľãħľãħľ":13680,"Ġì´ĪëĿ¼":13681,"ĠíĺľíĥĿ":13682,"¸Ķë§ģ":13683,"íķĺì§ĢìķĬ":13684,"ìķĮìĿ´":13685,"ĠíĦ°ì§Ī":13686,"ĠìľĦìĹĲëĬĶ":13687,"Ĥ´ë¡ľ":13688,"Ġíķĺê¸°ëıĦ":13689,"Ġìª¼ë":13690,"ĠëĳĲêº¼ìļ´":13691,"Ġë§ĮëĤ¬ëĭ¤":13692,"korean":13693,"ĠíĸīëıĻìĿ´":13694,"íĮ¨ëĵľ":13695,"tu":13696,"ìŀ¥ìĨĮ":13697,"Ġì£ł":13698,"Ġë³´ë¦¬":13699,"Ġê¸°ìĸµíķĺê³ł":13700,"³´ëł¤":13701,"ìĦ¼íĬ¸":13702,"Ġìĭ£":13703,"Ġë³´ìĹ¬ì¤Ģëĭ¤":13704,"ê·¸ëłĩì§Ģ":13705,"íĸĪëĭ¤ë©´":13706,"Ġê°Ĳê¸°":13707,"Ġìĸ´ìĿ´ê°Ģ":13708,"Ġìŀ¥ê¸°":13709,"ĠíĭĢìĸ´ë":13710,"IN":13711,"íĮĮìļ°ë":13712,"Ġì¹¼êµŃìĪĺ":13713,"ĠìķĶìĤ´":13714,"ĩ´ë":13715,"ĠìĿ´ëĿ¼ê³ł":13716,
[...]
